[PAD]
[UNK]
[CLS]
[SEP]
[MASK]
!
"
#
$
%
&
'
(
)
*
+
,
-
.
/
0
1
2
3
4
5
6
7
8
9
:
;
<
=
>
?
@
[
\
]
^
_
`
a
b
c
d
e
f
g
h
i
j
k
l
m
n
o
p
q
r
s
t
u
v
w
x
y
z
{
|
~
¡
£
©
«
¬
®
°
±
´
·
»
½
ø
λ
٭
‑
–
—
‘
’
“
”
•
…
€
↑
↓
−
∫
■
□
▪
▲
►
▼
◆
☀
☆
￭
##a
##n
##d
##o
##r
##t
##m
##u
##c
##h
##i
##l
##e
##s
##v
##0
##p
##k
##g
##w
##y
##j
##b
##7
##z
##¬
##x
##5
##4
##q
##6
##3
##8
##2
##f
##9
##1
##´
##±
##°
##ø
##½
##☆
##®
##−
##€
th
##er
##in
the
##on
##at
##or
##es
##nd
##en
##ing
##ed
##ar
##an
to
in
##al
##it
##om
##ion
##ic
and
of
##as
##is
##ou
##le
##et
##re
##ent
##ll
##id
##ro
##el
##st
##ec
##ers
com
on
##am
for
##ve
##ut
that
st
it
##ig
##ill
##ad
##ation
wh
re
##ac
##ow
##ay
##ly
##ur
##ot
pro
##ab
con
is
##ew
be
##ith
##ver
##ir
##ter
as
ch
with
we
##ch
##ri
an
##able
##ork
sa
sh
##ld
##im
##ct
##ast
##ess
##un
said
at
de
##us
##th
##ul
su
##ag
##and
ex
##ment
sp
##os
##ate
net
##ts
##ies
##ol
or
##ear
cable
ser
##ce
ad
##ive
##il
will
fr
pr
new
##pp
##work
al
network
##igh
##est
##ust
##oc
##ere
comp
##iv
se
##ice
has
##eo
##ich
##cc
its
ha
was
dis
he
are
##art
##ak
pl
mo
##gr
##ore
##ity
20
##ations
from
tv
cont
##ann
inc
##ud
##um
##all
te
ab
##ia
by
##per
comm
en
mar
##ain
have
##oo
##if
##ould
##cast
##out
bro
##annel
serv
##illion
##em
##ort
##ect
not
year
tr
##our
le
##age
##ire
co
##ime
##ial
##so
##ant
##ue
##se
##ard
##rou
but
am
broad
more
progr
##bs
all
off
##ision
program
inter
up
this
##ome
vi
##ff
which
##ight
show
##ip
##du
##ition
pres
##ket
##rib
un
ne
##pt
also
med
million
##ans
vid
##ine
compan
they
##ors
##ge
##gh
about
##ult
##ack
do
video
acc
##ie
their
out
channel
##for
##ident
##oun
tele
##ke
go
##ber
##ure
part
market
##op
us
media
##ated
##iz
his
view
res
##ry
##od
##00
oper
cons
##ap
app
cl
produ
##ner
int
president
##ong
##act
##vid
content
programm
##form
time
##ications
br
fo
ar
##orts
ag
##ord
ind
##ally
##ey
##qu
##ile
you
commun
##lud
##ven
li
la
one
series
our
can
per
##vision
over
would
so
add
##ence
man
##mp
##her
rec
fe
##og
includ
rep
mon
bas
service
exp
qu
##very
##ther
networks
who
been
##ose
##ree
##end
##ake
##ices
##yst
comcast
sc
##ame
##ach
##irect
than
##ite
##hn
direct
me
tw
##ating
programming
company
##ions
##ub
##ustom
custom
##ist
ro
mult
jo
##wn
##ely
##ick
subs
news
what
200
pre
provid
##one
##ital
bus
##ign
communications
work
##iness
##are
##ook
she
fir
other
str
there
sports
##ary
had
bu
business
##ace
some
dev
##lo
ht
no
last
##ous
subsc
##ecut
##ek
broadcast
##ple
fcc
dig
##ond
high
##man
##day
##ream
##air
dec
get
##ory
tec
intern
##ost
execut
act
##co
##ide
##ational
operat
##ail
201
##bc
##tain
##arter
##ced
television
af
first
##band
##ix
##av
##ribut
##ays
ac
##ason
dist
when
digital
ver
top
were
deal
##ance
bec
##iss
consum
into
grou
##ings
product
viewers
bet
imp
##ink
##sp
##reat
sen
##ind
dem
##vent
##own
subscrib
war
gen
000
bo
most
indust
pri
broadband
##atch
ass
##ystem
if
##unch
##row
##ood
how
week
##udi
##hip
big
now
##ib
reg
like
##rough
customers
##ish
services
own
stream
group
##int
two
sec
##eric
##ward
years
##ase
##tis
industry
americ
##ens
techn
##lic
##ass
ph
##ep
ww
system
##pport
set
##fer
bl
distribut
mov
##ock
them
##ang
##inal
##ound
car
could
just
vice
##ording
month
while
##ates
##olog
launch
##mer
through
##ount
10
including
after
according
enter
##ichannel
wor
##atform
her
multichannel
look
adver
executive
advertis
internet
well
##enc
##ra
##ues
hel
those
offer
19
##arg
##tp
fi
ret
##ney
##ission
##ivers
fox
##line
http
##uring
www
play
##ough
##urn
##fl
##ade
ann
##itt
##eople
platform
warner
contin
inv
people
und
##old
any
every
where
technolog
based
##bo
esp
sal
star
##eral
##use
grow
ma
##ior
call
##ild
pay
operators
##lect
season
sm
##xt
such
##ss
compet
##aking
nbc
may
live
##ily
think
national
devel
down
##tic
##ives
develop
##urr
kn
ceo
del
##ments
watch
anal
##hing
##ical
##ual
companies
##ouse
entertain
back
##ities
rel
under
shows
cr
state
##ublic
marketing
##amp
##ateg
##ting
##vi
ear
event
##ents
##ell
##ently
##oth
##cer
fu
subscribers
ca
need
channels
access
fil
day
want
cor
help
disco
make
way
##oci
york
sign
world
billion
entertainment
spec
po
##com
##ark
going
see
eff
##ality
lead
##anc
##els
##ata
chair
hd
air
##tv
ve
senior
##ier
streaming
audi
incre
orig
prom
home
spe
disney
only
##ning
loc
end
##ise
##ons
discovery
##we
av
house
data
##ict
##ility
sch
mc
att
next
col
don
rem
curr
ter
##ause
espn
des
long
fl
adv
##ics
three
trans
prem
pos
technology
##ms
lif
because
reven
##ton
quarter
cre
sales
original
12
##ights
offic
tal
even
dep
four
##ty
da
report
feat
cent
##br
associ
both
fam
aff
gr
demand
advertising
##uch
##ph
team
sin
gu
sl
iss
online
##earch
dif
##ected
resp
artic
eng
best
public
second
##ft
lat
##cl
##ross
##ular
during
##ures
##less
brand
take
##ady
op
##verage
article
##ief
conn
commission
dr
start
did
##up
##ative
exper
cap
deli
many
##ames
directv
##ange
par
very
##ited
##ption
invest
revenue
hbo
##ether
##ank
cour
still
30
mob
local
val
support
202
win
vp
##ined
11
found
strateg
chairman
##fore
consumers
my
added
##ug
these
wire
##enn
##mm
great
num
##les
##ower
##ger
mem
##ible
beg
rating
avail
lo
systems
before
##ners
award
##llow
ep
##az
##izon
addition
deb
bel
corp
distribution
##ball
##ocus
ke
sur
##loy
##reen
charter
##its
##vers
##ved
##ific
again
much
should
chief
mod
fin
##ron
##te
manag
##pl
plus
inst
##ress
director
ext
##ee
##ful
head
##atell
game
15
say
announ
##io
focus
##ving
satell
##jor
pol
association
consumer
verizon
cox
made
major
pers
run
##als
satellite
mobile
lot
##led
##ather
stand
netfl
##ash
##ying
ed
same
cost
##other
18
wom
growth
def
partners
good
id
los
follow
cbs
audience
##ian
available
comed
sim
share
being
analyst
free
##bers
promot
really
##round
requ
char
count
premi
box
does
bill
##ional
each
leg
##res
know
##ween
##une
##att
min
##isod
dish
among
law
build
wr
prim
##uc
##ml
american
##uct
research
est
since
differ
episod
##hold
deliver
use
doc
then
your
##etime
aut
providers
netflix
cablevision
too
family
html
hour
opport
reach
##ied
between
experi
##ential
wireless
opportun
rul
##ath
##ird
pa
jan
continue
##ious
include
america
across
fed
hist
speed
vers
stations
succ
john
##way
inform
sever
##son
##ets
success
around
cle
##ama
web
another
##ized
ap
##ages
##ble
acqu
##ris
##con
former
mus
real
##ili
general
##gle
comedy
##ready
foot
##lob
interest
already
talk
##ased
##ves
13
women
gener
25
allow
creat
##ys
tim
court
better
##ency
trad
##ale
games
night
##ef
third
open
glob
targ
though
univers
special
point
development
put
##time
federal
carri
hall
form
appro
##acom
line
telecom
markets
##ling
##agement
several
customer
init
soc
elect
##ject
statement
ca6
past
lin
scri
provide
dri
key
som
import
emp
##view
##ects
agree
platforms
##ric
##ively
##amed
host
ins
operator
##par
sub
hear
##gest
##ids
ll
14
goo
im
pur
prop
march
regul
##ah
##ually
##olut
ent
movie
el
##lly
##akes
target
ratings
small
camp
google
partic
studi
person
information
right
interact
##acy
belie
mer
oct
come
##ize
tot
##eld
##iels
plan
number
working
##ead
##no
shar
expand
mich
##sn
mcn
fut
against
chang
strong
hop
##eng
pack
different
##pted
##ivision
june
commer
looking
history
bre
rights
pop
##der
movies
competit
making
##ued
let
##ony
abc
five
red
##lish
broadcasters
##omes
current
disc
care
larg
rules
prot
##gress
officer
##sc
##ences
power
tri
##uly
operations
strategy
ob
called
prof
total
17
cal
neg
experience
ev
sell
##ference
manager
begin
future
sw
##oice
har
nor
##ument
##hington
giv
comple
connect
washington
wal
##eter
##ired
decision
today
story
priv
pe
hold
perform
ask
##osed
rele
record
move
music
rece
base
equ
niels
##pr
stock
competition
post
production
keep
##sel
##pe
cn
##cess
clear
##vel
pass
ste
important
hand
happ
lik
debut
##pped
leag
50
tur
met
ra
plans
subscriber
near
hard
nielsen
city
##gan
##ett
##itch
##omin
##vern
##ials
contro
months
16
opt
sk
six
##min
amc
beh
got
##ract
devices
##uary
events
somet
##ically
life
whether
coverage
deals
announced
return
global
management
things
##ately
##mun
fact
##yn
find
stor
em
##ants
black
er
far
place
currently
mid
##ril
##itions
here
##mark
price
expected
film
named
##stand
chall
govern
few
##ces
##oti
april
##wh
nick
david
value
press
##aign
telecommun
##ees
ever
##ults
issues
campaign
telecommunications
usa
bring
24
remain
affili
kids
less
vod
able
users
##ps
auth
fund
vir
launched
##ware
pot
members
negoti
##iting
ang
##ural
ben
##ike
aug
interactive
tit
process
199
turn
social
##aph
early
var
##ks
##ember
via
##ership
change
sept
standard
financ
comes
repres
##alf
sit
##ote
mtv
##vious
league
present
cer
offering
main
old
colle
face
##ley
fans
getting
full
sour
reality
broadcasting
amaz
drama
spect
dv
increase
homes
##ways
mart
conf
executives
##land
##rum
##ugh
hul
told
committ
crit
along
##aff
site
##ration
##iod
tre
##rew
##ially
sou
step
prior
final
class
multip
tradition
##rans
appear
relations
awards
##uck
##anced
mean
turner
100
ago
##pan
##ider
sund
spot
doing
period
hulu
youn
##iday
concer
products
##urs
tel
2009
conference
showtime
##ral
buy
comb
country
land
##angu
cut
retrans
premiere
international
potential
ce
port
inno
using
quest
2008
recently
roll
defin
mot
##ool
##ins
household
angel
mor
spectrum
40
mat
always
##uss
span
become
increas
something
innov
ip
july
says
producer
sing
##thers
financial
2007
ho
##egr
meet
##ont
arg
side
wa
##tt
without
order
bar
inf
ca64
government
pict
him
poss
pan
##ines
adding
must
times
##que
##til
##ending
##ael
integr
provider
board
center
opportunity
screen
deploy
hallmark
fall
corpor
document
sum
##ably
supp
won
ty
tog
forward
##pping
21
##ization
dou
distributors
gain
##red
##riend
##aster
coun
half
lar
phone
calif
##ump
together
sat
super
traditional
pat
green
liber
terms
issue
econ
mark
acquis
econom
test
mag
langu
employ
congress
sched
##ring
cash
##orn
hispan
viewing
days
organ
pus
##yle
produced
might
tech
didn
divers
sy
apple
owned
cnn
##ax
click
##aim
##ned
love
create
##ability
##ivo
episodes
##iam
partner
later
carriage
michael
likely
23
includes
##ino
22
##thing
exam
##graph
growing
##und
give
used
initi
linear
28
lim
2010
advertisers
lic
why
##ina
given
language
viacom
##clus
##aged
##pps
nearly
##elf
medi
recent
##ted
##ety
rober
hit
stud
rest
trying
##mission
money
creative
believe
summer
liberty
done
fun
low
least
football
angeles
fac
basic
ide
##rown
friend
amazon
block
design
case
litt
starz
commerc
ads
operating
tivo
##ored
studios
certain
read
secur
##atic
short
role
##oud
fourth
##ott
taking
##ok
band
nfl
##lain
cred
school
overs
27
non
##lier
partnership
hours
enc
##ective
little
mom
##ba
coming
agreement
wro
##ient
##side
wrote
came
##anch
quality
martin
purch
##ern
division
others
rank
programmers
expect
previous
yet
produc
universal
reason
popular
##alth
##ged
##ruct
gold
##itor
largest
tn
##ised
action
position
primetime
control
sunday
project
##ube
dro
led
nation
##med
estim
26
ott
##ule
station
##ention
episode
jon
community
subscri
analysts
term
fight
overall
exc
engine
list
features
feature
building
protect
virt
average
premium
solut
having
monday
joined
thurs
alt
thursday
agency
never
meas
##dd
front
career
once
behind
fx
yout
states
within
hispanic
ms
##me
exist
impact
additional
doesn
##au
##nes
job
rad
##rist
##ering
appl
nct
##ler
decl
tom
until
address
bri
jour
rich
advanced
friday
earlier
ren
white
impro
specific
central
represent
wed
offers
lifetime
youtube
ref
seem
max
took
##go
rob
respons
##ode
invol
competitive
##epend
##book
##avor
benef
##ave
personal
asked
hon
programs
clos
##duc
exclus
ability
fees
##lant
annual
polic
performance
categ
worked
31
ris
##ik
noted
##aging
##isco
consider
independ
##vp
dead
biggest
compar
officials
jud
##ists
bid
##ute
sug
large
soft
##ging
reported
late
##sh
##icated
99
san
##ody
multiple
lear
men
child
champ
example
signific
committee
tnt
je
regional
eas
pu
voice
thing
claim
college
##ren
costs
##tern
lineup
dvr
anim
##vin
efforts
plann
higher
polit
##ever
##atory
stars
spanish
##by
created
significant
mso
sn
##ars
2006
scripps
discuss
space
intro
smart
sect
##ator
##standing
##ining
cond
franch
area
feb
capital
tues
focused
level
tuesday
##be
atlant
60
spons
particip
relationship
dan
date
results
model
particular
ul
##ness
##cent
##ivid
young
##ats
det
##ense
january
##where
needs
vent
##ify
result
page
##ocr
carry
package
break
comment
loss
approach
ult
fios
opportunities
##reed
bund
##ique
##ism
propos
possible
##ests
democr
push
29
happen
talent
##ru
emm
hum
sam
ant
source
subscription
proper
track
gl
targeted
affiliate
cele
proble
sure
age
param
author
retransmission
cult
ado
fiber
challeng
den
ele
ways
tell
nov
##ators
emer
##lymp
appe
##load
beginning
35
##vey
christ
##wood
rate
nat
quick
definition
radio
transition
software
##ived
twc
watching
depart
educ
favor
areas
paramount
##ceed
electron
facebook
seen
dra
bey
moff
vis
telecast
investment
shares
close
altice
##ination
olymp
##ury
imm
##ilar
2011
south
commercial
##ured
telco
ge
kind
beyond
bow
##nesday
celebr
fast
match
alm
##ensive
wednesday
nomin
##atives
##action
##ivity
##place
following
##do
scripted
documentary
cast
eight
##ecess
##key
mess
##iant
##iving
leadership
device
effort
45
##wide
##isl
acquisition
unit
saying
legisl
stre
##ries
reports
require
panel
employees
feel
php
producers
virtual
hor
##fi
##ides
continued
title
makes
##reg
##ament
served
wanted
suggest
aver
rok
north
mass
##nal
##head
held
independent
ess
hill
##iron
republic
ros
##omm
households
##net
baseball
##ds
##ten
##inc
##eler
neut
phil
away
##ibility
2021
49
cover
##ape
2020
policy
##ither
stories
cop
existing
audiences
connected
member
introdu
schedul
ple
##ients
pric
guide
single
ncta
journal
tbs
##gen
watched
almost
pred
seven
began
roku
##uing
increasing
review
2012
3d
lost
##ech
weather
health
businesses
rather
seek
helped
food
2005
user
weeks
players
boxes
moffett
search
env
technologies
##ances
premier
legal
firm
##avo
flow
##ste
198
mal
sol
##iter
ens
unique
account
consent
featuring
corporate
##rast
admin
means
mediacom
credit
select
changes
left
afric
bur
mix
theat
attract
jeff
shif
isn
##aker
nba
##ogn
similar
environ
cra
mad
##ction
enough
office
scen
crown
name
##oint
recogn
34
pub
##ified
fur
mic
interview
continues
##phone
mill
ident
bad
nbcu
collect
private
cart
hu
serve
separ
groups
cam
##lex
successful
innovation
cou
##light
cho
outside
started
##ober
party
hot
ur
complain
nickel
exclusive
administ
signals
drive
##itter
##unt
however
october
nickelode
log
##jo
convers
merger
sho
films
increased
36
##icult
nickelodeon
batt
fair
##uit
##akers
true
purchase
actually
satur
security
version
compared
cas
eu
various
table
effect
studio
rates
staff
marketplace
soon
room
everywhere
necess
##ows
providing
##ga
doll
question
sites
##graphic
political
whose
nove
demo
throughout
generation
roberts
##mber
choice
##berg
sincl
paul
optim
seg
provides
measure
fig
pick
wants
##tc
##ex
##ert
toward
rev
##ablish
bros
everyone
desp
respond
##ledge
##stein
sinclair
cir
miss
##stream
##ards
resour
strategic
emmy
bank
geo
hol
mand
##abs
##though
assets
smith
diversity
november
##ison
##umb
teams
round
stri
##ifi
lower
##na
##ille
although
##izing
##ended
announce
establish
environment
summ
sci
field
limited
##cept
repl
numbers
august
previously
##iec
##str
##irl
foundation
regulatory
bit
thom
univision
bright
aren
related
install
privacy
street
mike
west
##bps
##ki
##body
##erg
##aries
##utes
stat
despite
coll
bravo
retail
domin
saturday
analog
needed
leading
winning
sony
##amic
chris
download
70
light
##rality
##sis
##olf
##ength
ahead
ey
##ane
##ago
euro
##aw
offerings
licens
further
chic
known
neutrality
ow
sil
included
nbcun
commerce
fre
vol
agreed
founder
pull
##off
pract
##ips
unl
university
core
##ci
##jects
##ola
##oost
llc
negotiations
children
micro
yes
spok
sold
brands
hope
individ
productions
supported
entire
applications
##ival
##aps
senate
starting
##selves
nbcunivers
##bit
##ising
##igation
feed
editor
franchise
##ici
prob
try
everything
copy
either
giant
went
expl
diff
respect
running
category
##ca
survey
ultim
tak
##ront
nbcuniversal
cisco
##ints
##let
##emic
whole
solutions
brian
atlanta
##itive
multi
critical
due
contribut
enab
creating
versus
##print
infrast
park
vote
##arily
upgr
##uction
switch
idea
fan
gar
rose
takes
word
concern
infrastruct
bal
commit
viewer
art
walk
pictures
resources
80
rock
##ises
##bruary
investors
holly
venture
book
veter
##enge
saw
clients
february
docsis
pac
rise
##cos
apps
prepar
actor
september
moment
chicago
mcc
sense
matt
wind
comput
challenge
renew
quickly
gam
las
stay
##ilt
contract
tex
expects
instead
release
ach
##ones
delivered
trend
circ
aim
deter
gig
##link
tool
##ico
##lement
##idth
##iring
##duct
verse
individual
pet
goal
##olution
letter
encour
##nings
joint
msos
mur
##ided
whe
trav
outstanding
achie
500
##back
##ilities
gets
follows
image
motor
african
jack
proposed
steve
bandw
girl
united
cross
jim
rule
tenn
enh
study
bbc
vo
picture
double
spokes
bandwidth
msn
wat
wall
basket
delivery
footprint
electronics
nab
insp
twitter
##airs
cy
opp
##ades
##ession
arch
scale
developed
##phia
morning
75
coo
ech
vot
##elphia
##ung
tops
regular
department
geor
infrastructure
##ties
##iance
disp
communities
december
longer
reached
probably
tvs
trade
offered
latest
prime
received
pand
vide
goes
highest
administration
##iver
##sl
tour
##ecially
americans
especially
involved
##cel
responsible
wide
##ror
##oming
bob
##coming
daily
bure
cord
mvp
common
basis
##ica
const
saf
viol
road
parent
publish
fail
##ford
improve
sector
proposal
europe
basketball
##ully
sharehold
images
##media
planning
conduct
moving
90
##ne
##ires
calls
signal
friends
certainly
often
cloud
ownership
advant
thought
hearing
ready
spr
works
huge
##eries
##aces
##ication
millions
course
organization
##ster
##ots
spent
paid
texas
drew
squ
##ny
##gas
itself
##ought
californ
champions
appeal
hollywood
tier
##hen
heav
typ
initiative
microso
threat
##itz
followed
walt
receive
microsoft
mil
asp
##oles
capac
delivering
speeds
vari
averaged
pandemic
32
55
pen
##ville
usage
region
particularly
camer
cur
james
##ham
stake
sudd
equip
scheduled
vend
pret
##arters
programmer
ground
desc
allows
designed
culture
pricing
54
spending
essential
bureau
california
##uce
lev
built
sets
spots
ii
##rill
##gin
##front
##erson
charge
sudden
piec
frank
##labs
developing
vegas
extre
##field
equipment
sv
##dle
##ione
spend
princ
note
understand
affairs
valu
meeting
conditions
capacity
##ka
selling
##to
##uff
##right
##mas
##agan
william
enjo
talking
matter
cents
pal
wwe
##play
format
rural
viewership
equity
##acters
characters
giving
boost
##acts
conver
traff
mind
##pre
##onder
remains
declined
princip
kick
trump
anything
human
##sw
webs
cablelabs
##ished
request
smaller
sent
discl
upcoming
fee
cup
range
##fc
chance
filed
majority
boxing
motorola
300
mbps
2014
worth
slow
increases
##xy
adults
2016
became
streams
estimated
msnbc
videos
dom
ment
##ez
##ister
activ
2013
questions
lou
living
##he
remote
laws
maintain
pretty
cri
hous
infl
##rey
conc
minutes
subject
economic
dollars
dol
king
##abor
monthly
worldwide
##ium
2015
believes
combined
svod
##ulation
##oss
grant
##going
dyn
consist
phot
sling
greater
promoted
standards
##wor
invent
##isc
serving
aggress
kevin
competitors
detail
problem
race
##oon
resident
2017
harm
classic
losses
4k
aw
##ret
##rict
##acock
ml
wee
progress
applic
subsid
##scape
initiatives
auction
ten
##aced
2019
blog
player
properties
taken
travel
bost
ta
##acter
projects
amount
themselves
simp
autom
peacock
thomas
veteran
variety
di
##ding
##oring
analys
spl
##encies
sale
surp
character
##while
draw
boston
energ
joining
filing
wheeler
ber
fare
lives
tun
tough
force
altern
leader
changing
packages
magaz
##arrow
##force
joe
middle
license
golf
nine
sop
arm
counsel
traffic
38
bud
gives
##kend
expanded
options
##undo
challenges
analysis
44
cm
lay
##cing
##gers
paying
increasingly
owner
fix
sound
##ented
##box
soccer
reflect
dest
mail
vh
upd
upfront
genre
launching
english
extra
acquired
pointed
sources
organiz
engineering
authority
republican
fear
gave
##oke
##get
tourn
##owell
stra
attem
malone
championship
33
39
thrill
answ
themed
##elling
seeing
latin
wonder
##star
provided
bigger
reporting
passion
##used
active
writ
hosted
synd
##acing
election
introduced
weekend
fem
ham
##erved
stage
sport
outdo
earnings
dram
agreements
obama
meaning
economy
ensure
##hl
demon
starring
##self
battle
rang
rsn
##ma
stop
played
2022
doub
sponsors
fa
##lin
planet
profit
sun
##fect
income
##ounts
libr
century
bowl
energy
##down
##0s
##eness
regard
lines
seems
##app
deep
recomm
197
expanding
##hib
exch
arr
excited
education
advantage
##ming
##hz
joy
meanwhile
pp
##iers
##ories
##eth
telephone
directors
attention
##adelphia
willing
##istic
##ously
decline
technical
justice
speech
promotion
commitment
##ram
##edi
2004
##ension
helping
edge
initial
sky
titles
confir
cutting
corporation
pione
rog
##ada
incred
managing
else
connection
holdings
philadelphia
copyright
option
vs
vision
send
##ife
train
consult
actress
eye
domest
vh1
sar
ongoing
stick
telem
parties
##ostar
persp
profess
represents
rosen
echostar
##ky
style
owners
affiliates
authent
##bl
percent
buying
evol
##rupt
95
hg
mission
##esh
##ald
unf
promote
complete
suddenlink
writers
##val
##bed
lack
oh
sus
vr
##af
##zz
reb
##rought
supporting
robert
partnerships
mlb
application
hgtv
pair
##oe
##room
presentation
summit
telemundo
##hood
##erv
prevent
positive
legacy
jones
message
website
42
##lights
perfect
sett
signed
points
debt
driven
gains
drop
jul
pitch
##sy
##vant
alliance
produce
surv
hopes
released
schedule
christmas
figure
difficult
tournament
marc
repe
fuel
airing
advoc
breaking
golden
olympics
measurement
##away
##ges
##usion
commissioner
necessary
segment
fif
grew
##cle
##pa
##eline
##ston
comments
##ibly
moves
trial
##prise
landscape
estimates
pil
##ove
##onse
leaders
hdtv
advis
clearly
mater
##ters
##ius
brown
keeping
integrated
predict
strike
shareholders
brought
et
##fully
##olid
prices
wasn
nothing
demonstr
cand
link
wild
##ered
##atively
##eck
doz
directly
implement
ranked
concerns
determ
simply
37
div
nas
##sung
charg
antic
contest
interf
scott
response
talks
opening
solution
nav
##icket
##ecast
proceed
deg
adult
continuing
winner
larger
judge
learn
easy
separate
achieve
dark
hun
##lie
##elle
aca
transaction
ppv
fel
flex
wouldn
additions
required
minor
diverse
suggested
shift
williams
organizations
##den
join
decade
decided
eventually
capt
changed
enjoy
hy
soci
##yal
abs
##ordin
twe
color
putting
raised
acquisitions
tax
##west
##bur
leav
calling
attend
##iliar
ultimately
influ
carol
returning
situ
denver
tennis
65
##rop
express
mex
startup
generated
deployment
immedi
describ
exchange
ded
rap
##imin
exce
consolid
grand
younger
problems
legislation
cartoon
george
louis
##aut
##has
##gate
##ery
contr
jobs
strength
playing
bringing
motion
integration
oversee
prepared
43
ban
bay
ct
ill
rst
chap
##thern
looks
headqu
geographic
licensing
outdoor
##20
##ene
##oman
showc
fully
ended
below
concerned
benefit
occ
##erous
anch
someone
2018
impress
transform
ca63
critics
couple
domestic
jump
shot
telev
fell
highly
speaking
johnson
campaigns
richard
east
eric
##lc
##lets
sand
compete
flor
guid
modem
appears
kill
##rical
##osp
index
weekly
advance
lifest
familiar
creator
inventory
magazine
perspective
oxy
ton
wid
##icient
##iff
##itting
histor
archit
card
dream
rated
swe
thous
reve
relationships
samsung
horror
computer
thousand
winter
completed
female
cell
proud
sees
trading
argued
tools
47
eb
##bor
##bar
##orm
##ening
##lled
convent
che
highlights
craig
recommend
society
oxygen
52
lions
rod
##pper
2000
intel
becoming
woman
knowledge
protection
visit
mis
##ases
decisions
##peg
embr
##rick
store
suit
lee
##ification
favorite
ball
##fol
truly
accom
industries
terr
engagement
interested
miller
##owski
piece
aggressive
##iqu
##kin
isps
##anson
2003
getty
risk
seeking
complaint
bern
cat
male
##haps
##gn
##greg
apply
perhaps
afford
regulation
funding
democratic
emerging
announcement
cooper
##inity
##ida
##imes
##ptv
moved
revenues
latino
subst
biden
bought
wer
##come
##kn
##reens
adj
plays
analy
instit
insight
benefits
champion
pleased
penet
fire
ray
##my
##ban
suff
spike
##ocol
teen
text
lege
brid
explain
interesting
turned
animated
town
hasn
notice
trust
##ansion
dog
outlets
seasons
dav
tlc
ufc
##11
##asl
stew
leverage
purs
faster
jess
kent
penn
rain
touch
ath
serious
##ends
##mination
presented
innovative
aust
fub
##da
##ov
ones
fresh
haven
display
agencies
testing
elev
water
miam
mpeg
rut
##set
secret
initially
protocol
obvious
passed
holiday
respectively
levels
extrem
library
miami
ari
die
jun
##rust
##ana
##ites
##leg
rein
emphas
asking
appeared
claims
mvpds
dedicated
48
64
cann
ol
wel
##put
spring
##ilies
trou
speak
sharing
planned
lifestyle
flo
##caster
##bre
##erry
stan
##aby
##ewh
owns
cnbc
walking
jenn
ry
ven
##vc
##ume
serves
presence
laur
genach
##ugg
holding
bundle
split
anticip
tap
##orney
reform
franc
digit
attorney
behav
nominations
cases
established
headquarters
self
##car
distributor
branded
2023
heavy
41
400
catch
gard
mac
##asing
imag
regulations
relevant
suppl
minority
architect
zasl
##75
spoke
sex
##tics
driving
deployed
circuit
girls
professional
zaslav
civ
ftc
hur
pace
##ran
alone
club
moder
complex
collabor
##worcel
joyce
rosenworcel
rapid
ces
jers
peter
ted
xf
##dy
##por
trail
allowed
jersey
bon
##eed
fort
enth
families
guy
finding
democrats
upgrade
dynamic
straight
faith
candid
chapter
gm
nom
wi
wife
##kes
##imate
ord
enable
##ifying
leave
clar
arts
effective
founded
portfol
science
florida
57
dam
fant
gat
icon
##house
##latform
##isa
##ground
uses
expensive
anyone
promotional
carriers
skill
combination
exciting
rising
details
cook
jay
um
##abilities
island
bell
sohn
mostly
distribute
takeaway
heart
targeting
happy
committed
adoption
conversation
square
conclud
dolan
residential
ohio
51
pc
##ias
brings
expansion
decades
transl
dvd
categories
surpris
ecos
##esn
##enty
shut
appoint
positions
ruling
inside
virgin
documentaries
ecosystem
hund
iptv
maybe
returns
portfolio
gatew
ble
ell
fest
ju
kat
luc
mention
rent
trut
cohen
screens
##athan
robust
honor
penetration
85
alex
##apt
##ked
##60
enforce
cod
becomes
2024
models
purp
enthus
nhl
tune
ut
##rig
##orter
##otv
##abits
##ancy
promotions
happens
scenes
sprint
lionsgate
legend
genachowski
53
mhz
namic
path
roc
wil
##pri
incl
incent
broadcaster
outl
monet
##ology
warnermedia
slight
strategies
practices
fifth
degree
fame
##cte
nex
acting
everybody
debuts
participate
theatrical
vendors
answer
davis
5g
dall
gone
piv
wifi
##edia
##ockey
playoff
dave
allowing
subm
powerful
pushing
closer
francisco
scte
##fy
brit
parents
ideas
dropped
valuable
dozen
stewart
61
fit
##uf
todd
##itrust
sav
networking
##iana
writer
obtain
begins
antitrust
matches
contracts
extremely
father
##woman
compon
contact
mary
##ifer
highlight
audio
pressure
type
bundles
appeals
telecasts
thousands
dallas
cu
les
rh
adam
arris
qual
delay
##iction
mcsl
##brand
parts
minute
wrest
raise
finale
multiplatform
property
premieres
dispute
crime
interface
mcslarrow
56
evid
fal
gal
grown
ir
myst
##pts
##bow
andro
##ush
##weight
official
slate
investig
finally
connections
trem
wait
counter
attempt
reveal
ariz
android
01
crow
jr
ok
ticket
stuff
##iled
##bert
meg
prefer
distributed
guys
primary
triple
colleag
msg
closing
tout
suc
incor
meant
retain
extension
stocks
specifically
alternative
xfinity
pivot
lg
##inem
##ores
print
alph
canoe
secure
focusing
experiences
nationwide
olympic
son
vict
yan
anth
supre
acceler
accounts
recl
##ondon
##rah
helps
norm
silver
mexico
anchor
cit
hockey
powell
size
##rics
##erve
##iment
subc
org
brok
knew
remark
managed
posted
satis
engineers
interviews
replace
baker
cards
gri
hom
london
mel
##ona
##osh
above
arbit
wave
expectations
scene
regarding
carolina
accompl
bernstein
dub
nich
forced
units
monitor
actors
assist
launches
##ancing
attack
featured
capabilities
students
learning
##icultural
safe
failed
immediately
convention
yanke
pbs
rc
tack
##ios
##itely
##leans
orleans
compens
uns
door
blue
issued
promoting
reaching
hosts
evolution
complet
reasons
celebrity
demographic
lit
session
##oen
##ero
##ading
exact
allen
showing
##izes
quite
struct
activity
hero
196
reduce
ergen
ventures
spokesman
rogers
fuse
##lines
##pet
##ado
cablec
##itten
relatively
publicly
##athanson
hands
spotlight
addressable
enhance
percentage
citing
obs
vast
##ha
##sequ
bull
requires
entre
marcus
jessica
evidence
lind
wict
##ai
##erman
##ales
disapp
plenty
##ptions
closed
watchers
aired
grad
musical
generally
shared
negotiate
closely
easier
shoot
camera
hundred
fash
greg
mann
tas
wit
wood
##cy
##atically
##iseries
abb
marg
marvel
union
neigh
perry
adds
manuf
starts
competing
attribut
donald
simple
pai
generate
deadline
carte
choose
optimum
status
disclosed
rainbow
ryan
manufact
cab
util
va
##18
##ature
##nda
provision
##ope
canada
manage
thanks
sportsman
couldn
announcing
heard
telcos
considering
enabled
jackson
material
substant
eg
roles
##areness
actual
accept
earned
engage
investigation
modern
primarily
garner
awareness
behavior
fill
hou
ken
##33
##omb
views
client
availability
150
county
##attan
miniseries
specials
elimin
funds
claimed
republicans
gaming
thrilled
felt
fashion
sister
##ta
churn
annivers
##board
england
runs
pulled
petition
##know
nexstar
tremend
supreme
cinem
gather
length
qvc
tony
##cil
##ipped
##enced
##igan
##verly
multicultural
acad
earth
transpar
peer
##prene
discussions
balance
trends
determine
incorpor
entreprene
houston
ga
ring
##han
##27
##ripted
exem
##osure
interests
operation
##ensus
countries
fewer
negotiating
ipad
rutledge
kagan
##ches
##ried
fellow
buc
setting
capit
load
carrier
factor
southern
meetings
oversight
producing
sponsor
logo
switched
enhanced
photo
59
hired
hunt
##yer
##ena
##ened
##eover
tend
arri
talked
profile
records
principal
soph
incredible
ctam
anniversary
72
din
gh
lose
sort
yah
##rative
##lling
fore
2002
mcd
written
connectivity
sometimes
animation
##ommitt
momentum
typically
essentially
subcommitt
aol
cited
lets
##inn
refer
indic
recip
acknow
effici
surround
headed
minim
discri
facing
adopt
journalists
subcommittee
sant
sides
##ze
##eless
aggreg
phones
##itted
commissioners
hardware
amazing
rolling
definitely
reasonable
millenn
destination
ranging
fubotv
rcn
divid
kar
tied
wga
check
##unk
spin
advent
##ude
wars
daugh
capable
appropri
tried
steven
critic
friendly
agenda
telling
requirements
aimed
analytics
elevated
nomine
pending
##fo
##arc
##stead
direction
sens
loyal
debate
largely
handle
supply
restrict
adjust
crowd
yahoo
71
der
gear
lab
rid
x1
##fort
##reci
##astic
##agram
amend
appar
numerous
lob
instagram
council
discussion
bul
burn
liter
mig
ny
##ians
forecast
whate
beat
boy
##conn
remaining
confident
electronic
massive
solid
choices
ultimate
voices
leaving
tonight
diego
succeed
whatever
fsn
jason
lyn
names
ori
pain
tag
##gu
##50
##ansas
##igned
blood
crew
finished
extend
losing
bills
##athy
insights
atlantic
ultra
shopping
words
rsns
cities
du
master
item
##illy
##ews
phoen
thinking
finance
acquire
metrics
mainly
legislators
civil
exactly
phoenix
46
66
cw
eth
##rom
##well
beaut
incumb
unsc
district
creators
significantly
challenging
situation
british
yankees
63
il
mg
pit
pir
##ield
##port
##gl
concept
programmatic
columb
rollout
supports
greenfield
medium
700
josh
rout
##ei
##frey
##erem
intell
buys
origin
engaged
winfrey
simul
section
nomination
practice
consolidation
compensation
unscripted
intellig
mun
que
ron
##stone
##igious
##unction
spino
##icht
noting
remember
##resp
250
limit
purchased
360
segments
festival
bond
hers
q2
syn
wl
##jected
##bro
##ota
shark
compelling
covid
##achel
backed
billions
oprah
peg
debuting
magn
maxim
antenn
educational
oppos
susp
satisf
neighbor
om
wes
##bling
prosp
presidential
indeed
explo
##ishing
##eller
avo
slated
swim
raising
animal
covering
mandate
sponsorship
training
weren
62
diam
fine
pip
##outs
##ette
beverly
adapt
brad
sportsnet
consumption
background
efficient
successfully
importance
evp
argu
emerg
draft
healthy
described
capitol
88
lu
mr
van
##hattan
marketers
desire
flat
affect
graph
approved
responsibility
please
journalism
hotel
fixed
colleagues
hundreds
mgm
spinoff
bott
nights
pod
song
##lan
##van
##wise
##eted
weigh
shap
spre
broader
clips
scored
2001
afterno
transact
opin
valley
globe
fundament
function
easily
urban
consistent
confirmed
floor
umstead
hits
ix
jam
treat
##night
andrew
rebrand
prohib
##abit
##abet
chip
##ctions
temp
##emy
##antly
bresn
quad
multim
creation
charlie
object
waiver
##doch
murdoch
fueled
showcase
obviously
inclusion
bresnan
96
era
gross
svp
##bu
tow
save
##ift
quarterly
##ught
sundance
commercials
hills
frequ
lawsuit
file
##of
##iel
##99
exec
sean
##anne
doct
manhattan
mont
phys
corresp
##brid
keyn
storyt
priority
buyers
learned
elements
averaging
necessarily
safety
housew
jennifer
afternoon
68
fol
gra
rough
xbox
##rated
##eper
##pro
death
plant
##uman
usually
operational
understanding
##ronic
extensive
mergers
complement
older
##ucker
burke
published
vendor
pilot
garden
alphabet
foreign
correspond
kenn
mother
ram
##kins
##gna
##bell
##ingly
##alu
##icon
adm
newly
tegna
conserv
prec
asset
airs
winners
police
harris
debuted
storage
madison
separately
meaningful
67
mir
mach
osc
##aud
##making
##wire
##year
##xim
##12
##ara
##iling
moon
tru
##apers
preview
veh
guest
respective
investments
epix
formed
somewh
factors
happened
activities
passionate
arizona
hip
lisa
pages
q3
ride
tiers
vac
##arant
beach
twice
buzz
##tise
guild
values
knows
turning
brief
journey
condition
pushed
anti
##paper
tremendous
diamond
74
bat
blo
##ench
##itary
convin
haw
##ops
consecut
reporter
ifc
120
associates
expertise
surprise
electric
potentially
counts
recognized
photos
hammer
predicted
nar
ral
onto
brother
appreci
newspaper
edited
competitor
steps
himself
230
moments
nctc
improved
representing
sanford
mvpd
nascar
skills
completely
98
ka
lunch
nt
rand
ramp
##junction
##zak
##aly
##elines
chef
##unes
##iles
marsh
resolution
advertiser
anywhere
cris
drag
investor
wins
greatest
memor
surf
heads
clean
metro
mixed
recognize
identify
conversations
military
budget
sarah
cablecard
disappoint
appropriate
oriented
hus
kim
wow
##burn
##rif
coast
resol
expo
quarters
score
otherwise
actions
driver
syfy
schools
element
nature
excell
wrestling
housewives
ralph
bio
ion
q1
ran
##makers
##ros
forum
stad
chronic
exhib
cool
bruce
struck
phase
looked
reli
longtime
wrong
auto
singer
nominated
complaints
tapped
architecture
enforcement
consecutive
58
86
dang
kid
rely
##mi
##la
##13
##erc
##alition
##reh
comfort
##cher
exceed
alle
##ivals
upon
presents
goals
operated
strugg
regime
gray
instance
formerly
turns
dvrs
predic
enables
encourage
harmon
impressions
87
81
94
hen
kansas
lam
##mond
##hd
##point
thus
##itude
wealth
##iley
enterprise
locations
michelle
obl
mtvn
portal
secured
oversees
ranking
effectively
volunt
feeds
absolut
keynote
78
lake
##inent
##ared
##rect
##uty
##ula
##ulated
newer
##aked
leicht
amy
unve
outlet
directed
impl
streamed
downstream
universe
puts
hearst
natural
priced
renewed
rulemaking
evolving
overseeing
neighborhood
cerem
dere
gary
jac
sle
##si
whom
##tered
##ulate
##ighter
brow
shown
fla
connecting
holds
clearwire
email
represented
syndicated
dramatic
stadium
leichtman
00
q4
##iary
placed
consensus
scr
regions
delivers
difference
soul
happening
theater
granted
cannot
fisc
##16
##orr
##ano
##ework
##the
teach
unless
uncle
perman
workers
buff
topic
subscribe
kept
requests
approxim
entry
controvers
funny
messages
extreme
navig
institute
litigation
daughter
approximately
89
aar
fights
tab
comsc
communic
genres
technological
##phy
##gerton
##rises
sidebar
possibly
securities
ranks
franchises
covered
constit
expressed
gateway
slightly
amendment
ntia
comscore
ba
jose
ov
##ev
commis
coordin
viewed
unders
promise
wireline
writing
docu
hoping
##ucky
ordered
deploying
tyler
patrick
horizon
coup
housing
pioneer
consulting
welcome
iconic
concluded
academy
bloom
cow
dsl
gac
hart
ice
lt
tent
##ipping
##sch
##gets
##isan
stern
##urch
##essed
spir
fred
relief
voting
cameras
athle
rapidly
niche
acknowled
fiscal
bry
fer
fly
gib
ko
lock
##cm
##cbs
##70
ship
compreh
pled
coalition
thank
location
associated
begun
approval
michigan
meth
storm
faced
considered
attractive
unlike
explore
matters
cmt
update
extraordin
attendees
imagine
fantas
intelligence
wlod
vehic
husband
commisso
69
84
gap
ru
vm
vill
##ker
##za
##oses
##iest
compl
marks
notes
operate
prep
howard
##wards
theme
guarant
wright
hearings
regulators
likes
cert
finals
concert
21st
jonathan
participation
collection
conducted
secretary
purpose
component
##arczak
illeg
bottom
folks
comprehensive
600
dick
freed
psy
tie
##roit
bear
truck
copps
##sey
centers
experiment
1999
1990s
waiting
hispanics
##graphy
detroit
respondents
contributions
window
windows
syndication
flexibility
orders
simulcast
western
psych
bes
dar
nice
wake
##mart
##cri
##col
##iate
##vy
##llo
##roll
revers
indicated
signs
leads
##elson
evening
slam
lots
negative
keeps
stephen
infring
larry
viacomcbs
tracking
premiered
heavily
arrange
incredibly
repeated
sweep
dinner
spread
bol
bann
eagan
ft
qam
tail
vital
##fit
##enger
atsc
##ager
trick
laugh
affected
polka
##attle
traded
stronger
meta
alongside
involve
bidding
participating
cultural
ross
eyes
computers
paley
sopran
mentioned
truth
abbott
garnered
73
bor
gord
nca
pact
tca
zone
##ym
##rell
##stain
##ereo
clim
produces
artis
##ogue
pool
dauman
extended
charles
generating
opened
##ikely
snl
daniels
responded
bankrupt
arena
licenses
unlikely
array
arbitration
structure
avoid
opinion
crisis
wlodarczak
ak
bir
dial
gosp
mu
sac
##ray
##lvan
##28
##10
##erts
##isher
conven
shed
shop
##oop
showed
##quir
cancer
basically
decide
assess
sharp
leagues
patent
functions
dropping
sponsored
authentic
embrace
junior
suppliers
virginia
surrounding
originally
oscar
ncaa
artists
gospel
##lvania
aereo
fle
iger
mas
wish
##uced
##lor
input
##imited
sustain
##anda
cancel
recall
demos
##certain
espn2
originals
depth
experts
recorder
blackout
remained
seemed
snow
##ruption
tuned
##sylvania
divide
pennsylvania
austin
wilson
manufactur
dual
dtv
kyle
lop
none
rf
rick
russ
rival
##ship
##14
##olis
##anna
resc
exposure
newsp
topics
streamers
##licated
officially
depending
engaging
estate
powered
evalu
congressional
scheduling
unlimited
publishing
julius
demonstrated
broken
ast
cry
gian
ign
ly
lie
tb
wim
##tz
##more
##ext
##64
##24
##ington
##omer
##etv
pra
##uez
clock
internal
##enson
blu
priorit
controls
virtually
adobe
esser
madness
revol
encouraging
influence
rodrig
reclass
##connect
dur
nite
nancy
sir
##oved
##iro
##pass
##aded
##uses
accur
god
feels
acce
distin
attach
runway
insur
believed
stores
emot
1996
argument
declines
glenn
dollar
figures
spokeswoman
voted
stickiness
achievement
##burg
guidance
recommendations
code
witness
substantial
mcdowell
incumbent
storytelling
henry
newspapers
giants
born
##nathanson
##15
##era
##ution
itunes
deeper
##ulf
##icks
caused
ends
##phones
stands
apart
carried
hosting
population
receiving
controlled
portion
applied
representatives
talented
selected
missing
surpass
exception
intellect
incentive
normal
gradu
multimedia
bloomberg
09
76
cos
iphone
kell
nod
sid
sought
##nell
##run
##ij
##feller
##inform
##ela
comic
shape
##estri
places
20th
brothers
##ountain
##kefeller
youth
beta
warned
retention
mobility
gained
subscriptions
reportedly
challenged
charges
hybrid
rockefeller
literally
bankruptcy
boss
gate
hosp
rd
zucker
inquir
weak
##imer
##thy
##uster
tra
coach
##kets
uncertain
##aves
assum
carl
entering
worst
schw
elected
insert
reduced
sixth
rolled
protections
honore
policies
individuals
pieces
tenure
advocacy
ghost
unclear
##information
aj
bart
hsn
oc
rat
rom
sd
##sen
##va
##bled
##zy
ford
chase
##osing
disrupt
notably
unpre
thinks
cause
remind
guess
heading
requiring
peak
barri
introduce
silicon
anthony
sophom
machine
method
extraordinary
fantasy
08
79
aven
bed
cant
cfo
g4
german
hal
mountain
tay
trib
##oy
##ipp
##east
##person
##iny
##ican
##eland
conced
exerc
context
##ortes
broadcom
customized
crack
discover
performances
protecting
recognition
publ
shareholder
heroes
task
santa
intellectual
lew
map
narrow
nelson
rm
tor
yell
##eon
##wyn
##38
##eration
##itors
##icast
##uted
##ched
##ulus
seach
##iao
upstream
neither
ourselves
register
advice
125
slot
capability
valued
humor
africa
multiyear
opposed
signaled
subsidiary
widely
catal
laura
##iasm
enthusiasm
playoffs
accomplish
emergency
transactions
absolutely
aaron
besides
gordon
hospital
sophomore
seachange
92
kap
##nic
##turn
##itory
##asc
##idence
reel
##oted
##essions
##using
dod
britt
sole
nobody
##cedented
##raid
branding
reaches
personality
gotten
erent
carrying
denied
tablets
upgrades
dramas
doubt
guidelines
cellular
assistant
herself
rdk
unprecedented
800
cc
dad
wolf
##hal
##ato
##ito
ash
##riet
lever
intent
perce
espan
daytime
promo
promises
finish
##cont
drives
##veland
##astern
fighting
improving
theaters
picked
##iciary
renewal
encouraged
jimmy
survive
collaboration
monetize
eggerton
lopez
rodriguez
06
baby
gill
##aur
##ded
##miss
##gia
##74
##2way
theory
##eno
anderson
##rees
stone
##artisan
##ista
newsm
##asonic
phen
entered
payment
write
reduc
barry
panasonic
frontier
robin
seeks
moffettnathanson
scenar
enabling
hurt
monitoring
attacks
roughly
tru2way
permanent
vmvp
sopranos
yellow
bip
hub
hook
hang
lights
mv
row
##isd
##iding
##iller
confer
wein
##aste
indec
india
reput
##encing
religious
profession
skin
moreover
argue
specification
identity
tablet
inspir
construct
european
settled
ebif
enthusi
leslie
manner
correspondent
07
900
lor
makers
nic
##rate
##mes
##xter
conclus
concent
isp
weed
dexter
orange
seat
seattle
##ultane
teleph
broadcasts
ending
avod
centric
simultane
yourself
paper
versions
cleveland
sitcom
involving
honored
diy
confirm
restrictions
podcast
voluntary
ltd
freedom
telephony
jur
md
mile
nash
tact
##mit
##ubs
##30
##29
##ati
##edy
##ita
##lying
chat
chart
##osen
##eop
marque
brain
canad
scient
joins
annually
reporters
invested
comedian
acquiring
regulate
strongly
matth
ca645
nonpro
brien
exclusively
entirely
pacqu
murder
consistently
affordable
cooperative
austral
ellis
dubbed
entrepreneur
graphics
conservative
brows
espanol
phenom
bipartisan
aud
died
rss
tro
##rak
##gor
##oma
##usive
##uls
adelphia
upload
poor
deportes
lawyer
ca65
embed
farm
morgan
participants
glass
attracted
##burgh
stanley
lauren
candidates
surprised
victory
transparency
columbia
ceremony
aware
bew
mitch
rou
rub
##ora
##rix
##unte
##tsburgh
prison
diss
margin
coax
##season
amid
communication
overl
reco
recording
actively
operates
##boy
poll
flag
extent
creates
raw
personalized
proposals
tracks
collective
dominant
volunte
improvement
sprout
types
drawing
cmts
pioneers
unfair
determined
capture
colorado
juenger
margins
unveiled
##orrent
acknowledged
97
dance
es
kan
labor
vin
##men
##ien
##icut
##rel
fram
seam
markey
interim
beth
bold
##ibilities
accessible
filmm
corner
additionally
standing
billing
empower
campbell
discount
connecticut
processing
1998
encod
judiciary
optimistic
mandates
summary
dominated
spokesperson
profitable
consultant
historic
explained
nominee
beauty
oblig
dereg
repeatedly
gon
na
nu
rip
rush
sor
##rating
##win
##80
##inary
ina
##itable
reference
##acher
medical
climate
feet
multicast
firms
##angler
speculation
termination
deputy
associations
edition
##efully
targets
##umental
1994
falls
encore
suggesting
cycle
residents
illust
territory
cooking
incorporated
ethnic
pittsburgh
harmonic
fb
gb
gem
hay
kate
nur
odd
rivals
tub
tcm
##oly
##lah
thri
ink
##alone
##leman
stakes
shock
##tha
##olit
##works
complicated
enorm
maria
notion
lean
reserved
##ender
mega
afraid
bigband
worse
worry
idol
propriet
sells
behalf
1997
1992
presenting
facts
risks
celebrate
shifted
jackie
enjoyed
candidate
pcs
minimum
exploit
luncheon
mvno
bitt
cto
fab
hbc
oreg
ps
##oper
andre
itv
prove
proven
orland
##ilton
##iva
##umn
clint
recru
dealing
boys
latter
courts
standalone
formula
recorded
portray
integrate
screening
emmys
350
georgia
disclose
mentor
repeat
##iques
bridge
pursue
appointed
pivotal
efficiency
piracy
somewhat
reputation
pacquiao
orlando
bally
dir
habits
maker
sessions
##ault
##oom
##lot
##een
##po
##prises
##35
##onents
andy
stated
##iveness
##oph
##apolis
cla
##issa
enterprises
transfer
##plays
realized
footage
formats
treas
cuts
##aimed
honors
adopted
staffers
pulling
##letes
artist
threats
aspects
televise
athletes
megabits
remarks
gathering
items
antenna
quadr
implications
controversial
##cript
kelly
newsmax
barg
cd
cly
cul
cub
eld
eastern
hr
hud
##ob
##rants
##ari
chips
sag
france
contests
contrast
command
marri
servers
traction
agent
assem
##urred
signature
flight
realize
pointing
releases
movement
handful
mainstream
arguing
economics
employee
premiering
installation
books
automatically
updated
contestants
trouble
anticipated
false
rssid
bittorrent
bi
bing
body
dtc
gsn
lm
math
poc
##nie
##war
##22
##17
thron
##road
wholes
sher
shel
shield
##unately
sem
disruption
##annah
##aining
somebody
cars
famous
##ression
ruled
approve
entity
profits
evident
skew
combat
rolls
magic
blocks
fairly
installment
volume
veterans
typical
valuation
susan
trutv
discrimin
satisfaction
shapiro
##build
physical
bewkes
inaug
proprietary
thrones
dut
gle
gci
jerry
kl
mist
muse
mech
pad
racing
tand
tamp
##uel
##iet
##feld
##oney
reed
##owitz
prol
disag
##graf
##pert
amb
showrun
##nerg
worksh
##ensed
##olds
mayer
mayor
##urring
mcm
desk
paris
instr
subsequ
personally
equally
harder
emb
negotiation
conflic
priorities
landgraf
motiv
marked
restruct
facilities
blocking
daniel
3dtv
identified
murphy
inspired
echo
principles
charged
proceeds
leaves
moderator
rentrak
shooting
tempor
convinced
bryan
lewis
reducing
obligations
oregon
mechan
dun
dup
pt
pun
races
##ux
##bt
##any
##eting
reilly
asian
church
chosen
##asters
contacts
##ifies
brook
leap
covers
presch
intention
bron
fold
meets
royal
retire
anytime
relative
transmission
defense
differences
##holders
experienced
hopefully
trip
trials
reception
importantly
metrop
confidence
exclud
declining
personalities
celebrities
freew
mccar
descri
aggressively
fantastic
revealed
unserved
ovation
accepted
marquee
05
91
az
fulf
gad
gay
gol
iron
sket
zero
##ders
##25
##fest
stages
##channel
suite
spangler
teens
interference
preserve
nev
##licensed
extending
northern
authors
argues
limits
oversaw
wedding
bundled
immers
panelists
ensuring
accounting
shifting
conversion
explor
gigabit
curb
mentors
##ossible
budgets
reflects
updates
modems
blend
fundamental
spirit
manufacturers
canadian
wholesale
tampa
dc
ghz
krist
lakers
mol
rac
##ck
##200
ing
##ller
stim
sha
##asts
##mental
spark
algor
plug
reson
brill
overbuild
monop
vertic
payments
##anks
loved
simpl
globes
subjects
recorders
ers
hob
patri
synerg
engineer
measures
reviews
##icians
kicked
doubled
authenticated
unfort
televised
speaks
dividend
prepare
algorith
83
avid
fs
gang
hp
iow
kel
mey
rus
##nel
##uous
##hall
##sewh
##bing
##23
##ini
topped
##aming
shine
shorts
##ateful
##eman
unlicensed
##izz
foster
##icker
phill
transcript
investing
##pled
defined
elsewh
##onym
walter
performing
equal
ca644
tested
restaur
faces
democrat
olympus
announcements
hopeful
editorial
army
wonderful
authentication
adviser
links
proceeding
killer
terrestri
emphasis
utility
lobby
lynch
arguments
doctor
reliable
taylor
conclusion
simultaneously
framework
fulfill
elsewhere
bachel
gre
hack
iac
tips
##page
##aska
##station
sto
##abeth
asia
saving
##agon
heat
moore
unn
intended
bra
lapt
##isted
distance
impossible
crash
earn
correct
specif
##weather
lift
memo
##loyd
180
130
imper
privile
1995
possibility
shortly
politics
bundling
departure
watson
aspect
slowing
hunter
sufficient
griff
linda
discrimination
##rific
navigate
wimax
sirius
nashville
museum
olympusat
bachelor
bound
cp
cinc
eat
fro
gab
ses
ske
samp
sitting
tall
##pson
##iti
##iser
##reach
frag
french
marath
liability
workfl
anna
grateful
demands
difer
connects
caps
freeform
jane
ski
combining
ca646
studies
popularity
##ducing
messaging
solve
thompson
parks
preparing
achieved
votes
rangers
sexual
preferred
exemption
##innati
millennials
rescue
kaplan
phenomen
cincinnati
77
aids
dating
hugh
kay
lig
wy
##rina
##tes
##ience
##ko
##yers
##36
##ese
##stit
##igger
consequ
china
except
spaces
##oca
sevent
notable
unc
##ieg
soap
developers
hdnet
extens
entities
postseason
hoff
ca640
integrating
gaining
legislative
neutral
1984
##iece
aims
constantly
##heel
sending
evolved
situations
jumped
recommendation
outlook
savvy
apparently
lobb
memorial
excellence
ajit
conferences
seamless
freewheel
gi
gun
gbps
lion
mut
pga
tam
ties
##nation
##tim
##alo
##alk
##lla
##iders
##eli
##illon
reyn
##urity
congl
isra
##andez
##osoph
##aine
ambit
upside
unus
accl
clark
cance
scal
roster
workforce
##issions
prize
smo
gram
drug
surge
define
countdown
##ettes
patents
lowe
introducing
emerge
philosoph
environmental
statist
disputes
violence
requested
sounds
sporting
ebay
prospects
montana
kennedy
struggling
tabak
nonprofit
hbcu
showrunner
metropolit
sketch
iowa
reynolds
ax
bag
gut
mos
pg
wra
##rest
##mons
##lest
##vine
throw
forces
stap
##lyn
conjunction
##ulating
##ander
comply
##artz
##ains
##video
induct
indiana
advertise
knock
poised
shouldn
letters
evil
processes
portable
divisions
expecting
goldwyn
##center
rounds
downloadable
minds
alternatives
layer
translation
gateways
citiz
obser
entrepreneurs
underserved
marriage
conglomer
bind
bunch
cree
fasc
hind
joost
kir
kerry
sist
##gs
##gence
##bles
##aring
wend
dean
netf
##ardo
ups
outreach
rovi
##space
carey
maff
smit
##xton
underlying
speakers
colbert
guard
keith
formal
letting
combine
##umped
facility
judges
resulting
northwest
baltim
cybers
improvements
advantages
advocate
demonstrate
louisiana
historical
visitors
katz
components
meantime
transparent
appreciate
comfortable
rupert
instrumental
baltimore
fn
rachel
tut
wb
##rad
##wr
##word
##fast
##90
##organ
##inger
##idays
rey
weight
anton
shore
sued
##gry
lend
leased
ampl
accused
##izabeth
clay
laid
expire
warren
underway
remove
##aze
instant
focuses
##iane
elizabeth
protected
calc
peers
performers
lineups
resulted
towards
contribute
publishers
essentials
subsidies
deeply
sweet
seriously
appointment
incentives
submit
obtained
mystery
replacement
adjusted
guarantee
inquiry
exercise
scientific
enormous
csn
docus
fish
gall
hurr
nd
nathanson
pin
tests
wisc
##pin
inch
##itively
##icip
##etch
stem
alleg
sequ
displays
button
expend
quiet
securing
techniques
distributing
carpet
entertaining
advised
##ennial
calend
stein
controlling
morris
ideal
blockb
nationally
jean
smartphones
dana
approaches
##keye
revolution
levy
maintaining
advisory
transformation
accomplished
treatment
kaitz
resolve
alleged
uncertainty
matthew
clyburn
maffei
82
dbs
dates
esc
fighter
gent
gil
hate
ng
wo
##lon
##equ
##friend
##19
ther
##asion
##outh
##rol
stable
spun
##osition
hend
##ained
offices
outcome
recession
preced
phili
195
everyday
delight
cahall
promised
returned
finds
placement
presentations
steph
appearances
supposed
goldman
kinds
matchup
selection
urge
##exp
banking
##backs
strauss
attempts
freshman
bonus
utilities
nominees
bulk
pipeline
infringe
avenue
publisher
clinton
brilliant
metropolitan
docuseries
bout
bod
cens
ect
hannah
lum
lte
nb
sr
##die
##how
##bie
forb
##utional
nets
encom
##iful
alloc
unable
clubs
monica
internation
consume
betting
regist
##argo
anne
mayweather
prompted
fled
grab
grace
teamed
publicity
openc
headend
raven
affiliated
falling
partnering
credits
discussing
sectors
celebrating
urged
urging
##strong
regularly
kicking
fearnet
advisor
dozens
supplied
savings
eliminate
municip
maximize
narrative
predicting
distinct
schwartz
confirmation
encompass
municipal
dp
hat
nv
river
##uk
##cable
##sky
##wick
##bol
##ingu
##itv
##itate
##stakes
stu
reaction
##acon
compat
hair
disinformation
married
justin
knology
caught
colo
transport
mobitv
defend
legit
timing
empire
interactivity
harry
membership
martial
supplement
magid
partnered
positioned
claiming
feeling
journalist
collins
retailer
circum
gigi
violation
conducting
curios
blogs
automated
magazines
pitching
navigation
accelerate
arguably
frequently
graham
documents
illegal
sweepstakes
dialogue
germany
smooth
expendit
opencable
curiosity
bt
hiring
pas
rum
sween
vet
##gy
##zo
forms
frame
pride
compris
contem
##ortium
unre
doors
##odi
consortium
overturn
root
impose
blank
wells
playstation
developments
##urray
flip
demanding
belief
managers
subur
merch
bread
trio
privately
passing
midnight
ceos
info
representative
##ternal
sny
deny
##erto
exploring
commitments
gigaby
750
surviv
melissa
adventure
loyalty
vehicle
accurate
insertion
vmvpd
tactics
inaugural
mccarthy
marathon
philipp
bird
ced
eri
pel
sad
wn
wired
wider
##mo
##giving
##anim
forth
proced
conv
comprom
tvod
trigger
butt
##bson
offset
output
resid
consoles
##apan
scope
execute
boom
blow
pole
incremental
grants
##aza
lawmakers
##uctions
tries
handed
buyer
portland
doug
snap
christian
rooms
missed
roger
immediate
werner
##breaking
damages
mysteries
adventures
queen
disappointed
joseph
athletic
tbd
australia
embedded
synergies
ambitious
netfix
internationally
04
93
dat
esh
fav
gues
mids
native
naked
pix
tik
vamp
xm
zee
##aunch
##part
##ya
##88
##96
inher
##omp
##ecca
stack
##igible
rejected
##andon
broadly
broadway
medal
consp
reps
seth
101
retired
watches
myself
knowing
differenti
harvey
storylines
posting
factiva
ering
positioning
measuring
sample
favorable
drawn
missou
contributed
miles
valuations
armstrong
occup
touted
ftth
indecency
mcmah
stimulus
unfortunately
wendy
calendar
guests
ai
dim
denn
diane
gome
lad
lies
nut
nathan
oak
ri
rig
vel
vign
wives
##ns
##sg
##wind
##21
ingr
##ecurity
##uto
stats
whit
projected
frst
frust
plain
broke
coff
##sell
##izable
##hertz
prev
##eps
chairwoman
schol
transm
opens
##enness
##azin
keen
thirds
protest
stephan
pattern
##graphics
reading
addresses
refres
responsibilities
proposition
similarly
hotsp
responding
installments
constant
violent
evolve
charging
sandy
rental
utah
legendary
hunters
rebranded
mirror
dangerous
jaco
arrangements
recalled
jurisd
hoffman
observers
cybersecurity
expenditures
gomez
03
eve
hilton
murray
os
tve
upped
##rant
##ho
##eg
##kings
##76
##ater
##oria
##etn
##roy
##eca
##owers
##cht
shake
##through
exists
server
willner
alan
alike
##emble
partly
opera
quant
newsnation
prel
shell
distingu
weekday
##anged
cruc
guides
simington
thoughts
merc
traditionally
cutters
panels
estimate
puerto
tells
immun
collectively
dominance
voip
websites
mentoring
dynam
answers
rebecca
materials
embracing
kentucky
katrina
touting
accelerated
remarkable
##chester
execs
revolt
honorees
fbn
antonio
sweeney
gro
hire
japan
loud
si
sque
von
##de
##tok
##lers
##lined
##gri
##bons
##86
##arian
injunction
##leiff
rend
beating
beef
aside
##cean
adel
hey
##annon
neil
##ounce
clip
manip
newsroom
sportscenter
booth
howe
190
playboy
mapping
backers
underst
prominent
located
schleiff
espn3
depend
gran
myspace
charts
packaging
careers
norman
walmart
stepped
stepping
metric
innovations
franchising
emerged
1980s
ensemble
attracting
crazy
administrative
establishing
installed
downloads
licensed
feedback
parker
groundbreaking
progressive
sunny
mexican
ballroom
fubo
oliver
purposes
delayed
oklah
##haul
cinemax
indicates
crowded
tailored
emotional
dodgers
leveraging
vince
temporary
terrestrial
hughes
seventh
tiktok
oklahoma
dma
diller
fat
fargo
hott
ic
kathy
lady
nesn
ore
pm
pound
sized
wgn
##uins
##li
##fred
##erving
##edith
inj
forever
stunt
ascent
##ims
##essee
degr
excess
##ilm
albre
compression
hasbro
vibr
unanim
goei
brady
expense
bush
##arez
wherever
files
##week
schm
mckin
removed
associate
grid
openness
drink
119
manages
minnes
succession
courtney
globally
entit
elite
campus
meredith
expands
##whel
fundra
negotiated
combines
waivers
student
lowest
sugg
breakthrough
visual
horowitz
northeast
introduction
collecting
coupled
replacing
lasso
stayed
tennessee
milest
dramatically
libraries
flexible
tweets
trailer
recipients
label
antennas
tower
tribune
inspiration
gemstar
workshop
retirement
vertical
mcmahon
albrecht
minnesota
ebit
eager
gas
hast
jer
ntv
pall
sab
tig
##mar
##mel
##hor
##here
##bon
##83
toy
stun
##adow
reject
##acey
chines
chrom
##unate
##mented
fraud
haiti
cold
upt
telef
brett
directing
continu
salary
remake
flash
tale
##phere
##cling
myth
script
lessons
bench
landing
addressing
risen
democracy
visits
450
demographics
revamp
mandated
replaced
renewals
dipped
tuning
regardless
settlement
advocates
trusted
irre
investigate
tackle
thanksgiving
tagline
route
prioritization
skinny
binge
squeez
suggests
chinese
bord
cav
masters
pie
ub
ubs
##minal
##uits
##king
##55
##erun
##arch
##icane
##ami
reap
cham
##olic
ort
serial
newcom
alv
##ested
##anning
##umes
doyle
sox
roy
joel
novel
senator
streamer
carr
118
polar
simmons
nightly
hallow
lincol
insider
findings
integral
superv
addressed
consideration
requirement
craft
battles
picking
pacific
staying
opponents
appealing
convert
convergence
criminal
subsidy
activevideo
##blatt
implemented
emphasized
heavyweight
macro
lucas
submitted
submissions
apparent
moonves
excellent
pledge
insurance
ocap
registered
reelz
professionals
tubi
description
skept
philosophy
hurricane
blockbuster
registration
merchand
philippe
wnba
missouri
scholars
crucial
immunity
ebitda
chromecast
lincoln
dow
jen
ky
nds
tight
tone
vangu
xum
##mos
##uz
##ja
##bum
##atable
##oric
inev
##omo
##isms
##etz
##erse
stance
##acle
beales
chain
shr
##agn
##estamp
tem
abandon
martha
ampt
amounts
##orship
aged
monk
newscast
dece
distant
anymore
##elli
signing
##comm
attended
nextel
termin
founding
awarded
pawn
generations
timeline
timestamp
eligible
hoped
profiles
holders
##itches
funded
dvds
measured
##mein
renamed
pupp
glance
celebration
streets
logmein
explores
upgraded
mccain
wheel
cyber
violated
franklin
fifa
##iminary
venues
translate
highlighted
lgbt
citrix
buckeye
arrived
millennial
criticism
beautiful
columbus
towers
resolved
predicts
gibbons
reverse
russian
exceptional
barriers
conceded
scenario
encoding
bargaining
bronx
phenomenon
consequences
pgi
citizens
compatible
eshoo
preliminary
mercury
adelstein
xumo
amptp
bou
benn
hog
kore
kra
luck
moss
pd
tank
tuck
tina
##nick
##zar
##orge
##orrow
##enberg
##rection
##elo
##stal
##sters
##igner
reh
reim
reorgan
proof
conce
chuck
anonym
shout
##immer
exit
plun
tvn
##perform
brods
outs
##opher
ark
overwhel
scream
decre
executed
##enses
carroll
relaunch
statements
designer
126
128
slower
modest
standpoint
costly
defe
lawyers
docket
##iously
informed
merge
merely
swift
equival
optic
governments
finalized
barack
boards
superior
testim
restore
applaud
tomorrow
independently
discussed
christopher
1988
theatre
shifts
retailers
unlock
frankly
harmful
latinos
rebu
historically
gardner
clarity
damage
attributes
attributed
loaded
karen
maximum
opposition
scratch
vehicles
involvement
disruptive
flagship
tandberg
diferent
infringement
vibrant
halloween
brodsky
dor
glo
jew
rack
##tr
##ua
##log
##85
##fe
##inth
##enhe
##arm
##roe
stuck
iteration
##iracy
##asty
##usal
sup
align
dispar
placing
pluto
##gram
lea
##sole
outd
appet
quo
busy
genius
justify
##boards
salt
signifi
##comes
effects
locast
##onsin
positively
##atherine
useful
realm
elections
agreeing
##parts
redstone
discip
##scope
handling
trek
centered
deployments
encry
honest
detective
authorized
christina
casey
penal
converter
##ervation
julia
julie
survival
implementation
proceedings
pursuing
provisions
magnol
lux
chronicle
bolster
catalyst
glasses
mitchell
volunteer
##lotte
duties
conflict
acclaimed
wisconsin
vignettes
hottest
hastings
vanguard
cathy
gym
hi
mp
nond
nail
pure
ting
tens
uk
##nandez
##dc
##ole
##hol
##game
##79
##edge
##asse
stead
reun
newest
albert
sea
wash
dismiss
heels
##umber
broaden
interpr
resigned
##ordan
monster
sheet
stress
strang
warri
blument
hernandez
knight
undert
worlds
hdr
advances
engines
extract
##iano
builds
hopkins
harms
posts
steal
committees
defining
barbar
facil
credited
listing
listening
involves
breaks
fastest
jeffrey
craw
collected
dominate
rocky
stakeholders
boosted
kicks
slowdown
profitability
hunting
influential
anticipate
divided
arrangement
weeds
hudson
duplic
cancelled
wrapped
legitimate
circumst
suburban
conspiracy
blumenthal
bub
ec
hitting
jill
kit
kard
kath
liz
mign
rg
rerun
sach
sons
waste
yield
##oks
##rac
##lif
##sm
##vest
##ken
##bour
##92
thor
##atino
##alle
##eco
forcing
stood
stint
rebo
reiter
proved
##abama
chi
sull
external
prest
alert
aligned
alabama
commscope
brooks
levin
unle
unif
##ptive
intense
##active
expired
expenses
stressed
##ounded
worried
anyway
##ancial
donnell
currency
terrific
slugg
expert
memory
epic
charlotte
reduction
sellers
walton
midwest
landed
barr
tns
renov
pushback
christine
solom
replay
downloaded
surveyed
switching
failure
detailed
middleweight
thriller
professor
nasda
tweet
taxes
embraced
explaining
rhet
sophist
birth
praised
weinstein
##eopard
ethnicity
brooklyn
unusual
scholarship
equivalent
mignon
nasdaq
berg
dunk
horn
jere
kr
mit
punch
rico
ward
xd
ze
zar
zomb
##aper
##aware
##dom
##ollo
##mann
##list
##wc
##zing
##54
##ani
##itage
##iced
##roc
##state
##utt
##utsch
stall
reif
##aco
##urally
pros
##abil
bee
shanks
##unted
deutsch
##theless
suz
adri
##ivan
disconnect
envision
unt
unb
uniqu
overnight
multisc
acts
warm
heritage
smack
reloc
filings
wayne
promising
latency
##ennan
beloved
mode
headlines
billy
apollo
regulating
eli
performed
relev
steady
raises
titled
supplier
greenblatt
nevertheless
puzz
breakfast
southwest
virtualized
url
complained
understands
taught
automation
berke
attendance
transforming
killing
accompan
gala
galax
bullish
filled
cinema
aggregate
mun2
prospect
jamie
somewhere
vacation
biography
communicate
couples
duration
recover
nurse
thrive
monopoly
fs1
griffin
lobbying
fascin
sisters
delighted
breadth
jurisdiction
alvarez
testimony
barbara
multiscreen
aetn
ew
fitz
gender
pul
rare
ts
tiny
vig
wing
wag
wiz
##rus
##iors
##lu
##len
##gart
##wa
##ye
##34
##stv
saul
shannon
##una
alaska
album
hef
heights
plate
##anny
##oof
##ourage
##ardi
presum
##opia
resort
brennan
indian
perpet
recon
devoted
consumed
imposed
technic
##licit
retro
mcgr
remo
longstanding
123
seconds
supporters
loves
##ashed
edward
entrants
careful
martine
treated
concerts
dougl
employment
##inois
fighters
refused
menu
commentary
proposing
immig
massillon
1980
banks
##offs
contributing
waters
bobby
friendship
principle
maintained
reflected
hdtvs
illinois
##ricks
trailers
clarify
enhancements
cables
forecasts
##theimer
illegally
banner
attached
ratio
restructuring
preschool
immersive
privilege
statistics
creek
vampire
hotspots
kardash
auctions
cum
fnd
kle
mort
mant
mav
nim
pam
rice
vic
##rament
##mod
##hard
##hwar
##kates
##gment
##46
##onald
##itation
##ompet
fores
foray
reward
beer
atop
spear
ala
##ighth
enfor
interconnect
unexp
usf
usual
resume
consc
intends
arth
##herland
quot
scores
noah
relate
helpful
promos
terry
deserve
dress
112
comedies
mini
differently
creativity
140
totally
differentiate
password
olds
confi
periods
purchasing
drops
seemingly
judy
childhood
horse
suggestions
recognizing
walker
circle
determin
aspire
concurr
fears
outdoors
doubling
strengthen
televisa
dreams
cheap
pursuit
troubles
venkates
surprising
rocco
ramping
exceeded
sacrament
robinson
filmmakers
andrea
cuban
disagree
clayton
hendricks
residual
uniform
rhetoric
sophisticated
suzanne
martinez
venkateshwar
sacramento
aid
bids
bazin
ctv
ding
etc
grey
iv
jeopard
labs
rt
sizes
##ae
##aul
##tn
##mont
##care
##eh
##pes
##gie
##erted
##inter
##inations
##itous
##illa
##ador
chad
chern
chances
shaw
##olph
ada
##ila
##ocity
heather
incident
abuse
coinc
viz
neill
median
companion
accol
intend
agents
permit
recons
scar
roots
string
stretch
##cover
##aving
assume
technicians
starred
developer
backing
earning
speaker
##icted
flood
grav
grade
##cles
brandon
connor
114
##uggle
##ronts
sometime
145
packed
breach
175
harass
passage
160
confusion
existence
robb
educate
1987
choosing
holidays
550
disclosure
maintains
dynasty
automatic
centurylink
1970s
emphasize
gmc
attempting
normally
substantially
referring
indicate
marshall
memorable
##monds
scrut
athlete
compliance
climb
sustainable
nods
solely
illustrated
leaning
explorer
hobbs
algorithm
curiositystream
velocity
vonage
##enheimer
sachs
solomon
galaxy
arthur
bazinet
bb
lived
mak
opted
ocean
pere
patt
picket
tip
##rer
##liest
##ele
##fay
##fronts
thro
##eria
##arge
##isely
##etic
##rep
##idge
foref
ital
##illing
##adata
reins
bend
beacon
dele
sue
spy
alter
alison
##akis
teacher
commem
##ortion
##ection
##antic
ample
intermedia
unint
##pton
##ghan
doj
marketer
intimate
arn
permission
expires
scand
scary
workplace
hadn
##vention
industryid
carve
106
cran
airings
##ictional
schem
depends
grass
##ups
115
##balls
surve
chiefs
##pler
headends
goods
##ucus
##amedia
discret
carefully
powerhouse
metadata
nickto
1993
appearance
ipod
gaines
expectation
excite
exclusivity
bidders
capitalize
humans
geico
casting
plepler
optimism
revised
mandatory
oppose
cameron
activist
##author
reveals
cheaper
rodgers
applying
reinerts
ellen
silverman
homeland
eliminated
eliminating
bucks
lynn
incumbents
##broad
functionality
complementary
certification
perception
perceived
ripley
odds
mistake
subsequent
excluding
patriot
restaurant
stopped
encompassing
survivor
stephanie
entitled
milestone
benchmark
magnolia
thorough
reboot
reiterated
sluggish
jeremy
unexpected
chernin
perez
commemor
nicktoons
reinertson
breat
bang
floyd
lon
lined
lucky
node
pill
pause
pwc
sel
tape
tci
upper
vanc
ware
##life
##gling
##fall
thin
##oning
inked
##ouver
##lem
##amation
react
constr
ish
##tery
withd
shots
alien
##usters
abd
##emp
##ectives
leon
cov
unh
##ureen
##qua
perm
customize
##cove
##ixon
americas
10th
relies
relax
wanting
terror
espnu
advancing
supportive
2025
##ugger
persu
minne
feder
strongest
appearing
cea
magna
syrac
mediar
drove
##aux
applies
judgment
smartphone
schedules
20059
fairness
brightcove
takeover
palm
pali
kingdom
females
recommended
settle
describe
contrary
occurred
killed
cheer
dogs
katie
cubs
cablecards
witmer
acceptable
incorporate
adopting
stevens
migration
exploits
hammered
exhibition
honoree
coaxial
padres
unnecess
staple
stephenson
gigabytes
ubiqu
sullivan
relevance
reconsider
forefront
vancouver
minneapolis
syracuse
ace
cath
eco
ett
fishing
hir
hood
lag
liv
lane
mm
mount
mets
mba
rup
roman
sits
tat
tang
##db
##rise
##held
##iances
##say
##sons
##wall
##yles
##bm
##84
##fn
##97
##atv
##ige
##ables
sapan
shir
spur
##ils
prin
pron
seb
##akota
##iah
##emark
offi
neal
##ghami
outperform
##ounced
##berish
resign
intrig
brent
braz
agrees
##quer
lafay
therefore
##onda
##ibal
owning
advertised
fiance
anybody
##erald
##sson
develops
caution
airtime
ende
column
flavor
premises
12th
dawn
dramed
paran
instruct
counties
buildings
generates
trademark
scripts
##ahan
evan
walden
emily
erin
ered
1991
holy
initiated
certainty
listed
declar
comparable
##shot
sne
southeast
1983
accountability
interviewed
casual
effectiveness
resource
##aws
contribution
90s
enjoying
attempted
##mingham
eyeballs
sticking
implementing
consolidated
sandvine
misle
displayed
watermark
bells
inclusive
outlined
adams
filling
referred
derby
bullet
affecting
songs
rebranding
reliability
lamb
gibberish
pledged
tricky
birmingham
scenarios
lori
goltv
israel
understood
outdated
reruns
zarghami
douglas
klein
conscious
rupaul
lafayette
dramedy
bc
cel
dust
eis
eighth
han
hiv
jes
jordan
nc
nip
ptc
rud
tree
vista
##ox
##mers
##matic
##each
##bank
##born
##57
##44
##26
thres
threw
##erting
##inson
##aro
##aret
##icul
##isine
##oul
##ete
##idt
##utions
prov
proxy
##abc
##abody
isol
beij
ches
##anded
adequ
alive
##aksh
mojo
byron
interrupt
unified
##pting
outright
marketed
##000
digits
deck
decides
impeach
senators
cares
https
whereas
lifeline
talents
connell
##mmet
lov
defi
apoc
135
##efe
drivers
insist
discounts
evans
peabody
equation
equipped
filmed
morph
integrity
listen
tracker
departments
suggestion
##network
1985
recognizes
shoes
battlest
sooner
picks
establishment
thomson
bald
winds
aiming
petitions
achieving
crossed
inspiring
voters
aspir
iii
slowly
##world
tapping
layoffs
destruct
anticompet
##ormal
troubled
venue
shutdown
cuisine
countered
colleague
recipient
criticized
surface
exhibit
buffalo
apartment
graduate
ccia
megahertz
pocket
hacks
laptops
specifics
extensions
allegations
censorship
boucher
overwhelming
luxury
nimble
cranston
paranormal
beijing
battlestar
anticompetitive
bun
census
dw
ero
ease
escape
gift
hors
ios
kitch
lomb
leno
npr
peng
rfi
tatt
wik
##awn
##can
##ht
##latino
##eas
##ease
##kind
##yth
##37
innings
##oup
##etown
##amo
stell
##igm
rewards
##acrest
##ura
chose
ana
shelf
netherland
##earing
adap
newhouse
ali
seacrest
hell
height
mog
amanda
ally
interstit
upst
vip
unkn
liqu
twin
twins
betty
assault
blamed
carib
herring
undis
backs
underground
caucus
desper
##mson
teaming
courage
myers
experiencing
##amai
profi
170
blackouts
erings
ipv
barcl
languages
sym
symonds
bands
benefi
##beat
##bean
freeman
upgrading
pacts
violate
failing
pitched
nascent
feltheimer
cannibal
oliv
digitally
attorneys
fortunate
surprisingly
monetization
anthology
arrive
recipe
efficiently
weighed
precious
conditional
chronicles
sleep
akamai
convenience
assumed
construction
gonna
embark
azt
sesame
workflow
##azeera
snyder
compromise
unanimously
shrink
rebuild
circumstances
mediaroom
netherlands
unknown
bos
duck
danny
fits
feld
hfc
jet
jorge
kh
lut
lans
ped
pig
pew
rook
sieg
tu
taste
##uer
##via
##zen
##zone
##enner
inches
##ala
##real
stumped
congr
isa
chapt
##asting
spell
orts
disaster
enact
amp
viamedia
gov
gop
bases
scram
sheets
fired
noise
executing
##sports
boat
blame
##inals
105
downs
crunch
##ociation
poly
poker
chairs
mck
121
officers
afflu
respected
110
113
extr
persons
default
136
merrill
brew
redbox
recordings
receives
impacted
riches
##ika
##iker
animals
approached
visible
essence
pleas
healthcare
environments
identifying
huff
strive
jointly
cyrus
suddenly
##health
laying
1979
preventing
divor
hype
absence
tween
##ropic
ctia
showcasing
adjac
bridges
bonnie
jayant
qualified
wrestleman
galact
lengthy
exempl
acknowledge
riding
migrate
nyc
adaptive
hawai
electricity
randy
##burne
cooler
village
russia
insurrection
barton
barrier
cantwell
enthusiasts
overlay
culmin
lmn
semif
prolifer
nevada
sampling
stuart
unreason
dennis
inevitable
appetite
gymn
##hardt
adapted
vizio
robbins
arnold
##broadband
kitchen
chapters
wrestlemania
bour
bounce
dent
dip
dancing
ether
gav
hid
hint
ire
klob
ling
lists
mack
nancial
tribut
wol
##rine
##iper
##lack
##eb
##zn
##zes
##inburne
##onge
##owed
##urate
##abel
##ewise
bears
chem
##chain
##rie
shipping
##imination
examp
spanning
sponge
##uda
##sement
intervention
accident
outcomes
clin
bride
brav
lazar
##ogether
quint
internally
annie
##boys
delays
relied
reliance
locally
donna
affir
##uchar
deliber
belong
headline
edwards
editors
elimination
redef
swinburne
receiver
handles
skate
financing
hopper
organic
examines
blockchain
noncom
altogether
##ikes
bows
policymakers
firmly
burd
explos
artific
prepares
curious
enjoys
dolans
##iscri
subsidize
willingness
describes
misinformation
substit
suffered
reinvent
behaviors
complexity
fitness
maryland
falco
preferences
retaining
arbitr
completion
tends
opposite
sponsorships
bradley
objectives
frequency
elementary
danger
teaching
coupons
cowboys
locked
borrow
evaluating
inspirational
browser
browsers
##ulsa
recovery
portrayal
dirty
subsequently
gadget
russell
escap
schmidt
pallone
newscasts
bubble
##rocket
indianapolis
unintended
discretion
coveted
unnecessary
hirsch
brazil
impeachment
barclays
congrat
ethernet
klobuchar
examples
boo
bump
biling
ef
fid
fern
fert
iab
jp
jets
jazeera
kc
lens
pic
pays
rar
rot
rust
rbc
sorts
tick
tulsa
vary
##over
##tail
##town
##tra
##maker
##cut
##low
##post
##gins
##zmi
##39
thorn
##atar
inn
##icial
##lett
##lli
##llen
##stage
##igion
##oto
proc
console
##irk
chel
chunk
##che
suited
suits
alerts
sezmi
disease
heated
plaza
abra
butler
allison
vikings
##ineas
accomm
##kee
##urel
resur
arms
repurch
exped
explicit
multn
providence
##plex
whenever
genu
assur
assert
groupm
phineas
##merc
payne
delaware
reluct
religion
cron
accessed
specs
129
commissioned
111
modulation
simon
promotes
##ucks
entries
plane
calm
releasing
handled
likewise
farrell
1990
teleno
landmark
angela
pictured
fallen
marking
designers
listings
conde
##rupted
predecess
1989
burbank
identifi
logical
casa
voom
##itzer
sentiment
##worth
sunset
pioneering
sara
perspectives
paired
interfaces
hunts
hungry
absor
consolidate
showcases
occasion
civic
theatricals
qualcomm
utilize
accepting
gathered
succeeding
joshua
objective
previews
baton
teachers
communicators
baum
ferb
climbed
evaluate
ignore
tbn
praise
narrowly
accomplishments
entrepreneurial
claire
imperative
skipper
##elihood
conglomerates
lumin
fledgling
contempor
midsized
ladies
fundraising
border
interpret
dingell
harassment
scandal
apocaly
adapter
bilingual
abraham
accommod
telenovel
cach
dt
dl
dakota
eag
gif
hoo
ker
kal
kud
mi
mall
nate
oan
p2
pent
rally
rib
sib
tar
tying
wade
zig
zimmer
##ni
##rd
##rors
##rence
##ture
##cia
##ielle
##lar
##bag
##xi
theft
##orah
inner
##ioned
##stock
##advant
whist
##rier
anc
shadow
##ulative
##andra
##osa
fron
alfred
haunted
tracy
cog
preserving
outp
resili
intels
armed
ages
repair
##eks
##aved
subscribed
warning
technically
phr
carly
107
salv
grows
seasonal
filter
dayton
mcle
colomb
remot
grat
capex
strategically
greatly
loan
finch
##ressed
billed
lawful
wraps
estrell
##entially
johnny
132
25th
universities
##screen
##scale
swing
harsh
performer
clearing
steam
hardly
optical
stored
midst
classroom
teles
rollouts
singing
tyson
robot
honoring
closes
glad
natal
visibility
copies
searching
solic
burling
mandal
practical
garcia
murders
girlfriend
springs
franken
converged
aws
middleware
##paid
pilgri
expression
conventional
reforms
obtaining
alpha
dubuc
nichol
tasks
sensitive
##guide
synch
opposing
admitted
randolph
headsets
disappointing
struggled
constitu
coordinator
experimenting
convenient
astros
distinction
zuckerberg
enthusiastic
audit
racial
kelsey
meyers
laptop
cpj
conglomerate
gallery
comprised
patterns
toyota
revamped
bennett
nondiscri
tinged
##bourne
prestigious
uniquely
sneak
misleading
jesus
penguins
caribbean
symbol
azteca
rookie
adjacent
hawaii
gymnast
contemporary
intelsat
bode
bsky
dm
dna
duty
faw
fried
fisher
finger
hl
ira
kodi
loo
mine
nik
rol
roth
ug
wt
wides
##aven
##nett
##oa
##cord
##pg
##pay
##flo
##fiction
##erk
theor
##eding
toss
ofering
##ashing
##rot
##utter
##uration
##urry
##ira
##charge
atmos
##ulations
##cend
frat
alc
compuls
dism
disadvant
cole
##sea
##berman
partial
intensive
arc
overcome
##oga
monitors
scan
scann
directs
##ickham
##association
blake
##ological
playback
maureen
relatable
##othy
ca4
accessing
coron
correl
donated
dazn
drum
116
debra
deborah
extends
satellites
editing
losers
counting
dishlatino
wrap
severe
apiece
insec
##aha
merged
swamp
competitions
likelihood
corporations
210
superstar
symmet
designated
nonfiction
purchases
projections
##auf
##auer
responses
benefited
considerably
sugar
authorities
accountable
crave
logan
battling
paula
rounding
sciences
computing
travels
inspire
activation
traveling
diagn
buddy
perfectly
linked
hyper
occur
jesse
festivals
reclaim
hometown
abbas
aggregated
literacy
crews
remembered
limitations
mrs
shaping
derek
reclassify
surpassed
bethpage
filmmaker
exploitation
quadrennial
skewed
deskt
punish
axs
inducted
binding
dpi
cedar
favored
distinguish
merchandise
lgbtq
pdf
encryption
facilitate
ewtn
mantra
ubiquitous
intriguing
watermarking
baldwin
upstart
galactica
artificial
estrella
bskyb
02
batch
carter
csi
catherine
dy
dia
dixon
eating
fusion
fiction
gates
ian
jenc
leo
lloyd
moca
naming
sig
tm
ucl
wise
waksh
##drop
##tte
##uate
##lag
##waves
##yt
##bian
##31
##found
thrown
##around
##icing
##lead
##eta
##enti
##stering
stag
weap
ante
angry
sham
##imp
dell
##uset
##ando
spac
spain
##ppers
plum
moody
notified
##ante
amort
brut
##quared
laud
bass
expon
joked
htm
noon
deciding
acron
themes
##ango
##encer
helm
##flower
undefe
starks
knicks
backdrop
corn
terrib
slim
slots
secondary
parad
parsons
runner
lotus
eddie
183
counted
billboards
legally
lawrence
buildout
federation
realistic
keys
trium
passes
240
affiliation
colleges
criteria
wax
fallon
patric
greenberg
economies
thursdays
declared
comparison
approaching
optimized
revis
geograph
holmes
lowered
contributor
fancast
gamble
walls
grounds
converting
converters
##pread
awa
destinations
syndic
trained
domestically
demonstrates
divest
absent
impressive
wideop
cooperation
ordinary
lucrative
investigations
tickets
sonic
victims
satisfy
manufactured
ipads
arrival
mcdonald
efficiencies
minimal
daughters
ridge
burns
duo
emergence
jamison
temple
harrison
wealthtv
slew
bailey
assessment
sustained
rfd
ignored
catalog
deregulation
gonz
mechanisms
preschlack
nevins
algorithms
lobbyist
fragmented
advertisements
datab
dimens
macrovision
zombie
wizards
cablesystem
determining
catholic
threshold
ipv6
hidden
tribute
lazarus
burdens
chelsea
baumgart
p2p
widespread
jenckes
wakshlag
undefeated
wideopen
ay
bak
bite
bark
cine
cyn
cstv
dive
dil
fy
fve
fictional
jugger
kil
lord
meter
mma
pose
pund
powers
rab
rie
rings
riley
sight
sizable
tucker
tara
uste
uhd
voc
wabc
##aire
##rone
##mon
##haw
##eem
##gar
##with
##zub
##zione
thumb
##erie
##omy
##ionally
##isse
##lecom
##aman
##adena
whis
##oty
##irst
##iration
##irus
cha
chasing
##essa
##oli
fray
frances
haul
disconn
discont
molly
mars
trillion
coleman
amass
interoper
uphold
##keep
##oding
intens
branch
##quest
laurel
qubo
##achuset
twist
preference
struggle
##artered
nowhere
##bob
downgr
crush
causing
needle
desired
flurry
124
ops
305
valid
11th
##plus
##platform
158
poles
followers
severance
muscle
imdb
personnel
breed
harlem
peace
asks
rae
raiders
varied
ordering
ca642
larsen
patients
economically
examine
28th
commercially
credential
##itories
representation
deadwood
properly
authorization
streak
massachuset
burden
administr
##naut
gamers
##icole
peters
letterman
enhancing
threatened
worthy
mental
sounding
wondered
1972
skype
prevention
caroline
grande
headquartered
impressed
ericsson
institutions
bridget
stanzione
anticipation
hurd
collaborative
investigative
counterparts
vastly
manny
margaret
tremendously
satisfied
fundamentally
doctrine
vacc
convince
obligation
voluntarily
ceremon
controversy
undersc
reversed
shedding
canceled
astound
vmvpds
professionally
soror
shocked
overbuilder
restaurants
braxton
gabri
wyoming
mutual
bodenheimer
overturned
plaint
supervis
concepts
stranger
rgb
smackdown
mcgrath
warehouse
mogul
liquid
affluent
spongebob
predecessor
luminaries
looph
ucla
triumph
patricia
database
juggernaut
ustelecom
massachusetts
4g
cb
cth
gand
hs
hung
jv
kam
kings
nicole
ota
patch
pep
pump
ric
rational
rail
tid
vdc
ye
##aic
##apped
##rets
##tle
##tel
##lock
##ports
##koff
##wich
##yard
##zed
##erves
##onent
##atus
##enish
##etically
##aments
forged
reign
procl
conan
##riate
sherman
##ima
##ctv
defer
##mentioned
spawn
fraction
alco
alumn
compare
heller
##aken
##orementioned
203
contend
abram
marci
##emoth
butter
alliances
upfronts
viable
##kett
unions
resist
considers
presidents
contentious
ours
overhaul
quipped
joanna
strides
buch
aforementioned
##avirus
beck
consuming
bets
##raw
continent
invite
invited
nationalassociation
promin
avatar
premise
grac
slice
issuing
localism
instantly
defending
idah
researchers
estr
##holder
successor
successes
134
specialized
carries
regulator
##ahl
interaction
interactions
trivia
liked
nearby
##etta
behemoth
virus
mtv2
innovate
innovators
argent
shortage
270
richer
reneg
bowen
celebrates
##header
1986
males
burk
separation
effectv
staffer
pickle
##erta
replays
downloading
gambling
pete
parental
curve
converted
mindset
activated
consisting
simpson
tournaments
weekends
sportvision
##approp
pilots
degrees
louisville
anchors
transformed
territories
teenage
imagined
moderation
umbre
concludes
juan
outlining
lesbian
tasked
provisioning
fashioned
buck
supplying
migrating
hersh
omaha
pipes
ramos
hawley
jacqu
tentatively
banned
graduating
methods
publications
hospitality
yellowstone
dissent
psas
##points
blended
shawn
resonate
meyer
israeli
wbd
precedent
prevail
refresh
jacobson
tiger
continuously
temper
steadily
dismissed
fascinating
kardashians
mavtv
foresee
concurrent
scrutiny
excitement
sebbag
lansing
whistle
phrase
colombia
pilgrim
hln
coronavirus
insecure
wideopenwest
rielly
##zuban
cthra
idaho
3g
8k
ale
aub
aide
biz
bible
ci
cf
cic
cake
cites
ds
dumb
fd
gail
hide
hsi
jaz
mend
mpa
nol
pony
qwest
rug
vas
wre
zal
zoe
zoom
##aa
##ull
##lies
##piece
##kt
##ju
##just
##bly
##87
##fr
theplatform
##oned
##esa
##esy
##ndan
toll
topping
inapprop
##iture
##aser
##ecd
##utory
stol
stif
stays
stitch
stabil
whip
rever
##urp
chile
saved
##ague
##osis
sexy
plot
##peri
trucks
upset
uncon
go90
mediaflo
viewpoint
##apore
footh
lib
recy
monroe
##istry
##icked
somehow
subscribing
boyle
secular
blind
reth
invasion
entertained
accessibility
colin
flu
transc
poses
tales
grail
guer
slide
engle
117
##enny
edgy
comedians
charity
realities
timothy
forming
llp
proponents
brendan
swap
cnet
rapper
pressures
colleen
config
singapore
212
237
restored
blocked
##auge
deadliest
participant
danielle
imminent
nominate
urg
casino
statutory
##iciently
paced
mccumber
threatens
crimes
houses
splits
berman
tougher
licensees
cmg
##blaz
prevented
advisors
hyp
tweeted
##eryl
strengths
impression
transformative
##kinson
affordability
suffer
protocols
stanford
catching
supplies
moderated
fortune
cullen
myster
lindsay
sorted
derived
avoided
opinions
fundamentals
prohibition
kenny
precisely
appreciation
lammers
communicating
sharply
manufacturer
crystal
reclassification
witnesses
assuming
carlos
concentrated
australian
router
evidently
ambass
mechanism
unnamed
##writer
lending
sequel
nbmedia
btig
erik
boomers
icons
puppy
reimag
reorganization
decrease
##gramming
warriors
crawford
accolades
##repres
bellsouth
unreasonable
accommodate
carlyle
ugly
fratern
compulsory
discontin
inappropriate
foothold
bog
bits
bickham
dash
fgh
furn
gure
hence
hitch
iot
kend
len
loop
mx
mere
nog
nons
rs
ras
sed
till
tast
vmas
wong
wisd
xfi
yv
##mire
##mother
##hous
##iar
##ses
##vas
##vard
##jam
##zer
##far
##father
##atz
##atural
##edict
##asat
##oub
##leen
##rog
##ece
forest
stear
chest
chick
chats
angle
##unting
dear
surew
spik
##osi
oral
newport
##ocs
haug
hem
moh
moines
##ifications
##emer
##emand
##emol
copp
unity
unpar
nebr
##gee
agile
feas
baseline
exposed
##istically
preem
sheer
devast
dealer
##inda
assure
assign
asserted
secrets
phases
justified
102
194
fier
downturn
knights
knorr
##elled
##otham
caption
hdmi
airwaves
endemol
aval
attending
affair
##closed
capric
parl
myri
##aznick
debbie
185
janice
webisod
137
13th
merging
seller
passive
steep
turf
fared
turnaround
spectac
soup
sundanc
concerning
ca6433
panthers
patience
220
##under
goldberg
refers
##shine
surely
naturally
craf
badly
hotels
installing
installations
volumes
walked
802
packet
preparation
determination
encourages
wideband
325
spends
boosting
inflation
dolby
characterized
draws
449
laybourne
mails
sunflower
arrested
copyrighted
survived
hunger
chev
penny
emphasizing
rhode
561
anthem
accelerating
structural
1960s
gregory
gaug
loads
indicating
geared
duke
prohibit
relying
browse
coordinated
coordinating
bearing
snowboard
cosby
sdv
crackle
ispot
sitcoms
polls
royalty
kristin
monopol
tallied
staples
vetting
comprising
procedural
newcomers
reelzchannel
##track
bolstered
hiatus
##alleled
renovation
bergman
enforcing
residuals
interstitials
undisclosed
siegel
bourkoff
fronts
atmosphere
dylan
sigma
baumgartner
credentials
abrams
zalaznick
wisdom
stearns
surewest
unparalleled
nebraska
aided
akin
bent
bias
cus
cock
dzuban
eure
egreg
eros
fake
fwa
hut
hedge
kur
lent
lect
lang
mn
mw
mim
nations
nort
ninth
od
oz
poo
rome
sie
tud
tong
viv
vick
vint
wink
watt
xperi
##aus
##aels
##news
##rich
##horn
##lash
##pu
##yon
##zin
##inct
##inely
##onica
##enet
inac
##icine
##lear
##rod
##rock
##ams
forg
congest
beers
chin
withhold
##child
anat
##imedia
##unct
##agh
oracle
##ivate
commons
lex
viasat
##ffer
##ffler
##apa
clues
##ileen
lajo
canyon
replic
scifi
megan
##istol
##icking
fires
lasted
afl
dealers
betsy
impacts
demench
prizes
##atched
phy
blair
blunt
herb
retool
retiring
playbook
maver
backhaul
crist
ava
nextgen
belt
surger
154
151
goodby
minn
##athers
jana
informative
##sonian
musk
timely
##aleigh
##alegu
##ahy
michaels
179
harness
completing
storyline
holder
handing
likened
mete
maine
oldest
classified
lands
ceiling
ipo
argyle
ca649
215
patient
diversified
noneth
encoun
310
condista
breakout
visited
castle
hillary
1982
malcol
solved
365
figured
smithsonian
contracted
doubleheader
fails
squad
consistency
tuners
reflecting
championships
##appy
consultancy
saralegu
pairing
captures
attendant
##boro
sufficiently
legeyt
reinstate
cannon
stankey
anticipates
clarke
qualify
delaying
assistance
disappear
academic
forecasting
routers
bonding
satisfying
prohibits
constitutional
shipments
truckers
sweeping
paleyfest
fleeting
inquiries
ashley
lightsquared
rouge
recruit
quadrature
phillips
braun
boundaries
frozen
grammy
tutv
amplitude
quietly
inherent
whitaker
frustration
stunts
skeptical
korea
deutsche
pulse
hefty
spearhead
scheme
endeavor
celtics
lombardo
tattoo
desperate
noncommerc
cogeco
synchron
exponentially
whisper
sorority
yeah
alcohol
mysterious
captioning
spectacular
egregious
lajoie
demenchuk
nonetheless
saralegui
noncommercial
911
aur
aka
bath
cia
dj
dile
denson
fg
ja
js
joc
jake
kin
kant
mouse
mouth
ner
nxt
ot
pon
pug
peps
roo
tiff
vue
vivo
wis
wings
yo
zach
##aad
##nbc
##natural
##due
##rome
##cop
##vor
##wes
##ji
##instein
##orp
toby
inability
##icide
##icism
oft
##isons
##ethe
##llon
##stri
##igrou
##illo
##urer
##oting
##ewor
cher
chill
anger
anecd
sap
sail
##essner
##ulates
##ears
alice
seal
##ichaux
##cci
heyn
205
contour
bypass
##ifc
lease
unch
uncom
unpr
neb
mediavest
##odies
cliff
inters
brun
induction
liate
canelo
sof
##hero
recap
strick
businessweek
distract
103
1080
continually
starcom
nbcsn
downward
delta
##ellers
causes
remed
flaw
lifted
122
issa
drake
loving
belo
minus
paxton
webin
apolog
##ysh
opener
insisted
149
img
elaine
sharon
redes
discourage
swed
peek
nielsens
165
skip
erick
pressed
processor
trevor
multiples
buyout
mature
ipg
hollow
barely
supernatural
testified
280
restr
designing
credibility
richmond
robichaux
independence
capitals
participated
quicker
visiting
bowman
panelist
reviewing
foods
accounted
burger
camcord
couch
caserta
dominion
mccon
archer
safely
violations
roads
thoughtful
palmer
lawsuits
granting
slingbox
tunnel
alternate
destroy
stops
doubles
1975
1976
actresses
rosenbl
repeal
browne
interfere
captured
occas
advancement
widget
##ova
elevate
welter
conclude
translated
legends
irving
revealing
citigrou
broker
homework
safegu
bulls
acceptance
behavioral
intelligent
pipe
graphic
transactional
narr
kimmel
alleging
absolute
guarantees
infringing
sidelines
discovered
##continent
gilligan
nicely
concentration
podcasts
tandem
exclude
correctly
gibson
pasadena
dynamics
dynamically
##archy
crafted
hogan
kraft
arkansas
kathleen
accompanied
technician
jeopardy
stretching
surveys
permitted
remotely
natalie
fawaz
iraq
roland
amortization
acronym
pundits
gabriel
umbrella
eureka
vintage
watters
anatomy
afliate
aurora
dilemm
pepsico
##western
anecdot
rosenblum
citigroup
aqu
bm
bh
cott
dug
diver
dillon
fate
fury
ger
gore
gerry
gauge
hod
hug
jum
kmart
moth
maps
pink
papers
td
uh
upping
vud
wc
wj
wach
##des
##dale
##rg
##rett
##met
##hire
##ii
##lake
##lauf
##pn
##kirk
##wan
##will
##wau
##yl
##bury
##700
##82
##fam
##oner
##onom
##orian
##eney
##anth
##antha
tomm
##isch
##idable
forge
##uth
stam
starter
starg
stup
stacey
##igian
##illas
reid
reass
##aya
##ewood
asc
##chin
deem
##ulous
suisse
exibility
spade
heaven
commend
envel
marin
mario
##ifah
notch
yearly
##irez
cofound
uplif
##pte
##keys
brink
brenner
##quel
peru
recre
joke
pregn
execution
##ailable
##available
impair
##spot
##sport
boasts
boenish
reginal
technique
justices
##raft
whereby
saluted
smarter
smok
smpte
knox
underpin
cru
cruz
accessories
endor
endors
avg
donations
advers
latifah
##upo
fines
finishing
countless
janet
subway
146
14th
imus
octagon
comeback
totaling
norris
movements
receivers
##prints
steer
hardest
emil
placements
governors
249
lesson
varies
classics
portra
holl
barring
centerpiece
supporter
superst
markup
magical
organize
##tedly
overseas
rankings
goldstein
265
264
altitude
refin
personalization
snoop
atlantis
samantha
bowling
matched
introduces
identification
optimization
roundt
strip
replied
explan
balanced
balancing
circulated
signaling
milwau
frankel
palin
humanity
slowed
tuner
sopa
cmo
fixing
thrilling
answered
sunlight
##after
pitches
repeats
piligian
predictions
candy
wildly
captain
showcased
toni
cellphone
2000s
##gregor
institutional
explains
touched
hundt
blevision
850
alexander
rockets
contacted
cuomo
investigating
printed
melinda
arbitron
adopters
millennium
gearing
ridicul
miguel
routing
bonds
swimming
weighing
functioning
ramirez
neighborhoods
permanently
mull
sacrif
authenticity
accepts
romantic
discovering
ripe
fbi
recruiting
hudlin
conflicts
moloney
fulfillment
specifications
soapnet
kirk
steinlauf
rumored
nuts
distinguished
uptake
abandoned
plunge
removing
thrott
constrain
resignation
wikimedia
stellar
olivia
ireland
dtas
mclean
constituents
disadvantage
dimensional
interoperability
##keepers
plaintiff
loophole
pepsi
pickleball
myriad
gauged
erosion
malcolm
welterweight
vudu
stargate
cofounder
uplifting
bored
bomb
cim
cass
cros
dre
dct
dale
dga
ecl
ful
fand
fick
fries
gps
hong
hikes
kia
kilar
kabel
lod
luch
lrg
malf
mundo
ns
nw
pyth
rca
raleigh
tire
tally
tighter
zo
zieg
##aver
##nik
##dp
##don
##dog
##oio
##mine
##hill
##live
##sity
##press
##good
##bies
##busters
##zel
##zie
##67
##65
##81
##ori
##esis
##ares
##anan
toler
##icia
ofer
##asi
##lee
##eto
##stuff
##ecl
##amy
italy
##igence
reauthor
##iromo
chew
wear
shah
deft
spart
spencer
##ception
fring
frames
fridays
albe
##ivec
##arton
##aks
##grap
tvg
tvguide
##umen
teeth
levi
amended
allbl
upton
upheld
##ptic
accent
outfit
telep
##berger
reserve
##apse
intact
intuit
arab
arpu
##mph
scra
twenti
roi
shep
bucc
devil
##avel
acumen
topical
##ibda
blast
carat
104
108
undercover
cave
daypart
specifi
airline
##ieri
homepage
endless
schl
attwell
cola
teraby
espnews
advising
grupo
articles
latv
experim
loans
debmar
instru
153
persist
defect
##atti
amongst
pave
specialist
144
proponent
michele
173
harbor
meters
lesser
potato
augment
varsity
confusing
motors
singled
barcel
ca6460
ca6415
ca6438
supplant
maggie
restoring
reads
readers
##oken
reno
benefiting
comparisons
##shire
smartmatic
natpe
##networks
philo
philips
reviewed
selections
burst
madd
holes
statute
collier
706
booker
gambell
voiced
georget
dispos
sentence
invented
pioneered
settings
demonstrating
navy
richardson
swept
##folk
cater
affords
extremism
moderate
translating
codify
##rigan
neighb
references
bloods
drafted
vanessa
spreading
oscars
chronicling
coupon
bryant
flying
certified
psycho
qams
wimbled
prioritize
sidney
bartiromo
oculus
reminding
hanging
constructive
trophy
ruby
empowering
treasury
elder
glend
workshops
motivated
kelley
phillies
gabelli
throwing
layer3
defendants
rumors
oakland
refreshing
excessive
mckinney
chambers
rehr
screaming
supino
duplicative
zeal
immigrants
gravity
patterson
benchmarks
pronounced
scrambling
affirm
explosion
huntsville
telenovela
gymnastics
desktop
diaz
burdensome
continental
fraternity
noggin
tastes
spiked
tudors
heynen
unpredict
dilemma
tommy
explanation
fickle
tireless
albeit
##grapher
allblk
twentieth
instruments
gambelli
georgetown
wimbledon
975
bot
bitter
dore
dimin
gur
gree
gessner
hust
habit
khan
oden
por
piz
ports
punk
paved
rb
rash
rizz
tube
tipping
taco
vest
wond
wang
witches
yards
zillion
##nn
##olly
##metime
##uels
##cock
##hed
##late
##kia
##walk
##bay
##bus
##77
##fers
##fish
##fits
##95
thegri
##ateral
##ede
##anza
inception
##alt
##alch
##itating
##ouff
##etable
##rolet
ong
##americ
ster
wharton
##acor
##accar
##ackets
proving
proactive
##chest
##rial
anime
shy
shan
shud
##ulatory
##agic
excer
spill
netted
compos
sein
##ichael
heap
tvision
incub
incoming
trace
traf
tracey
##anted
progression
upward
##itional
unr
##ansh
##ghorn
outr
##forward
partially
##izer
##izations
viewpoints
reservation
breth
arise
indication
perennial
overtime
recess
recurring
whopping
meerk
##istics
thereafter
nokia
digging
highway
decis
decency
productive
regards
blues
blaz
throughput
10g
##itta
invalu
competes
competed
backlash
capped
specify
speculate
##weigh
colon
deserves
quarterback
127
daw
affinity
##phis
slash
connolly
drm
mypri
##enne
memphis
looming
debates
shoulder
instinct
##eee
18th
139
timber
##efan
empathy
hearts
enters
michalch
changer
pope
profound
harold
performs
turkey
factored
governor
pressing
critically
classify
cutoff
retransmit
cease
bars
barnes
ca647
forwarding
##orne
moms
impacting
radical
compares
breakdown
pushes
glitches
transitioning
favoring
favorites
celebrated
alma
455
solar
attraction
mickey
necessity
holanda
rounded
##strom
collapse
silence
silva
individually
garage
80s
gamco
gambit
trending
cycling
320
activists
dolph
organizational
hamm
suns
lacked
rebound
rebell
advocated
browns
nasa
minorities
##bursement
banse
erica
lifestyles
47200
instituted
towns
dogg
juniper
reinforce
troubling
straightforward
orduna
monetary
qualities
megabit
reclamation
manning
photograph
aggregation
confidential
prospective
adapters
draftkings
##buquer
doctors
##bridge
grapp
conservation
mooney
briefing
random
cleaning
alleges
navigating
##evo
cowboy
hartford
ferro
kohl
darren
muoio
assessing
evaluation
torres
leveraged
weiner
indecent
loren
volunteers
kanouff
hayes
dirt
##warf
skewing
gadgets
exploration
patriots
ca6406
baghd
hindery
steinberg
conviction
midsize
medalist
occupied
ingred
jacobs
granular
injury
mckinsey
tigers
chamber
skepticism
korean
reimbursement
supers
disparate
reunion
quotable
isaac
pleasure
fertitta
ziggo
scannell
paradigm
hurdles
ceremonies
argentina
burkhardt
stolen
chicken
chevrolet
congestion
surgery
meteor
kantar
20527
##yshyn
knoxville
milwaukee
odenkirk
pizza
thegrio
shudder
brethren
invaluable
myprimetime
michalchyshyn
##buquerque
agr
bom
bab
bount
bones
cation
cun
coc
cind
coca
dal
dic
eileen
gann
greens
hew
hag
hank
hath
ibm
jc
jav
kemp
lan
lec
lud
lime
lure
mdu
meld
miley
nad
nina
olin
pey
porter
rio
rita
sion
sut
vett
vowed
vague
##apping
##dling
##rays
##uiz
##cal
##lman
##40
##45
##91
thun
##esp
##esch
##eday
##anow
##itas
##isp
##iski
##levision
##idd
##sted
##stra
stints
stela
##adows
##aci
##owing
##uries
isi
##ewide
##ithe
##irky
##term
cheryl
weis
weber
weird
anarchy
saints
shall
##thetic
exter
spook
spiel
spurred
spoof
orchest
##ilty
fruit
alj
albuquerque
seas
haves
moz
mood
mogo
contains
contained
##anned
abund
commod
enl
nots
notched
leahy
coven
amd
unw
unify
##iello
telehealth
##berry
consists
##onged
bruins
canal
manc
reck
quirky
wholly
scoring
directions
mep
joan
strat
strange
##manus
afli
vern
veronica
##speed
industrial
assured
##iba
streamlined
blan
accordingly
wellness
##itty
invis
undoub
salaries
maher
watchable
relay
underest
eventual
##ella
caut
prompt
schne
mcmanus
flux
lifting
depic
depreci
guilty
lately
diddy
lof
loos
184
186
boxee
leguiz
wirelessly
paige
timetable
purvey
futur
norfolk
steel
metal
empt
embar
blacked
error
viral
titans
standardize
collette
buybacks
cutter
portrays
infusion
ca643
superhero
liberal
employed
examining
reader
##oked
credible
##anche
260
improper
refusal
independents
deadlines
judging
multiplex
politically
politicians
snapped
605
detri
emma
denying
educating
millen
shoppers
striking
westchester
statewide
lighted
practically
multiroom
rocks
laser
peterson
cycles
widevine
commonplace
levine
minded
##worthy
mls
dietz
390
hamilton
hampton
faul
sunshine
##etha
rebroad
tweens
influences
anchored
sandra
guiding
stewards
olsen
jenny
taped
##rano
complexities
cesar
trailblaz
elli
victor
remarkably
tackles
woods
attribute
engagements
ght
minimize
aggregator
apparel
burning
succeeded
synacor
suspended
multimillion
beachfront
kaiser
randall
banners
laughs
shopnbc
lieu
accurately
carlson
avenues
concede
cornerstone
discounting
deregulatory
hayden
treasure
discriminate
gleason
echoing
temporarily
simplify
##onymous
tammy
scaling
mosaic
##leston
fascination
reyes
smoothly
buttons
snapshot
pixel
differentiated
espn360
uptick
newcomer
anonymous
defeat
##logic
relocated
viggle
interconnection
italia
italian
bendbroadband
terrorist
prince
destructive
bunim
brewing
culminating
chemistry
bridez
deliberately
fernandez
absorb
caching
hsd
proclaimed
buchanan
jazz
ambassador
fierce
cocktail
cristina
tiffany
1080p
uhf
portrait
constraints
unpredictable
excerpt
seinfeld
meerkat
peyton
mogollon
abundance
undoubtedly
depreciation
leguizamo
rebroadcast
3rd
ah
biting
binary
c3
cot
cage
cpe
cials
cient
dab
doo
dict
fing
fought
gw
gina
gotham
hig
hike
hij
io
jury
jaws
kong
kron
lil
lena
mch
mock
nh
nam
nuc
ond
oil
pagan
pasc
qurate
rivers
sg
tion
tabs
tires
tension
ticker
vul
wan
wals
waves
##aways
##dar
##trol
##lit
##voc
##vals
##path
##pants
##watch
##bard
##2b
##from
##inated
##atures
##ndly
##anagh
toes
invid
##entv
##elt
##stration
comics
stel
stability
##igl
##illary
revision
revel
##acus
##urches
##otts
##vert
chan
chead
cheng
##ria
shat
shak
##imbo
##astro
##essler
##andos
spence
##olor
cablevi
fran
frndly
pray
##estview
##ocation
comprise
seating
seats
disab
plc
207
##udes
abusive
##ifif
##ector
lebr
##arding
broadening
interch
interven
medicine
##geoning
partisan
usfl
##ryn
##apso
fool
##ords
indo
##venmire
manchester
recuse
feud
reply
reposition
quinn
scat
scor
twenty
##loe
htc
highs
acted
demise
boon
##atches
ifilm
##ishes
wwl
distributes
carson
##ologist
invitation
starrer
knee
undercut
crestview
specter
polled
povenmire
##ancers
chairmen
airy
mcg
mcel
donov
desus
depri
respects
publication
opentv
drill
drain
experian
parrot
303
valerie
founders
surged
##television
##placed
15th
editions
promoter
charitable
billboard
knowingly
autism
informational
clever
##rising
133
256
formation
approving
electrical
##jectory
ca60
insane
141
entren
entourage
elabor
elusive
merits
packaged
prototy
obst
evac
swath
harvard
equality
cleared
happily
hardwick
161
opting
factoring
storer
emi
errors
246
mainten
treating
10016
portions
roller
singers
hoya
barnett
possibilities
muster
testament
222
examination
initiate
restart
lows
overseen
excel
declaring
315
rises
bidder
sponsoring
dane
samuels
glick
geek
rosie
weathered
administer
selectively
burgeoning
chooses
robertson
geoff
holt
staten
lightning
lightpath
freel
garrett
mccorm
renews
deterior
gigabits
cyma
archives
voter
clouds
threaten
threatening
curtis
principally
awes
splitting
fearless
hamper
demonstration
exchang
skyrocket
confirms
eyeing
sarandos
rebuff
describing
occurring
ca636
sanders
jungle
fortunes
fortunately
icontrol
squarepants
surprises
rentals
highlighting
rhapso
victim
yankee
structured
spotlighting
enhancement
attribution
jacksonville
photographer
queens
##brook
suspension
luke
spinoffs
prohibited
montreal
surfaced
exhibitors
compliant
simulcasts
akimbo
astron
lyrics
durant
trajectory
##oyed
##ippi
tori
daddy
##missible
enthusiast
nuv
treasurer
assemble
biased
##roads
discriminated
klar
disagreed
echoed
duncan
gutfeld
knocking
sistas
fnc
allegedly
therap
gigabyte
riot
render
fundraiser
squeeze
cavanagh
merchandising
swiftly
glover
warrior
stealing
kathryn
##lifetime
unleash
scholarships
technicolor
rewarding
withdraw
##employ
interruptions
shrinking
luther
gavin
clinics
procter
interpretation
eagle
ancillary
bakish
vocal
estranged
renegoti
jacqueline
englewood
##represented
mnf
inacc
mavericks
flawed
reginald
ziegfeld
spartacus
barcelona
disposal
zilliontv
incubator
hathaway
spielberg
bridezillas
ondemand
pagano
invidi
lebron
donovan
entrenched
maintenance
2nd
ailes
bust
bone
cad
crop
dn
d3
dry
dens
dmas
daly
esch
gor
h2
hil
hires
kot
kol
kiss
lms
mint
nition
nair
pess
pens
taps
vy
vive
vine
vander
wies
wary
wicker
##ahn
##awe
##ahertz
##rent
##rero
##tan
##takes
##mic
##mans
##mail
##mott
##count
##crest
##hot
##iak
##ls
##lins
##vil
##pd
##power
##grown
##water
thick
##ario
ingest
##oms
##icious
##ask
##isy
##isel
##oulah
##idi
##rodu
##elight
##stown
##stones
combs
onerous
onstage
##amer
forem
##utura
##igor
##iguous
reaff
##acre
concess
bea
beast
##tering
chec
chop
chiller
##charg
anxi
shaz
shadows
##asted
deaf
##thia
sude
exh
##cee
comprises
hevey
hevc
moyer
208
##umer
abroad
notification
##anta
amate
offs
whichever
unsung
unauthor
unavailable
outtakes
clas
clout
clutter
fostering
indie
lav
recusal
repurp
expans
exposing
##istan
newsy
newsday
preval
pregame
strain
stranded
##airie
##ostic
##issippi
impasse
##spec
##spoken
boone
howell
regs
##isha
##ocks
carn
109
192
downplay
entertainer
backyard
##cery
dayparts
homegrown
schiff
colors
rembrand
lifet
guit
guided
connors
starters
##anked
memories
instances
157
edit
footing
courtroom
courtesy
entropic
elias
mero
futa
competitiveness
redirect
discs
tripled
totaled
176
steered
raf
##etti
factual
eru
midcontinent
everest
angels
augmented
titan
broadcastingcable
concerted
angelakis
40th
hole
barbie
governmental
possess
integrates
tykes
patrol
greenlit
employs
mighty
limiting
##otten
reasonably
267
robina
honey
##ikis
judith
##show
commenting
299
glaad
departures
educators
matching
wednesdays
selecting
huawe
separated
shoots
questioned
figuring
mississippi
banker
replaces
augusta
statu
collision
domino
dominating
lightweight
corey
soldier
feeding
infrastructures
packets
mccall
renewing
gigahertz
encouragement
disputed
roadm
squid
554
##kai
subsidized
berlin
380
soundtrack
399
1978
1971
confirming
percentages
lacks
prevents
difficulties
wildf
achievements
650
jumping
architects
ballard
catering
suffering
bridgerton
touches
welcom
##break
jenna
hurl
collaborate
bonanza
skilled
translates
lucy
culled
tackling
bullying
marvelous
manufacturing
cinemanow
gaiski
karm
##fox
adjusting
amendments
duop
ethics
magnitude
suspect
suspend
888
template
frequent
storytellers
precise
diamondbacks
appreciated
forums
wealthy
tentative
sternberg
guaranteed
masn
crying
accuracy
attachment
graduated
gatekeepers
weakness
coaches
wolfe
##content
gillman
matthews
overlook
unfairly
empowerment
nurt
shocking
cdn
motivation
hobby
privileged
griffith
wrapping
calculated
escal
gentle
allocation
schwartzman
hatfield
differentiator
degrade
drinking
telefilm
telefutura
deceptive
terminated
plunged
penalty
penalties
##smith
mitig
puzzle
presumably
cumulative
pamela
makeover
abdoulah
unhappy
persuade
shirley
genuine
assurance
assertion
reluctant
dlna
sibling
daytona
theoretically
cynthia
disconnects
supervisor
spawned
prominently
mpaa
libby
hitchcock
yvette
coppa
whisperer
recapital
remedies
stupid
emilio
lucha
reauthorization
timberlake
afliates
cheadle
wieser
foremost
reaffir
chopra
anxiety
sudeikis
unauthorized
rembrandt
tykeson
huawei
675
aly
avi
bury
bauer
cite
csg
dot
dire
dign
duff
dsg
ebers
fen
fitt
ferg
foul
gan
gum
goss
gulf
hints
ib
ivi
ivan
jl
kro
katherine
lur
lying
lively
ming
mul
mud
mour
miron
nity
nfc
necast
ping
panc
pee
puck
rl
ritch
rift
sx
sights
til
tide
tink
tcl
tau
ui
wound
wony
wiring
wires
yard
yaccar
zen
zones
##neck
##oh
##rs
##rice
##tree
##most
##michael
##cers
##core
##hand
##ih
##06
##ping
##pal
##pool
##kite
##gage
##gerald
##jackets
##bec
##bee
##bots
##fm
##fk
##orph
##edad
toe
##itier
ofcer
##isure
##rold
##style
forging
forecl
##uten
##uting
styles
##iger
##adam
##acp
##acles
##acaf
convey
bead
##irical
ashe
chattan
churches
##rio
dee
##ulis
##agr
exiting
exha
spurring
##osaur
##tsch
##eard
fres
framed
alarm
##ocon
##eoff
##group
contain
incomp
abide
abbe
marry
##ooga
##emies
##embers
##orted
leisure
coord
amber
programing
interruption
unaff
accord
outweigh
telegraph
##keeper
##opus
usc
clif
cloth
cluster
intim
programmed
braves
indel
indians
##quis
laulis
peril
pervas
perlman
overr
overt
overly
addiction
manfred
basics
quart
quoted
scp
screw
multib
joey
subset
worker
shea
bug
devote
##eka
distro
verge
becky
##inks
##owned
warrant
boomer
##licity
pharm
##itti
##itters
esports
stark
maisel
downside
knack
underdog
fuels
ca5
signage
airport
mcavo
attitude
remembers
terrif
flock
advise
transit
posed
revenge
depos
feather
famously
grin
drunk
strategist
loose
belg
defended
goodwyn
simps
charleston
wrang
researcher
differing
informing
informal
severely
131
timers
empowers
143
propag
regulated
##aham
entice
##llywood
redzone
protests
objected
postp
turbon
##minatory
gottsch
emulate
blackwell
authored
angles
benya
financially
colleg
finalize
waverly
barred
boardwalk
screenings
216
testify
organized
giveaway
285
limelight
ideally
273
estimating
richie
renowned
beneficial
considerations
judged
leary
60s
pageant
commenters
saml
cultures
culturally
novels
bowed
451
legislature
hillcrest
philanth
singleton
predomin
solves
soledad
microw
logic
conversely
saturated
bankers
summers
dominican
##aneous
ows
garth
mccann
void
waller
violates
aspx
aspiring
grounded
applicable
berks
budill
soundly
destiny
fearing
visionary
##blue
prediction
predictable
wildlife
wildblue
darker
influenced
situated
dedication
strengthened
chapman
ca639
advancements
widening
##iquity
institution
teenager
ruth
macd
sexually
guyardo
nomi
cookies
concluding
alexa
codes
toddler
woodstock
marginal
cabler
cinematic
incorporating
gao
arrives
723
burned
succeeds
painting
cwa
luis
grossman
briefs
batman
dragon
biograph
struggles
constitution
tentpo
acknowledges
villano
psychology
lyd
revolve
reclassifying
hospitals
yellowjackets
nicc
concentrating
auditor
dissem
amidst
naacp
fabulous
recruited
cdma
culinary
assembled
assembly
sherri
discriminatory
intentionally
blends
gangster
phillip
terrestrially
fragment
phenomenal
ligado
lobbied
unusually
cancell
statistical
stemming
jeanine
theresa
ectively
forbear
btn
contempl
pixels
watchespn
quantum
weekdays
fatal
jerrold
stunned
jenkins
jewish
steadfast
##umbered
undertaking
prosecut
galavision
fitzgerald
wagner
perpetu
passwords
bbdo
thoroughly
breath
leonard
princess
cautioned
columnist
ncis
adequate
adequately
destruction
bosch
mckay
semifinals
cronkite
apocalyptic
kudos
resilience
mandalorian
nondiscriminatory
alcat
symmetrical
stagger
geographies
##hawks
deferred
alumni
foreseeable
rugby
guerrero
feasible
webisodes
sundancetv
tongue
beltway
goodbye
spearheaded
rooft
wachtel
stamford
pregnant
endorsed
holland
python
zoey
maddow
##anshee
gannett
dictate
nuclear
vulner
walsh
interchange
rhapsody
klarman
shazam
rafael
roadmap
necastro
wonya
yaccarino
chattanooga
exhaust
coordination
multibillion
mcavoy
simpsons
turbonick
tentpole
875
ary
bs
bum
bbt
cbr
dary
dade
doming
dora
fm
fis
fber
fetv
fetch
gou
gos
gest
gould
gerv
hing
hent
hatch
ioc
iphones
jod
km
ket
kelle
lip
loun
mb
ned
nect
neck
pb
pear
pond
pension
rif
rides
sink
tear
tpg
veo
vance
wme
xl
zel
##aas
##afi
##dn
##oll
##oons
##rates
##rights
##mag
##mates
##cr
##card
##lings
##sa
##sler
##vicker
##pse
##pop
##park
##kner
##kowski
##girl
##wo
##wave
##yo
##jay
##bas
##bach
##66
##3s
##370
##fa
##fare
##fax
thirst
##erb
##aton
##atile
##orf
##orbit
##nder
##enke
##arity
##aria
##anity
tooth
toml
toys
toffler
inou
inade
##itative
##omerc
##icion
##ician
##etter
##etical
##enthal
##ecraft
onscreen
forty
stym
##igs
##acopia
##urice
##otic
confl
isles
beverage
##verning
asche
chry
weiss
##chat
##choice
shook
shane
##usc
##uson
spt
spice
spans
spree
spurs
serrano
adren
complic
compiled
hello
##grad
##grav
20s
204
tea
abry
brooke
##emon
notices
notwith
leh
leasing
leaked
coh
coving
##rous
allvid
upscale
##ipher
unm
unrel
uncover
unemploy
neel
##pta
mediam
outline
outspoken
governing
reset
##oder
clot
intx
brag
brick
arsen
aging
indef
##quet
communacopia
lily
overview
manuel
recoup
reprise
reprising
monumental
moniker
scutt
meh
twists
digeo
acac
dealt
##owners
regimes
##intend
americom
##ensen
bless
blown
##angel
193
playlist
espino
salem
seasonality
##ells
makeup
signups
poitier
##onsist
##wealth
schitt
mcder
mcgregor
terence
deserved
transmit
premature
daunting
daisy
##bravo
grabs
##photo
sino
gupta
sla
cape
parr
parity
paraly
courses
30th
localized
foundational
mylifetime
surreal
poland
##asha
edie
comedic
freeing
minist
dishes
episodic
johnathan
mush
courteney
specially
someday
147
142
campuses
studied
shari
mcnart
reds
objects
swan
sword
harper
peaked
musician
cn8
162
facto
blackhawks
erence
midterm
248
potter
negotiates
mainst
dvb
marty
100th
buyback
portals
singh
singles
waive
waited
baron
infomerc
ca648
ca6428
satire
testifying
employer
225
223
282
lowell
declare
312
##share
sanct
sni
modeling
commented
commentator
emmit
glam
authorize
denise
eleg
eleven
emerges
natas
natoa
favorably
immense
southwestern
philip
flows
creditors
recognizable
identical
identifies
hotly
optimize
strikes
arenas
collar
70s
##aneers
freer
freely
spoken
copyrights
winding
requesting
activate
louder
harming
berger
tunity
cmc
feared
thrillers
passionately
doubts
optional
sticks
##blood
unfold
##valued
etkind
influx
grandmother
illum
##2020
ballpark
analyzed
championed
bridging
davies
troupe
jenni
enforceable
britain
falcon
incorrect
evolutionary
##eroy
1967
obsc
observed
attributable
exempt
photography
599
dinosaur
dividends
derail
painted
pirates
synonymous
suspense
omar
pipa
shaped
prohibiting
surfing
cleaner
exceeding
unveiling
stadiumvision
spirits
lieberman
revolves
godfather
emotions
surpassing
assumption
reminds
reminder
contextual
##missions
hubbard
hooks
rowe
conferencing
brainchild
browsing
phenomena
routh
kanter
discounted
sorry
thriving
shelves
dutch
prolific
restructured
folder
descriptions
samples
extensively
giul
bags
citizen
1956
bodies
allocated
distinctive
pelosi
triggered
outputs
snapchat
inherently
japanese
dependent
unanimous
rejecting
anonymized
discipline
disciplined
purely
ukr
liza
yielded
chieng
envisioned
fascinated
##lenet
reconn
removal
spears
commemorate
federally
cheerlead
mmtc
tangible
pronounce
outperforming
eisen
provoc
morphed
aspirations
divorced
semifinal
proliferation
substitute
repurchase
expedit
apocalypse
burlington
nikki
correlation
revisit
amassed
aubrey
fdr
##liese
transcoding
devastating
pugliese
##ifcation
dugout
mothers
envelope
cimm
buccaneers
caveat
greek
rizzoli
wondering
outrage
exterior
mozart
schneider
faulkner
namely
evacu
astronaut
prevalent
fittv
ferguson
kroenke
incompas
clothes
quartet
terrifying
microwave
aryeh
henthorn
jodie
lounge
veoh
inouye
inadequ
ascheim
adrenal
notwithstanding
covington
espinoza
460
720
818
ais
bin
baking
banc
bicket
cig
cure
cory
cined
curs
cats
dwarf
fitch
fathers
gul
henson
honda
jb
jodi
kg
kw
kress
ls
leland
leroy
mate
mum
mash
npg
ox
pst
rode
roof
sans
ti
tart
tup
uber
vl
wu
wine
wack
witch
w18
##non
##nar
##new
##numbered
##oos
##tech
##mot
##uke
##uple
##cro
##crum
##hang
##iber
##ea
##eu
##sby
##pent
##kr
##gent
##ylon
##jud
##bal
##bone
##bra
##based
##butt
##78
##199
thre
##erable
##erty
##inite
thesis
##onne
##atoga
##enow
##arh
##anet
toon
tours
infer
inexp
##itated
##itudes
##icit
##oust
##etr
##elman
##econom
##amous
##amara
forens
static
stalk
itaas
##illance
##adakis
rewr
##urb
##iris
asap
chilling
##rik
shakes
shipped
##ctory
##astically
dei
deer
##uso
##usp
sud
suicide
##aga
##agu
##agin
spat
spider
spanned
##olo
orbit
##eart
cabletelevision
altered
havoc
plat
conting
inconsist
teenn
telly
broch
brock
tragic
leib
cops
copper
##antz
##seum
showings
##ipse
##acking
accum
outset
outnumbered
parte
##opes
viewable
resh
resides
clich
clause
intr
contention
brighter
aretha
indirect
lawn
overla
sober
addict
manif
expiration
quinc
scrib
scors
scared
scoop
meghan
roam
rooted
rooney
prepaid
strict
strigl
##colymp
televisions
afc
ack
boz
assigned
asserts
##asses
philly
##fering
blitz
carbon
worries
herman
invests
##lected
downtime
backup
relating
underwood
undergrad
cafe
corners
polling
poeh
chaired
hds
enduring
##ictions
schan
schumer
donny
teran
fling
flour
transitions
transmissions
affects
slack
slipping
latina
##club
connie
paralle
309
loesch
modify
##teen
standup
##ashow
costa
costner
charities
billie
legs
mins
clemson
footprints
138
##alez
specializing
approvals
keyboard
inserted
merit
competitively
redford
discour
protects
hara
receptive
turt
skating
factory
erst
24th
remainder
titus
confab
confront
classes
definitive
motto
greenlight
studying
##oudi
##otta
##baum
266
existed
radar
addressability
refusing
responsive
annualized
considerable
capitalization
samuel
glut
glashow
cultivate
denies
educated
bowick
averages
roker
introductory
solving
maddie
logged
staffs
questioning
revive
stripped
silos
volley
unlaw
micros
spokane
garfield
voye
wallace
cyl
parenting
##henney
321
regionals
##hammer
groundwork
domain
concacaf
diet
splash
berth
toughest
counselor
fixes
sounded
mailed
330
ranges
##maurice
deepen
1977
sends
saratoga
##blower
settling
advisers
376
hyatt
bayou
sweeth
ebb
conventions
terrain
bernard
analyzing
junk
reinst
ryvicker
architectures
hurts
579
islanders
bleeding
alexandra
codifying
utter
rocket
savannah
counterpart
brokers
niches
unsu
1965
1968
grader
abbey
cabin
garnering
earthlink
checking
restricted
labels
ny1
pirated
omd
physically
correspondents
admit
admire
buzzing
winship
surfers
disappointment
implies
scrap
coordinate
tenth
gibbs
villain
soprano
sacrific
masked
ricky
emotionally
methodology
bedrock
halt
intentions
weinand
nicol
conclusions
simultaneous
nuest
enormously
worrying
faber
portrayed
claus
transferred
treasures
bargain
klug
mccarley
mentorship
sparks
simplified
unfortunate
fs2
workflows
liggins
gramm
philosophies
ngc
woj
henderson
nbcolymp
forbes
birds
erika
forthcoming
procedures
buttress
residences
pixar
rigas
coffee
transmitting
degrading
mythic
jewel
racked
duplicate
unleashed
birthday
mitigation
adrian
relocate
fitzmaurice
vigor
plateau
kardashian
vicary
surveillance
settlements
declaratory
chester
aspirational
huffington
wolver
##rieve
skateboard
escapist
rarely
thornton
assurances
mandalay
nondiscrimination
tmt
weapon
weapons
terrible
terribly
syndicate
gonzalez
gandler
rationale
railroad
whistleblower
wreck
avalanche
nortel
webinar
cotto
roundtable
fulcrum
malfunction
nwsl
deftly
doree
dolphins
bounty
greensboro
vernadakis
blanket
underestimate
elliott
mchale
revelations
mcelhenney
exchanges
nuvotv
concessions
expansive
fresno
indelible
pervasive
berkshire
rooftop
daryl
domingo
chrysler
elegant
provocative
expeditiously
cinedigm
##uplets
teennick
quincy
undergraduate
poehler
nbcolympics
050
2a
aer
beng
biker
cial
dci
ego
efort
erect
einstein
flet
fitting
fancy
gy
giam
gerald
hann
hats
icar
iran
jar
jail
kt
kline
lv
lund
licht
lighter
mason
nal
nast
nun
nding
pec
pets
porn
ranch
sook
silly
tate
tum
vim
varg
wip
wors
wfn
yas
zahn
##dam
##dock
##oot
##rat
##rance
##mant
##uld
##uela
##cam
##hadow
##lene
##pm
##pi
##pid
##kerson
##gwick
##wart
##you
##ypt
##jan
##bul
##53
thum
thunder
##online
##eson
##ener
##enstein
##eded
##arz
tob
toch
inad
inews
##ali
##itus
##icy
andor
##levant
##eton
##robe
##eling
##elity
##stop
sta
stumb
##ados
whites
reint
rewind
##aca
##acket
##acqua
##otive
prod
conj
conex
beau
bevil
##verty
chum
cherry
weave
##cha
sake
##imated
##ctional
##agno
spam
##osito
##osphere
##olved
orph
adon
adop
wills
fren
friction
newton
alerting
##ustain
##occ
##ocy
compounded
##ivating
disability
plac
contended
contender
incar
##allen
tee
teed
abby
commence
enro
marvin
##aint
notewor
trum
cohn
coaster
amen
amic
broadstri
interval
upwards
viii
preservation
unbox
unjust
##anski
doocy
outage
##bermann
usher
usda
resem
reside
clink
##actively
bracing
bristol
bracket
agn
##quire
percept
overweight
##ogen
monter
mee
twisted
roaming
multitude
##elyi
decor
decent
##avors
impart
##inking
dems
gene
genband
boils
assort
##ibi
streamline
##eped
movers
thematic
caroly
##encers
salute
caller
payable
payback
##lection
relent
undermin
undergo
ears
needing
corwin
species
pohl
poverty
origins
prompting
##ningham
schu
schult
schrier
descend
longest
flipping
advises
creed
daa
daju
famed
grady
##phoria
slipped
drastically
306
##azine
debevo
surcharge
modular
exto
156
edged
goodman
loser
##iani
boxer
##atted
lawson
builder
webb
realizing
generational
creatures
traditions
nightclub
specialty
formally
pastry
insists
hearn
148
propose
entrance
interactivec
mcnamara
packers
pops
##derone
reductions
obsole
calderone
eva
evoca
harbert
poster
handler
handset
happier
controller
169
skipping
##ynn
blackarrow
midland
benjam
turnout
finalists
finalizing
cement
defines
definitions
definitively
motives
mornings
maturing
matured
infamous
inflection
ca6413
ca6417
timeslot
integrations
213
employers
syd
232
examined
286
functional
facial
shortages
fourthwall
##okes
overshadow
reasoning
terminal
richards
centralized
comparative
##beam
breaker
commentators
glow
emeritus
departed
moffet
454
rosa
searches
1981
jefferson
cartel
cartoons
hubs
choir
chopper
logistics
366
euphoria
revival
establishes
fields
bitgrav
collaps
saturdays
analogy
eurosport
owes
silent
pulls
yester
takethe
##letter
windstream
windfall
petit
archive
tourism
violating
tiering
variable
547
mindy
sentenced
mentions
mentality
##heim
##rete
blogging
simplicity
automotive
berwick
fixer
deepest
1973
fueling
375
divas
capturing
tweaking
influencers
expressing
startups
grandin
banij
bayer
ca637
ca638
televising
473
##borough
rodney
substance
adjunct
trustee
pursuits
displaying
##anaugh
641
oln
olbermann
anticipating
taping
imagination
damn
lucent
luckey
856
wilkinson
incentiv
monetizing
okla
touts
grip
grimes
compensated
unsustain
1963
1969
utilizing
manageable
egypt
exemptions
fellowship
tended
recipes
spinning
criticisms
paint
pains
wesley
jamal
admiration
machines
vehix
vacated
battery
convincing
rampant
864
kidna
lamont
constitute
coward
freddie
ferr
extraordinarily
compliment
bolt
convene
rescuing
prioritizing
witnessed
assumptions
bartender
romo
disruptions
tribeca
torch
humorous
ccap
finishes
gillesp
tactic
uploads
esquire
bethenny
boldness
tubular
psa
pockets
shelley
restructure
dupont
##anya
molen
racism
##2008
resonating
resonates
simpler
memoir
skiing
##stitute
drugs
advertisement
binder
lenders
amplify
gentile
gilford
stephens
ects
luminary
dimension
ingraham
transmitters
newsrooms
granite
irrelevant
squeezed
reaping
inevit
defeated
applauded
disparity
undertake
ecw
hornish
krav
wardrobe
zombies
stalled
deutschland
hefner
immigrant
dressler
accolade
bbq
patti
breathe
longhorn
unheard
instructions
erinmedia
nimbletv
pigs
hinted
belongs
redefine
arbitrary
borrowed
congratulate
innoc
procure
resurgence
occasionally
mallory
brutal
lauded
barker
fyi
rabbit
upholding
intensity
administrations
petersburg
marcien
hershman
nolan
vasarh
urgency
hypoth
furniture
sedgwick
haugsted
assignment
crafting
ozark
winkler
forgotten
unchanged
bruno
erickson
camcorders
occasions
narratives
avgiris
mullin
sacrifice
plaintiffs
eclipse
mundofox
accenture
experimented
zealand
ingredients
bombers
cunningham
sutton
cautious
vyyo
welcomed
karmazin
duopoly
ebersol
alcatel
kelleher
rifkin
mcdermott
slavery
sanctuary
ukraine
inadequate
adrenaline
kressley
inexpensive
scorsese
erstwhile
wolverine
bengals
fletcher
icarly
thumbs
bevilacqua
orphan
noteworthy
broadstripe
carolyn
dajuana
debevoise
interactivecorp
obsolete
benjamin
bitgravity
takethelead
banijay
gillespie
vasarhelyi
1st
aew
apt
aston
aqua
bess
bil
bates
bests
bert
bios
banshee
bocc
cs
cv
cro
cort
cary
cds
df
dew
dag
dying
dune
diana
dwind
efor
eug
eternal
fc
fink
fah
fiter
foss
gim
hick
hild
heck
ia
jg
jw
jsp
jugg
ktv
kier
koon
kov
lach
lament
lips
lemon
mt
mansion
nps
nished
ought
pf
pants
pike
rit
rere
rouse
raz
rider
rica
rsg
sick
sank
siff
sizz
sears
tett
tiles
tuz
tanya
vt
vant
wf
wann
wiley
wisely
xfl
zy
zend
zlot
##nights
##direct
##ocean
##rid
##rations
##mate
##mak
##muda
##uh
##cs
##hi
##hog
##iem
##iens
##las
##sight
##vol
##pix
##kel
##kus
##gal
##gro
##gess
##gard
##yx
##bet
##bird
##xious
##film
##120
##inen
##inas
##inch
##inos
##once
##atou
##oral
##orious
##orium
##esity
##aris
##arely
##anis
##alid
##omi
##isen
##isima
##leap
##rex
##lls
##elie
##still
comer
combo
ons
onyx
sty
sting
stere
stard
stip
stinch
iter
rex
regr
reels
##acional
##uri
##urable
##otes
conyers
##ewater
bein
befriend
##vering
##verent
chor
chiqu
wearing
##chemy
anach
atkinson
##usa
##user
##ulo
##iesta
newman
newark
alum
alchemy
##estream
compel
compressed
disl
disasters
disrupted
discharge
plight
mover
20ht
byr
mari
brody
trent
tricia
lebas
coke
##rouch
broadlogic
allied
offline
intercol
vib
viability
vibe
unile
unifi
##pto
##answ
accred
outf
outer
teletra
gob
##odes
cloon
intric
brunch
arrow
communicated
liver
liars
perkins
soch
maneu
rech
fein
reprises
monsters
quer
quiz
##enders
##achi
meeks
rox
rochester
preach
buses
workah
firest
strings
buena
##ails
afghan
aftra
distort
imposition
##reatic
booming
bollywood
weeknight
weeknights
regis
industrywide
systematic
setup
blessed
carmichael
justification
##ologists
##rao
playground
##itte
invalid
technologists
paypal
seasoned
sms
mayans
watchful
relat
undergoing
undermine
underrepresented
undervalued
earl
earliest
caa
caes
capping
corrao
##ancies
vein
origination
homeowners
endured
##onson
schup
colman
remov
desai
##bride
grinth
demanded
besting
bested
##ftime
##lessly
dressed
2026
mynetwork
greatrex
surfer
financed
##places
headlined
152
159
standstill
eden
sims
counters
docs
experiential
rulings
speedway
severn
##amax
generous
timed
trades
formidable
ca650
hostile
hostetter
insure
entail
entrant
elon
merced
breast
powering
obesity
sworn
harley
peete
musicians
equitable
postgame
##selin
clearleap
passions
505
nearing
16th
storms
blackburn
pricey
bena
standardized
martina
##lander
stepfam
classical
classification
ipgs
financialcontent
##onta
waithe
infancy
ca6435
screenplay
fallout
magnet
congressionally
diversify
227
medias
funeral
275
virtue
renomin
refuses
##ikoff
discusses
291
samba
denial
appease
departing
casts
horrib
massoudi
copied
ensuing
selective
burch
burgess
logging
staffing
striving
lowering
environmentally
statistic
dominic
eyed
owens
respectful
##cahn
contributors
parkinson
balked
artistic
mccask
gigantic
travis
cooley
videot
failures
squarely
##ezuela
kingpin
awful
applicants
traveled
automob
bermuda
387
updating
337
answering
##maid
1970
exchanged
arrest
rogue
susanne
##ervations
428
julian
difficulty
segmented
trialing
materially
##ecker
strengthens
cta
chapek
##205
sandwich
cardboard
rodeo
championing
penetrate
raycom
raymond
trustees
touchdown
##ovic
##legiate
reinfor
640
643
welch
welcoming
welcomes
floors
venezuela
tapes
##757
hurting
moderators
trailing
cookie
islands
appointments
610
brokered
melt
handsets
utilisima
##innon
referenced
wgae
appropriations
##foot
sensors
derive
nypost
lynne
665
routinely
simulmedia
ronald
synthetic
625
adaptation
frequencies
684
deaths
##126
hawkeye
kimber
868
874
jacob
tablo
flynn
pledges
##cription
borrell
##644
cosgro
sidew
bosses
weakest
reminded
794
halftime
conceding
narrower
reduces
concentrate
prisoner
encoders
nuanced
nuances
clauses
##obi
shelter
inauguration
mistakes
ambitions
punishing
##2007
shaun
sparking
vertically
gangsters
rushing
fulfilling
greeting
impermissible
##369
seamlessly
acclaim
inductees
hindsight
amplifi
stems
revolutionary
preceded
forbid
grabbed
grabbing
ravens
dpuc
rivera
transportation
supplemental
rumor
beliefs
survivors
sadly
favors
coffey
quantify
labeled
gaspin
pallad
sabrina
##market
irreverent
squeezing
ortiz
royals
stressing
undertaken
replaytv
unbund
friendships
##model
quotes
troublesho
scrutin
gainesville
pillars
abdul
mounted
isolated
erotic
extras
exemplify
exemplifies
lingo
mackinnon
reinventing
gifted
hoog
kudlow
outpace
salvation
filtering
gratifying
telescop
nicholas
friedman
scanlon
symmetric
diagnosis
divestiture
diligence
crushed
contenders
resistance
dissenting
##frame
unconstit
dashboard
hutch
lecture
lexington
3101
recruitment
vivoom
intersection
redesign
holloway
mcconnell
ascension
smoking
endorsement
intuitive
potatoes
neighbors
##america
sterling
vetted
amdocs
mancini
improperly
cotton
disabled
indoor
elaborate
geoffrey
awesome
schiffman
lifetim
guitar
aviation
gossip
pancreatic
sxsw
wrangling
fragmentation
staggering
cbrs
gosselin
gervonta
necta
stymied
arsenal
ministries
infomercials
##croft
contingent
indirectly
parallel
voyeur
klugman
giamatti
hannity
vimeo
vargas
agnostic
sydney
yesterday
unsustainable
inevitably
boccardi
eforts
eugene
fiterre
koonin
lachlan
rereg
tettemer
wannab
zype
zendaya
stardom
chiquis
anachron
20http
intercollegiate
unilever
teletrax
grinthal
mccaskill
cosgrove
2x
2q
2f
9th
ao
ald
bach
bish
bolog
cian
cakes
cantly
dh
dies
dame
dough
danson
ea
fey
fade
fda
gers
gator
gaps
hq
hone
hynn
jaw
jpeg
jha
ki
kre
kst
korn
kern
kbps
lub
lone
lough
lilly
liao
mip
mans
macy
nm
nin
nap
niss
nug
nintend
och
pap
pier
ponder
pumped
rim
rake
rous
ranc
rms
rah
rola
sip
tx
tich
tacom
tired
tds
tusc
vogue
ws
wore
wcm
xx
x2
yar
yance
##aj
##nut
##nier
##dream
##oard
##oys
##oitte
##rar
##rint
##tal
##math
##cp
##crib
##cult
##case
##cripted
##hr
##hon
##har
##iaries
##eastern
##vall
##people
##kit
##kow
##klin
##gg
##green
##gio
##yroll
##bri
##bound
##beth
##baby
##774
##zilla
##56
##89
##fold
##first
thir
##inqu
##inating
##orris
##ndall
##enos
##enez
##arad
##anp
##analy
tos
inequ
##alter
##itarian
##omen
##ionable
##icago
##isetv
##ouch
##leaf
##etics
##rend
##llis
##rogramming
##stime
##steps
stating
stamp
stiff
stoner
##illed
reut
##acies
##acio
##acious
##urro
prow
probe
proxim
##ewar
beam
ascend
chell
webc
anxious
sht
shor
shri
shining
shuff
shorter
atva
deon
sues
##andro
netrating
orby
adler
adhere
willy
prag
newfronts
newseum
seed
disk
disin
heal
##artney
plasse
contiguous
incomes
tekt
abel
abound
abbre
aboard
enrich
marines
marina
##ifier
##casting
servant
##ema
##emia
notorious
traced
leed
leigh
leaf
coin
covey
coding
ames
vix
vijay
##ipedia
uni
unse
unoff
unequ
unspec
unansw
outgoing
##opoul
apprent
claman
agility
canon
overture
overdue
manual
repay
reprieve
monkeys
expose
explet
quote
##irectional
##hnic
twitch
##icki
busch
stray
hader
buoyed
devin
noble
lasting
verify
impasses
##ventional
boats
assoc
##rowing
##ishly
##ensible
##assi
##assarian
blade
##angle
carac
carved
carrot
aftermath
19th
foxsports
invoked
technologically
payroll
smoke
thinkanaly
deloitte
backf
backlog
backstage
relinqu
filters
daydream
wayans
signif
speculated
airlines
##onsc
##weights
mckee
rematch
fln
flm
flung
quarterf
depicted
affi
guad
slipp
##cled
##click
##ethered
stillerman
belush
belmont
modified
##ronix
##ronics
155
announcer
edo
edg
edgar
ida
simone
simms
legion
primaries
autumn
familynet
opportunistic
janus
janoll
1396
telecoms
##linger
##ricts
inserting
##parable
subtle
imaging
purdue
totals
populated
##scales
trian
profiling
calvin
managerial
swell
harron
harpo
harrigan
nora
walks
pepp
posters
steering
50th
turmo
metv
raft
nears
hardship
##etto
##vernay
emcee
erences
davidson
245
turnkey
confused
1000
spotlights
combating
landl
morales
sumner
suppose
tyndall
214
satcom
satirical
greenville
greenburg
magness
organically
techs
symp
symson
clicks
clicking
235
funky
ideals
readily
274
encores
excuse
mondays
fxx
stateside
impactful
radios
refocus
closure
deadly
comparing
snook
##central
detect
breakup
humble
glen
354
natasha
##ilarating
##doing
castro
massacre
##apeake
copa
plex
predator
flowing
ensures
mills
identities
logos
circles
mandating
summed
installer
lightly
owed
silberman
fremant
fanfare
mccoy
mccoys
mccartney
mattel
gamut
petro
wheels
vox
doubleclick
inspector
archival
tourney
bureaus
commonwealth
publishes
appealed
556
humanitarian
domen
activations
subsidiaries
taika
dipping
berry
berning
tunes
alternatv
layout
thrills
hammond
doubted
speeches
consulted
consultants
##zzy
pitcher
candace
diva
learns
##lieb
felix
taxing
strengthening
transformational
familiarity
##iffe
cells
cheek
knowledgeable
catfish
catastro
analyze
trusts
##113
junct
venech
catches
##7554
collaborator
clara
clarification
damon
damaged
damaging
cookware
shutter
alexis
531
612
rhimes
investigates
tacked
1966
observation
gregg
cablenet
utilized
utilization
substantive
incorporates
gaunt
operationally
bucket
aggregators
kara
717
riders
solidifies
solidarity
duvernay
pirate
quebec
pegged
magnific
maximizing
opposes
omn
backgrounds
885
podium
weighs
prohibitions
physics
corresponding
rams
admits
conservatives
precision
precurs
miranda
mirrors
journeys
batting
marsha
scoreboard
wrongdoing
sleuth
##eworks
895
horizontal
dickinson
laughing
climbing
##oopers
sustainability
recalls
nonex
lieuten
emotion
095
ghosts
aje
bedoy
halogen
mountains
##oyo
##icanes
exercisetv
hooked
hangs
lightshed
canadiens
ca6513
overlap
empowered
haygood
dirk
transferring
quadrup
cuba
commands
pocoyo
sherwood
discriminating
mcmorris
motivations
kristina
shaft
lobbyists
hackers
stopping
frost
skein
liga
wyatt
consequence
unconsc
scalable
mosley
mosko
inductee
guardians
hurricanes
pinned
blockbusters
gentleman
gilbert
woes
thermost
preceding
hatton
unreal
convicted
favre
nutr
transmitted
hotspot
manipulative
pounds
injuries
milestones
mythbusters
supervising
kyra
reorganized
crawl
##927554
barrett
uniqueness
recovered
preschoolers
viceland
concurrently
incidents
stringent
algorithmic
deleted
selena
endeavors
dusted
ruddy
chesapeake
lovett
lovato
horses
horsham
wikipedia
stella
heightened
cannibalizing
lutz
crunchyroll
divorce
gavel
bravia
efective
fertile
rotation
rustin
varying
genuinely
absorbing
eagles
ribbon
siblings
alfredo
telesat
admittedly
spacs
slimetime
geographically
awaited
administrator
underscores
pumping
hershey
alec
stifle
revere
unconventional
recycling
discontinued
nonscripted
haugen
caprica
capricious
parlay
crafts
packetcable
monopolies
kurtz
mimo
retooling
encounter
nerdy
sofia
swedish
safeguarding
cruise
ridiculously
throttling
terabyte
glendale
guru
porno
##business
decisive
##eeeek
baghdassarian
dalton
orchestra
invisible
lofty
purveyors
futuristic
empty
stewardship
trailblazer
prototype
inaccurate
eschew
pessim
##roduction
checks
exhilarating
amateur
lavish
statuettes
wildfires
hurlbutt
recapitalization
ritchie
clifford
overriding
distroscale
belgium
philanthropic
ruthless
macdonald
cancellation
fischer
unmatched
unrelated
unemployment
incorrectly
reconnect
cigar
tartikoff
tupelo
inferior
stalking
sobering
sweetheart
tocheeeek
inadvert
conexant
clinkscales
impartial
innocent
astonishing
juggling
razor
intricate
schupack
removable
borrelli
telescoping
lifetimetv
aoibda
bologna
nintendo
rolapp
tacoma
yancey
proximity
netratings
tektronix
abbrevi
unspecified
unanswered
##opoulos
apprentice
belushi
janollari
1396927554
turmoil
fremantle
catastroph
bedoya
2d
3m
4c
5th
860
aides
bn
bis
bast
bere
bain
bree
bail
burr
bother
cout
cue
cip
cially
dus
dul
dense
diving
ee
ez
eich
gaw
gorge
hans
hamp
hines
hsm
jays
jung
jinn
kd
ku
kann
kram
kano
kessler
lc
lp
lap
lamp
lump
lptv
luna
mous
mish
mfn
nose
nance
nune
nike
nique
nerv
nlc
nugg
npd
ouster
pich
pbr
pistol
qw
riv
ratch
ritter
ruff
sot
sway
sanch
tan
torn
ull
ustream
vong
vying
vivid
vinc
wec
wad
wounded
wapa
xi
xs
xy
yu
yang
zagin
##ais
##aid
##nor
##dm
##dled
##dez
##rass
##rama
##racts
##ridge
##tie
##uition
##uyer
##cas
##cap
##cons
##cinem
##high
##hart
##home
##hanna
##lay
##lining
##eous
##eason
##sb
##ski
##vr
##vis
##vable
##vale
##pier
##gable
##gun
##gian
##jia
##jandro
##zi
##zog
##frog
##94
##´s
thur
##iner
theo
theories
##atility
##ndas
##ingham
##eder
##edown
##arket
toky
inh
inks
inhib
##itled
##omed
##iona
##ionage
##asure
##isphere
##letp
##lete
##requ
##idas
##roof
##elage
##sten
##stan
##stick
##struct
forres
##utv
##uter
stro
stagn
stefan
##igel
##ads
##adas
##aye
##ayon
##urd
##urz
##oter
proves
provin
conform
conrad
behold
beats
##vered
wears
weigel
##chanted
anstrom
sauce
ships
shops
##imeter
##astrous
##thro
##uliar
suing
##ands
spar
spate
spades
##osures
netchoice
cableos
adher
##iler
##iltered
willis
pry
newbay
alar
alas
aloud
##esta
compass
compton
comporium
comprogramming
##ivable
sext
##ccess
displaced
disastrous
heating
plag
plastic
mof
tv5
contends
##uma
byu
byutv
envi
enlight
ensequ
enchanted
brosn
##emates
##ortrend
##ecto
notre
traged
tr3s
leach
coy
cope
amster
allot
offensive
interior
interstate
upbeat
vietn
preserved
preseason
unac
unhealth
unpaid
neu
nevers
millionaire
vida
##ulty
##acked
accustom
##kell
usga
hisense
reselling
resisted
##aprio
clive
##videz
timeframe
brace
brass
branson
foe
foes
laund
perplex
overd
soaps
feasting
##ogg
repack
monique
##osevel
scout
scare
scotts
directive
meals
##uba
roosevel
newsweek
prequel
##onellis
busby
##arelli
sportscaster
hadd
##lov
##onditional
highspeed
##cool
districts
verifi
##independ
##venth
000s
assass
regina
##lical
setanta
carmel
herzog
##ittish
invites
espionage
maz
maid
thinker
nationals
delve
backbone
crus
##vier
corrupt
yorkers
airports
vega
veered
##web
schre
schae
schurz
mcbride
attest
attitudes
attracts
curricul
terayon
desir
deserving
longform
longoria
flick
adverse
transfers
posing
lifel
centris
grud
sincer
slat
slap
sliver
drone
dracon
parale
parole
valent
valdez
avails
lovers
loki
headach
headroom
announcers
##ashi
189
defn
defne
loses
shareable
promoters
charm
buildouts
primed
docud
paw
paqu
histories
musl
generator
creatives
openap
speciale
specializes
hostage
##parents
purview
propelled
##olutions
smalls
rightly
righteous
interacting
mercer
futures
futbol
brenda
populations
redeem
protective
177
178
172
neglected
beginnings
swain
switzer
handica
metaph
hardy
163
optics
skies
skittish
emerson
empting
blackstone
erl
erase
ernie
errone
##marked
filmon
valuevision
lessen
socially
presenter
fuller
confined
committing
younge
portug
innovid
rollback
motel
motortrend
moral
morrow
innovator
tyco
211
halfway
superf
superman
patty
greenwich
employing
congressmen
syl
michaela
228
mediator
hitron
funnel
designs
readiness
272
tna
actionable
projecting
jonas
##meade
categor
judicial
introcas
smartest
danes
dancer
295
happenings
antonellis
trackers
gloria
celeb
celebre
agendas
eleventh
emeril
353
transitioned
matchmaker
456
453
neutron
solo
solberg
madden
conversions
##iculture
paulsen
optimizes
mandy
strives
stripes
brightest
installs
installers
##ergy
collateral
retails
volatile
explored
contributes
artie
809
crossing
bbca
disprop
tourists
cordova
readying
squab
heaviest
milk
milch
557
curation
levitt
converg
traffi
kickoff
cupc
louie
concrete
inventing
detailing
tenuous
bloggers
385
443
##boxes
writes
ranged
##edios
optionality
unfiltered
##zzi
demonstrations
implementations
379
divvy
contested
scottish
darkness
decidedly
absurd
taxpay
leavy
baylor
tonia
afforded
insightful
township
olive
##754
nominal
bellator
heartland
appointee
bleacher
bleeped
juke
katy
538
monetized
britney
fatherhood
irr
investigators
crowds
sucks
securely
grim
homage
homeless
assisted
litig
gradually
vault
##180
eggs
eliminates
596
dinosa
##llinger
santo
karey
warsaw
stevenson
sensational
derives
bulletp
burnett
boyfriend
solidified
orioles
tagged
taggable
ilene
quello
##bros
sharks
magnum
adapting
songwriter
multimedios
storyteller
complementing
kennard
buzzword
hawk
brotherhood
chefs
dangers
unveil
sleeps
buffet
buffering
890
tables
constituted
ovds
ltn
kopp
lockdown
697
ruins
villains
complac
certific
daring
reversing
borough
masse
wishes
snowpier
rivalry
ignacio
praising
attachments
cosmos
nodes
schwimmer
ratner
romance
romney
crackdown
dads
marquez
brainer
scientist
ca6456
troops
uploaded
overlays
nuance
sorcher
gemstones
ps4
cdns
hrts
mathew
shelanski
shields
glee
padden
dunn
leapfrog
ironically
immersed
dcr
sparklight
greeted
correcting
cpm
fragile
ca6467
uncut
unconditional
guns
surgeon
creep
guarded
tutelage
calculate
mysteryquest
1950s
boutique
allocating
supplemented
overturning
suburb
cedric
convictions
denny
laden
##winds
frustrating
jurisdictional
quantities
manipulated
manipulate
gridiron
borders
novela
polarizing
terminator
defeating
gloves
jewels
encrypted
nails
monsterfest
envisions
untitled
unbelie
eliot
accompanying
wagering
morton
enforced
disagreement
scarce
gravitate
breaches
breached
picketing
commemorating
withdrew
persuaded
reconsideration
mounting
bcap
lovecraft
olivares
feldman
enacted
scramble
culminated
accidentally
bravocon
explosive
kcal
cronin
telenovelas
soliciting
tossed
dismal
dismuke
tmz
plumm
waxman
kilmeade
chaos
disconnected
petersen
vaccine
vaccinated
kamala
alumnus
alejandro
auburn
stitching
reimagining
kendra
tillman
##houses
hemisphere
pooja
vicki
withholding
encountered
bathroom
strickling
redesigned
brokerage
impairment
kirkland
fringe
shepard
shepher
rebellious
lorenzo
meteorologist
agriculture
cindy
dicaprio
lecuyer
melding
depicts
loosening
embarrass
detrimental
pascarelli
freelance
mccormick
therapist
hilary
gentlemen
hatfields
ganeless
tinker
deposits
featherweight
postponed
marginalized
gesture
pearl
cohes
clothing
astronauts
aisle
vlad
##economic
leibowitz
cliche
manifest
roamio
volleyball
unlawful
unsuccess
cabinet
vigorously
peculiar
adonis
assortment
overshadowed
hypothetical
dwindling
fossil
ktvk
rousey
outfitted
afghanistan
benavidez
unconstitutional
gatorade
hynninen
nissan
prowess
thinkanalytics
edgier
juncture
gauntlet
quadrupled
pornography
gawker
hampshire
jinni
kannan
kanojia
nunez
nervous
nuggets
sanchez
ullman
vongo
##cinema
tokyo
forrester
beholden
ensequence
tragedy
amsterdam
unhealthy
accustomed
laundry
roosevelt
curriculum
draconian
paralegal
switzerland
celebreality
disproportion
dinosaurs
bulletproof
snowpiercer
2m
4th
8m
820
960
au
aunt
bate
bia
bloy
bicy
cis
cagr
dd
dong
ditt
dta
edu
eman
easter
fad
fow
fence
fined
fals
font
gs
gir
gag
gins
gaza
gdp
hed
hac
hab
hess
hilar
hetz
iann
iia
ibc
icel
icahn
jm
jab
jol
jerem
kon
kou
kos
kour
kse
kav
kai
lac
lun
lup
lured
mj
mf
mast
mild
muted
nr
nest
noc
nud
nord
nancing
narc
oust
oibda
pour
pend
pitt
pairs
peck
pimp
rin
rall
rage
ruck
rmed
raging
ripped
sas
sift
sipp
tia
tort
tons
uef
udp
vor
vand
vub
wet
wig
waking
wpl
wishing
wanda
wahl
xli
yari
zitter
zodi
zeta
##dict
##overs
##ras
##tors
##mount
##master
##masters
##morgan
##uant
##cat
##cipher
##cicki
##hur
##hugger
##last
##lift
##ean
##eff
##eves
##sburg
##vet
##05
##pers
##pace
##kh
##kool
##gear
##games
##walt
##yield
##bin
##bial
##bilt
##bodies
##72
##71
##zell
##48
##freed
##feed
##93
##927
##175
thrust
##eri
##ergan
##inis
##oniously
##onetics
##ndon
##enbach
##energy
##edo
##aru
##arre
toast
inex
##aler
##alia
##itech
##itetto
##omedia
##icate
##asley
##ouder
##eters
##etus
##ettered
##ethnic
##reb
##entin
##enton
##stall
##ecoopers
##ersen
##ersand
##amiliar
##utical
stal
stir
stub
stomp
stasi
stmic
##illage
##adette
wham
whitt
rej
reagan
##acris
##aceted
##acerb
##owan
##owks
##ayer
##ayola
proj
prover
cone
conroy
##ewell
beasley
##vera
##irts
asper
chucky
chloe
wem
##rival
anyst
anemic
shal
shack
shaking
sheld
shores
shvera
##essel
deleg
##usations
##thon
##thorne
##ules
##ulse
##agger
exits
exacerb
spi
spont
sphere
spalter
adgate
##ilation
fraz
frantz
fruition
prad
prere
prud
prouder
alon
alley
alban
compound
composed
compelled
##ivoc
seized
semin
hass
##eovers
disord
disple
discer
heir
heidi
##aki
##grid
##annual
incom
##umbo
tees
marine
marjor
marwan
marlins
##ifaceted
##emagno
trash
leans
coolid
cogn
##send
##sella
amm
amir
offsh
offload
interrupted
interfering
upc
uphill
vie
showdown
presstime
unim
unavo
unaf
unaware
##ptons
##geist
##ghai
##ultuous
##acks
dopes
accusations
theirs
outages
outbreak
telepr
telethon
goad
gods
marketplaces
resum
##oda
##apy
appell
clipp
clerk
brides
indict
indeb
##qual
##lude
liable
perret
manor
manger
recount
recused
reproduction
monkey
expedia
exposition
quit
quid
whoever
directory
customary
roch
multifaceted
newsmakers
whats
prefers
workings
strad
sportsbook
##aceutical
devito
nostal
##ousy
highmore
decomp
##cov
##avi
##avio
acr
acres
distaff
verklin
verdict
dealership
##issance
impending
imposing
impetus
##inko
##sps
##inders
demarc
warnings
genoc
boch
boiled
asserting
##ibu
regan
regain
grouped
##ensely
phant
phased
wwor
setbacks
blod
carmi
justifi
herald
retract
continual
invoke
invigor
undue
wherein
esposito
mah
mae
paywall
##lectic
smiley
livek
underworld
crut
crashing
cramer
crayola
##vio
earmarked
fuzzy
correction
discovers
yorker
specified
poign
chairperson
veiled
averse
scha
schned
schram
mcken
mcstuff
mcadam
colts
donating
remanded
desires
flop
flame
flatt
depress
dahl
grain
grids
gritty
teamwork
guessed
slip
publicis
secondly
parish
parade
##anker
winsl
##enna
begging
loeb
surplus
##itsch
modeo
headset
costumes
188
defying
defensive
goodell
charism
minson
wrink
wrench
##uciary
esteem
estefan
differential
html5
opportune
speedtv
versa
cleaver
apace
acquir
realign
##iliated
creatively
ca629
lina
lining
linney
##ricting
insult
insati
##gestone
proportion
totality
##elda
planes
sharpe
trips
profiled
evangel
swire
swirl
swanson
norwood
pej
peaking
basement
stockholders
##peak
clearer
clearance
handy
handheld
metairie
rave
skins
gotlieb
erased
farewell
midday
midpoint
everett
241
standardization
finances
financials
amazed
confessions
youngest
combinations
landel
definite
mormon
404
402
hollinger
barn
infect
infrequ
infonetics
ca6411
ca6418
ca6490
panic
documentation
##umping
libert
congressman
organizing
symph
234
233
239
231
221
##clusive
hitachi
studded
lowers
faculty
shorten
noncont
268
appliances
improves
refrig
refurb
exclusives
risky
significance
planners
politico
sections
condol
condem
tuesdays
modeled
detection
ultrah
290
298
antagon
eleph
355
electronically
draper
immensely
496
copying
pleaded
pricewater
foodnetwork
malibu
selects
mixing
crowned
interviewing
badge
collects
camel
camarad
urges
complaining
logs
fairfax
saturation
optimal
revital
holistic
##umbing
##struck
westin
##ergens
domination
copywriter
takedown
multiethnic
parking
switches
balk
booking
contracting
texts
circulation
motorcy
crossroads
voy
watts
inspection
archae
dispatch
904
milan
555
curtail
vendetta
pretend
540
understandably
palatable
palumbo
converge
disclosing
lougee
housed
concili
invention
problematic
auctioned
tapp
440
layers
organizer
hamptons
meaningfully
battlebots
fault
##linear
profitably
bowls
##mington
rogen
evolves
unfettered
unfamiliar
lacking
rebate
settop
survives
brownback
brownfield
predictably
divis
rapids
consolidating
grandfather
##2010
televises
guideworks
##ospace
widgets
historian
cardinals
4719
misuse
gettysburg
bernie
bernadette
bridgestone
townsend
trustworthy
##118
pursuant
elevates
##puted
venice
laurie
genachowks
reformatted
imagery
moderates
collaborated
collaborating
bonuses
clarifying
578
cooks
515
ecosystems
juergens
lucia
honorary
530
wilmington
nexus
615
evidenced
megaph
retained
accelerator
reclaimed
dubious
assistants
compensate
doorbell
linden
woody
egg
earthqu
fellows
santana
checked
adventur
restriction
adjustment
adjustments
710
714
##fortable
migrated
tags
##508
pitmasters
##eremoniously
sync
magnate
omari
wester
mrc
montemagno
motherland
ramin
##iconduct
miracle
machin
buzzer
conditioning
hawthorne
hammering
narrated
985
981
cleaned
metrocast
ralphie
dangar
comforting
810
819
781
aaronson
cowen
hartenstein
freder
ferree
flyers
psychological
bolstering
fttp
mulling
inputs
crystall
lymph
attaching
cosm
sideline
gatekeeper
ratatou
disrupting
bedroom
solekai
tablettv
tactical
murdered
kanan
vinny
hayashi
bargains
commanding
assembling
biannual
semiconduct
misty
prolonged
instrument
embodies
##uxe
bronze
gadsby
##251
##2000
avidity
gangs
hopefuls
greet
crashed
marathons
unceremoniously
lionel
##aloosa
axe
knocks
knocked
knockout
hinder
fnancial
censor
srms
compatibility
paso
erie
blowing
vampires
##party
##ompter
whitney
plainly
rendered
manipulating
booths
sunnyvale
rejection
continuation
revamping
irreparable
caval
reaped
mosseri
outsour
decreased
relaunched
superiority
scratched
##feit
aligning
disciplines
reunite
circumstance
donnelly
adrien
pulitzer
wagons
wizard
presumption
reconc
mortgage
mantle
ivillage
jeopardize
alterman
schemes
ipods
reactions
romano
tatel
sebast
declaration
bulletin
treehugger
##borne
overwhelmingly
tattoos
interstitial
undisputed
cannibalize
pedestri
ampersand
polycipher
extrav
acknowledgement
macken
deliberate
arbitrator
brazilian
fiduciary
jpmorgan
rotating
resurrect
explicitly
reluctance
nicholson
drumbeat
punishment
gonzales
ayo
downgrades
hungary
tidy
tidal
overhauled
prominence
gracie
stabilizing
configured
configuration
nonsense
unitymedia
snowboarding
kurt
langner
siege
replicate
disappearance
jockeys
kinsella
otter
uncomfortable
strickland
sweden
restraint
camcorder
occasional
safeguards
wcsn
mariners
recreation
underpinnings
endorse
adversely
dct700
shahs
levied
terabytes
affirmative
shanghai
composite
unravel
photographs
grappling
ludacris
spooky
commodity
enlisted
reckoning
multiplexing
dabbling
nhk
sgt
stelar
chancery
obstacles
skyrocketed
withdrawal
##manship
clasen
erupted
overlooking
nurturing
mitigated
lurks
unaffiliated
pharmaceutical
biographies
##popular
mehta
mainstay
720p
lsu
wacky
brochures
reshap
overlapping
strictly
flourish
reinstated
wojcicki
jewelry
tumultuous
worsening
enrolled
monterey
kravitz
procurement
kiera
vantage
zlotnik
byrne
accreditation
maneuver
firestorm
mynetworktv
mediasmart
horrible
videotron
meltdown
kimberly
hoogstra
cianelli
tuscaloosa
pragmatic
caracol
domenech
precursor
unconscionable
inadvertently
berend
compassion
brosnahan
schremp
lifelong
slattery
headaches
docudrama
introcaso
bateman
bloys
falsely
hackett
hetzel
iceland
narciss
sippel
uefa
vubiquity
wplg
zodiac
##hurst
##freedom
stmicroe
proverbial
anystream
sheldon
frantzreb
marjorie
coolidge
unavoidable
unafraid
dopesick
teleprompter
clippers
indictment
indebted
perrette
demarcation
schramm
mckenzie
winslow
insatiable
symphony
refriger
ultrahd
camaraderie
genachowksi
crystallized
lymphoma
ratatouille
2g
7th
ain
ait
ave
aus
aul
aaa
bakers
baza
b2b
cous
crouch
d2
dice
dives
dway
dumped
eats
fon
fth
fath
fading
gild
grees
hb
hf
harg
houd
hanks
iz
ims
ieee
jt
jal
jain
jarg
jared
juggle
jigs
kb
kapp
kcci
lis
lust
lak
lizz
lenny
mitt
mund
mesh
moses
nl
nit
nos
neo
nah
nixon
owe
oops
pff
pare
pik
pique
pitting
pfe
rr
roost
rope
rgu
raving
ss
slo
sbc
soder
siesta
tin
tir
tain
tata
tug
tuc
tuss
taker
tanks
uis
vog
vices
worship
wicked
xv
xcl
yoga
zi
zand
zoo
zager
zidd
##aith
##aults
##aque
##aissance
##ng
##dh
##dep
##dtv
##datz
##oints
##rit
##rons
##rup
##rane
##tit
##times
##tario
##mor
##mom
##mad
##mey
##uum
##uori
##cence
##camp
##corn
##hu
##had
##hear
##hler
##handed
##iom
##ioli
##lis
##lam
##long
##lane
##ept
##eke
##egle
##sion
##search
##vn
##vd
##vo
##vu
##vh
##08
##pack
##pages
##pric
##kward
##gom
##gpt
##gone
##gamy
##was
##jer
##jour
##bh
##bid
##bush
##zews
##xic
##xham
##xpress
##fs
##fin
##fight
##felt
##100
thwart
##erville
##atis
##orable
##orse
##esper
##esda
##enches
##enberger
##ingle
##edited
##edys
##arts
##arlo
tol
tosh
toxic
inning
inerg
##itized
##itaries
##icle
##icec
##asa
##asive
##asma
##leigh
##lements
##etri
##etap
##rovers
##roches
##elon
##ecy
##ecoming
ontario
##amorph
fork
foret
stod
stys
staf
stero
itc
##iga
##igans
##igital
whirl
reop
reuse
rejo
##oway
##urig
##urities
proph
conch
conund
isbe
bebe
beece
##irety
chast
chey
chave
chapp
chops
weary
##chio
##riani
sapping
saga
shen
shaving
##imi
##iments
##cta
##ctic
##unts
##usic
##ulik
##agi
##agne
exorbit
##oscop
##olics
orr
orte
admission
##ilia
##ilms
##ilante
willful
frito
fraser
pru
prone
##ppin
##ppert
##workable
alber
##ocal
sey
seid
seated
seize
##icef
hailed
disable
heff
plaus
plasma
mold
modu
moxi
##gra
##grin
209
tvos
incite
abi
entic
marie
marang
marily
brolin
servicing
##emption
##emedia
##ecting
noto
trinity
trenches
leves
##sover
amas
amos
amish
ambros
##ipino
##ketv
una
unite
unreg
unta
unbrid
unicast
unrest
unwind
unedited
unworkable
unicef
neylon
medial
dob
videoamp
accusing
##iella
outbid
channeling
goose
##bergh
useless
resell
residence
resolutions
cler
clan
claud
##ongs
##actors
brat
bras
bricks
bratches
fosters
agbo
##ordie
indy
indicted
libre
lippin
lauer
canc
canela
perview
overload
overarch
sovi
soared
addams
recaps
repos
monty
##acho
melee
##ubin
customizable
##iston
joanne
prey
precar
prejud
businessman
devoting
lastly
digi
digest
interns
##ostv
executions
##coat
##ixed
acorn
digitalsmith
vermont
becker
imply
impeding
impulse
##span
##index
demetri
warns
genie
generic
genev
genesis
boise
assaults
##ibur
##lication
##assat
phasing
setback
blaming
blasting
blitzer
cara
caring
carving
carrey
carmen
carrad
carpent
##rawn
1934
fiostv
##boat
salons
salmi
mait
maven
mahal
payout
seasonally
knit
knuck
deluxe
relive
relates
underwr
crtc
##cero
subscribership
cait
needless
filipino
billionaire
popping
##arkin
aires
airplay
##ierta
increments
homebu
##wegian
##ictures
schul
mcke
mcelf
mcgu
mcgar
mcfar
mcgee
nexttv
remorse
curran
desesper
desroches
flipped
flicks
transp
salesman
evenings
depict
gras
sinister
##cliffe
brandy
takeout
takeaways
paro
parody
307
locale
locals
##leson
begs
corpus
keib
suratt
modification
##planet
gameplay
announces
madea
standout
##otherapy
187
1876
defning
defamation
deficit
audiencexpress
freeze
##resh
##attled
minow
minors
thenews
speeding
realization
comedycentral
footsteps
generators
258
##yssey
carrie
keyword
importing
insuff
subtit
hears
goofy
##ahasse
entirety
elbow
believer
merry
sharenow
##engard
popcorn
redneck
redemption
powerhouses
trilog
obi
calab
negatively
swear
harrer
norway
norwegian
wales
peel
peering
holdgate
postal
passenger
handmaid
happiness
508
metrix
metamorph
164
skit
skipped
storied
emmer
blacks
ern
errol
farina
farassat
midseason
filming
governance
nickn
nicky
evercore
242
vodka
negotiator
variant
confron
confessed
hulk
tread
classmates
##ucked
ceased
cequel
portability
spectrumco
403
innovating
##onto
ca6412
ca6492
ca6439
screened
satkow
greenlights
liberties
288
facets
shorty
276
encode
reasoned
goldsmith
ottaw
virtuous
raddatz
renaissance
maxine
robber
robyn
honing
##ikh
##shots
sanction
jeanne
voicemail
snip
capitalism
capitalizing
leveling
60th
detavio
fios1
humbled
tracked
denzel
357
christi
christie
natale
immune
southeastern
messiah
452
phpand
virtualization
horrific
masses
rosengard
covert
##gener
flowers
##steen
malice
maldon
solon
burner
millimeter
shoe
battin
fairy
casinos
optimizing
optimizations
figur
##ertips
despierta
circling
holo
westwood
westbrook
##ergate
dominates
##olfini
frey
fremont
practicing
microphone
##iciencies
probation
probability
takeoff
garland
roseanne
balart
803
rockies
windy
contractors
contractual
gigante
achieves
crosses
inspires
georger
squared
capacities
552
penning
penafi
curse
curtain
stakeholder
##player
disclosures
cribs
consisted
slingplayer
awkward
tavern
automate
diary
splinter
characterization
armisen
444
reflection
reflective
syndrome
faiz
deepak
professed
rosenberg
percentile
vrv
##zzlies
rebates
surviving
fifty
tweak
colorful
taxi
influencing
##ropolis
433
illness
occurs
ca6392
ca6344
sandford
florence
widow
historians
cheers
526
522
miscon
misgu
cooperate
##knows
analytic
bridal
elevating
waterfront
rutgers
488
olson
springfield
float
venerable
imagines
hurst
hurdle
teddy
trails
bonner
fortnight
577
umc
bellamy
heartfelt
shuttle
bleak
purported
utopia
535
5395
pathways
wilkerson
##prime
61st
lesley
rhys
rhyth
566
ird
irish
irwin
waititi
preferential
lgi
victoria
acceleration
silverstein
brokaw
grips
grizzlies
homicide
attacked
unsubs
unsolic
observe
bullies
lindner
lindsey
cabling
cablers
kenan
churning
petitioners
lengths
##2799
595
sophie
sorting
mcdan
indicative
indicator
checkout
appropriately
sensation
sensibility
bulgrin
literature
painter
painful
bloody
duplex
dueling
duvall
630
pitaro
pirro
routine
originating
munich
suspects
suspending
omni
exploiting
diament
883
lucero
vanity
bottle
andrews
objections
montgom
physician
##programming
kennedys
harrisburg
679
vacuum
buzzfeed
hawkey
appreciates
coastal
exhibits
##132
exceeds
mtvni
jacket
emailed
003
aarp
constitutes
coordinates
spiral
athletics
koer
locks
thankful
villan
experimentation
reversal
sweeps
trickier
laughter
borg
##105
convenes
snowbird
rivalries
ignores
lyons
##242
prioritized
761
weaken
weakening
traits
schwarz
ratcliffe
sdi
##vault
concedes
cracking
torino
toronto
reeled
hangar
hangover
indecision
weeden
##305
##306
chatter
chatgpt
nonprofits
audition
poorer
mitchko
rubin
rubio
rubicon
volunteering
framing
encoded
goncal
naugh
naegle
thrives
fabled
fabric
recruits
marriott
dtcp
mathews
sheriff
disaggreg
echoes
broncos
##channels
kristen
kristian
molten
overbuilding
overbuilders
patriarch
synergy
shortshd
ca6445
ca6442799
hacked
earns
earnest
imperioli
cpms
tallahasse
diference
ca64611
wyo
wyden
gunn
mutant
scaled
guts
kira
cyberspace
calculation
calculating
matchups
brilliantly
censoring
fledged
grabert
encompasses
municipalities
legitim
veto
rooting
procedure
compromised
occupation
riordan
rigid
ingrid
coffers
transmitter
manipulation
1908
granito
fatig
myths
serialized
convertible
terminate
luckily
applauds
unlocking
honesty
mp3
extracting
rgus
barrage
warmth
mcgraw
vicious
rti
coinciding
scarborough
throats
deleon
grassley
lonergan
withdrawn
relaxation
livel
##843
shirt
shirts
instruction
declares
haney
rudolph
nprm
aliens
assaulting
cannibalization
sleeping
embarking
embarked
rebuilding
siegman
polygamy
pleasant
chemotherapy
reinvented
congratulates
fernando
rarity
assertions
gifts
outpaced
salvador
nichols
dmca
##payment
alcamo
drums
swampy
diagnosed
desktops
staggs
shammo
plummet
brutally
bassett
revisiting
barkley
lords
downgrade
underscore
gandolfini
ricci
reigns
2032
estrada
cfm
urgent
discontinue
fght
##housecoopers
##iarism
forestall
chestnut
mohler
assignments
webisode
benton
langley
odyssey
retooled
distraction
webinars
mcconkey
anecdotal
hodulik
jumps
cruises
superstars
throttle
crossover
fandango
intuitively
arabic
scrapped
scrapping
defections
motorsports
supplanted
neighboring
tracee
decisively
blazing
dawson
slashes
breakdowns
confidentiality
baghdad
java
fruitful
depicting
embarq
detriment
fingers
higgins
revision3
intervene
renegotiated
kolb
minted
repurposing
fenway
tauke
foreclose
intimid
lydecker
prosecute
gouge
ca64828
giuliani
mateo
forensic
rewrite
inconsistent
cylons
grammys
geraldine
prodig
adopts
incarnation
trumps
undermining
descendants
kidnapped
torchwood
pigskin
hickory
pfizer
iterations
marianne
vibes
cloonan
sochi
mercedes
stepfamilies
automobiles
symmetricom
ninja
wsvn
inequities
unequivoc
quarterfinal
nonexclusive
cipriani
gorgeous
kramer
nlcs
sextuplets
plagiarism
enviable
vietnam
haddish
assassination
sincerely
metaphor
convergys
complacency
certificate
disproportionately
fontana
hilarious
rallied
spiketv
spontaneous
displeasure
unimas
appellate
bochco
phantom
mcstuffi
infectious
noncontrovers
condolences
frederick
semiconductor
aitken
bazaar
dwayne
fathom
greeson
hfpa
houdini
jargon
jigsaw
kappa
soderbergh
xclass
zandt
ziddio
##zewski
##atisf
styslinger
conchords
conundrum
chavez
ortega
module
enticing
marangi
marilyn
levesque
ambrosia
unregulated
untapped
unbridled
agboh
overarching
soviet
precarious
digitalsmiths
carradine
carpenter
mcelfresh
desesperadas
thenewsroom
insufficient
trilogy
metamorphosis
ca649299
satkowiak
ottawa
maldonado
penafiel
misguided
unsolicited
montgomery
snowbirds
goncalves
tallahassee
unequivocally
noncontroversial
1b
3x
633
775
760
770
827
9c
930
aes
avery
ahn
awe
ayear
aiding
aisha
bam
barter
bah
boring
bicultural
cg
cin
cing
cream
cmm
cube
cattle
cenergy
dose
dief
drought
dbm
dancers
eo
fas
fri
fsc
fax
foud
fnal
gast
gpp
giz
gures
gird
greed
gumb
giles
glyn
hanc
hoss
hager
hicks
hiding
ict
ironic
jos
jop
jord
jup
ks
kere
kem
kare
kitt
kau
kane
kios
kauf
kinks
lill
lith
lus
lia
lyle
lung
lousy
mage
mire
mose
mik
melle
mtn
n3
nan
nis
nent
nir
nive
nia
nem
nications
nave
nerve
nai
niem
oann
oher
paz
pits
pals
pied
pale
piers
rund
rba
riff
ripp
sven
sang
sangu
sba
sided
tc
tac
tare
tah
tones
tipped
tarant
terse
ua
uci
ufo
uva
vit
vbr
vows
vested
vspot
vowing
wg
wast
wich
woke
wanna
xg
xocs
xcal
yi
yale
zip
zack
zuff
zacher
##aam
##awards
##nan
##nels
##nady
##dit
##dorf
##oing
##oha
##tanker
##tropolis
##mined
##mund
##mov
##ui
##upp
##uze
##uweather
##cape
##clical
##hub
##hunt
##hoy
##iable
##iased
##ienne
##lat
##los
##luster
##eet
##eel
##eve
##eeth
##ser
##vt
##vana
##vigor
##pat
##pable
##public
##pins
##plication
##kers
##kish
##kling
##gil
##gett
##yk
##jar
##jiah
##b5
##bage
##buc
##bda
##zano
##zera
##xia
##xie
##32
##32007
##827
##fx
##fts
##free
thie
##erec
##inets
##onkowski
##aters
##atant
##atization
##eski
##ndered
##enf
##enous
##ingfield
##arra
topp
touring
##icz
##icating
##icially
##icano
##icela
andr
ofc
ofered
##lease
##etam
##reux
##entel
##llas
##elior
##sta
##stell
forget
forfeit
##vee
##utz
stk
stivers
staged
staging
stones
staunch
styl
itu
iti
##igg
##igenous
reall
refl
reigned
reemer
##acco
##ayed
##urated
proffer
proactively
conway
conquer
conkling
beav
beale
##irson
##teries
asians
asyl
chil
chains
chrome
wefi
weaker
weaving
##rip
##rive
##rious
anita
saav
sailing
saini
shind
sherry
shentel
##astor
##essen
##essive
##unit
##unctions
##uneration
atc
atari
atlas
##uski
##thora
##ulu
##uler
##ulion
##ulge
##agen
spieg
##osely
##tson
cableone
adt
adoles
adidas
##ilight
##ilah
willie
fra
fry
frax
pror
prairie
prerec
##working
als
alam
alvin
aloha
networked
##este
##oco
##ocl
composition
##ivue
hasan
##eography
##ichting
disgr
disall
disgu
hein
moot
##gren
##ityville
incon
##udd
##allo
tek
tej
commuter
enlist
enemies
maras
marian
marino
maricela
##ifed
brod
broom
##emann
##emade
##ectors
noticed
trin
trac
tray
tryn
traci
leven
leuk
leeco
lefk
cove
copped
cody
cobra
##iality
##ueb
##selling
##rouh
amph
ammun
amburg
ameeth
amelior
amityville
offbeat
intercable
intermod
interstell
uplink
##ipitous
unid
unfor
unused
unification
unifying
uniques
uncomm
neher
neulion
##ptively
medina
##ineau
##inelli
##gev
##gey
##gendered
##geirson
##acker
accuweather
teleton
usb
usoc
resale
resched
resumes
##00hd
clor
clone
##nery
intol
bru
brind
bressler
fog
ard
arling
arango
arctic
##orded
indigenous
##qui
##ludes
liates
lavern
lazy
laureen
canwest
perks
perisc
overbl
overhol
overhang
soar
mance
manheim
recreat
fever
##ogall
monolog
bash
queries
quarant
quench
quentin
scales
scaven
twister
twilight
customization
##isting
roz
joh
newsletter
stret
hadley
##loat
##plete
diginets
##managed
deceler
internship
internacional
##cobar
##ideas
operative
aficion
firsts
##ixes
aces
distancing
distortion
verivue
topol
topeka
bettors
sena
demons
gena
gennady
boil
##ystems
ife
bigfoot
##intosh
##assic
phi
wwj
blvd
blatant
##ocki
carla
10b5
afterell
worn
herbert
##rae
helene
1946
playout
playhouse
invict
inviting
unduly
espy
salutes
salinas
salaam
staring
starry
maia
mazz
callahan
##lectronics
sme
smear
##ssa
nbcs
downtown
backwards
crom
cram
crab
earvin
filipp
corb
signifc
signatures
pok
effi
##ancarlo
seniority
##iero
##ierra
##ierouse
audible
prompts
homegrid
av1
scher
schoen
mcner
mcqu
mcgin
coloss
donate
donah
remedi
remuneration
teri
espnw
desks
desert
flush
flaming
flicker
fours
bothers
grilling
gronkowski
guber
slid
slog
slashed
slapped
##claim
startling
didja
caplan
moby
mobil
valken
2027
lois
loosen
looms
epid
epstein
kee
modules
finest
##pling
##eebies
headwinds
##atello
edelman
1883
cbsn
freezing
freevee
charming
##rese
mining
johnb
api
##blehead
realizes
253
creativec
specialists
##acomo
lineage
electing
pastor
lins
linch
keying
keystone
keyboards
importation
emph
inslee
submission
imax
purse
purple
marching
regulates
elves
sharers
packer
packard
breland
rightsholder
redund
reddit
profanity
caliber
swaps
harlow
harrowing
norad
norah
privatization
peep
pepper
releg
keepers
##peed
clearances
steib
turbo
turkish
harding
167
166
168
skech
skedge
lifeblood
emissions
blacking
blackboard
farther
farhad
midband
midha
middling
nickmom
davidsons
evertz
evergreen
##pshow
benz
benita
varo
sourcing
spectra
treme
stepmother
finalist
multiplat
##ucking
spotted
tellet
telestream
landline
cutthro
portia
moran
409
maturity
##ussy
hoxie
argo
barney
infin
infected
ca6450
panther
panama
panzera
deploys
supermodel
supertanker
patrons
greenwood
maggio
diversification
sykes
clickable
lovells
238
224
284
281
roberto
funk
ideological
crediting
nonp
nonlinear
##ernal
divisional
26th
measurable
frontline
frontrun
radi
radically
refr
refined
maxwell
closest
policing
313
menus
jeal
easiest
pubs
animations
planner
##bybrand
snack
##atories
capitalists
youngblood
samknows
antip
glitz
glaze
glaser
denis
novak
christman
natively
drahi
beyonce
olympia
geol
legislator
legislatures
essay
##ommons
490
49ers
introductions
plethora
predicated
##echannel
healthination
firmware
##avox
selectable
buried
burleson
attractions
345
344
348
342
millan
separable
camden
urjiah
##untroy
logitech
conversational
staffieri
##tca
##expo
revise
revoke
responds
respondent
##streaming
##illett
summar
summits
bites
brightpoint
statues
collide
70th
eurocinema
chico
frees
freak
freaks
garros
garnier
garbage
805
hollyrod
bookcase
pacino
mcclar
renewable
gamification
circuits
gigs
tennant
walled
cyclical
oppenheimer
754
756
dispatches
primeval
pandora
bobblehead
commonly
parenthood
sprite
sprink
heavier
aspen
327
323
pen15
curated
groundhog
piecyk
sva
princeton
##aganza
williamson
mindshare
mentored
activating
activism
cried
housemates
photogall
weei
subsidizing
tenant
amounted
automating
energized
tuna
tunnell
counseling
386
446
442
fixture
organizers
straub
334
395
394
396
391
ranger
rangel
fauntroy
##linary
sunrocket
sunbeam
visions
##block
##aldi
unfounded
lackluster
rebel
mlbam
420
pointsmart
dropout
juli
repeating
advocating
segmentation
browning
predictive
370
373
navar
navde
##dened
captive
captions
captivating
enjoyable
436
431
impressively
ca6364
ca6346
sands
widest
dreamworks
ebon
recommends
2000000
suffers
textbook
interestingly
##119
penned
touching
touchstone
##daugh
##ovkin
reinvigor
olgeirson
415
gardens
macs
macfar
imagina
##ranet
clubhouse
collaborations
trailed
bono
faiths
wii
iconocl
shuts
shuttered
ellwood
mentioning
purposely
wilshire
outlaws
rhi
qualifications
falwell
galanis
irresp
counterclaim
stuffers
megatv
suprem
citrus
sizeable
subcult
replacements
bakery
grifn
homecoming
dublin
tackled
unsett
structures
fuseideas
obsessed
observations
obsessive
##haus
disappearing
gradual
vaults
modernizing
kenin
kenney
kenobi
##3312
bucking
capito
photobuc
tendency
721
ghting
surrounded
santor
aggregates
karr
##506
extender
667
637
routes
muni
synced
peggy
magnavox
suspicion
vanqu
vanilla
flatbush
podesta
treats
grossed
physicians
keynoter
housewife
688
roughness
ramifications
admired
mirgor
##124
vacancies
briefly
740
battered
1201
narad
kahn
marshal
dragged
reliably
581
865
harmonized
harmonizing
870
##monde
787
786
buffer
buffeted
baer
acknowledging
lockout
fantasia
845
experimental
beside
##crime
slammed
infringes
bolsters
vitality
laughed
truths
pools
akon
akbar
authenticate
fleet
flekt
masks
##147
evaluated
lyric
praises
clockwork
reclassifcation
witnessing
graduation
youthful
traver
romero
reminders
peaks
barrios
798
bedol
bedingfield
canton
accomplishment
ashes
perceive
stonepeak
hangers
reputations
jurassic
murderer
troy
trove
escobar
vincent
##religious
deregulate
naito
illustrious
nurphoto
##olitical
portrayals
repeatable
antennae
hrtv
##obits
assembles
bodybybrand
pocatello
seminal
gleeson
padila
showrunners
embold
mechanics
brookings
brookstein
leaping
intentioned
royalties
golovkin
immersion
kristine
sparked
bounds
cpni
tallies
liguori
ca64076
giancarlo
mutually
surgeons
creepshow
sequence
srs
circumvent
contempt
merchant
conviva
compromises
datas
dateline
conspic
occupants
riots
rigging
frustrated
grover
grocery
##8391
stunning
continuity
polaris
kylo
abandonment
deceased
deceptively
bennack
kraus
krause
rehearing
overwhelmed
alignment
reuniting
facilit
bubbly
eclectic
lizzy
unleashing
krass
unbiased
puzzles
puzzling
accompany
ewan
perpetuate
retrosp
retroactive
interconnections
determines
coincident
coincide
algorithmically
throat
pillar
permitting
livin
cautionary
isolation
insisting
dwight
dwyer
erode
desperately
embarks
tucci
exemplary
unreasonably
quinta
redefi
bowser
substitution
borrowings
congratulations
bookend
efci
fidelity
expedition
##mercials
keri
penthouse
resilient
remotes
gratified
natalierouse
solicit
girlfriends
fingerprint
reclaiming
slimmed
paradise
catalogs
kilobits
##hawk
marsai
downgraded
ceremonial
liquidation
triumphs
cbeebies
patchwork
rickey
renegade
bizarre
dsr
rethinking
fluid
hyped
reimagine
fghts
yvonne
preemption
preemptions
devastated
1948
avalon
parlors
steeped
sundancechannel
snowboarders
cusp
##children
lexus
squads
synchronous
synchronized
spectacularly
fgure
cherished
brunson
restraining
repealed
anecdotally
bmg
bmw
gerard
hodge
reassert
commendation
recreate
superstorm
refinance
eclips
schlichting
experiments
persistent
bloodsucking
psychographic
botched
diminished
hustle
hustler
##773
shanley
unruly
instincts
ca6473312
rebounding
ca640660
supersede
babineau
orchestrated
covenant
covenants
invisibility
promptly
purveyor
steelers
cocktails
pascal
shatner
shattered
shaky
shakira
scorec
deprive
ca60927
glickman
administered
freelancers
mccormack
deteriorated
rebuffed
ca6368391
renegotiate
kotaro
vanderbilt
##charges
carnival
alyssa
dignity
dignitaries
mourning
marrying
##quisite
propaganda
collegiate
lydia
perpetuating
tomlin
lehman
indefinite
1930s
paralyzed
ca6428242
cheerleader
cheerleaders
pronouncement
outrageous
schanz
discourse
turturro
microsite
sacrificing
05032007
tobacco
ushering
meehan
schultz
extolled
collapsed
bloggingbaby
besser
fahey
lemonade
sizzle
##between
stereoty
dislike
preaching
workaholics
reinforces
sidewalk
unbundling
troubleshoot
reregulation
wannabes
dougherty
gersh
jpeg2000
loughlin
pondered
roush
reuters
chellomedia
shuffled
expletives
backfired
landlords
magnificent
nutrition
eschewing
pessimistic
abbreviated
hansen
hsm2
stagnant
mofett
tv5monde
perplexed
##lovitz
desirable
gruden
valentine
tycoon
ca6467205
unsuccessful
dongle
ginsburg
kouwe
kavanaugh
vorhaus
pradco
albany
hassle
incomplete
resuming
whatsapp
genocide
poignant
pricewaterhousecoopers
machinima
sebastian
extravaganza
mackenzie
indebtedness
gilded
hargis
lakewood
cheyenne
chappelle
##oscopic
dobbs
repository
digiacomo
mckean
mcgarry
mcfarling
figurine
holographic
mcdaniel
borgias
fatigue
livelike
diefenbach
fasulo
foudy
glynn
hancock
joplin
jupiter
kerekes
kaufman
mireille
moseley
n3d
nirvana
niveus
nemesis
naveen
piedmont
rundown
sanguine
wichita
xcalibur
zuffa
zachery
beavis
asylum
saavn
shindig
spiegel
fraxa
prerecorded
tryneski
levenson
leukemia
ammunition
intermodal
interstellar
arlington
laverne
periscope
overholt
monologue
quarantine
scavenger
afterellen
donahue
valkenburg
creativecommons
skechers
skedgell
telletopia
cutthroat
mcclarnon
navdeep
ca634638
2000000200
macfarlane
irrespons
photobucket
mirgorod
flektor
bodybybrandy
3a
3net
4b
411
5m
560
660
711
8th
912
aissa
bac
bould
bike
bik
bouts
biles
bmi
cz
cations
cally
cbc
cvc
cush
d9
dst
dos
dome
dence
dues
duly
ditch
dining
dsps
eam
eck
fll
fod
fite
fager
fete
fiona
faye
focal
gp
gel
gust
gell
gees
gathers
genders
henn
hector
hecto
ig
iy
iat
ips
jd
jin
juce
jada
jagu
kab
kop
klo
koen
kabc
lame
lace
lille
leop
lorne
mow
mays
mama
masl
nj
ness
nag
nvid
nger
nals
nale
nont
nscreen
nitti
oor
ost
ooma
pk
py
pj
pq
pes
pak
pia
pant
pach
pav
pinn
pizz
paving
pueb
rach
rays
rida
rican
sbs
sally
tes
tann
taff
tba
takers
vab
vans
wage
wakes
waged
welf
wny
wander
waco
wasted
yara
yae
zak
zwe
zander
zevo
##augh
##nt
##now
##nament
##niest
##nomer
##dr
##dee
##oid
##oak
##rored
##rators
##mings
##mtv
##uity
##uge
##cul
##ceral
##hle
##hive
##hoff
##hoe
##iath
##iator
##iago
##ihan
##lou
##lum
##lass
##lamic
##sley
##vich
##vie
##vised
##pres
##kles
##kids
##gus
##gans
##glob
##wg
##wear
##bi
##bel
##base
##bits
##bler
##botham
##713
##zien
##xies
##52
##51
##454
##350
##2m
##260
##218
##228
##fly
##fire
##fsky
##funct
thr
thy
thune
throne
##inate
##inum
##intern
##inction
theod
thebl
##ongh
##atre
##atics
##atient
##atech
##oration
##orical
##ndo
##ndt
##enbrand
##enopoulos
##eds
##eddar
##arn
##arial
##aned
##anut
##anigans
ineo
inbetween
##alow
##itan
##itts
##itime
##itics
##itously
##itgeist
##omach
##iones
##icos
##icms
ofers
ofce
##asers
##asco
##lez
##levard
##llers
##roots
##elin
##elife
##elmann
##sth
##stood
##step
##stract
##static
onion
onetime
##amon
##amas
##utable
##utive
thatcher
stire
stee
stump
staked
##iggers
##illes
##adel
##adors
##adget
whdh
rear
reef
regress
##acola
##owe
##ayan
##url
##urk
##urals
##urdy
##oton
##otov
proff
prodd
progn
proxies
##abis
conor
islamic
##ithic
chun
chand
chord
chary
chron
chalo
chagr
cheddar
withstand
weid
weitz
##chair
##chuk
##rifi
anac
anik
anhe
saudi
safer
shim
shear
shaken
sheryl
##ldrum
##imo
##astas
deid
deple
delect
##that
##things
##thewood
suf
sums
suarez
##agers
exes
exod
exton
extern
exotic
spo
sput
##osion
##oski
##olve
##olta
##olithic
orth
orsi
ornament
##earth
cablep
serend
adworks
##ilo
##iland
fritts
prong
prism
newwave
##ppy
##ppets
alf
##eston
##estar
##estia
##erella
##ivi
semi
hasht
##icho
haunt
haunting
disqual
disrup
heed
##aka
ploy
plumbing
molli
206
2050
contra
##annie
incur
##uded
##umont
teasing
teaser
tepid
abilities
abuses
abrog
abstract
bye
bythewood
enquir
mara
marcos
marquis
maritime
##casts
##ortiva
triggers
##ource
lef
leff
leghorn
coined
coales
##anti
##antini
##sein
amara
broadbus
allies
allstate
upsell
upselling
presid
##ribing
unap
unwar
uninter
nebu
negra
medals
mediter
meduski
millionth
vidgo
##inea
dove
dovet
doldrum
videography
##forthe
telecon
##keying
goetz
##opic
mediaocean
mediahawk
rests
operas
##aport
appoints
clust
cloak
##nercable
intrans
bric
arb
arbor
arlen
arlene
arndt
indisp
##quille
liu
lien
liam
laa
canine
percy
overused
overindex
sojour
additive
manos
mania
manually
mansell
mankind
##ogs
repet
repairs
replete
mond
monte
monaco
monolithic
baseless
expiring
quibi
sco
scot
scour
scouts
scopus
thanked
##itee
meier
##istors
rov
rojo
subsides
prepping
buss
workable
workout
shelly
strahan
strongh
thereby
sportsmen
sportskool
bugs
buenos
devotes
##love
##eker
##ondocks
decker
##cox
##coalition
##taine
aft
afters
afoul
afloat
##aval
##avored
##aysia
acn
acsi
veria
verance
##isson
consumm
impract
impatient
##spoint
##splatform
demi
demond
warmed
boot
boasted
boondocks
assessed
##rows
howstuff
##ibus
reggie
grouping
##intz
americanc
##ensing
##ensable
techno
phel
seta
blurred
blaze
carra
##ologies
afterward
afterparty
herd
lookout
helen
1930
retali
playl
playon
##flow
invari
undoing
##boats
mazin
maiella
payday
smile
smell
smother
competent
mayors
downton
kne
watcher
entertains
backstop
##vii
caff
capps
cautions
accesses
filtered
corruption
signiant
worldbox
speculating
popped
poking
##comb
##anca
chairmanship
airborne
##tvf
velez
endure
endang
##weiser
avon
schaff
schiller
mcen
nextvr
colony
dono
remix
remaster
reminis
flir
flesh
transpl
transistors
depended
deplatform
deportiva
dazz
centre
##brenner
famer
famers
familia
grill
grind
greta
##phr
##pherson
guinea
slick
slave
difcult
articulated
engadget
latman
latitude
branden
opeka
commissioning
30s
mobium
locales
localities
localization
valastro
vps
foundations
mytv
myron
##ugo
beggs
lover
beforehand
debated
belle
keefe
surre
surcharges
##plained
extinction
persever
##ashes
eddy
costantini
deficiencies
cbssports
simmer
simons
boxers
legacies
mineral
ministry
wrangler
wrnn
prima
americanlife
autonom
hourlong
pax
paff
johns
johnston
severed
clement
cleland
webster
talker
252
259
timewar
nightline
hallway
lineback
telecomm
socal
elects
ca62
ca628
driessen
somerville
empires
##views
insign
insanity
subchannels
elle
campione
persona
octane
plants
sharpton
##enged
redist
protagon
triangle
profiting
171
swir
swip
swings
swarm
swearing
swallen
harriet
connector
peeks
peanut
##prom
##price
clears
passings
liking
likens
506
metan
nearer
citybravo
controllers
1675
skitter
##racted
##munity
storing
embody
emblaz
emea
emarket
farmer
247
angst
angie
titill
processed
socialize
standardizing
mtvu
fullscreen
sourced
trepid
classifying
periodically
telstra
landlines
cutbacks
moto
motley
##insky
408
matrix
matador
matenopoulos
singular
singling
infospace
ca6429
boarding
centerfield
screenplays
superd
superstation
greenleaf
greenspan
markers
markham
magilla
clicked
##unding
giveaways
hitn
restoration
funniest
facie
ideology
designation
278
nondu
littlefield
listens
alto
measat
youtoo
##mex
existent
refine
##govern
##avorably
beneficiary
317
deadlock
softness
##should
sanctions
menlo
menier
animators
politician
snake
snipp
snappy
snapping
capitalist
capitalized
604
601
participates
danish
proposes
humming
humbling
antid
glory
glaring
glimp
parameters
dena
denlink
nova
35th
christensen
nato
visitor
visceral
immeas
45th
unites
feeln
feelings
titleholder
##regular
hillman
hillcoat
rosas
491
pricier
predatory
predators
weatherman
searchlight
envy
legalized
maloney
malaysia
ensured
selectv
leftovers
burton
mixture
similarities
340
huang
separating
choke
hotshot
364
staffed
necessitated
segundo
pickering
missions
##umbled
fielder
##ceptible
707
702
lighting
furthermore
volk
##ciato
microphones
soldiers
copycat
differs
takeovers
garcel
804
rocking
rockland
rockstar
bookmark
mccran
gametap
circulating
petitti
murrow
traverse
picturehouse
watkins
751
75th
cooke
##slide
wideorbit
squel
squaring
californication
variation
326
322
##hammad
groundsw
##ginbotham
##uffs
palo
palpable
boosts
mindful
2013e
cripp
crimson
inflated
inflating
concurred
dolgin
kingstown
tenacious
blogosphere
travelogue
taub
thomasville
diab
dianne
characterize
characterizing
characteristics
berk
bergen
armando
budding
budweiser
445
441
layering
layered
fearfest
latinx
hamlin
battlefield
##maids
##fection
librarian
energy2020
##ramid
sender
trainers
unfavorably
susie
susceptible
vrbo
rebounded
421
juliano
marcia
piled
linking
wilder
37th
chargers
deggans
hunk
taxed
651
grandma
banfield
##202
ca633
ca6370
eastwood
florid
toner
dreamhouse
proudest
475
472
cheating
5214
misery
misnomer
embraces
suites
adjud
pennies
##daily
watercool
ariel
reinvest
emphasizes
646
cannabis
jennie
412
macgregor
sexier
moderating
collaboratively
bona
bonnell
faithful
noms
cooked
cookson
jaydee
bleed
lucid
luckett
screenshot
857
8514
codec
536
outlays
outlaw
submitting
613
contacting
lester
qualifies
qualitative
qualifier
568
falk
falchuk
irregular
investigated
citadel
grief
gripping
attacking
bluehigh
1962
1961
spotlighted
obsession
##airos
margar
manufacture
modernize
modernization
petitioned
cinemas
cinemato
capita
tender
ghana
mcdon
surrounds
aggregating
karl
criticize
sensible
715
burnt
boyd
boyc
solidify
tagging
##guard
631
originated
bonded
bondholders
syncing
synctv
omb
omvc
adaptations
bradenton
emergencies
jams
treatments
objectivity
grossing
##995
montage
ramsey
ramsay
admir
672
mirrored
##years
beaches
749
hawks
983
ramped
hussein
##136
949
lambert
780
implied
implosion
002
001
##166
navigates
cowden
cowgirl
ferris
ferrell
kohn
kobe
##704
##709
thankfully
847
ruhle
windowing
psychic
darius
darcy
dialog
muller
muppets
fleisch
snowe
snowden
crypto
revolving
rodrigo
reclassified
reclassifi
normalcy
schwab
##vais
methodically
796
g4tv
tribal
exercises
rmation
kaplar
reeling
dodge
dodged
brittany
doubtful
ccdn
ashcroft
gillian
jurors
chatting
brains
ca64567
uploading
rubber
rubric
dissolve
bethesda
naive
illustrate
illustrating
illustrates
gems
oddparents
tubes
fabrix
portraying
culver
chipsets
shelby
shielded
reedbusiness
prologue
motivating
motivates
dunne
dunked
duplass
churchill
folded
056
goliath
##252
explorers
dcas
molotov
shaquille
plugging
grego
stoll
specifc
privileges
griffi
boundary
frot
sampled
diferences
ca64624
exceptions
seventy
giann
tamron
clarken
grammer
gramming
baggage
entrepreneurship
kirby
kirsch
katzenberg
##radio
pinkett
allegiance
woid
##195
bodes
ected
lumen
allocate
distinctly
passport
passpoint
procedurals
rihanna
rigged
mirroring
##ranted
##hofer
beefed
190369
understated
degrad
gridlock
breakthroughs
jerusal
jericho
criminals
lucasfilm
jenner
kyiv
tightening
tightened
shrunk
puppet
puppies
puppets
cyberatt
boulevard
hogs
rehabil
reorganize
shouting
outsider
rebuilt
scratching
dorit
dorian
##858
outdist
appetites
magnolias
interpreted
facilitating
duplication
ecstatic
prestige
renovations
zeitgeist
stalling
disconnecting
untethered
smacked
eliason
berkeley
vigilante
wingman
##garten
perpetual
immigration
cummings
rewarded
quoting
dressing
rtl
flooding
maki
oceanic
delete
carveout
grassroots
persuasive
hoodlum
lagging
laguna
tatiana
outperformed
resigning
instructional
bcs
eisner
hanlon
rudy
thresh
isolate
interrupting
insistence
bunting
moguls
boseman
mckenna
brewers
proliferates
wolzien
clinched
escapism
tickle
repurchased
repurchases
identifiers
hoops
malls
tariff
##laren
resiliency
gladiator
solicitor
frankenstein
brutality
lauder
awaiting
syndicating
dimensions
thresholds
taraji
ca642757
supervisors
liquidity
avatarlabs
tempered
cicely
wrexham
##ktg
stabilize
blindspot
fluency
ambassadors
bogus
kendust
tillis
feasibility
preeminent
ca64334
inflationary
cusick
norton
vivian
bluntly
herbst
jockeying
##eworld
sailboat
sealed
distracted
apologies
anecdotes
hugely
envelopes
adversarial
cassandra
crossplatform
tolerance
chewing
telepic
augmenting
glendive
affirmation
rbicms
composer
blazers
rebellion
photographers
ingredient
hewlett
jcpa
javier
ludington
##itheatre
reckless
stratosphere
fingertips
higginbotham
hijacked
stelter
revisions
prayer
##ifififif
foolish
scatter
scattered
drills
prototypes
therapy
inaccur
gorman
kotay
mintz
penske
pensacola
beaumont
##charged
mitigate
direc
duffy
mingling
peele
tilts
zenith
beadle
asheville
unaffected
accordance
predominately
biographical
constitutionally
auditorium
forbearance
##magazine
bragging
blessing
glamour
obscure
derailed
suspenseful
giuliana
evacuation
cursed
##hanger
platinum
addictive
scribes
schanman
turtles
sacrificed
nuestra
skateboarding
stumbling
beauvais
amicus
perceptions
relentless
incentivizing
hildenbrand
lamented
tuzon
stipulation
stinchomb
chorus
queried
caesar
renomination
sandwiches
anachronism
bishop
nugent
rancic
siphon
##cribed
stoneridge
enrichment
unofficially
relinquish
trianon
snooki
voxant
omnibus
lieutenants
thermostat
kurtzman
catastrophic
bailout
coutaz
dusk
ezra
eichner
lcd
mousetr
qwerty
riveting
tornado
##ederate
inhabit
pryor
enlightening
scottsdale
paquete
muslim
erroneous
taxpayer
jukebox
plummeted
cohesive
dittrick
ianniello
jabbar
jolt
jeremiah
pendency
stubborn
rejigger
frazier
alonzo
seminars
discern
nostalgia
charismatic
infrequent
libertarian
antagonists
camelot
revitalize
dispatching
grandfathered
2gbps
aulestia
fontaine
lustgarten
mundane
tucson
##ranean
steroids
shenanigans
exorbitant
pruitt
alberto
seidenberg
claudia
cancels
prejudice
maitra
emmerich
pennington
ca639214
rhythm
aesthetic
cingular
ripple
topples
inconven
amelioration
unidirectional
brindle
deceleration
crammed
mcginley
lyrica
conspicuous
facilitator
efciency
gerardis
d9858
dstac
fodder
gellert
iatse
juceam
jaguars
koenig
leopold
maslany
nvidia
pyramid
pueblo
welfare
wnyw
yaeger
##4540
##internet
theblaze
ineoquest
stirewalt
proffering
prodding
prognost
chandler
charytan
chalozin
chagrin
anheuser
exodus
externally
serendipitous
hashtag
abstraction
enquirer
unwarranted
uninterrupted
nebuad
mediterranean
dovetails
doldrums
teleconference
intransigence
indispensable
howstuffworks
americancable
invariably
remastered
dazzling
autonomous
timewarnercable
linebacker
emblazoned
emarketer
trepidation
deadlocked
glimpse
garcelle
mccraney
groundswell
watercooler
bluehighways
fleischman
ca6456714
jerusalem
064
024
2k
4m
6m
799
811
833
920
933
935
936
aik
aha
a18
ailing
a28
aunts
bg
bore
bong
bake
bare
bair
breen
bins
bunk
bacon
cq
cst
cac
cain
ctp
cults
cdd
ciel
dud
drib
dare
dail
dock
dio
dys
dds
dots
drey
d23
dante
diba
eut
etv
egan
efc
ehr
fet
fec
fiv
foo
fide
fatt
faux
gere
gans
gist
garg
gatt
gump
gannon
hic
hoc
hue
hare
hier
heter
hille
iq
ies
iou
ike
istan
jy
judi
jep
jody
jaut
jih
jensen
kj
kum
kie
kod
kail
kph
kaz
kris
kille
kung
kla
khal
kalk
krik
lid
lance
lacy
lakota
miz
mick
mier
mstv
mika
nf
ning
nies
ncc
naz
nials
nitely
nsg
nasty
nanny
oce
oath
osw
oller
odc
ogil
pors
pong
pile
pell
pash
psc
pne
p18
psi
pomp
papa
pylon
rj
rag
rect
rone
rents
romm
ritz
rattle
ropes
rvu
s3
sew
sigh
sity
soo
sif
sings
slic
sizing
sza
tt
tcc
torrent
tux
tears
tisch
tavel
tls
ue
uw
ux
uly
uential
uenced
vil
vines
vma
vessel
wd
woo
wied
wern
width
wta
wagon
wpix
yonder
yanked
yarkin
zona
##a0
##aise
##dem
##oes
##oft
##rr
##riss
##rator
##ronged
##tw
##talk
##topus
##mur
##mind
##mhz
##mouth
##music
##uy
##uro
##uance
##uley
##uera
##ugee
##cor
##cated
##cup
##creen
##corp
##hoo
##hist
##hairs
##iation
##iot
##iard
##iopia
##litz
##liano
##eer
##eout
##eight
##eau
##sall
##vs
##vice
##vain
##vist
##vette
##09
##pv
##pz
##pear
##poen
##keld
##gre
##gust
##ww
##wal
##wifi
##wright
##women
##yms
##ycl
##ymmet
##bill
##biz
##bord
##bble
##billy
##bacher
##brows
##zos
##zeline
##xual
##560
##47
##417
##qam
##300
##3media
##813
##821
##2home
##fg
##fia
##face
##funch
##933
##980
##150
thai
threl
thayer
thumping
##erer
##eron
##eros
##erra
##erwe
##inian
##inne
theindepend
##onal
##onic
##onia
##onoff
##onstruct
##atore
##atia
##orid
##orous
##orino
##oramic
##esl
##enance
##enuous
##enko
##ingenuous
##arium
##anic
##anetv
toled
ingle
inordin
inroads
ineff
##alyn
##alted
##alism
##itin
##itom
##itates
##itored
##itivity
##icts
##icron
andersen
##isite
##isney
##isville
##isabeth
##oux
##lea
##lebr
##etal
##etel
##etting
##enth
##entimes
##idan
##rob
##elia
##stack
##story
##staking
##stru
##sthe
##storm
##stuf
ono
onboard
##amarg
##amoring
##amoto
forgoing
##veer
##igley
##igrated
##ills
##illitas
whome
whale
whoop
reper
reese
##acula
##acasting
##urious
progen
##abe
##aber
##aban
##abag
##about
##abile
condu
conner
##ewatch
beings
beamed
befits
beanp
bezos
##teras
##terned
##teridge
ascertain
asymmet
chess
chann
choo
chees
chiod
chai
channing
weaver
##chant
##chron
##chef
##chik
##chicago
aniello
saas
shred
shaut
shonda
##imir
##imilar
##essential
##unshine
ats
atom
atlink
athen
dept
deference
##thand
##thasa
##uli
##ulies
##agew
##agold
##aghan
##andi
##anding
##andre
exited
exible
exalted
spies
spouse
##ositive
netgear
##olar
##olos
orci
orlins
cablecar
cablefax
cabletech
serena
##cea
adama
adored
adblock
##ilion
##ilateral
fright
fract
fratell
prist
prett
newfront
##ppe
##ppable
aln
aless
alag
altic
alton
alanna
alpert
alchin
##ustream
compilation
##iven
##ivas
hahn
haired
hauser
disabilities
disgust
disingenuous
heats
##arted
plame
plume
mole
mooted
tvb
tvworks
tvfreedom
containing
incurs
incented
incurring
##udy
##udup
##ummel
##umonia
teiss
tease
abern
abused
abortion
abetting
commu
commitee
enfield
enemy
enroll
marve
margo
maroon
mariana
marlon
##iffer
##ifully
brood
##emens
##ortal
nother
trl
tracing
##oury
ley
levers
coe
coel
cobl
##sof
##anton
##antgroup
##seeker
butte
ama
amg
amer
amuse
amino
amrit
broadest
##bsled
allan
allig
allbr
all3media
allantgroup
offense
offenders
interpublic
intertw
upend
uptv
uphe
upends
upshot
vips
shower
showbiz
showseeker
presley
presumes
##ketts
unident
unqu
unex
unknow
unrival
unpopular
unmanaged
nee
neon
neely
companions
##geon
doom
doable
dodd
dooms
doping
accustream
##ieve
##iever
outlander
##forest
telemed
teleworking
goers
marketperform
##oply
usable
usability
reseller
resellers
##ryl
##ryph
##rystal
##odied
##00000
consu
##apes
apples
appian
cloo
clare
clipped
clashed
clamoring
##neros
programmable
bret
brub
brash
bratt
brakes
brave
bragan
ags
indies
induce
induced
##quity
yous
communi
##venile
lied
lipped
lau
seriesfest
canals
canales
percol
permissible
sok
sofi
soaring
addicted
mano
maney
##mpic
##hera
##herty
recapt
fex
feig
feist
feinstein
repression
reprint
mono
monitored
monaghan
bask
qub
quiver
quasi
##akeven
scoo
scrum
scroll
scaring
##ached
##hness
##hnell
meat
meal
twent
##ubbed
customizing
roomm
jokes
newsgu
preacher
sheen
straw
##aryn
haden
hadsall
buie
buford
businessedge
devious
noel
nostr
diggs
digeron
decries
deconstruct
getgl
##ava
##avan
acerb
digitalplus
verb
veritable
verveer
betray
impres
imposes
implicated
implicit
imprint
impastor
senor
##vents
wares
0000
000th
bobsled
prix
priest
hower
rego
streamlining
secorid
##assy
phar
phony
wwsb
setagold
blanch
bloss
blurring
blinking
carlin
##ounters
worces
herr
hereto
##uese
helms
helmed
191
1960
1910
1921
retr
retake
##flix
annoyed
##itton
unden
undone
undup
salil
maj
maids
mafia
smc
smarts
downplays
knife
delving
delicious
delisting
deluge
backcount
underwater
crat
crad
crank
crises
cricket
cruel
crudup
##tingly
earley
##entshow
ca3
ca28
cauld
fili
filardi
corvette
pov
##combe
seeit
seeher
##anci
##ancings
hdc
airband
airstri
airspeed
##tvnews
##ieres
promul
promax
locur
avista
avila
avanci
sche
mcil
mclaren
mcstuf
attent
donor
donates
terre
desist
flann
flare
flix
flames
flosp
transcontinent
##tones
salespeople
evenly
depressed
dai
reportage
affording
grit
gug
slime
slings
slug
sluss
slope
diffi
respite
bestowed
publicized
seconded
lattie
brandt
opined
opaque
##upia
paring
pared
parma
parishes
courting
winston
##ugging
##ennon
begley
looney
epitom
deba
debun
debts
debaters
corps
keeler
moda
modifying
finn
##text
extranet
##eez
header
headhunt
polk
runaway
standouts
eda
edits
costing
costume
costabile
181
defensible
goodwill
idt
comedienne
freezone
countenance
billings
minister
lawlor
dockets
paj
janei
fedex
versatility
informs
successors
webber
##bley
muses
women18
257
255
allowances
creature
globecast
universally
developmental
forma
formative
approves
linea
pastore
linux
##rically
insuring
insuf
subpoen
imitation
imitates
purdy
##ahi
##ahit
elf
elena
elvis
elisabeth
octanetv
mcnpeople
packs
packing
breakeven
popo
populate
letang
redding
trierwe
17th
calming
calitics
negl
evue
evine
evie
evade
evoke
swann
swiss
harrah
harrad
complements
storyfit
pele
receip
nielson
##prin
stockton
##cessible
##velis
turman
turbul
nearest
hardin
harden
citysearch
skids
skaad
behest
##ynchron
emory
emigrated
blackley
blackrock
blackberry
eras
erhardt
farscape
farming
farrar
midocean
nicktropolis
anglers
socialite
socialites
mtv118
spectral
confine
##ugher
hulus
multiply
multipronged
sundays
landslide
angelica
40s
407
406
maturities
ipbased
ipdr
hovering
barco
barford
infu
infinity
ca641
ca6427
ca6470
ca6434
ca6497
panicking
panoramic
panoply
centering
falloff
documenting
documented
suppression
tyr
219
lara
pati
patrice
patterned
liberating
economical
diversifying
clickstream
226
2878
restroom
restricting
basico
bandamax
encycl
encounters
leddy
lederer
estimation
frontal
youtub
applause
appliance
tomb
renaming
wedell
refund
refugee
robles
benefitting
benefactors
316
318
319
311
judas
softball
##sha
champagne
snag
spacex
##atorial
condon
606
danuff
youngstown
detent
detected
pageviews
297
humility
humane
humira
samual
sameness
antiqu
antena
tracknet
glue
natives
quickplay
moffat
southfield
geir
geeks
geppert
kindness
bowie
##doll
messy
effortless
4536
legislate
massape
hillbilly
rosenson
492
2020e
tbs1
##genet
2012e
##echic
seekers
flowtv
malara
malaise
ensues
mixon
theatrically
madigan
furious
collector
cambridge
hotline
complainant
casas
questionable
paulo
paulson
pickup
revived
circa
hola
holm
##illette
summing
##ceptable
collusion
bravolebr
lightrocket
##awk
silenced
freight
pullback
exploding
respecting
808
booked
sawyer
pacing
mcclain
mccabe
lasse
contraction
deterrent
individualized
petrie
crosshairs
jimenez
rulemak
enhances
watergate
cypress
archived
archaic
echelon
dispose
videa
conducts
clouded
squash
squares
appealable
milano
aspired
aspires
variations
variables
553
cameraman
curator
descram
544
541
levar
svb
converts
trafficked
principals
kickin
trumpeted
trumpeting
cups
worthwhile
domains
louise
crimp
harmony
tenets
2019e
taft
amounting
diaries
##dingham
analyses
characteristic
4400
44774
destro
mailers
vhi
fearful
332
latinum
wonderland
recommending
arranged
ppa
##ethy
skyline
elsevier
trains
trainer
eyebrows
sarandon
stickier
##zza
##ervices
425
426
423
perfection
julio
candor
378
contestant
hunted
captiv
captains
enjoyment
sociop
societal
tweaked
656
excelled
434
439
banquet
bayless
illicit
##20e
ca635
ca6388
shotgun
flores
architected
proudly
471
ebony
chevy
cheeks
oxygenlive
misunder
misplaced
misrepresented
misdem
suitors
balls
risking
cooperated
wertheimer
penetrations
##112
steward
pursued
rainey
touchstones
athens
##ovia
elevator
rutina
juno
reinvention
reinstitute
cannes
olay
springer
staniec
tapeless
francis
##caro
heavyweights
macintosh
##rani
rapidtvnews
peterman
peterzell
xfire
candidly
wield
ordained
570
damper
bellingham
conversationally
516
513
appointees
blew
juvenile
juvelis
utm
534
539
pathway
nexcare
##fy20e
618
savage
rhonda
rhodes
qualifying
569
falcons
galvan
irons
mystro
mystics
##ushel
tremaine
megap
megahit
retains
melton
melvin
accomplishing
nichelle
tacks
unsusp
completes
lindell
musicals
shooter
shootout
woodside
margulies
##185
materialize
##ciline
academ
exempting
arriving
ghee
indicators
surroundings
minimally
santos
santino
santiago
dividing
karla
wgaw
sensing
derrick
dermot
nytimes
beatty
boyers
##connected
orient
painstaking
tagliano
##509
extendmedia
duane
mastery
masterchef
463
664
ethic
ethiopia
beautifully
634
639
conceptual
queer
quell
sharktopus
suspends
omnic
omicron
880
luz
graphical
graphically
bottlen
shapes
hits2home
quadru
objection
965
682
grave
planting
operationalizing
precip
preclude
676
673
##122
vacate
vacations
briefed
briefings
748
ntl
randi
memorabil
elemental
##rosse
autograph
584
866
869
877
872
879
815
implore
jackets
emails
funnyordie
navigator
897
893
koch
koala
locker
locking
fantasize
690
695
complications
certify
certifications
daron
darryl
##roller
slams
infringers
spreads
tailor
tricked
climber
akron
##104
flew
fleabag
wishology
snowfall
astoria
ignoring
wimmer
##241
duran
durability
##157
apartments
769
cosmo
sidelo
##ijn
uncertainties
ghostbusters
ocur
halo
halle
halved
tribes
cracked
##383
registering
catalogue
925
922
reelgood
ashford
leverages
intentional
066
babyfirst
gilliland
hooking
constructed
071
juris
chatman
chatty
charted
scientists
ca6454540
nonprogramming
auditing
trot
poorly
ca652
ca6524
glasser
mitchelson
dissimilar
marginally
flags
kanye
laboratory
vinson
filmmagic
deregulated
##80q
thrived
psu
elders
biard
biases
biennial
mathem
##222
sheridan
shelters
semillitas
evidentiary
dutton
klitsch
embodied
3dtvs
punct
punted
leapstone
folders
excluded
freeway
gaynor
irony
sketches
##254
blending
ings
stimulate
resonated
resonance
verticals
rushnell
greenthal
hacking
braugher
museums
bachelorette
kayu
ligue
uncor
extensible
lobbies
tami
tamara
scalise
scalability
smoother
statistically
gutteridge
hindi
hindered
guardian
fnish
tutor
wbtv
wbbm
##raditional
##writ
calculates
fishman
gallant
galloway
ndings
pinch
sequential
sequentially
calendars
steinert
steinfeld
morrison
idealistic
revolutionize
gilmore
##193
stephans
nbbc
forbids
registrants
philippines
pelacula
sadness
saddened
portlandia
snapshots
934
datacasting
inherited
stacks
stacking
differentiators
missoula
dennler
ladder
oakley
ingrained
keener
jacoby
##762
dynamite
grove
siac
siemens
renders
rendering
beefy
icann
pounding
injust
injured
schmitz
labeling
telefilms
cavanaugh
macroeconomic
tightly
##agnino
tempted
cybercrime
citizenship
benny
hogar
decreasing
modesto
modestly
dorf
doris
aligns
##grammed
honestly
stealer
sullenberger
preston
barrino
krushel
mitu
wardens
##543
prosper
adriana
unbound
puzzled
urls
##garty
reconven
retroactively
morty
##modo
cheaply
ctvglob
##interactive
coincides
scarlett
discrete
patriotic
pills
reacted
federer
federated
ubiquity
##8437
mislead
watermarks
eisenberg
provo
provident
cheskin
morphine
dwelling
dwdm
eroded
horsesh
lombardi
##html
allyson
ipv4
sleepy
jettis
khoury
pedal
tuber
spells
enacting
enactments
affluence
quintessential
affirming
belonging
noncoms
hirschhorn
bumpy
rustagi
thorne
thorny
##letters
identifiable
gifford
pentagon
penthera
zimmern
ancient
outpacing
repaired
robotic
symbolic
theorized
tossing
arcs
scanner
correlates
shameless
acronyms
await
cynical
fy20
rabe
interoperate
intensely
validity
breeders
plaintif
loopholes
railway
tidings
butterfield
graciously
jacques
temperament
temperature
cicciline
dsmart
fdx
stifling
recycl
rethore
transcoder
reimagined
mohu
fieri
ca6433543
hutkin
lectures
odessa
tongued
vivica
vicky
inaccessible
replica
replicating
maverick
harnessing
classifieds
reinstatement
cannonier
oftentimes
uncharted
cliffhanger
apologize
destroyed
aquarium
bhatia
gerber
wachovia
reassess
deemed
notching
pregnancy
ridiculed
lodge
lodgenet
oferings
shahidi
buccieri
pavement
ca6438774
supplanting
bursts
sterlin
dawg
grapple
meteorologists
agraz
bombs
cocaine
cinderella
hewes
lanes
sutherland
weisbord
commoditized
enlace
unwilling
unwanted
mancinelli
stratechic
cautiously
futurenet
millenial
millenium
##2btv
franco
prayers
disabling
scorer
mcgowan
depriving
deterioration
hampering
hampered
cadre
drywall
denser
pessin
ingesting
beauch
checketts
amateurs
clasico
##special
titanic
statuette
wildfire
reaffirming
lurie
tinkering
##fkhan
toehold
##adamus
boomerang
vulnerable
vulnerabilities
exhaustion
fmr
hinges
zelj
tomlinson
complicating
uncovered
scuttle
blessings
paralympic
mainstays
kgb
mummy
oxman
oxford
##1992
forensics
shakespear
deerfield
accumulate
bozeman
confrontation
cylinders
nicolamarg
skateboarder
wipeout
reintrodu
conjured
placid
amicable
resembles
relentlessly
schuller
schulte
creeden
extolling
egyptian
eclipseplus
cortez
lamenting
lipsitz
stylist
stinchcomb
regrett
befriends
liverpool
rechrist
invalidate
relativity
caesars
amplifiers
palladia
scrutinized
hutchison
kiara
kstu
xxx
##brief
##bethpage
thirty
thirteen
webcam
shtml
shorman
shorthand
unsexy
guadagnino
quebecor
ca6513195
haygoods
unrealistic
cigarettes
bastion
breezeline
duluth
jayski
pichardo
pistols
sotu
vinci
waddingham
alarms
unacceptable
overdrive
crushing
portuguese
sylvia
cupcake
koppel
unbelievable
embarrassed
vladimir
bicycle
cisneros
lacrosse
mje
mildly
nocera
ruckus
sascha
##eanor
inexorable
wembley
exacerbated
prerequisite
disorders
heiress
offshoot
bridesmaids
decompress
blodget
invigorating
crutch
esteemed
versailles
acquirer
elephant
voyage
brownfields
divisive
megaphone
earthquakes
reconciled
pedestrian
stmicroelectronics
refrigerators
bakersfield
kbw
lizzo
tainment
tolchin
inergize
reopening
rejoined
plausible
clerks
underwriting
homebuyers
schulman
grasp
calabrese
skitam
ernest
confronting
robbery
splintering
irdeto
koerper
indecision2008
ca6461135
legitimacy
gizmodo
gumbel
kareem
liaison
magee
tarantino
wasteland
##patrick
stylists
adolescence
brodkin
lefkoe
recreates
johans
aficionados
mazzara
cromwell
corbis
mcnerney
colossal
remediation
jealous
antipathy
geolocation
julianna
reinvigorate
subcultures
unsettling
santoro
emboldened
retrospective
ca609270
stereotypes
irresponsibly
boulder
hennesy
mowry
nontraditional
nscreenmedia
piazza
pavilion
rachael
tanner
zweig
##louisville
##functional
throngs
theodore
steele
cablepositive
abrogated
unapolog
arbiter
consummated
phelps
paydays
mcenroe
perseverance
paxson
protagonist
swirled
snippets
antidote
codecs
cinematography
boycotts
ashcroftcea
degradation
outdistancing
threshhold
ctpaa
cielos
dysfunctional
dreyf
efcient
istanbul
jautz
kumar
kiefer
killelea
kalkwarf
krikorian
nfh
oswald
odcr
ogilvy
pasht
pneumonia
pyloncam
slicing
ttls
tuxedo
wernick
##history
##pz80q
##funchicago
threlkeld
theindependentshow
toledo
inglewood
whomever
conduit
beanpot
athena
cablecares
cabletechtalk
fratelli
pristine
prettiest
alticast
incursion
teissler
abernethy
allbritton
upheaval
unexplained
unknowingly
unrivaled
doomsday
telemedicine
brubaker
canalsur
reprinted
newsguild
nostradamus
digeronimo
getglue
acerbic
betrayal
setagoldstein
worcester
heretofore
unduplicated
backcountry
cauldron
flosports
transcontinental
slusser
headhunters
janeiro
trierweiler
turbulent
skaaden
##ynchronous
encyclop
antiquated
massapequa
rulemakings
unsuspecting
omnicom
bottleneck
memorabilia
klitschko
ctvglobemedia
shakespeare
nicolamargaret
020
2b
2oo
3q
5c
5k
5b
520
6x
620
611
8h
829
835
918
910
974
astr
aileen
arouh
a2btv
bcc
bans
bhn
bays
bib
bax
bane
bung
bots
bfc
bomer
cpp
cale
cpa
cadena
dion
dth
dib
damp
dsc
dump
dina
dude
doses
dizz
ej
ely
ecc
ery
elic
eject
epps
eiley
ff
fum
fives
fba
fistic
fenty
faded
fencing
ged
gew
gors
gated
gma
hn
hyst
hays
hmm
iris
ivp
icm
istock
ictv
iwo
jad
jair
jtv
jef
jaff
jerald
jingle
kx
kor
kes
kas
kad
karg
kamp
kett
komin
kars
kattan
keller
krod
koral
kubin
luring
ltv
lakes
lumped
licking
lennon
mou
mue
mined
mits
mural
muff
misc
mctv
mesa
moust
nig
nil
nish
nude
niece
nested
nacional
oke
ood
omission
oval
ooos
osteen
osha
pab
pcc
pard
pamp
pett
piment
piper
qd
qos
qatar
rw
rak
riz
rav
ried
rik
rape
raps
rented
rios
ripping
ratched
rattled
sb
sz
s2
sic
sow
sod
smp
sind
surr
sik
ssl
szar
sutter
socks
tiv
tuch
tilt
tisd
tila
tearing
tethered
tcta
ucc
udn
vare
vests
vito
vni
vectors
wv
wif
wally
wording
wetv
wenner
wickham
weta
witty
wxia
xtra
ya
yam
yip
yank
yoda
zh
zog
zte
##a1
##nage
##none
##nys
##nically
##nstein
##nham
##nado
##di
##dec
##dir
##disc
##oz
##oia
##ography
##rut
##rack
##rally
##rach
##rued
##ruck
##rances
##roman
##test
##try
##tman
##tles
##mn
##mis
##mith
##mare
##moth
##mansion
##mstead
##mux
##m100
##uation
##uay
##uage
##uki
##ueless
##uzak
##cout
##cine
##calf
##cuss
##craft
##hak
##houb
##iage
##iated
##iwan
##lich
##look
##lund
##eal
##eim
##eft
##ehan
##sed
##soc
##sday
##series
##vb
##vork
##vod
##vably
##vestri
##02
##pc
##pol
##phing
##pump
##pott
##political
##kl
##kom
##kamp
##kah
##gis
##gel
##gow
##got
##gary
##givers
##gool
##wi
##wing
##wass
##wonder
##wagen
##yll
##yana
##jun
##bot
##btv
##zad
##xd
##xon
##582
##qvist
##61
##324
##229
##fans
##fone
##fair
##fried
##farc
##futable
##favored
tha
thl
##erx
##erion
##erito
##inel
##inational
##inates
##info
##invest
thec
thede
##onna
##onaut
##atri
##atlant
##orc
##orld
##orum
##esko
##eny
##enor
##enfr
##edon
##aran
##arri
##arming
toms
todo
toym
token
inqu
inject
inmate
inbound
##alion
##also
##ittis
##itizing
##itatively
##omay
##omaly
##ionary
##icter
##icist
##icacy
##icorn
##icured
##asino
##isn
##iscer
##isoft
##ishness
##lean
##etwork
##etric
##recy
##entown
##llor
##llie
##idal
##idant
##idized
##roth
##roff
##elow
##elotta
##sto
##stad
##stenberg
##ecured
coma
comu
comstar
onc
onus
onof
##amine
fors
forman
forerun
forewar
##uti
thatyou
stacy
sthe
stoke
stiger
stokes
stomach
stanton
itif
##igo
##igit
##igree
##igently
##igener
##iguity
##adays
##adful
##adio
whack
whod
whiting
whims
ree
reen
reest
reich
reair
reining
rejects
reacts
reeves
##acs
##owner
##urt
##urg
##aberry
##abhoy
conqu
conlon
behn
beek
##irs
##irons
##irically
##terian
asph
chu
chal
chow
chock
chath
chau
chung
chaf
chocol
chicks
chidd
webr
##cho
##chel
##chino
anz
anew
anol
ance
anah
anika
sak
sapp
sage
shivers
shines
##imar
##imation
##ctor
##univision
atas
deen
deeded
##usky
##them
sumer
subr
suwan
##agher
spous
spinal
spars
spelling
##atement
netcoalition
##olent
##olow
##olab
##olulu
orton
ording
orzo
cablecasts
adb
adage
aduba
adept
##ilon
willard
frig
frons
frms
prc
newco
newfound
##ppach
##worked
alot
alina
alask
##estown
##estead
##estinian
##ocument
compt
compact
compile
compend
compiling
sev
seism
seym
sevier
##ichson
##cciones
haq
hail
havas
washa
disfavored
disenfr
heist
heising
heeding
##akows
plent
plunk
plaud
plucked
moat
moons
##grats
contri
##announced
incited
##uding
teh
teal
abner
abrid
##peration
enos
enty
ensn
mare
marco
marissa
marni
marielle
##aina
##ainted
##ifty
servants
serviced
##emis
##emary
##emaker
##orton
notify
tran
trist
trough
traces
trude
truman
##ouring
##ourcing
##ourses
leak
leaps
leases
leaks
##iree
coen
copl
cooney
##arded
amor
amell
ambe
amato
amanp
broadhurst
allure
intermed
intercar
whichhas
showroom
##ipated
##dued
presby
presiding
##ribed
unlo
unready
unbe
unturn
unwa
unbreak
unyield
unicorn
unannounced
nelly
nefar
##ptoe
meddling
medicos
##orski
##geiger
##ght
dole
doomed
accuse
accrued
outlier
outfi
outlying
outfits
##forth
telekom
goff
goings
##bernstein
##berwass
partake
marketable
marketcast
##oping
##opolis
usp
usdtv
mediazone
##izen
##izons
resorts
resized
reservations
##odio
##0020
conserve
##apower
##apopolis
appreh
clover
clueless
producciones
intract
##acting
##vide
programmatically
##formula
brist
foia
arin
arum
arenson
aronoff
agers
agnes
##eyphoto
##quist
##ileus
libur
laz
lazo
oneprice
series3
perf
pertain
perish
perme
perils
overc
overhead
overboard
overrated
overpric
soiree
manicured
##heretv
recode
##ogu
##ogging
##ogirl
monami
basking
expended
quan
quoti
quorum
##enda
[...]
