{
  "version": "1.0",
  "truncation": null,
  "padding": null,
  "added_tokens": [
    {
      "id": 0,
      "content": "[PAD]",
      "single_word": false,
      "lstrip": false,
      "rstrip": false,
      "normalized": false,
      "special": true
    },
    {
      "id": 1,
      "content": "[UNK]",
      "single_word": false,
      "lstrip": false,
      "rstrip": false,
      "normalized": false,
      "special": true
    },
    {
      "id": 2,
      "content": "[CLS]",
      "single_word": false,
      "lstrip": false,
      "rstrip": false,
      "normalized": false,
      "special": true
    },
    {
      "id": 3,
      "content": "[SEP]",
      "single_word": false,
      "lstrip": false,
      "rstrip": false,
      "normalized": false,
      "special": true
    },
    {
      "id": 4,
      "content": "[MASK]",
      "single_word": false,
      "lstrip": false,
      "rstrip": false,
      "normalized": false,
      "special": true
    }
  ],
  "normalizer": {
    "type": "BertNormalizer",
    "clean_text": true,
    "handle_chinese_chars": true,
    "strip_accents": null,
    "lowercase": true
  },
  "pre_tokenizer": {
    "type": "BertPreTokenizer"
  },
  "post_processor": {
    "type": "TemplateProcessing",
    "single": [
      {
        "SpecialToken": {
          "id": "[CLS]",
          "type_id": 0
        }
      },
      {
        "Sequence": {
          "id": "A",
          "type_id": 0
        }
      },
      {
        "SpecialToken": {
          "id": "[SEP]",
          "type_id": 0
        }
      }
    ],
    "pair": [
      {
        "SpecialToken": {
          "id": "[CLS]",
          "type_id": 0
        }
      },
      {
        "Sequence": {
          "id": "A",
          "type_id": 0
        }
      },
      {
        "SpecialToken": {
          "id": "[SEP]",
          "type_id": 0
        }
      },
      {
        "Sequence": {
          "id": "B",
          "type_id": 1
        }
      },
      {
        "SpecialToken": {
          "id": "[SEP]",
          "type_id": 1
        }
      }
    ],
    "special_tokens": {
      "[CLS]": {
        "id": "[CLS]",
        "ids": [
          2
        ],
        "tokens": [
          "[CLS]"
        ]
      },
      "[SEP]": {
        "id": "[SEP]",
        "ids": [
          3
        ],
        "tokens": [
          "[SEP]"
        ]
      }
    }
  },
  "decoder": {
    "type": "WordPiece",
    "prefix": "##",
    "cleanup": true
  },
  "model": {
    "type": "WordPiece",
    "unk_token": "[UNK]",
    "continuing_subword_prefix": "##",
    "max_input_chars_per_word": 100,
    "vocab": {
      "[PAD]": 0,
      "[UNK]": 1,
      "[CLS]": 2,
      "[SEP]": 3,
      "[MASK]": 4,
      "!": 5,
      "\"": 6,
      "#": 7,
      "$": 8,
      "%": 9,
      "&": 10,
      "'": 11,
      "(": 12,
      ")": 13,
      "*": 14,
      "+": 15,
      ",": 16,
      "-": 17,
      ".": 18,
      "/": 19,
      "0": 20,
      "1": 21,
      "2": 22,
      "3": 23,
      "4": 24,
      "5": 25,
      "6": 26,
      "7": 27,
      "8": 28,
      "9": 29,
      ":": 30,
      ";": 31,
      "<": 32,
      "=": 33,
      ">": 34,
      "?": 35,
      "@": 36,
      "[": 37,
      "\\": 38,
      "]": 39,
      "^": 40,
      "_": 41,
      "`": 42,
      "a": 43,
      "b": 44,
      "c": 45,
      "d": 46,
      "e": 47,
      "f": 48,
      "g": 49,
      "h": 50,
      "i": 51,
      "j": 52,
      "k": 53,
      "l": 54,
      "m": 55,
      "n": 56,
      "o": 57,
      "p": 58,
      "q": 59,
      "r": 60,
      "s": 61,
      "t": 62,
      "u": 63,
      "v": 64,
      "w": 65,
      "x": 66,
      "y": 67,
      "z": 68,
      "{": 69,
      "|": 70,
      "~": 71,
      "¡": 72,
      "£": 73,
      "©": 74,
      "«": 75,
      "¬": 76,
      "®": 77,
      "°": 78,
      "±": 79,
      "´": 80,
      "·": 81,
      "»": 82,
      "½": 83,
      "ø": 84,
      "λ": 85,
      "٭": 86,
      "‑": 87,
      "–": 88,
      "—": 89,
      "‘": 90,
      "’": 91,
      "“": 92,
      "”": 93,
      "•": 94,
      "…": 95,
      "€": 96,
      "↑": 97,
      "↓": 98,
      "−": 99,
      "∫": 100,
      "■": 101,
      "□": 102,
      "▪": 103,
      "▲": 104,
      "►": 105,
      "▼": 106,
      "◆": 107,
      "☀": 108,
      "☆": 109,
      "￭": 110,
      "##o": 111,
      "##n": 112,
      "##y": 113,
      "##0": 114,
      "##r": 115,
      "##v": 116,
      "##e": 117,
      "##s": 118,
      "##d": 119,
      "##i": 120,
      "##f": 121,
      "##c": 122,
      "##a": 123,
      "##t": 124,
      "##l": 125,
      "##m": 126,
      "##u": 127,
      "##z": 128,
      "##b": 129,
      "##h": 130,
      "##p": 131,
      "##g": 132,
      "##w": 133,
      "##k": 134,
      "##q": 135,
      "##x": 136,
      "##5": 137,
      "##2": 138,
      "##6": 139,
      "##j": 140,
      "##8": 141,
      "##1": 142,
      "##4": 143,
      "##3": 144,
      "##9": 145,
      "##7": 146,
      "##´": 147,
      "##®": 148,
      "##°": 149,
      "##½": 150,
      "##¬": 151,
      "##ø": 152,
      "##−": 153,
      "##±": 154,
      "##☆": 155,
      "##€": 156,
      "th": 157,
      "##er": 158,
      "##in": 159,
      "the": 160,
      "##on": 161,
      "##at": 162,
      "##or": 163,
      "##es": 164,
      "##en": 165,
      "##nd": 166,
      "##ing": 167,
      "##ed": 168,
      "##ar": 169,
      "##an": 170,
      "to": 171,
      "##al": 172,
      "in": 173,
      "##it": 174,
      "##om": 175,
      "##ion": 176,
      "##ic": 177,
      "and": 178,
      "of": 179,
      "##st": 180,
      "##le": 181,
      "##ou": 182,
      "##et": 183,
      "##re": 184,
      "##ent": 185,
      "##ll": 186,
      "##is": 187,
      "##id": 188,
      "##as": 189,
      "##ro": 190,
      "##el": 191,
      "##ers": 192,
      "##ec": 193,
      "com": 194,
      "on": 195,
      "##am": 196,
      "for": 197,
      "##ve": 198,
      "##ut": 199,
      "that": 200,
      "st": 201,
      "it": 202,
      "##ill": 203,
      "##ig": 204,
      "##ad": 205,
      "##ation": 206,
      "wh": 207,
      "re": 208,
      "##ac": 209,
      "##ow": 210,
      "##ly": 211,
      "##ur": 212,
      "##ay": 213,
      "##ot": 214,
      "pro": 215,
      "##ab": 216,
      "con": 217,
      "is": 218,
      "##ew": 219,
      "be": 220,
      "##ver": 221,
      "##ith": 222,
      "##ir": 223,
      "as": 224,
      "ch": 225,
      "##ri": 226,
      "with": 227,
      "##ter": 228,
      "we": 229,
      "##ch": 230,
      "an": 231,
      "##ork": 232,
      "##able": 233,
      "sa": 234,
      "##ld": 235,
      "sh": 236,
      "##ast": 237,
      "##im": 238,
      "##ct": 239,
      "##un": 240,
      "##ess": 241,
      "said": 242,
      "de": 243,
      "at": 244,
      "##us": 245,
      "##th": 246,
      "##ul": 247,
      "su": 248,
      "##ag": 249,
      "##and": 250,
      "ex": 251,
      "##ment": 252,
      "##os": 253,
      "sp": 254,
      "##ate": 255,
      "net": 256,
      "or": 257,
      "##ies": 258,
      "##ol": 259,
      "##ear": 260,
      "ad": 261,
      "cable": 262,
      "ser": 263,
      "##ce": 264,
      "##ts": 265,
      "##ive": 266,
      "will": 267,
      "##il": 268,
      "fr": 269,
      "pr": 270,
      "new": 271,
      "##pp": 272,
      "##work": 273,
      "al": 274,
      "network": 275,
      "##igh": 276,
      "##est": 277,
      "##ust": 278,
      "##ere": 279,
      "##oc": 280,
      "comp": 281,
      "##iv": 282,
      "##ice": 283,
      "se": 284,
      "has": 285,
      "##eo": 286,
      "##ich": 287,
      "##cc": 288,
      "its": 289,
      "ha": 290,
      "was": 291,
      "are": 292,
      "he": 293,
      "##art": 294,
      "mo": 295,
      "20": 296,
      "##ak": 297,
      "##gr": 298,
      "pl": 299,
      "##ore": 300,
      "##ity": 301,
      "##ations": 302,
      "from": 303,
      "tv": 304,
      "cont": 305,
      "inc": 306,
      "##ud": 307,
      "##ann": 308,
      "di": 309,
      "##um": 310,
      "##all": 311,
      "##ia": 312,
      "ab": 313,
      "te": 314,
      "by": 315,
      "##per": 316,
      "mar": 317,
      "en": 318,
      "comm": 319,
      "##ain": 320,
      "have": 321,
      "##oo": 322,
      "##cast": 323,
      "##ould": 324,
      "##out": 325,
      "bro": 326,
      "##ff": 327,
      "##illion": 328,
      "serv": 329,
      "##annel": 330,
      "##em": 331,
      "tr": 332,
      "##ort": 333,
      "##ect": 334,
      "not": 335,
      "year": 336,
      "dis": 337,
      "##our": 338,
      "le": 339,
      "##age": 340,
      "co": 341,
      "##ime": 342,
      "##ial": 343,
      "##so": 344,
      "##se": 345,
      "li": 346,
      "##ant": 347,
      "##ue": 348,
      "##ard": 349,
      "##rou": 350,
      "more": 351,
      "but": 352,
      "am": 353,
      "broad": 354,
      "progr": 355,
      "##bs": 356,
      "##ision": 357,
      "all": 358,
      "off": 359,
      "program": 360,
      "up": 361,
      "this": 362,
      "inter": 363,
      "vi": 364,
      "##ome": 365,
      "which": 366,
      "pres": 367,
      "##ket": 368,
      "##ip": 369,
      "##ition": 370,
      "##ight": 371,
      "show": 372,
      "##du": 373,
      "un": 374,
      "##rib": 375,
      "million": 376,
      "##pt": 377,
      "also": 378,
      "ne": 379,
      "med": 380,
      "##ine": 381,
      "##ans": 382,
      "vid": 383,
      "they": 384,
      "##ors": 385,
      "##gh": 386,
      "compan": 387,
      "about": 388,
      "##end": 389,
      "##ack": 390,
      "##for": 391,
      "##ult": 392,
      "do": 393,
      "video": 394,
      "acc": 395,
      "their": 396,
      "##ge": 397,
      "##ident": 398,
      "channel": 399,
      "out": 400,
      "tele": 401,
      "##oun": 402,
      "market": 403,
      "##op": 404,
      "##ure": 405,
      "##ber": 406,
      "go": 407,
      "part": 408,
      "##ie": 409,
      "media": 410,
      "us": 411,
      "##ry": 412,
      "view": 413,
      "##ated": 414,
      "##00": 415,
      "##ke": 416,
      "oper": 417,
      "##od": 418,
      "res": 419,
      "##iz": 420,
      "app": 421,
      "##ap": 422,
      "cons": 423,
      "president": 424,
      "int": 425,
      "cl": 426,
      "##ner": 427,
      "produ": 428,
      "##ong": 429,
      "ag": 430,
      "##act": 431,
      "##vid": 432,
      "##ications": 433,
      "##form": 434,
      "programm": 435,
      "content": 436,
      "br": 437,
      "time": 438,
      "fo": 439,
      "ind": 440,
      "##if": 441,
      "##ord": 442,
      "##orts": 443,
      "##ally": 444,
      "ar": 445,
      "commun": 446,
      "##lud": 447,
      "##qu": 448,
      "##ven": 449,
      "our": 450,
      "##ile": 451,
      "##ist": 452,
      "one": 453,
      "you": 454,
      "##ey": 455,
      "##vision": 456,
      "la": 457,
      "can": 458,
      "series": 459,
      "add": 460,
      "per": 461,
      "so": 462,
      "over": 463,
      "rec": 464,
      "##ence": 465,
      "fe": 466,
      "man": 467,
      "##her": 468,
      "would": 469,
      "includ": 470,
      "##mp": 471,
      "##og": 472,
      "rep": 473,
      "bas": 474,
      "mon": 475,
      "service": 476,
      "exp": 477,
      "qu": 478,
      "networks": 479,
      "##ree": 480,
      "##ose": 481,
      "##ther": 482,
      "who": 483,
      "been": 484,
      "##very": 485,
      "##ices": 486,
      "##rect": 487,
      "##yst": 488,
      "##ake": 489,
      "sc": 490,
      "comcast": 491,
      "his": 492,
      "##ame": 493,
      "than": 494,
      "##ach": 495,
      "##ite": 496,
      "##ating": 497,
      "tw": 498,
      "##hn": 499,
      "direct": 500,
      "##ustom": 501,
      "me": 502,
      "custom": 503,
      "programming": 504,
      "company": 505,
      "ro": 506,
      "mult": 507,
      "##ub": 508,
      "##ions": 509,
      "##wn": 510,
      "jo": 511,
      "subs": 512,
      "##ely": 513,
      "##ick": 514,
      "what": 515,
      "news": 516,
      "200": 517,
      "pre": 518,
      "##one": 519,
      "##ign": 520,
      "provid": 521,
      "##ital": 522,
      "communications": 523,
      "bus": 524,
      "there": 525,
      "fir": 526,
      "##ek": 527,
      "##ook": 528,
      "other": 529,
      "##iness": 530,
      "work": 531,
      "she": 532,
      "##are": 533,
      "sports": 534,
      "str": 535,
      "broadcast": 536,
      "had": 537,
      "##ace": 538,
      "##ary": 539,
      "some": 540,
      "bu": 541,
      "business": 542,
      "dev": 543,
      "##lo": 544,
      "ht": 545,
      "no": 546,
      "last": 547,
      "##ous": 548,
      "subsc": 549,
      "##ecut": 550,
      "##ple": 551,
      "##ond": 552,
      "dig": 553,
      "fcc": 554,
      "##ory": 555,
      "##ream": 556,
      "high": 557,
      "execut": 558,
      "dec": 559,
      "tec": 560,
      "##air": 561,
      "##man": 562,
      "##day": 563,
      "get": 564,
      "##ost": 565,
      "act": 566,
      "##co": 567,
      "intern": 568,
      "##ide": 569,
      "##ire": 570,
      "operat": 571,
      "201": 572,
      "##ail": 573,
      "##ational": 574,
      "television": 575,
      "##arter": 576,
      "##tain": 577,
      "##ced": 578,
      "first": 579,
      "when": 580,
      "##bc": 581,
      "af": 582,
      "##ays": 583,
      "##av": 584,
      "deal": 585,
      "##band": 586,
      "##iss": 587,
      "##ason": 588,
      "digital": 589,
      "top": 590,
      "##ix": 591,
      "ac": 592,
      "were": 593,
      "week": 594,
      "##ribut": 595,
      "bec": 596,
      "##ance": 597,
      "into": 598,
      "dist": 599,
      "viewers": 600,
      "ver": 601,
      "grou": 602,
      "bet": 603,
      "consum": 604,
      "##ings": 605,
      "##sp": 606,
      "##reat": 607,
      "imp": 608,
      "##own": 609,
      "sen": 610,
      "##ink": 611,
      "000": 612,
      "dem": 613,
      "indust": 614,
      "product": 615,
      "##ind": 616,
      "subscrib": 617,
      "war": 618,
      "##vent": 619,
      "gen": 620,
      "##atch": 621,
      "bo": 622,
      "most": 623,
      "##udi": 624,
      "pri": 625,
      "ass": 626,
      "broadband": 627,
      "##row": 628,
      "##unch": 629,
      "how": 630,
      "##ood": 631,
      "big": 632,
      "reg": 633,
      "like": 634,
      "customers": 635,
      "##ish": 636,
      "##hip": 637,
      "##ystem": 638,
      "##rough": 639,
      "if": 640,
      "now": 641,
      "##ib": 642,
      "two": 643,
      "stream": 644,
      "services": 645,
      "industry": 646,
      "own": 647,
      "group": 648,
      "##int": 649,
      "##ase": 650,
      "sec": 651,
      "##ens": 652,
      "##eric": 653,
      "##ep": 654,
      "##ass": 655,
      "##vert": 656,
      "##ward": 657,
      "years": 658,
      "americ": 659,
      "bl": 660,
      "techn": 661,
      "ph": 662,
      "set": 663,
      "mov": 664,
      "system": 665,
      "ww": 666,
      "##lic": 667,
      "##inal": 668,
      "them": 669,
      "##ates": 670,
      "##ock": 671,
      "##ang": 672,
      "##pport": 673,
      "could": 674,
      "just": 675,
      "car": 676,
      "vice": 677,
      "distribut": 678,
      "including": 679,
      "##ording": 680,
      "month": 681,
      "##ound": 682,
      "10": 683,
      "while": 684,
      "launch": 685,
      "##olog": 686,
      "through": 687,
      "##ount": 688,
      "wor": 689,
      "##mer": 690,
      "advert": 691,
      "advertis": 692,
      "after": 693,
      "according": 694,
      "##ichannel": 695,
      "executive": 696,
      "multichannel": 697,
      "those": 698,
      "##atform": 699,
      "look": 700,
      "##enc": 701,
      "enter": 702,
      "##ues": 703,
      "internet": 704,
      "well": 705,
      "offer": 706,
      "hel": 707,
      "her": 708,
      "##arg": 709,
      "ret": 710,
      "##ra": 711,
      "##tp": 712,
      "##ission": 713,
      "19": 714,
      "fox": 715,
      "##ney": 716,
      "##line": 717,
      "fi": 718,
      "##ivers": 719,
      "http": 720,
      "##fl": 721,
      "www": 722,
      "inv": 723,
      "##uring": 724,
      "##ough": 725,
      "##urn": 726,
      "play": 727,
      "##eople": 728,
      "ann": 729,
      "contin": 730,
      "und": 731,
      "##ade": 732,
      "any": 733,
      "warner": 734,
      "people": 735,
      "esp": 736,
      "based": 737,
      "##itt": 738,
      "##old": 739,
      "platform": 740,
      "ma": 741,
      "##lect": 742,
      "##eral": 743,
      "call": 744,
      "technolog": 745,
      "where": 746,
      "sm": 747,
      "operators": 748,
      "grow": 749,
      "every": 750,
      "star": 751,
      "##use": 752,
      "##ior": 753,
      "sal": 754,
      "season": 755,
      "##bo": 756,
      "compet": 757,
      "such": 758,
      "##ild": 759,
      "pay": 760,
      "##aking": 761,
      "live": 762,
      "down": 763,
      "##tic": 764,
      "##ss": 765,
      "may": 766,
      "national": 767,
      "##xt": 768,
      "think": 769,
      "devel": 770,
      "##ily": 771,
      "##ives": 772,
      "cur": 773,
      "watch": 774,
      "nbc": 775,
      "ceo": 776,
      "develop": 777,
      "back": 778,
      "kn": 779,
      "anal": 780,
      "##ual": 781,
      "##ments": 782,
      "##ities": 783,
      "##ouse": 784,
      "under": 785,
      "##ical": 786,
      "del": 787,
      "marketing": 788,
      "##amp": 789,
      "shows": 790,
      "companies": 791,
      "entertain": 792,
      "state": 793,
      "##hing": 794,
      "ear": 795,
      "##cer": 796,
      "##ently": 797,
      "rel": 798,
      "##ublic": 799,
      "##we": 800,
      "##vi": 801,
      "##oth": 802,
      "event": 803,
      "##ents": 804,
      "subscribers": 805,
      "cr": 806,
      "ca": 807,
      "##ting": 808,
      "access": 809,
      "fu": 810,
      "billion": 811,
      "##ateg": 812,
      "cor": 813,
      "want": 814,
      "sign": 815,
      "disco": 816,
      "need": 817,
      "fil": 818,
      "make": 819,
      "day": 820,
      "world": 821,
      "channels": 822,
      "##els": 823,
      "way": 824,
      "##oci": 825,
      "eff": 826,
      "##ark": 827,
      "york": 828,
      "po": 829,
      "##ise": 830,
      "lead": 831,
      "##com": 832,
      "spec": 833,
      "help": 834,
      "##ier": 835,
      "see": 836,
      "orig": 837,
      "entertainment": 838,
      "##ata": 839,
      "hd": 840,
      "spe": 841,
      "incre": 842,
      "air": 843,
      "##anc": 844,
      "audi": 845,
      "ve": 846,
      "streaming": 847,
      "##tv": 848,
      "senior": 849,
      "going": 850,
      "##ons": 851,
      "real": 852,
      "only": 853,
      "chair": 854,
      "loc": 855,
      "discovery": 856,
      "end": 857,
      "disney": 858,
      "av": 859,
      "att": 860,
      "house": 861,
      "mc": 862,
      "prom": 863,
      "##ning": 864,
      "##ility": 865,
      "##ict": 866,
      "data": 867,
      "home": 868,
      "curr": 869,
      "don": 870,
      "espn": 871,
      "##ell": 872,
      "adv": 873,
      "col": 874,
      "rem": 875,
      "##ause": 876,
      "##ics": 877,
      "fl": 878,
      "prem": 879,
      "next": 880,
      "des": 881,
      "long": 882,
      "12": 883,
      "sch": 884,
      "##ms": 885,
      "trans": 886,
      "ter": 887,
      "three": 888,
      "pos": 889,
      "reven": 890,
      "original": 891,
      "dep": 892,
      "quarter": 893,
      "tal": 894,
      "technology": 895,
      "because": 896,
      "##ft": 897,
      "##ights": 898,
      "cre": 899,
      "four": 900,
      "##ton": 901,
      "da": 902,
      "even": 903,
      "feat": 904,
      "demand": 905,
      "sales": 906,
      "##ph": 907,
      "cent": 908,
      "associ": 909,
      "advertising": 910,
      "offic": 911,
      "report": 912,
      "aff": 913,
      "both": 914,
      "##br": 915,
      "gr": 916,
      "sin": 917,
      "iss": 918,
      "##uch": 919,
      "gu": 920,
      "team": 921,
      "fam": 922,
      "sl": 923,
      "online": 924,
      "lif": 925,
      "##ty": 926,
      "artic": 927,
      "##ular": 928,
      "##cl": 929,
      "##earch": 930,
      "resp": 931,
      "##ected": 932,
      "best": 933,
      "during": 934,
      "lat": 935,
      "eng": 936,
      "##ady": 937,
      "brand": 938,
      "many": 939,
      "article": 940,
      "diff": 941,
      "##ures": 942,
      "directv": 943,
      "##ross": 944,
      "conn": 945,
      "second": 946,
      "##verage": 947,
      "public": 948,
      "##ited": 949,
      "commission": 950,
      "invest": 951,
      "dr": 952,
      "start": 953,
      "##fer": 954,
      "exper": 955,
      "take": 956,
      "revenue": 957,
      "cap": 958,
      "##ief": 959,
      "##ption": 960,
      "op": 961,
      "mob": 962,
      "##ative": 963,
      "##less": 964,
      "par": 965,
      "##up": 966,
      "202": 967,
      "did": 968,
      "deli": 969,
      "##ange": 970,
      "##ames": 971,
      "local": 972,
      "very": 973,
      "##ank": 974,
      "##ether": 975,
      "win": 976,
      "consumers": 977,
      "cour": 978,
      "30": 979,
      "val": 980,
      "##ower": 981,
      "added": 982,
      "##les": 983,
      "these": 984,
      "still": 985,
      "support": 986,
      "num": 987,
      "##fore": 988,
      "##ined": 989,
      "chairman": 990,
      "vp": 991,
      "11": 992,
      "found": 993,
      "my": 994,
      "mem": 995,
      "##mm": 996,
      "lo": 997,
      "avail": 998,
      "##ger": 999,
      "rating": 1000,
      "hbo": 1001,
      "ke": 1002,
      "strateg": 1003,
      "##ug": 1004,
      "great": 1005,
      "award": 1006,
      "##ible": 1007,
      "systems": 1008,
      "##llow": 1009,
      "##az": 1010,
      "##ners": 1011,
      "addition": 1012,
      "before": 1013,
      "corp": 1014,
      "##enn": 1015,
      "##pl": 1016,
      "beg": 1017,
      "deb": 1018,
      "##ying": 1019,
      "wire": 1020,
      "charter": 1021,
      "##its": 1022,
      "##ocus": 1023,
      "again": 1024,
      "should": 1025,
      "sur": 1026,
      "##reen": 1027,
      "leg": 1028,
      "bel": 1029,
      "##vers": 1030,
      "##izon": 1031,
      "ep": 1032,
      "distribution": 1033,
      "##ved": 1034,
      "##ball": 1035,
      "##ific": 1036,
      "##ron": 1037,
      "much": 1038,
      "fin": 1039,
      "chief": 1040,
      "mod": 1041,
      "##jor": 1042,
      "ext": 1043,
      "##ee": 1044,
      "head": 1045,
      "##io": 1046,
      "##ful": 1047,
      "##te": 1048,
      "plus": 1049,
      "pol": 1050,
      "major": 1051,
      "game": 1052,
      "manag": 1053,
      "inst": 1054,
      "focus": 1055,
      "##ional": 1056,
      "15": 1057,
      "say": 1058,
      "##ving": 1059,
      "##atell": 1060,
      "association": 1061,
      "mobile": 1062,
      "announ": 1063,
      "director": 1064,
      "made": 1065,
      "##ress": 1066,
      "cox": 1067,
      "satell": 1068,
      "pers": 1069,
      "wom": 1070,
      "id": 1071,
      "stand": 1072,
      "consumer": 1073,
      "cost": 1074,
      "##led": 1075,
      "18": 1076,
      "verizon": 1077,
      "los": 1078,
      "same": 1079,
      "##ather": 1080,
      "netfl": 1081,
      "lot": 1082,
      "##other": 1083,
      "def": 1084,
      "##bers": 1085,
      "##loy": 1086,
      "satellite": 1087,
      "##ash": 1088,
      "available": 1089,
      "sim": 1090,
      "free": 1091,
      "run": 1092,
      "growth": 1093,
      "partners": 1094,
      "##als": 1095,
      "follow": 1096,
      "cbs": 1097,
      "audience": 1098,
      "really": 1099,
      "being": 1100,
      "ed": 1101,
      "good": 1102,
      "analyst": 1103,
      "count": 1104,
      "##round": 1105,
      "does": 1106,
      "comed": 1107,
      "share": 1108,
      "box": 1109,
      "premi": 1110,
      "##ween": 1111,
      "requ": 1112,
      "dish": 1113,
      "##res": 1114,
      "##une": 1115,
      "among": 1116,
      "bill": 1117,
      "differ": 1118,
      "your": 1119,
      "est": 1120,
      "##ian": 1121,
      "know": 1122,
      "char": 1123,
      "build": 1124,
      "since": 1125,
      "##ml": 1126,
      "prim": 1127,
      "each": 1128,
      "promot": 1129,
      "min": 1130,
      "##isod": 1131,
      "research": 1132,
      "doc": 1133,
      "##hold": 1134,
      "wr": 1135,
      "##att": 1136,
      "aut": 1137,
      "law": 1138,
      "hour": 1139,
      "between": 1140,
      "american": 1141,
      "##uct": 1142,
      "##ird": 1143,
      "deliver": 1144,
      "pa": 1145,
      "##uc": 1146,
      "html": 1147,
      "netflix": 1148,
      "use": 1149,
      "##etime": 1150,
      "##ential": 1151,
      "providers": 1152,
      "reach": 1153,
      "cablevision": 1154,
      "experi": 1155,
      "episod": 1156,
      "rul": 1157,
      "then": 1158,
      "##ris": 1159,
      "too": 1160,
      "continue": 1161,
      "fed": 1162,
      "hist": 1163,
      "##ages": 1164,
      "family": 1165,
      "speed": 1166,
      "stations": 1167,
      "ap": 1168,
      "##son": 1169,
      "succ": 1170,
      "america": 1171,
      "jan": 1172,
      "##ious": 1173,
      "sever": 1174,
      "##ets": 1175,
      "opport": 1176,
      "john": 1177,
      "web": 1178,
      "##ble": 1179,
      "inform": 1180,
      "another": 1181,
      "mus": 1182,
      "across": 1183,
      "opportun": 1184,
      "##ath": 1185,
      "include": 1186,
      "success": 1187,
      "##ready": 1188,
      "around": 1189,
      "talk": 1190,
      "##ied": 1191,
      "already": 1192,
      "women": 1193,
      "wireless": 1194,
      "##gle": 1195,
      "general": 1196,
      "gener": 1197,
      "13": 1198,
      "acqu": 1199,
      "vers": 1200,
      "##lob": 1201,
      "hall": 1202,
      "##ili": 1203,
      "cle": 1204,
      "former": 1205,
      "##con": 1206,
      "##ased": 1207,
      "comedy": 1208,
      "creat": 1209,
      "tim": 1210,
      "foot": 1211,
      "third": 1212,
      "##ama": 1213,
      "trad": 1214,
      "court": 1215,
      "though": 1216,
      "##ency": 1217,
      "##ef": 1218,
      "##ized": 1219,
      "##ves": 1220,
      "interest": 1221,
      "##ale": 1222,
      "##way": 1223,
      "univers": 1224,
      "better": 1225,
      "##ality": 1226,
      "25": 1227,
      "##ys": 1228,
      "special": 1229,
      "development": 1230,
      "targ": 1231,
      "glob": 1232,
      "point": 1233,
      "federal": 1234,
      "games": 1235,
      "night": 1236,
      "allow": 1237,
      "elect": 1238,
      "##time": 1239,
      "put": 1240,
      "past": 1241,
      "customer": 1242,
      "line": 1243,
      "several": 1244,
      "##par": 1245,
      "appro": 1246,
      "##ling": 1247,
      "carri": 1248,
      "telecom": 1249,
      "open": 1250,
      "lin": 1251,
      "nam": 1252,
      "scri": 1253,
      "soc": 1254,
      "##ric": 1255,
      "import": 1256,
      "statement": 1257,
      "init": 1258,
      "markets": 1259,
      "agree": 1260,
      "ca6": 1261,
      "form": 1262,
      "##lly": 1263,
      "##ively": 1264,
      "dri": 1265,
      "##acom": 1266,
      "##ids": 1267,
      "som": 1268,
      "ins": 1269,
      "14": 1270,
      "##iels": 1271,
      "##agement": 1272,
      "studi": 1273,
      "regul": 1274,
      "key": 1275,
      "ll": 1276,
      "provide": 1277,
      "##akes": 1278,
      "goo": 1279,
      "platforms": 1280,
      "##gest": 1281,
      "##view": 1282,
      "march": 1283,
      "hear": 1284,
      "##olut": 1285,
      "emp": 1286,
      "im": 1287,
      "##ah": 1288,
      "ent": 1289,
      "operator": 1290,
      "camp": 1291,
      "small": 1292,
      "google": 1293,
      "el": 1294,
      "ratings": 1295,
      "movie": 1296,
      "##ects": 1297,
      "information": 1298,
      "##acy": 1299,
      "target": 1300,
      "##ead": 1301,
      "partic": 1302,
      "##ually": 1303,
      "##ject": 1304,
      "against": 1305,
      "pur": 1306,
      "come": 1307,
      "host": 1308,
      "prop": 1309,
      "oct": 1310,
      "interact": 1311,
      "mer": 1312,
      "##eld": 1313,
      "hop": 1314,
      "number": 1315,
      "##ize": 1316,
      "strong": 1317,
      "movies": 1318,
      "tot": 1319,
      "plan": 1320,
      "person": 1321,
      "different": 1322,
      "pack": 1323,
      "sub": 1324,
      "expand": 1325,
      "mich": 1326,
      "working": 1327,
      "belie": 1328,
      "right": 1329,
      "commer": 1330,
      "##no": 1331,
      "mcn": 1332,
      "looking": 1333,
      "##der": 1334,
      "shar": 1335,
      "##ivision": 1336,
      "june": 1337,
      "history": 1338,
      "chang": 1339,
      "fut": 1340,
      "##eng": 1341,
      "##ony": 1342,
      "##pted": 1343,
      "let": 1344,
      "pop": 1345,
      "rights": 1346,
      "##lish": 1347,
      "##ued": 1348,
      "competit": 1349,
      "making": 1350,
      "current": 1351,
      "##sn": 1352,
      "called": 1353,
      "rules": 1354,
      "##omes": 1355,
      "neg": 1356,
      "cal": 1357,
      "prof": 1358,
      "red": 1359,
      "disc": 1360,
      "broadcasters": 1361,
      "larg": 1362,
      "power": 1363,
      "17": 1364,
      "bre": 1365,
      "##ences": 1366,
      "##ference": 1367,
      "prot": 1368,
      "five": 1369,
      "niels": 1370,
      "operations": 1371,
      "equ": 1372,
      "ob": 1373,
      "abc": 1374,
      "officer": 1375,
      "giv": 1376,
      "##ument": 1377,
      "total": 1378,
      "sell": 1379,
      "ev": 1380,
      "comple": 1381,
      "##sc": 1382,
      "tri": 1383,
      "keep": 1384,
      "##uly": 1385,
      "care": 1386,
      "wal": 1387,
      "story": 1388,
      "experience": 1389,
      "##ired": 1390,
      "music": 1391,
      "ask": 1392,
      "record": 1393,
      "competition": 1394,
      "met": 1395,
      "future": 1396,
      "nielsen": 1397,
      "##gress": 1398,
      "post": 1399,
      "today": 1400,
      "move": 1401,
      "connect": 1402,
      "##hington": 1403,
      "strategy": 1404,
      "manager": 1405,
      "washington": 1406,
      "nor": 1407,
      "har": 1408,
      "pe": 1409,
      "pass": 1410,
      "##osed": 1411,
      "priv": 1412,
      "rece": 1413,
      "##oice": 1414,
      "tur": 1415,
      "begin": 1416,
      "##vern": 1417,
      "base": 1418,
      "##pr": 1419,
      "decision": 1420,
      "important": 1421,
      "hold": 1422,
      "stock": 1423,
      "##sel": 1424,
      "##ett": 1425,
      "##vel": 1426,
      "##cess": 1427,
      "sw": 1428,
      "16": 1429,
      "##pe": 1430,
      "##pped": 1431,
      "rele": 1432,
      "leag": 1433,
      "subscriber": 1434,
      "months": 1435,
      "perform": 1436,
      "debut": 1437,
      "events": 1438,
      "ra": 1439,
      "ste": 1440,
      "contro": 1441,
      "cn": 1442,
      "beh": 1443,
      "##eter": 1444,
      "global": 1445,
      "production": 1446,
      "hand": 1447,
      "sk": 1448,
      "lik": 1449,
      "50": 1450,
      "##ically": 1451,
      "happ": 1452,
      "clear": 1453,
      "six": 1454,
      "##ract": 1455,
      "##min": 1456,
      "city": 1457,
      "price": 1458,
      "##yn": 1459,
      "##omin": 1460,
      "deals": 1461,
      "##mark": 1462,
      "amc": 1463,
      "stor": 1464,
      "govern": 1465,
      "##mun": 1466,
      "somet": 1467,
      "em": 1468,
      "##ials": 1469,
      "announced": 1470,
      "here": 1471,
      "coverage": 1472,
      "devices": 1473,
      "currently": 1474,
      "er": 1475,
      "near": 1476,
      "##ces": 1477,
      "##ately": 1478,
      "##ril": 1479,
      "##oti": 1480,
      "got": 1481,
      "return": 1482,
      "fact": 1483,
      "things": 1484,
      "named": 1485,
      "##gan": 1486,
      "april": 1487,
      "##itch": 1488,
      "find": 1489,
      "life": 1490,
      "whether": 1491,
      "##ants": 1492,
      "hard": 1493,
      "##uary": 1494,
      "plans": 1495,
      "management": 1496,
      "place": 1497,
      "value": 1498,
      "film": 1499,
      "kids": 1500,
      "black": 1501,
      "issues": 1502,
      "mid": 1503,
      "##aign": 1504,
      "david": 1505,
      "nick": 1506,
      "opt": 1507,
      "telecommun": 1508,
      "campaign": 1509,
      "few": 1510,
      "##ees": 1511,
      "##stand": 1512,
      "chall": 1513,
      "negoti": 1514,
      "telecommunications": 1515,
      "vod": 1516,
      "##ends": 1517,
      "##ending": 1518,
      "##aph": 1519,
      "##ps": 1520,
      "able": 1521,
      "affili": 1522,
      "##itions": 1523,
      "pot": 1524,
      "##ults": 1525,
      "sept": 1526,
      "launched": 1527,
      "##ership": 1528,
      "bring": 1529,
      "expected": 1530,
      "less": 1531,
      "turn": 1532,
      "usa": 1533,
      "vir": 1534,
      "press": 1535,
      "members": 1536,
      "auth": 1537,
      "repres": 1538,
      "remain": 1539,
      "ang": 1540,
      "users": 1541,
      "via": 1542,
      "199": 1543,
      "##wh": 1544,
      "early": 1545,
      "fund": 1546,
      "ever": 1547,
      "##ember": 1548,
      "sit": 1549,
      "var": 1550,
      "##ike": 1551,
      "social": 1552,
      "process": 1553,
      "far": 1554,
      "tit": 1555,
      "interactive": 1556,
      "ben": 1557,
      "##iting": 1558,
      "broadcasting": 1559,
      "financ": 1560,
      "change": 1561,
      "24": 1562,
      "##ley": 1563,
      "present": 1564,
      "offering": 1565,
      "league": 1566,
      "main": 1567,
      "old": 1568,
      "mtv": 1569,
      "##ware": 1570,
      "##ks": 1571,
      "aug": 1572,
      "getting": 1573,
      "reality": 1574,
      "##alf": 1575,
      "##ural": 1576,
      "##ugh": 1577,
      "standard": 1578,
      "fans": 1579,
      "increase": 1580,
      "cer": 1581,
      "comes": 1582,
      "##ways": 1583,
      "##vious": 1584,
      "tradition": 1585,
      "homes": 1586,
      "mart": 1587,
      "sour": 1588,
      "committ": 1589,
      "face": 1590,
      "class": 1591,
      "colle": 1592,
      "##rans": 1593,
      "concer": 1594,
      "executives": 1595,
      "crit": 1596,
      "full": 1597,
      "##rew": 1598,
      "step": 1599,
      "##ote": 1600,
      "100": 1601,
      "site": 1602,
      "turner": 1603,
      "dv": 1604,
      "appear": 1605,
      "amaz": 1606,
      "##iod": 1607,
      "##ially": 1608,
      "told": 1609,
      "##anced": 1610,
      "conf": 1611,
      "##red": 1612,
      "doing": 1613,
      "##ration": 1614,
      "final": 1615,
      "conference": 1616,
      "ago": 1617,
      "retrans": 1618,
      "country": 1619,
      "ip": 1620,
      "hul": 1621,
      "##land": 1622,
      "multip": 1623,
      "along": 1624,
      "period": 1625,
      "2009": 1626,
      "##angu": 1627,
      "##ring": 1628,
      "potential": 1629,
      "sund": 1630,
      "mean": 1631,
      "##ider": 1632,
      "relations": 1633,
      "youn": 1634,
      "##ool": 1635,
      "awards": 1636,
      "##thers": 1637,
      "quest": 1638,
      "angel": 1639,
      "##egr": 1640,
      "spect": 1641,
      "drama": 1642,
      "##pan": 1643,
      "span": 1644,
      "become": 1645,
      "##iday": 1646,
      "always": 1647,
      "showtime": 1648,
      "##rum": 1649,
      "##uss": 1650,
      "household": 1651,
      "hallmark": 1652,
      "tel": 1653,
      "##ines": 1654,
      "producer": 1655,
      "premiere": 1656,
      "government": 1657,
      "##aff": 1658,
      "prior": 1659,
      "hulu": 1660,
      "port": 1661,
      "roll": 1662,
      "ce": 1663,
      "cut": 1664,
      "ho": 1665,
      "##ral": 1666,
      "increas": 1667,
      "mot": 1668,
      "integr": 1669,
      "##til": 1670,
      "spot": 1671,
      "order": 1672,
      "2007": 1673,
      "comb": 1674,
      "meet": 1675,
      "products": 1676,
      "corpor": 1677,
      "buy": 1678,
      "##uck": 1679,
      "financial": 1680,
      "mat": 1681,
      "sou": 1682,
      "recently": 1683,
      "2008": 1684,
      "something": 1685,
      "july": 1686,
      "pict": 1687,
      "side": 1688,
      "says": 1689,
      "##que": 1690,
      "21": 1691,
      "international": 1692,
      "poss": 1693,
      "times": 1694,
      "##ael": 1695,
      "without": 1696,
      "adding": 1697,
      "defin": 1698,
      "mor": 1699,
      "center": 1700,
      "ca64": 1701,
      "arg": 1702,
      "40": 1703,
      "sing": 1704,
      "inno": 1705,
      "board": 1706,
      "using": 1707,
      "fall": 1708,
      "land": 1709,
      "inf": 1710,
      "him": 1711,
      "must": 1712,
      "wa": 1713,
      "##tt": 1714,
      "##ins": 1715,
      "##ont": 1716,
      "sum": 1717,
      "bar": 1718,
      "screen": 1719,
      "dou": 1720,
      "spectrum": 1721,
      "pan": 1722,
      "test": 1723,
      "innov": 1724,
      "##urs": 1725,
      "provider": 1726,
      "traditional": 1727,
      "tog": 1728,
      "document": 1729,
      "ty": 1730,
      "gain": 1731,
      "##pping": 1732,
      "issue": 1733,
      "together": 1734,
      "sat": 1735,
      "##ump": 1736,
      "phone": 1737,
      "opportunity": 1738,
      "won": 1739,
      "mag": 1740,
      "##ern": 1741,
      "viewing": 1742,
      "green": 1743,
      "langu": 1744,
      "supp": 1745,
      "super": 1746,
      "terms": 1747,
      "cash": 1748,
      "fri": 1749,
      "tech": 1750,
      "acquis": 1751,
      "half": 1752,
      "liber": 1753,
      "distributors": 1754,
      "lar": 1755,
      "##ization": 1756,
      "apple": 1757,
      "fast": 1758,
      "##ivo": 1759,
      "23": 1760,
      "pat": 1761,
      "forward": 1762,
      "mark": 1763,
      "econ": 1764,
      "##yle": 1765,
      "##ably": 1766,
      "michael": 1767,
      "days": 1768,
      "##graph": 1769,
      "econom": 1770,
      "##aim": 1771,
      "##ush": 1772,
      "produced": 1773,
      "##ned": 1774,
      "later": 1775,
      "might": 1776,
      "lic": 1777,
      "##mission": 1778,
      "##aged": 1779,
      "owned": 1780,
      "given": 1781,
      "##ability": 1782,
      "click": 1783,
      "advertisers": 1784,
      "coun": 1785,
      "##rem": 1786,
      "exam": 1787,
      "likely": 1788,
      "trying": 1789,
      "##elf": 1790,
      "hispan": 1791,
      "growing": 1792,
      "love": 1793,
      "employ": 1794,
      "##ax": 1795,
      "organ": 1796,
      "linear": 1797,
      "sy": 1798,
      "includes": 1799,
      "##und": 1800,
      "viacom": 1801,
      "didn": 1802,
      "cnn": 1803,
      "language": 1804,
      "divers": 1805,
      "used": 1806,
      "sched": 1807,
      "##ino": 1808,
      "congress": 1809,
      "ide": 1810,
      "tivo": 1811,
      "recent": 1812,
      "list": 1813,
      "create": 1814,
      "22": 1815,
      "lim": 1816,
      "##clus": 1817,
      "carriage": 1818,
      "initi": 1819,
      "angeles": 1820,
      "done": 1821,
      "2010": 1822,
      "stud": 1823,
      "##thing": 1824,
      "creative": 1825,
      "nfl": 1826,
      "rest": 1827,
      "why": 1828,
      "##pps": 1829,
      "starz": 1830,
      "summer": 1831,
      "case": 1832,
      "give": 1833,
      "28": 1834,
      "partner": 1835,
      "secur": 1836,
      "episodes": 1837,
      "exist": 1838,
      "operating": 1839,
      "role": 1840,
      "liberty": 1841,
      "studios": 1842,
      "basic": 1843,
      "hours": 1844,
      "fac": 1845,
      "hit": 1846,
      "low": 1847,
      "##lier": 1848,
      "##ina": 1849,
      "##rist": 1850,
      "ads": 1851,
      "fun": 1852,
      "##ott": 1853,
      "block": 1854,
      "football": 1855,
      "##ored": 1856,
      "nearly": 1857,
      "non": 1858,
      "##oud": 1859,
      "##rown": 1860,
      "##lain": 1861,
      "school": 1862,
      "agreement": 1863,
      "commerc": 1864,
      "amazon": 1865,
      "others": 1866,
      "##ok": 1867,
      "rober": 1868,
      "programmers": 1869,
      "fourth": 1870,
      "certain": 1871,
      "##ient": 1872,
      "enc": 1873,
      "##ective": 1874,
      "least": 1875,
      "medi": 1876,
      "believe": 1877,
      "taking": 1878,
      "##alth": 1879,
      "coming": 1880,
      "popular": 1881,
      "litt": 1882,
      "##ety": 1883,
      "27": 1884,
      "nation": 1885,
      "fight": 1886,
      "estim": 1887,
      "overs": 1888,
      "wro": 1889,
      "##ba": 1890,
      "money": 1891,
      "martin": 1892,
      "wrote": 1893,
      "##ised": 1894,
      "read": 1895,
      "cred": 1896,
      "universal": 1897,
      "division": 1898,
      "##side": 1899,
      "deploy": 1900,
      "##atic": 1901,
      "partnership": 1902,
      "tn": 1903,
      "largest": 1904,
      "control": 1905,
      "##ule": 1906,
      "##ged": 1907,
      "expect": 1908,
      "subscri": 1909,
      "design": 1910,
      "yet": 1911,
      "##ube": 1912,
      "community": 1913,
      "little": 1914,
      "produc": 1915,
      "engine": 1916,
      "reason": 1917,
      "band": 1918,
      "##ering": 1919,
      "gold": 1920,
      "purch": 1921,
      "ott": 1922,
      "##ention": 1923,
      "virt": 1924,
      "mom": 1925,
      "##ruct": 1926,
      "overall": 1927,
      "previous": 1928,
      "action": 1929,
      "analysts": 1930,
      "primetime": 1931,
      "short": 1932,
      "feature": 1933,
      "protect": 1934,
      "rank": 1935,
      "solut": 1936,
      "exc": 1937,
      "position": 1938,
      "premium": 1939,
      "came": 1940,
      "##ams": 1941,
      "led": 1942,
      "##anch": 1943,
      "quality": 1944,
      "states": 1945,
      "features": 1946,
      "sunday": 1947,
      "##au": 1948,
      "##med": 1949,
      "dro": 1950,
      "meas": 1951,
      "doesn": 1952,
      "building": 1953,
      "tom": 1954,
      "episode": 1955,
      "monday": 1956,
      "26": 1957,
      "until": 1958,
      "never": 1959,
      "appl": 1960,
      "agency": 1961,
      "joined": 1962,
      "additional": 1963,
      "average": 1964,
      "ren": 1965,
      "ref": 1966,
      "alt": 1967,
      "impact": 1968,
      "earlier": 1969,
      "station": 1970,
      "front": 1971,
      "having": 1972,
      "99": 1973,
      "rad": 1974,
      "yout": 1975,
      "##itor": 1976,
      "advanced": 1977,
      "career": 1978,
      "behind": 1979,
      "##ode": 1980,
      "##dd": 1981,
      "once": 1982,
      "nct": 1983,
      "address": 1984,
      "regional": 1985,
      "represent": 1986,
      "##nes": 1987,
      "##aging": 1988,
      "competitive": 1989,
      "white": 1990,
      "impro": 1991,
      "hon": 1992,
      "programs": 1993,
      "job": 1994,
      "decl": 1995,
      "asked": 1996,
      "project": 1997,
      "friday": 1998,
      "specific": 1999,
      "polic": 2000,
      "##ones": 2001,
      "within": 2002,
      "fees": 2003,
      "max": 2004,
      "##ted": 2005,
      "offers": 2006,
      "annual": 2007,
      "term": 2008,
      "31": 2009,
      "bri": 2010,
      "compar": 2011,
      "hispanic": 2012,
      "youtube": 2013,
      "##vp": 2014,
      "##isco": 2015,
      "dead": 2016,
      "ability": 2017,
      "rob": 2018,
      "invol": 2019,
      "##ler": 2020,
      "##go": 2021,
      "##ute": 2022,
      "ms": 2023,
      "wed": 2024,
      "##ave": 2025,
      "thurs": 2026,
      "benef": 2027,
      "thursday": 2028,
      "rich": 2029,
      "##ik": 2030,
      "ris": 2031,
      "exclus": 2032,
      "##epend": 2033,
      "central": 2034,
      "lifetime": 2035,
      "##ren": 2036,
      "##ists": 2037,
      "san": 2038,
      "sug": 2039,
      "took": 2040,
      "fx": 2041,
      "seem": 2042,
      "noted": 2043,
      "jour": 2044,
      "pu": 2045,
      "##duc": 2046,
      "##avor": 2047,
      "jud": 2048,
      "##book": 2049,
      "##atory": 2050,
      "child": 2051,
      "respons": 2052,
      "bid": 2053,
      "personal": 2054,
      "example": 2055,
      "uni": 2056,
      "independ": 2057,
      "soft": 2058,
      "biggest": 2059,
      "worked": 2060,
      "##ging": 2061,
      "##ense": 2062,
      "signific": 2063,
      "committee": 2064,
      "tnt": 2065,
      "##lant": 2066,
      "space": 2067,
      "claim": 2068,
      "2006": 2069,
      "reported": 2070,
      "late": 2071,
      "sect": 2072,
      "##ody": 2073,
      "consider": 2074,
      "efforts": 2075,
      "large": 2076,
      "eas": 2077,
      "men": 2078,
      "sn": 2079,
      "thing": 2080,
      "clos": 2081,
      "college": 2082,
      "spanish": 2083,
      "champ": 2084,
      "feb": 2085,
      "higher": 2086,
      "discuss": 2087,
      "ul": 2088,
      "intro": 2089,
      "created": 2090,
      "break": 2091,
      "officials": 2092,
      "polit": 2093,
      "significant": 2094,
      "plann": 2095,
      "smart": 2096,
      "##sh": 2097,
      "##icated": 2098,
      "scripps": 2099,
      "dvr": 2100,
      "##cent": 2101,
      "##ars": 2102,
      "costs": 2103,
      "lineup": 2104,
      "performance": 2105,
      "multiple": 2106,
      "##ness": 2107,
      "##tern": 2108,
      "capital": 2109,
      "ult": 2110,
      "categ": 2111,
      "date": 2112,
      "##by": 2113,
      "##ining": 2114,
      "##ats": 2115,
      "loss": 2116,
      "dan": 2117,
      "##be": 2118,
      "##ever": 2119,
      "level": 2120,
      "anim": 2121,
      "##standing": 2122,
      "je": 2123,
      "cond": 2124,
      "mso": 2125,
      "voice": 2126,
      "spons": 2127,
      "area": 2128,
      "particular": 2129,
      "hum": 2130,
      "page": 2131,
      "needs": 2132,
      "focused": 2133,
      "retransmission": 2134,
      "60": 2135,
      "lear": 2136,
      "model": 2137,
      "det": 2138,
      "##vin": 2139,
      "##reed": 2140,
      "stars": 2141,
      "particip": 2142,
      "subscription": 2143,
      "atlant": 2144,
      "gl": 2145,
      "##ator": 2146,
      "tues": 2147,
      "sure": 2148,
      "tell": 2149,
      "relationship": 2150,
      "##wood": 2151,
      "##ivid": 2152,
      "results": 2153,
      "possible": 2154,
      "tuesday": 2155,
      "##ify": 2156,
      "carry": 2157,
      "talent": 2158,
      "##where": 2159,
      "ways": 2160,
      "comment": 2161,
      "##vey": 2162,
      "approach": 2163,
      "proper": 2164,
      "##ocr": 2165,
      "package": 2166,
      "young": 2167,
      "##ests": 2168,
      "##ceed": 2169,
      "track": 2170,
      "emm": 2171,
      "2011": 2172,
      "democr": 2173,
      "radio": 2174,
      "hor": 2175,
      "push": 2176,
      "result": 2177,
      "##ators": 2178,
      "ado": 2179,
      "franch": 2180,
      "bund": 2181,
      "##load": 2182,
      "fios": 2183,
      "electron": 2184,
      "vent": 2185,
      "##ru": 2186,
      "targeted": 2187,
      "happen": 2188,
      "ele": 2189,
      "proble": 2190,
      "depart": 2191,
      "param": 2192,
      "cele": 2193,
      "christ": 2194,
      "seen": 2195,
      "propos": 2196,
      "35": 2197,
      "##ury": 2198,
      "affiliate": 2199,
      "author": 2200,
      "29": 2201,
      "bow": 2202,
      "opportunities": 2203,
      "challeng": 2204,
      "##ism": 2205,
      "moff": 2206,
      "fiber": 2207,
      "watching": 2208,
      "source": 2209,
      "emer": 2210,
      "vis": 2211,
      "##lymp": 2212,
      "##ived": 2213,
      "appe": 2214,
      "feel": 2215,
      "quick": 2216,
      "nov": 2217,
      "january": 2218,
      "cult": 2219,
      "den": 2220,
      "ant": 2221,
      "alm": 2222,
      "paramount": 2223,
      "ge": 2224,
      "nat": 2225,
      "transition": 2226,
      "software": 2227,
      "close": 2228,
      "beginning": 2229,
      "##ured": 2230,
      "telecast": 2231,
      "##place": 2232,
      "definition": 2233,
      "following": 2234,
      "facebook": 2235,
      "45": 2236,
      "scripted": 2237,
      "educ": 2238,
      "mess": 2239,
      "stre": 2240,
      "php": 2241,
      "investment": 2242,
      "unit": 2243,
      "##ination": 2244,
      "##ivity": 2245,
      "device": 2246,
      "acquisition": 2247,
      "aver": 2248,
      "dra": 2249,
      "olymp": 2250,
      "##atives": 2251,
      "commercial": 2252,
      "imm": 2253,
      "leadership": 2254,
      "stories": 2255,
      "celebr": 2256,
      "match": 2257,
      "rate": 2258,
      "##head": 2259,
      "bey": 2260,
      "effort": 2261,
      "3d": 2262,
      "favor": 2263,
      "nomin": 2264,
      "##net": 2265,
      "##do": 2266,
      "##eler": 2267,
      "##ilar": 2268,
      "telco": 2269,
      "altice": 2270,
      "continued": 2271,
      "##ament": 2272,
      "##iron": 2273,
      "49": 2274,
      "##ides": 2275,
      "shares": 2276,
      "##nesday": 2277,
      "hill": 2278,
      "kind": 2279,
      "##ten": 2280,
      "areas": 2281,
      "##action": 2282,
      "wanted": 2283,
      "wednesday": 2284,
      "beyond": 2285,
      "##ensive": 2286,
      "virtual": 2287,
      "eight": 2288,
      "makes": 2289,
      "##ds": 2290,
      "##wide": 2291,
      "##iving": 2292,
      "held": 2293,
      "suggest": 2294,
      "twc": 2295,
      "documentary": 2296,
      "##iant": 2297,
      "##isl": 2298,
      "connected": 2299,
      "title": 2300,
      "producers": 2301,
      "##omm": 2302,
      "republic": 2303,
      "2020": 2304,
      "legisl": 2305,
      "##ecess": 2306,
      "require": 2307,
      "panel": 2308,
      "employees": 2309,
      "policy": 2310,
      "pred": 2311,
      "guide": 2312,
      "2021": 2313,
      "##ibility": 2314,
      "saying": 2315,
      "north": 2316,
      "almost": 2317,
      "cast": 2318,
      "##ended": 2319,
      "ess": 2320,
      "watched": 2321,
      "member": 2322,
      "began": 2323,
      "existing": 2324,
      "seek": 2325,
      "reports": 2326,
      "audiences": 2327,
      "introdu": 2328,
      "mass": 2329,
      "##ither": 2330,
      "env": 2331,
      "independent": 2332,
      "moffett": 2333,
      "tbs": 2334,
      "##key": 2335,
      "##nal": 2336,
      "weather": 2337,
      "health": 2338,
      "art": 2339,
      "rok": 2340,
      "baseball": 2341,
      "households": 2342,
      "##ein": 2343,
      "##gen": 2344,
      "corporate": 2345,
      "south": 2346,
      "bur": 2347,
      "##uing": 2348,
      "cover": 2349,
      "premier": 2350,
      "legal": 2351,
      "##inc": 2352,
      "##reg": 2353,
      "seven": 2354,
      "ncta": 2355,
      "unique": 2356,
      "fur": 2357,
      "mal": 2358,
      "mad": 2359,
      "mix": 2360,
      "served": 2361,
      "consent": 2362,
      "##ified": 2363,
      "review": 2364,
      "admin": 2365,
      "pric": 2366,
      "select": 2367,
      "neut": 2368,
      "away": 2369,
      "##fi": 2370,
      "##ingly": 2371,
      "##iter": 2372,
      "##ries": 2373,
      "user": 2374,
      "flow": 2375,
      "journal": 2376,
      "businesses": 2377,
      "phil": 2378,
      "single": 2379,
      "administ": 2380,
      "cart": 2381,
      "ros": 2382,
      "ident": 2383,
      "roku": 2384,
      "ur": 2385,
      "separ": 2386,
      "cop": 2387,
      "2012": 2388,
      "environ": 2389,
      "food": 2390,
      "##jo": 2391,
      "theat": 2392,
      "isn": 2393,
      "##aker": 2394,
      "ens": 2395,
      "groups": 2396,
      "technologies": 2397,
      "boxes": 2398,
      "rather": 2399,
      "enough": 2400,
      "##ape": 2401,
      "players": 2402,
      "bad": 2403,
      "mill": 2404,
      "featuring": 2405,
      "changes": 2406,
      "34": 2407,
      "hu": 2408,
      "ple": 2409,
      "##ane": 2410,
      "office": 2411,
      "weeks": 2412,
      "left": 2413,
      "account": 2414,
      "means": 2415,
      "crown": 2416,
      "lost": 2417,
      "##ogn": 2418,
      "2005": 2419,
      "signals": 2420,
      "started": 2421,
      "nba": 2422,
      "##ances": 2423,
      "attract": 2424,
      "credit": 2425,
      "hot": 2426,
      "##ients": 2427,
      "recogn": 2428,
      "helped": 2429,
      "nickel": 2430,
      "name": 2431,
      "collect": 2432,
      "##oint": 2433,
      "afric": 2434,
      "##avo": 2435,
      "nickelode": 2436,
      "continues": 2437,
      "studio": 2438,
      "search": 2439,
      "scen": 2440,
      "jeff": 2441,
      "cou": 2442,
      "pub": 2443,
      "##light": 2444,
      "complain": 2445,
      "198": 2446,
      "similar": 2447,
      "nickelodeon": 2448,
      "increased": 2449,
      "successful": 2450,
      "private": 2451,
      "various": 2452,
      "schedul": 2453,
      "miss": 2454,
      "##rast": 2455,
      "doll": 2456,
      "generation": 2457,
      "compared": 2458,
      "cas": 2459,
      "cam": 2460,
      "##ech": 2461,
      "cho": 2462,
      "serve": 2463,
      "##akers": 2464,
      "interview": 2465,
      "party": 2466,
      "firm": 2467,
      "mic": 2468,
      "mur": 2469,
      "sol": 2470,
      "##tc": 2471,
      "##lex": 2472,
      "convers": 2473,
      "seg": 2474,
      "however": 2475,
      "films": 2476,
      "##ga": 2477,
      "##icult": 2478,
      "##ison": 2479,
      "sho": 2480,
      "shif": 2481,
      "outside": 2482,
      "marketplace": 2483,
      "##phone": 2484,
      "respond": 2485,
      "##itter": 2486,
      "throughout": 2487,
      "smith": 2488,
      "merger": 2489,
      "exclusive": 2490,
      "room": 2491,
      "sincl": 2492,
      "drive": 2493,
      "##graphic": 2494,
      "cra": 2495,
      "log": 2496,
      "rates": 2497,
      "effect": 2498,
      "security": 2499,
      "##ober": 2500,
      "##uit": 2501,
      "numbers": 2502,
      "sites": 2503,
      "sinclair": 2504,
      "batt": 2505,
      "fig": 2506,
      "october": 2507,
      "question": 2508,
      "political": 2509,
      "table": 2510,
      "chris": 2511,
      "soon": 2512,
      "mediacom": 2513,
      "##iec": 2514,
      "##unt": 2515,
      "##berg": 2516,
      "regulatory": 2517,
      "bros": 2518,
      "actually": 2519,
      "field": 2520,
      "street": 2521,
      "bank": 2522,
      "##ex": 2523,
      "##ablish": 2524,
      "nove": 2525,
      "desp": 2526,
      "satur": 2527,
      "measure": 2528,
      "environment": 2529,
      "fair": 2530,
      "##mber": 2531,
      "staff": 2532,
      "##ille": 2533,
      "provides": 2534,
      "demo": 2535,
      "everyone": 2536,
      "purchase": 2537,
      "geo": 2538,
      "thom": 2539,
      "whose": 2540,
      "establish": 2541,
      "paul": 2542,
      "version": 2543,
      "further": 2544,
      "##ows": 2545,
      "providing": 2546,
      "offerings": 2547,
      "true": 2548,
      "calif": 2549,
      "lower": 2550,
      "##ert": 2551,
      "toward": 2552,
      "rev": 2553,
      "repl": 2554,
      "##ledge": 2555,
      "roberts": 2556,
      "november": 2557,
      "36": 2558,
      "necess": 2559,
      "wants": 2560,
      "##stein": 2561,
      "teams": 2562,
      "eu": 2563,
      "pick": 2564,
      "round": 2565,
      "choice": 2566,
      "univision": 2567,
      "resour": 2568,
      "limited": 2569,
      "##bps": 2570,
      "expl": 2571,
      "assets": 2572,
      "everywhere": 2573,
      "nbcu": 2574,
      "diversity": 2575,
      "bit": 2576,
      "hol": 2577,
      "##erg": 2578,
      "coll": 2579,
      "##ards": 2580,
      "commerce": 2581,
      "##abs": 2582,
      "##umb": 2583,
      "##ifi": 2584,
      "strategic": 2585,
      "install": 2586,
      "optim": 2587,
      "ahead": 2588,
      "sony": 2589,
      "yes": 2590,
      "##str": 2591,
      "stat": 2592,
      "summ": 2593,
      "##izing": 2594,
      "bright": 2595,
      "negotiations": 2596,
      "cir": 2597,
      "despite": 2598,
      "##na": 2599,
      "##sis": 2600,
      "##ci": 2601,
      "##body": 2602,
      "##stream": 2603,
      "multi": 2604,
      "download": 2605,
      "llc": 2606,
      "august": 2607,
      "ow": 2608,
      "##aries": 2609,
      "agreed": 2610,
      "known": 2611,
      "innovation": 2612,
      "applications": 2613,
      "mand": 2614,
      "##igation": 2615,
      "retail": 2616,
      "##ength": 2617,
      "pull": 2618,
      "emmy": 2619,
      "supported": 2620,
      "mike": 2621,
      "stri": 2622,
      "sci": 2623,
      "analog": 2624,
      "leading": 2625,
      "ey": 2626,
      "chic": 2627,
      "unl": 2628,
      "related": 2629,
      "hope": 2630,
      "privacy": 2631,
      "children": 2632,
      "west": 2633,
      "pract": 2634,
      "enab": 2635,
      "announce": 2636,
      "previously": 2637,
      "##ago": 2638,
      "whole": 2639,
      "winning": 2640,
      "survey": 2641,
      "entire": 2642,
      "saturday": 2643,
      "cisco": 2644,
      "##though": 2645,
      "foundation": 2646,
      "licens": 2647,
      "domin": 2648,
      "sil": 2649,
      "##aw": 2650,
      "##ki": 2651,
      "##olf": 2652,
      "pictures": 2653,
      "solutions": 2654,
      "ultim": 2655,
      "##utes": 2656,
      "aren": 2657,
      "senate": 2658,
      "needed": 2659,
      "university": 2660,
      "holly": 2661,
      "idea": 2662,
      "70": 2663,
      "vol": 2664,
      "##ises": 2665,
      "whe": 2666,
      "##ola": 2667,
      "although": 2668,
      "creating": 2669,
      "fan": 2670,
      "##rality": 2671,
      "##ered": 2672,
      "##cept": 2673,
      "bravo": 2674,
      "##selves": 2675,
      "age": 2676,
      "##irl": 2677,
      "##ival": 2678,
      "nbcun": 2679,
      "went": 2680,
      "spok": 2681,
      "##emic": 2682,
      "##aps": 2683,
      "included": 2684,
      "brands": 2685,
      "neutrality": 2686,
      "micro": 2687,
      "light": 2688,
      "pac": 2689,
      "rose": 2690,
      "investors": 2691,
      "walk": 2692,
      "brian": 2693,
      "las": 2694,
      "rock": 2695,
      "takes": 2696,
      "critical": 2697,
      "euro": 2698,
      "aim": 2699,
      "book": 2700,
      "either": 2701,
      "##ints": 2702,
      "feed": 2703,
      "docsis": 2704,
      "concern": 2705,
      "giant": 2706,
      "##ca": 2707,
      "##link": 2708,
      "##ided": 2709,
      "##oost": 2710,
      "renew": 2711,
      "nbcunivers": 2712,
      "gam": 2713,
      "##ne": 2714,
      "##jects": 2715,
      "##itive": 2716,
      "sold": 2717,
      "september": 2718,
      "resources": 2719,
      "individ": 2720,
      "sense": 2721,
      "##let": 2722,
      "##ising": 2723,
      "##ips": 2724,
      "starting": 2725,
      "founder": 2726,
      "atlanta": 2727,
      "core": 2728,
      "due": 2729,
      "word": 2730,
      "everything": 2731,
      "respect": 2732,
      "electronics": 2733,
      "nbcuniversal": 2734,
      "bal": 2735,
      "gar": 2736,
      "matt": 2737,
      "wind": 2738,
      "##off": 2739,
      "comput": 2740,
      "try": 2741,
      "##duct": 2742,
      "productions": 2743,
      "tak": 2744,
      "wall": 2745,
      "##bit": 2746,
      "prob": 2747,
      "tvs": 2748,
      "trav": 2749,
      "upgr": 2750,
      "prepar": 2751,
      "editor": 2752,
      "category": 2753,
      "chicago": 2754,
      "pet": 2755,
      "##enge": 2756,
      "contribut": 2757,
      "regular": 2758,
      "##ici": 2759,
      "contract": 2760,
      "tops": 2761,
      "##bruary": 2762,
      "quickly": 2763,
      "fre": 2764,
      "##arily": 2765,
      "saw": 2766,
      "communities": 2767,
      "february": 2768,
      "running": 2769,
      "##print": 2770,
      "challenge": 2771,
      "stay": 2772,
      "apps": 2773,
      "##uction": 2774,
      "##olution": 2775,
      "double": 2776,
      "copy": 2777,
      "ach": 2778,
      "coo": 2779,
      "##ront": 2780,
      "venture": 2781,
      "80": 2782,
      "park": 2783,
      "rise": 2784,
      "rule": 2785,
      "prime": 2786,
      "letter": 2787,
      "wat": 2788,
      "tour": 2789,
      "##ico": 2790,
      "encour": 2791,
      "moment": 2792,
      "nab": 2793,
      "vote": 2794,
      "tool": 2795,
      "follows": 2796,
      "delivered": 2797,
      "image": 2798,
      "release": 2799,
      "motor": 2800,
      "morning": 2801,
      "infrast": 2802,
      "department": 2803,
      "opp": 2804,
      "##cos": 2805,
      "##ilities": 2806,
      "commit": 2807,
      "americans": 2808,
      "longer": 2809,
      "verse": 2810,
      "achie": 2811,
      "deter": 2812,
      "##sl": 2813,
      "scale": 2814,
      "##airs": 2815,
      "profess": 2816,
      "infrastruct": 2817,
      "500": 2818,
      "ech": 2819,
      "##ties": 2820,
      "##ully": 2821,
      "tex": 2822,
      "road": 2823,
      "joint": 2824,
      "versus": 2825,
      "proposed": 2826,
      "received": 2827,
      "franchise": 2828,
      "african": 2829,
      "gig": 2830,
      "jon": 2831,
      "mcc": 2832,
      "##iring": 2833,
      "##rim": 2834,
      "##ilt": 2835,
      "actor": 2836,
      "reached": 2837,
      "administration": 2838,
      "circ": 2839,
      "cross": 2840,
      "jim": 2841,
      "mvp": 2842,
      "##ecially": 2843,
      "##ades": 2844,
      "trade": 2845,
      "viewer": 2846,
      "ownership": 2847,
      "especially": 2848,
      "##coming": 2849,
      "latest": 2850,
      "jack": 2851,
      "vo": 2852,
      "veter": 2853,
      "often": 2854,
      "##idth": 2855,
      "common": 2856,
      "outstanding": 2857,
      "goal": 2858,
      "clients": 2859,
      "basket": 2860,
      "instead": 2861,
      "switch": 2862,
      "study": 2863,
      "huge": 2864,
      "spokes": 2865,
      "individual": 2866,
      "##oming": 2867,
      "enh": 2868,
      "disp": 2869,
      "developed": 2870,
      "75": 2871,
      "fail": 2872,
      "##back": 2873,
      "cloud": 2874,
      "arch": 2875,
      "december": 2876,
      "geor": 2877,
      "msn": 2878,
      "wide": 2879,
      "##lement": 2880,
      "##ction": 2881,
      "picture": 2882,
      "sector": 2883,
      "hollywood": 2884,
      "cy": 2885,
      "##iance": 2886,
      "const": 2887,
      "twitter": 2888,
      "bandw": 2889,
      "msos": 2890,
      "bbc": 2891,
      "tenn": 2892,
      "viol": 2893,
      "millions": 2894,
      "##phia": 2895,
      "paid": 2896,
      "images": 2897,
      "bure": 2898,
      "pand": 2899,
      "##elphia": 2900,
      "##aces": 2901,
      "united": 2902,
      "daily": 2903,
      "friends": 2904,
      "involved": 2905,
      "bandwidth": 2906,
      "cord": 2907,
      "##gas": 2908,
      "##ica": 2909,
      "##ication": 2910,
      "##ung": 2911,
      "goes": 2912,
      "expects": 2913,
      "offered": 2914,
      "cali": 2915,
      "steve": 2916,
      "mil": 2917,
      "##nings": 2918,
      "threat": 2919,
      "basis": 2920,
      "gets": 2921,
      "footprint": 2922,
      "equip": 2923,
      "responsible": 2924,
      "publish": 2925,
      "##cel": 2926,
      "##uff": 2927,
      "spr": 2928,
      "bob": 2929,
      "signal": 2930,
      "averaged": 2931,
      "basketball": 2932,
      "girl": 2933,
      "##ham": 2934,
      "vide": 2935,
      "advant": 2936,
      "parent": 2937,
      "delivery": 2938,
      "##hen": 2939,
      "conduct": 2940,
      "##oles": 2941,
      "highest": 2942,
      "moving": 2943,
      "thought": 2944,
      "certainly": 2945,
      "55": 2946,
      "ready": 2947,
      "##acts": 2948,
      "calls": 2949,
      "equity": 2950,
      "##media": 2951,
      "proposal": 2952,
      "equipment": 2953,
      "insp": 2954,
      "##ires": 2955,
      "itself": 2956,
      "vegas": 2957,
      "typ": 2958,
      "planning": 2959,
      "infrastructure": 2960,
      "90": 2961,
      "##ror": 2962,
      "##ville": 2963,
      "##to": 2964,
      "heav": 2965,
      "followed": 2966,
      "hearing": 2967,
      "champions": 2968,
      "32": 2969,
      "drew": 2970,
      "ii": 2971,
      "asp": 2972,
      "##arters": 2973,
      "sets": 2974,
      "talking": 2975,
      "improve": 2976,
      "bureau": 2977,
      "piec": 2978,
      "programmer": 2979,
      "charge": 2980,
      "appeal": 2981,
      "probably": 2982,
      "54": 2983,
      "##ny": 2984,
      "delivering": 2985,
      "particularly": 2986,
      "europe": 2987,
      "saf": 2988,
      "spent": 2989,
      "enjo": 2990,
      "##forn": 2991,
      "sharehold": 2992,
      "##ford": 2993,
      "works": 2994,
      "affairs": 2995,
      "capac": 2996,
      "meeting": 2997,
      "friend": 2998,
      "organization": 2999,
      "microso": 3000,
      "californ": 3001,
      "course": 3002,
      "speeds": 3003,
      "initiative": 3004,
      "culture": 3005,
      "camer": 3006,
      "microsoft": 3007,
      "trump": 3008,
      "usage": 3009,
      "desc": 3010,
      "walt": 3011,
      "squ": 3012,
      "vend": 3013,
      "##rill": 3014,
      "##fc": 3015,
      "sudd": 3016,
      "##play": 3017,
      "essential": 3018,
      "pandemic": 3019,
      "sam": 3020,
      "frank": 3021,
      "##ought": 3022,
      "receive": 3023,
      "##oon": 3024,
      "##dle": 3025,
      "note": 3026,
      "sling": 3027,
      "sudden": 3028,
      "pen": 3029,
      "majority": 3030,
      "format": 3031,
      "california": 3032,
      "vot": 3033,
      "##iver": 3034,
      "##labs": 3035,
      "##eries": 3036,
      "##itz": 3037,
      "willi": 3038,
      "built": 3039,
      "2014": 3040,
      "ground": 3041,
      "dollars": 3042,
      "texas": 3043,
      "east": 3044,
      "webs": 3045,
      "spending": 3046,
      "lev": 3047,
      "vari": 3048,
      "matter": 3049,
      "designed": 3050,
      "conditions": 3051,
      "capacity": 3052,
      "mbps": 3053,
      "rural": 3054,
      "##ez": 3055,
      "##sw": 3056,
      "##gin": 3057,
      "##ione": 3058,
      "princ": 3059,
      "upcoming": 3060,
      "understand": 3061,
      "allows": 3062,
      "increases": 3063,
      "james": 3064,
      "tier": 3065,
      "chance": 3066,
      "##agan": 3067,
      "##ished": 3068,
      "dram": 3069,
      "selling": 3070,
      "hous": 3071,
      "##mas": 3072,
      "adults": 3073,
      "fee": 3074,
      "2016": 3075,
      "human": 3076,
      "sv": 3077,
      "##front": 3078,
      "##ka": 3079,
      "slow": 3080,
      "request": 3081,
      "packages": 3082,
      "giving": 3083,
      "estimated": 3084,
      "pricing": 3085,
      "##oring": 3086,
      "valu": 3087,
      "maintain": 3088,
      "spots": 3089,
      "##erson": 3090,
      "serving": 3091,
      "2013": 3092,
      "anything": 3093,
      "extrem": 3094,
      "wheeler": 3095,
      "princip": 3096,
      "cup": 3097,
      "range": 3098,
      "##uce": 3099,
      "stake": 3100,
      "discl": 3101,
      "streams": 3102,
      "phot": 3103,
      "worth": 3104,
      "questions": 3105,
      "boost": 3106,
      "mind": 3107,
      "sent": 3108,
      "viewership": 3109,
      "region": 3110,
      "developing": 3111,
      "license": 3112,
      "##field": 3113,
      "dom": 3114,
      "wond": 3115,
      "##ots": 3116,
      "cablelabs": 3117,
      "##acters": 3118,
      "monthly": 3119,
      "simp": 3120,
      "characters": 3121,
      "declined": 3122,
      "losses": 3123,
      "thomas": 3124,
      "##isc": 3125,
      "smaller": 3126,
      "classic": 3127,
      "properties": 3128,
      "motorola": 3129,
      "ml": 3130,
      "##ret": 3131,
      "##ium": 3132,
      "##ster": 3133,
      "progress": 3134,
      "svod": 3135,
      "kick": 3136,
      "living": 3137,
      "ment": 3138,
      "##right": 3139,
      "##xy": 3140,
      "pret": 3141,
      "energ": 3142,
      "consist": 3143,
      "2019": 3144,
      "pal": 3145,
      "##abor": 3146,
      "wwe": 3147,
      "laws": 3148,
      "msnbc": 3149,
      "aw": 3150,
      "fare": 3151,
      "##rey": 3152,
      "##acock": 3153,
      "applic": 3154,
      "remote": 3155,
      "4k": 3156,
      "dol": 3157,
      "lou": 3158,
      "ten": 3159,
      "remains": 3160,
      "fear": 3161,
      "invent": 3162,
      "conc": 3163,
      "subsid": 3164,
      "2015": 3165,
      "worldwide": 3166,
      "travel": 3167,
      "infl": 3168,
      "upd": 3169,
      "activ": 3170,
      "themselves": 3171,
      "peacock": 3172,
      "magaz": 3173,
      "initiatives": 3174,
      "problem": 3175,
      "race": 3176,
      "vh": 3177,
      "##aced": 3178,
      "surp": 3179,
      "detail": 3180,
      "scheduled": 3181,
      "300": 3182,
      "ta": 3183,
      "##zz": 3184,
      "force": 3185,
      "amount": 3186,
      "joe": 3187,
      "2017": 3188,
      "leader": 3189,
      "grant": 3190,
      "competitors": 3191,
      "answ": 3192,
      "##ulation": 3193,
      "##force": 3194,
      "became": 3195,
      "player": 3196,
      "filing": 3197,
      "english": 3198,
      "kevin": 3199,
      "boxing": 3200,
      "reflect": 3201,
      "videos": 3202,
      "##ding": 3203,
      "##my": 3204,
      "tough": 3205,
      "aggress": 3206,
      "bigger": 3207,
      "greater": 3208,
      "believes": 3209,
      "combined": 3210,
      "44": 3211,
      "cents": 3212,
      "##arrow": 3213,
      "##oss": 3214,
      "##encies": 3215,
      "paying": 3216,
      "filed": 3217,
      "minutes": 3218,
      "bost": 3219,
      "king": 3220,
      "pp": 3221,
      "##oke": 3222,
      "##he": 3223,
      "traff": 3224,
      "autom": 3225,
      "pointed": 3226,
      "middle": 3227,
      "engineering": 3228,
      "##going": 3229,
      "taken": 3230,
      "dyn": 3231,
      "gives": 3232,
      "lives": 3233,
      "##ma": 3234,
      "##wor": 3235,
      "##ami": 3236,
      "spl": 3237,
      "altern": 3238,
      "blog": 3239,
      "agreements": 3240,
      "golf": 3241,
      "stage": 3242,
      "active": 3243,
      "expanded": 3244,
      "harm": 3245,
      "sources": 3246,
      "bowl": 3247,
      "challenges": 3248,
      "draw": 3249,
      "owner": 3250,
      "boston": 3251,
      "39": 3252,
      "sound": 3253,
      "##erved": 3254,
      "##acter": 3255,
      "##owell": 3256,
      "planet": 3257,
      "economic": 3258,
      "counsel": 3259,
      "pretty": 3260,
      "lay": 3261,
      "##get": 3262,
      "resident": 3263,
      "themed": 3264,
      "analys": 3265,
      "century": 3266,
      "soccer": 3267,
      "malone": 3268,
      "energy": 3269,
      "38": 3270,
      "auction": 3271,
      "sun": 3272,
      "##orn": 3273,
      "tourn": 3274,
      "projects": 3275,
      "provided": 3276,
      "demon": 3277,
      "launching": 3278,
      "extra": 3279,
      "character": 3280,
      "promoted": 3281,
      "election": 3282,
      "standards": 3283,
      "meaning": 3284,
      "##undo": 3285,
      "championship": 3286,
      "variety": 3287,
      "cm": 3288,
      "sar": 3289,
      "##app": 3290,
      "##hib": 3291,
      "spend": 3292,
      "attem": 3293,
      "##elling": 3294,
      "latin": 3295,
      "increasingly": 3296,
      "economy": 3297,
      "synd": 3298,
      "ber": 3299,
      "mail": 3300,
      "nine": 3301,
      "##eness": 3302,
      "##acing": 3303,
      "genre": 3304,
      "played": 3305,
      "##box": 3306,
      "seeing": 3307,
      "writ": 3308,
      "subject": 3309,
      "passion": 3310,
      "33": 3311,
      "dest": 3312,
      "fix": 3313,
      "ham": 3314,
      "vs": 3315,
      "thrill": 3316,
      "##star": 3317,
      "##ented": 3318,
      "represents": 3319,
      "doub": 3320,
      "vh1": 3321,
      "analysis": 3322,
      "joining": 3323,
      "hosted": 3324,
      "##scape": 3325,
      "excited": 3326,
      "introduced": 3327,
      "ensure": 3328,
      "gave": 3329,
      "tun": 3330,
      "##cing": 3331,
      "##gers": 3332,
      "sport": 3333,
      "libr": 3334,
      "joy": 3335,
      "sale": 3336,
      "2022": 3337,
      "options": 3338,
      "authority": 3339,
      "veteran": 3340,
      "bud": 3341,
      "vision": 3342,
      "deep": 3343,
      "income": 3344,
      "recomm": 3345,
      "reporting": 3346,
      "profit": 3347,
      "obama": 3348,
      "republican": 3349,
      "stop": 3350,
      "changing": 3351,
      "corporation": 3352,
      "sponsors": 3353,
      "95": 3354,
      "rang": 3355,
      "vr": 3356,
      "##used": 3357,
      "percent": 3358,
      "##ously": 3359,
      "sop": 3360,
      "##rict": 3361,
      "upfront": 3362,
      "outdo": 3363,
      "technical": 3364,
      "edge": 3365,
      "acquired": 3366,
      "##while": 3367,
      "eye": 3368,
      "rog": 3369,
      "##fect": 3370,
      "##ky": 3371,
      "arr": 3372,
      "regard": 3373,
      "##rought": 3374,
      "##ension": 3375,
      "affiliates": 3376,
      "battle": 3377,
      "advantage": 3378,
      "application": 3379,
      "fa": 3380,
      "##istic": 3381,
      "justice": 3382,
      "difficult": 3383,
      "##self": 3384,
      "message": 3385,
      "mission": 3386,
      "legacy": 3387,
      "connection": 3388,
      "authent": 3389,
      "segment": 3390,
      "fem": 3391,
      "pione": 3392,
      "rsn": 3393,
      "##down": 3394,
      "##lin": 3395,
      "##esh": 3396,
      "train": 3397,
      "directors": 3398,
      "prevent": 3399,
      "starring": 3400,
      "expanding": 3401,
      "titles": 3402,
      "confir": 3403,
      "traffic": 3404,
      "##eline": 3405,
      "style": 3406,
      "##ounts": 3407,
      "stra": 3408,
      "else": 3409,
      "sky": 3410,
      "seems": 3411,
      "##rupt": 3412,
      "sus": 3413,
      "##fully": 3414,
      "##bed": 3415,
      "willing": 3416,
      "telephone": 3417,
      "helping": 3418,
      "lines": 3419,
      "initial": 3420,
      "hopes": 3421,
      "holdings": 3422,
      "estimates": 3423,
      "website": 3424,
      "domest": 3425,
      "##0s": 3426,
      "##edi": 3427,
      "##ald": 3428,
      "##room": 3429,
      "2004": 3430,
      "attention": 3431,
      "persp": 3432,
      "promotion": 3433,
      "cutting": 3434,
      "organiz": 3435,
      "mlb": 3436,
      "42": 3437,
      "option": 3438,
      "##val": 3439,
      "##eth": 3440,
      "earnings": 3441,
      "points": 3442,
      "presentation": 3443,
      "ppv": 3444,
      "writers": 3445,
      "tre": 3446,
      "##hl": 3447,
      "##gtv": 3448,
      "##ories": 3449,
      "stick": 3450,
      "proceed": 3451,
      "decline": 3452,
      "##ostar": 3453,
      "owners": 3454,
      "complete": 3455,
      "echostar": 3456,
      "suddenlink": 3457,
      "brought": 3458,
      "hur": 3459,
      "##pa": 3460,
      "alliance": 3461,
      "advoc": 3462,
      "winner": 3463,
      "managing": 3464,
      "education": 3465,
      "figure": 3466,
      "wonder": 3467,
      "simply": 3468,
      "crim": 3469,
      "hgtv": 3470,
      "lack": 3471,
      "##ming": 3472,
      "##icket": 3473,
      "charg": 3474,
      "exch": 3475,
      "speech": 3476,
      "released": 3477,
      "nas": 3478,
      "##iers": 3479,
      "##iff": 3480,
      "##ges": 3481,
      "##usion": 3482,
      "##ife": 3483,
      "advis": 3484,
      "additions": 3485,
      "schedule": 3486,
      "christmas": 3487,
      "cartoon": 3488,
      "separate": 3489,
      "commitment": 3490,
      "professional": 3491,
      "cand": 3492,
      "grew": 3493,
      "jul": 3494,
      "oh": 3495,
      "pil": 3496,
      "##af": 3497,
      "reb": 3498,
      "interf": 3499,
      "telem": 3500,
      "consult": 3501,
      "sett": 3502,
      "moves": 3503,
      "fuel": 3504,
      "hdtv": 3505,
      "positive": 3506,
      "integrated": 3507,
      "judge": 3508,
      "predict": 3509,
      "enjoy": 3510,
      "nav": 3511,
      "##lights": 3512,
      "##hz": 3513,
      "##adelphia": 3514,
      "adult": 3515,
      "brown": 3516,
      "perfect": 3517,
      "wouldn": 3518,
      "join": 3519,
      "debt": 3520,
      "golden": 3521,
      "drop": 3522,
      "summit": 3523,
      "demonstr": 3524,
      "ongoing": 3525,
      "incred": 3526,
      "parties": 3527,
      "repe": 3528,
      "actress": 3529,
      "197": 3530,
      "airing": 3531,
      "keeping": 3532,
      "et": 3533,
      "mi": 3534,
      "sess": 3535,
      "##ada": 3536,
      "unf": 3537,
      "calling": 3538,
      "driven": 3539,
      "evol": 3540,
      "meanwhile": 3541,
      "philadelphia": 3542,
      "##hood": 3543,
      "wasn": 3544,
      "marc": 3545,
      "doz": 3546,
      "twe": 3547,
      "supporting": 3548,
      "breaking": 3549,
      "##prise": 3550,
      "partnerships": 3551,
      "easy": 3552,
      "rosen": 3553,
      "measurement": 3554,
      "tournament": 3555,
      "pitch": 3556,
      "##oe": 3557,
      "##inary": 3558,
      "##ecast": 3559,
      "deg": 3560,
      "contr": 3561,
      "decided": 3562,
      "aca": 3563,
      "weekend": 3564,
      "##ibly": 3565,
      "continuing": 3566,
      "commissioner": 3567,
      "robert": 3568,
      "copyright": 3569,
      "george": 3570,
      "telemundo": 3571,
      "52": 3572,
      "ban": 3573,
      "ct": 3574,
      "pair": 3575,
      "jobs": 3576,
      "gains": 3577,
      "concerns": 3578,
      "37": 3579,
      "fif": 3580,
      "##ove": 3581,
      "##vant": 3582,
      "##sy": 3583,
      "##den": 3584,
      "##ius": 3585,
      "##bur": 3586,
      "directly": 3587,
      "buying": 3588,
      "promote": 3589,
      "deployment": 3590,
      "determ": 3591,
      "fel": 3592,
      "hun": 3593,
      "jones": 3594,
      "swe": 3595,
      "##bl": 3596,
      "decade": 3597,
      "looks": 3598,
      "signed": 3599,
      "color": 3600,
      "transform": 3601,
      "required": 3602,
      "mater": 3603,
      "ded": 3604,
      "flex": 3605,
      "##ery": 3606,
      "##onse": 3607,
      "##rop": 3608,
      "##olid": 3609,
      "grand": 3610,
      "talks": 3611,
      "trial": 3612,
      "solution": 3613,
      "suggested": 3614,
      "achieve": 3615,
      "dynam": 3616,
      "contest": 3617,
      "scott": 3618,
      "capt": 3619,
      "guid": 3620,
      "johnson": 3621,
      "raised": 3622,
      "clearly": 3623,
      "situ": 3624,
      "concerned": 3625,
      "younger": 3626,
      "olympics": 3627,
      "necessary": 3628,
      "shareholders": 3629,
      "williams": 3630,
      "##erv": 3631,
      "##erous": 3632,
      "##ston": 3633,
      "generated": 3634,
      "changed": 3635,
      "richard": 3636,
      "ultimately": 3637,
      "div": 3638,
      "rst": 3639,
      "##eck": 3640,
      "produce": 3641,
      "fully": 3642,
      "leaders": 3643,
      "transaction": 3644,
      "putting": 3645,
      "opening": 3646,
      "denver": 3647,
      "shift": 3648,
      "65": 3649,
      "link": 3650,
      "##cle": 3651,
      "##ene": 3652,
      "comments": 3653,
      "showc": 3654,
      "someone": 3655,
      "response": 3656,
      "minor": 3657,
      "larger": 3658,
      "appears": 3659,
      "integration": 3660,
      "strike": 3661,
      "soci": 3662,
      "##yal": 3663,
      "##atively": 3664,
      "sup": 3665,
      "compete": 3666,
      "critics": 3667,
      "landscape": 3668,
      "problems": 3669,
      "geographic": 3670,
      "43": 3671,
      "hy": 3672,
      "kill": 3673,
      "##gate": 3674,
      "antic": 3675,
      "abs": 3676,
      "weekly": 3677,
      "returning": 3678,
      "campaigns": 3679,
      "motion": 3680,
      "licensing": 3681,
      "prepared": 3682,
      "inventory": 3683,
      "eb": 3684,
      "occ": 3685,
      "wild": 3686,
      "##elle": 3687,
      "prices": 3688,
      "mex": 3689,
      "speaking": 3690,
      "diverse": 3691,
      "legislation": 3692,
      "magazine": 3693,
      "domestic": 3694,
      "dark": 3695,
      "##ram": 3696,
      "##away": 3697,
      "##bor": 3698,
      "exce": 3699,
      "intel": 3700,
      "index": 3701,
      "express": 3702,
      "strength": 3703,
      "attend": 3704,
      "surv": 3705,
      "below": 3706,
      "bringing": 3707,
      "learn": 3708,
      "tennis": 3709,
      "##icient": 3710,
      "leav": 3711,
      "telev": 3712,
      "consolid": 3713,
      "carol": 3714,
      "ranked": 3715,
      "biden": 3716,
      "immedi": 3717,
      "couple": 3718,
      "47": 3719,
      "ray": 3720,
      "##has": 3721,
      "##west": 3722,
      "2000": 3723,
      "implement": 3724,
      "playing": 3725,
      "ca63": 3726,
      "turned": 3727,
      "oversee": 3728,
      "perspective": 3729,
      "##ening": 3730,
      "##edia": 3731,
      "shot": 3732,
      "sees": 3733,
      "nothing": 3734,
      "becoming": 3735,
      "analy": 3736,
      "modem": 3737,
      "acquisitions": 3738,
      "describ": 3739,
      "influ": 3740,
      "outdoor": 3741,
      "sams": 3742,
      "tax": 3743,
      "##lie": 3744,
      "##bar": 3745,
      "highly": 3746,
      "eventually": 3747,
      "lifest": 3748,
      "histor": 3749,
      "miller": 3750,
      "samsung": 3751,
      "bay": 3752,
      "ill": 3753,
      "oxy": 3754,
      "##lled": 3755,
      "##asl": 3756,
      "accom": 3757,
      "##apter": 3758,
      "flor": 3759,
      "completed": 3760,
      "##peg": 3761,
      "benefit": 3762,
      "seeking": 3763,
      "louis": 3764,
      "dream": 3765,
      "fub": 3766,
      "jump": 3767,
      "anch": 3768,
      "sand": 3769,
      "adj": 3770,
      "lee": 3771,
      "winter": 3772,
      "creator": 3773,
      "trading": 3774,
      "emerging": 3775,
      "visit": 3776,
      "computer": 3777,
      "cooper": 3778,
      "tools": 3779,
      "piece": 3780,
      "ball": 3781,
      "rod": 3782,
      "rap": 3783,
      "##aut": 3784,
      "##gn": 3785,
      "thous": 3786,
      "##reens": 3787,
      "reve": 3788,
      "ath": 3789,
      "fell": 3790,
      "2018": 3791,
      "advance": 3792,
      "startup": 3793,
      "headqu": 3794,
      "benefits": 3795,
      "exchange": 3796,
      "thousand": 3797,
      "sist": 3798,
      "##rical": 3799,
      "##fol": 3800,
      "##ters": 3801,
      "##lc": 3802,
      "##ana": 3803,
      "##lets": 3804,
      "##osp": 3805,
      "highlights": 3806,
      "getty": 3807,
      "famil": 3808,
      "##iliar": 3809,
      "embr": 3810,
      "claims": 3811,
      "relationships": 3812,
      "horror": 3813,
      "organizations": 3814,
      "oxygen": 3815,
      "eric": 3816,
      "ton": 3817,
      "##erry": 3818,
      "town": 3819,
      "##pper": 3820,
      "plays": 3821,
      "##thern": 3822,
      "ended": 3823,
      "knowledge": 3824,
      "48": 3825,
      "ufc": 3826,
      "wid": 3827,
      "##ases": 3828,
      "suff": 3829,
      "text": 3830,
      "##anson": 3831,
      "dog": 3832,
      "revenues": 3833,
      "cases": 3834,
      "archit": 3835,
      "card": 3836,
      "rain": 3837,
      "##ov": 3838,
      "##ites": 3839,
      "trou": 3840,
      "leverage": 3841,
      "terr": 3842,
      "##ification": 3843,
      "decisions": 3844,
      "innovative": 3845,
      "protection": 3846,
      "complaint": 3847,
      "society": 3848,
      "lions": 3849,
      "mis": 3850,
      "che": 3851,
      "##ocol": 3852,
      "haven": 3853,
      "##tics": 3854,
      "instit": 3855,
      "woman": 3856,
      "behav": 3857,
      "funding": 3858,
      "female": 3859,
      "aust": 3860,
      "bern": 3861,
      "##haps": 3862,
      "convent": 3863,
      "proud": 3864,
      "trust": 3865,
      "agencies": 3866,
      "perhaps": 3867,
      "seasons": 3868,
      "passed": 3869,
      "presented": 3870,
      "announcement": 3871,
      "library": 3872,
      "recommend": 3873,
      "rated": 3874,
      "##ban": 3875,
      "##20": 3876,
      "##11": 3877,
      "##oman": 3878,
      "fresh": 3879,
      "owns": 3880,
      "##itting": 3881,
      "subst": 3882,
      "complex": 3883,
      "argued": 3884,
      "risk": 3885,
      "champion": 3886,
      "mpeg": 3887,
      "self": 3888,
      "tap": 3889,
      "zasl": 3890,
      "##rust": 3891,
      "##kn": 3892,
      "##ida": 3893,
      "die": 3894,
      "apply": 3895,
      "explain": 3896,
      "afford": 3897,
      "testing": 3898,
      "faster": 3899,
      "planned": 3900,
      "craig": 3901,
      "##owski": 3902,
      "mvpds": 3903,
      "aggressive": 3904,
      "miami": 3905,
      "zaslav": 3906,
      "store": 3907,
      "hasn": 3908,
      "display": 3909,
      "secret": 3910,
      "familiar": 3911,
      "initially": 3912,
      "regulation": 3913,
      "protocol": 3914,
      "democratic": 3915,
      "walking": 3916,
      "families": 3917,
      "mast": 3918,
      "wer": 3919,
      "##greg": 3920,
      "##inity": 3921,
      "##ptv": 3922,
      "impress": 3923,
      "moved": 3924,
      "interested": 3925,
      "driving": 3926,
      "asking": 3927,
      "appeared": 3928,
      "favorite": 3929,
      "pleased": 3930,
      "water": 3931,
      "penet": 3932,
      "dedicated": 3933,
      "64": 3934,
      "bought": 3935,
      "##leg": 3936,
      "stew": 3937,
      "spike": 3938,
      "franc": 3939,
      "alone": 3940,
      "teen": 3941,
      "truly": 3942,
      "brid": 3943,
      "latino": 3944,
      "2023": 3945,
      "insight": 3946,
      "##mination": 3947,
      "cat": 3948,
      "fire": 3949,
      "ftc": 3950,
      "kent": 3951,
      "##set": 3952,
      "##orney": 3953,
      "isps": 3954,
      "##imes": 3955,
      "##ushing": 3956,
      "spring": 3957,
      "club": 3958,
      "2003": 3959,
      "industries": 3960,
      "attorney": 3961,
      "purs": 3962,
      "obvious": 3963,
      "established": 3964,
      "respectively": 3965,
      "dav": 3966,
      "jess": 3967,
      "male": 3968,
      "penn": 3969,
      "##rick": 3970,
      "##da": 3971,
      "##car": 3972,
      "##come": 3973,
      "##put": 3974,
      "##kin": 3975,
      "##75": 3976,
      "suit": 3977,
      "##ume": 3978,
      "engagement": 3979,
      "holding": 3980,
      "rising": 3981,
      "nominations": 3982,
      "icon": 3983,
      "jun": 3984,
      "jenn": 3985,
      "mac": 3986,
      "sex": 3987,
      "outlets": 3988,
      "laur": 3989,
      "namic": 3990,
      "animated": 3991,
      "elev": 3992,
      "candid": 3993,
      "ol": 3994,
      "ted": 3995,
      "tlc": 3996,
      "##dy": 3997,
      "touch": 3998,
      "##ewh": 3999,
      "ord": 4000,
      "enth": 4001,
      "arm": 4002,
      "##ugg": 4003,
      "sharing": 4004,
      "cnbc": 4005,
      "joyce": 4006,
      "41": 4007,
      "flo": 4008,
      "rut": 4009,
      "wel": 4010,
      "stan": 4011,
      "##abilities": 4012,
      "island": 4013,
      "shut": 4014,
      "serious": 4015,
      "notice": 4016,
      "##ifying": 4017,
      "anyone": 4018,
      "regulations": 4019,
      "elim": 4020,
      "democrats": 4021,
      "bundle": 4022,
      "levels": 4023,
      "contracts": 4024,
      "lifestyle": 4025,
      "cann": 4026,
      "um": 4027,
      "ones": 4028,
      "rein": 4029,
      "serves": 4030,
      "portfol": 4031,
      "civ": 4032,
      "fest": 4033,
      "ven": 4034,
      "##vc": 4035,
      "##bre": 4036,
      "expans": 4037,
      "digit": 4038,
      "genach": 4039,
      "effective": 4040,
      "emphas": 4041,
      "targeting": 4042,
      "holiday": 4043,
      "bon": 4044,
      "ces": 4045,
      "fame": 4046,
      "nom": 4047,
      "xf": 4048,
      "fort": 4049,
      "reform": 4050,
      "leave": 4051,
      "presence": 4052,
      "##ology": 4053,
      "finding": 4054,
      "circuit": 4055,
      "anticip": 4056,
      "cell": 4057,
      "##ias": 4058,
      "##read": 4059,
      "spoke": 4060,
      "trail": 4061,
      "distributor": 4062,
      "guy": 4063,
      "skill": 4064,
      "documentaries": 4065,
      "suppl": 4066,
      "deployed": 4067,
      "honor": 4068,
      "science": 4069,
      "surpris": 4070,
      "answer": 4071,
      "catch": 4072,
      "pace": 4073,
      "##latform": 4074,
      "##aby": 4075,
      "trut": 4076,
      "brings": 4077,
      "decades": 4078,
      "conversation": 4079,
      "split": 4080,
      "headquarters": 4081,
      "portfolio": 4082,
      "400": 4083,
      "gard": 4084,
      "peter": 4085,
      "ut": 4086,
      "##por": 4087,
      "##60": 4088,
      "##isa": 4089,
      "enforce": 4090,
      "cohen": 4091,
      "sohn": 4092,
      "branded": 4093,
      "moder": 4094,
      "allowing": 4095,
      "relevant": 4096,
      "committed": 4097,
      "adoption": 4098,
      "heavy": 4099,
      "minority": 4100,
      "enthus": 4101,
      "dall": 4102,
      "##ked": 4103,
      "##asing": 4104,
      "##otv": 4105,
      "manu": 4106,
      "screens": 4107,
      "becomes": 4108,
      "mostly": 4109,
      "2024": 4110,
      "imag": 4111,
      "collabor": 4112,
      "degree": 4113,
      "fant": 4114,
      "mention": 4115,
      "wi": 4116,
      "##eed": 4117,
      "##house": 4118,
      "##isf": 4119,
      "##imate": 4120,
      "cod": 4121,
      "acting": 4122,
      "positions": 4123,
      "dave": 4124,
      "exciting": 4125,
      "details": 4126,
      "dynamic": 4127,
      "florida": 4128,
      "architect": 4129,
      "lionsgate": 4130,
      "51": 4131,
      "cook": 4132,
      "ry": 4133,
      "wil": 4134,
      "##kes": 4135,
      "chapter": 4136,
      "uns": 4137,
      "clar": 4138,
      "audio": 4139,
      "interesting": 4140,
      "dvd": 4141,
      "faith": 4142,
      "dallas": 4143,
      "hund": 4144,
      "jay": 4145,
      "wife": 4146,
      "##bow": 4147,
      "sav": 4148,
      "suc": 4149,
      "appoint": 4150,
      "strategies": 4151,
      "models": 4152,
      "minute": 4153,
      "experiences": 4154,
      "upgrade": 4155,
      "##worcel": 4156,
      "rosenworcel": 4157,
      "rapid": 4158,
      "luc": 4159,
      "pc": 4160,
      "trem": 4161,
      "##apt": 4162,
      "alph": 4163,
      "compon": 4164,
      "outl": 4165,
      "arris": 4166,
      "prefer": 4167,
      "broadcaster": 4168,
      "speak": 4169,
      "attack": 4170,
      "heart": 4171,
      "happy": 4172,
      "combination": 4173,
      "square": 4174,
      "dozen": 4175,
      "penetration": 4176,
      "57": 4177,
      "85": 4178,
      "alex": 4179,
      "ell": 4180,
      "gm": 4181,
      "ir": 4182,
      "ticket": 4183,
      "##rig": 4184,
      "bell": 4185,
      "##cte": 4186,
      "enable": 4187,
      "##bert": 4188,
      "uses": 4189,
      "##ifer": 4190,
      "##ancy": 4191,
      "transl": 4192,
      "guys": 4193,
      "slight": 4194,
      "increasing": 4195,
      "robust": 4196,
      "participate": 4197,
      "dolan": 4198,
      "ohio": 4199,
      "francisco": 4200,
      "ari": 4201,
      "evid": 4202,
      "myst": 4203,
      "piv": 4204,
      "son": 4205,
      "tune": 4206,
      "wit": 4207,
      "org": 4208,
      "mcsl": 4209,
      "promotions": 4210,
      "happens": 4211,
      "virgin": 4212,
      "type": 4213,
      "sprint": 4214,
      "suprem": 4215,
      "genachowski": 4216,
      "mcslarrow": 4217,
      "rc": 4218,
      "roc": 4219,
      "scte": 4220,
      "##ado": 4221,
      "networking": 4222,
      "##ground": 4223,
      "incl": 4224,
      "nex": 4225,
      "brit": 4226,
      "expensive": 4227,
      "highlight": 4228,
      "official": 4229,
      "ruling": 4230,
      "##athan": 4231,
      "allowed": 4232,
      "carriers": 4233,
      "powerful": 4234,
      "evolution": 4235,
      "pressure": 4236,
      "satisf": 4237,
      "telecasts": 4238,
      "scenes": 4239,
      "attempt": 4240,
      "straight": 4241,
      "56": 4242,
      "53": 4243,
      "gat": 4244,
      "jr": 4245,
      "todd": 4246,
      "##itrust": 4247,
      "##enty": 4248,
      "##abits": 4249,
      "qual": 4250,
      "distribute": 4251,
      "maybe": 4252,
      "founded": 4253,
      "inside": 4254,
      "purp": 4255,
      "obtain": 4256,
      "antitrust": 4257,
      "practices": 4258,
      "dispute": 4259,
      "girls": 4260,
      "regarding": 4261,
      "dam": 4262,
      "iptv": 4263,
      "ju": 4264,
      "pushing": 4265,
      "vict": 4266,
      "##inem": 4267,
      "##orter": 4268,
      "##itely": 4269,
      "stuff": 4270,
      "trend": 4271,
      "arts": 4272,
      "meg": 4273,
      "##iction": 4274,
      "extension": 4275,
      "ideas": 4276,
      "categories": 4277,
      "valuable": 4278,
      "conclud": 4279,
      "residential": 4280,
      "crime": 4281,
      "interface": 4282,
      "expansion": 4283,
      "cu": 4284,
      "cit": 4285,
      "hom": 4286,
      "les": 4287,
      "nhl": 4288,
      "path": 4289,
      "rent": 4290,
      "everybody": 4291,
      "grad": 4292,
      "investig": 4293,
      "parents": 4294,
      "promotional": 4295,
      "begins": 4296,
      "debuts": 4297,
      "returns": 4298,
      "msg": 4299,
      "theatrical": 4300,
      "alternative": 4301,
      "davis": 4302,
      "pivot": 4303,
      "crow": 4304,
      "andro": 4305,
      "incent": 4306,
      "canoe": 4307,
      "quite": 4308,
      "retain": 4309,
      "playoff": 4310,
      "warnermedia": 4311,
      "triple": 4312,
      "norm": 4313,
      "multiplatform": 4314,
      "thousands": 4315,
      "stewart": 4316,
      "android": 4317,
      "61": 4318,
      "gal": 4319,
      "jers": 4320,
      "kat": 4321,
      "ok": 4322,
      "##ores": 4323,
      "anth": 4324,
      "incor": 4325,
      "secure": 4326,
      "attribut": 4327,
      "issued": 4328,
      "takeaway": 4329,
      "capabilities": 4330,
      "ergen": 4331,
      "finale": 4332,
      "appeals": 4333,
      "reveal": 4334,
      "gatew": 4335,
      "jersey": 4336,
      "grown": 4337,
      "vast": 4338,
      "##han": 4339,
      "subc": 4340,
      "##osh": 4341,
      "##iled": 4342,
      "##enda": 4343,
      "recl": 4344,
      "monet": 4345,
      "meant": 4346,
      "##ancing": 4347,
      "wrest": 4348,
      "writer": 4349,
      "subm": 4350,
      "raise": 4351,
      "wave": 4352,
      "specifically": 4353,
      "closer": 4354,
      "matches": 4355,
      "premieres": 4356,
      "demographic": 4357,
      "failed": 4358,
      "fifth": 4359,
      "accompl": 4360,
      "anchor": 4361,
      "xfinity": 4362,
      "01": 4363,
      "gone": 4364,
      "powell": 4365,
      "size": 4366,
      "##lling": 4367,
      "contact": 4368,
      "mary": 4369,
      "units": 4370,
      "##weight": 4371,
      "slate": 4372,
      "parts": 4373,
      "specials": 4374,
      "spotlight": 4375,
      "dropped": 4376,
      "property": 4377,
      "interviews": 4378,
      "safe": 4379,
      "percentage": 4380,
      "fal": 4381,
      "fit": 4382,
      "father": 4383,
      "mhz": 4384,
      "wifi": 4385,
      "yan": 4386,
      "##fact": 4387,
      "##pts": 4388,
      "##esn": 4389,
      "tout": 4390,
      "print": 4391,
      "marvel": 4392,
      "door": 4393,
      "accounts": 4394,
      "starts": 4395,
      "focusing": 4396,
      "posted": 4397,
      "connections": 4398,
      "nationwide": 4399,
      "scene": 4400,
      "pulled": 4401,
      "silver": 4402,
      "vendors": 4403,
      "rainbow": 4404,
      "behavior": 4405,
      "manufact": 4406,
      "evidence": 4407,
      "ecos": 4408,
      "lg": 4409,
      "lind": 4410,
      "roles": 4411,
      "util": 4412,
      "##cy": 4413,
      "##ero": 4414,
      "watchers": 4415,
      "remark": 4416,
      "expert": 4417,
      "managed": 4418,
      "simple": 4419,
      "promoting": 4420,
      "pai": 4421,
      "engineers": 4422,
      "deadline": 4423,
      "bundles": 4424,
      "ecosystem": 4425,
      "citing": 4426,
      "lond": 4427,
      "rh": 4428,
      "##ature": 4429,
      "##orm": 4430,
      "##iment": 4431,
      "##ockey": 4432,
      "acceler": 4433,
      "adds": 4434,
      "actors": 4435,
      "distributed": 4436,
      "helps": 4437,
      "##brand": 4438,
      "shared": 4439,
      "olympic": 4440,
      "rogers": 4441,
      "bernstein": 4442,
      "yanke": 4443,
      "london": 4444,
      "5g": 4445,
      "mel": 4446,
      "tas": 4447,
      "##rics": 4448,
      "##ios": 4449,
      "##ena": 4450,
      "forced": 4451,
      "compens": 4452,
      "brok": 4453,
      "##izes": 4454,
      "delay": 4455,
      "donald": 4456,
      "featured": 4457,
      "investigation": 4458,
      "finally": 4459,
      "primary": 4460,
      "##athanson": 4461,
      "generally": 4462,
      "stocks": 4463,
      "colleag": 4464,
      "wait": 4465,
      "students": 4466,
      "easier": 4467,
      "replace": 4468,
      "enabled": 4469,
      "extremely": 4470,
      "session": 4471,
      "obs": 4472,
      "send": 4473,
      "##atically": 4474,
      "cablec": 4475,
      "allen": 4476,
      "recip": 4477,
      "acad": 4478,
      "publicly": 4479,
      "hands": 4480,
      "telcos": 4481,
      "expectations": 4482,
      "addressable": 4483,
      "spokesman": 4484,
      "marcus": 4485,
      "convention": 4486,
      "jessica": 4487,
      "supreme": 4488,
      "cards": 4489,
      "fuse": 4490,
      "pbs": 4491,
      "wict": 4492,
      "##ta": 4493,
      "##woman": 4494,
      "##erve": 4495,
      "##areness": 4496,
      "disapp": 4497,
      "struct": 4498,
      "actual": 4499,
      "##ensus": 4500,
      "annivers": 4501,
      "##board": 4502,
      "relatively": 4503,
      "transpar": 4504,
      "reduce": 4505,
      "fewer": 4506,
      "negotiate": 4507,
      "reasons": 4508,
      "discussions": 4509,
      "ultra": 4510,
      "status": 4511,
      "balance": 4512,
      "awareness": 4513,
      "ctam": 4514,
      "mexico": 4515,
      "immediately": 4516,
      "rcn": 4517,
      "baker": 4518,
      "dub": 4519,
      "gather": 4520,
      "tack": 4521,
      "##lines": 4522,
      "##18": 4523,
      "refer": 4524,
      "above": 4525,
      "trends": 4526,
      "views": 4527,
      "bull": 4528,
      "hero": 4529,
      "196": 4530,
      "legend": 4531,
      "carrier": 4532,
      "entre": 4533,
      "hosts": 4534,
      "counter": 4535,
      "carte": 4536,
      "shoot": 4537,
      "optimum": 4538,
      "elimin": 4539,
      "cinem": 4540,
      "fash": 4541,
      "length": 4542,
      "va": 4543,
      "wood": 4544,
      "fore": 4545,
      "provision": 4546,
      "exem": 4547,
      "exact": 4548,
      "perry": 4549,
      "thanks": 4550,
      "setting": 4551,
      "heard": 4552,
      "steven": 4553,
      "negotiating": 4554,
      "definitely": 4555,
      "closely": 4556,
      "celebrity": 4557,
      "republicans": 4558,
      "disclosed": 4559,
      "analytics": 4560,
      "succeed": 4561,
      "tremend": 4562,
      "72": 4563,
      "lit": 4564,
      "mann": 4565,
      "##ran": 4566,
      "##enced": 4567,
      "##stead": 4568,
      "##riate": 4569,
      "shark": 4570,
      "marg": 4571,
      "union": 4572,
      "monitor": 4573,
      "knew": 4574,
      "earth": 4575,
      "reaching": 4576,
      "ipad": 4577,
      "closing": 4578,
      "learning": 4579,
      "petition": 4580,
      "carolina": 4581,
      "substant": 4582,
      "hundred": 4583,
      "anniversary": 4584,
      "hired": 4585,
      "hockey": 4586,
      "kagan": 4587,
      "tony": 4588,
      "##ha": 4589,
      "##ona": 4590,
      "##leans": 4591,
      "##verly": 4592,
      "orleans": 4593,
      "##ptions": 4594,
      "neigh": 4595,
      "client": 4596,
      "sportsman": 4597,
      "activity": 4598,
      "assist": 4599,
      "blue": 4600,
      "##itten": 4601,
      "mcd": 4602,
      "daugh": 4603,
      "debate": 4604,
      "county": 4605,
      "requires": 4606,
      "talked": 4607,
      "complet": 4608,
      "gaming": 4609,
      "enhance": 4610,
      "essentially": 4611,
      "thrilled": 4612,
      "rutledge": 4613,
      "eg": 4614,
      "ring": 4615,
      "##fort": 4616,
      "abb": 4617,
      "##sequ": 4618,
      "closed": 4619,
      "fellow": 4620,
      "buc": 4621,
      "launches": 4622,
      "competing": 4623,
      "announcing": 4624,
      "musical": 4625,
      "funct": 4626,
      "ventures": 4627,
      "garner": 4628,
      "typically": 4629,
      "felt": 4630,
      "material": 4631,
      "fubotv": 4632,
      "fashion": 4633,
      "cab": 4634,
      "hou": 4635,
      "lets": 4636,
      "nich": 4637,
      "##rom": 4638,
      "##iqu": 4639,
      "##gu": 4640,
      "##erman": 4641,
      "conver": 4642,
      "plenty": 4643,
      "##ude": 4644,
      "countries": 4645,
      "##iana": 4646,
      "minim": 4647,
      "insights": 4648,
      "profile": 4649,
      "largely": 4650,
      "meetings": 4651,
      "logo": 4652,
      "determine": 4653,
      "incorpor": 4654,
      "fill": 4655,
      "lose": 4656,
      "##ded": 4657,
      "##ze": 4658,
      "##port": 4659,
      "##33": 4660,
      "whate": 4661,
      "##osure": 4662,
      "compelling": 4663,
      "showing": 4664,
      "arri": 4665,
      "arbit": 4666,
      "canada": 4667,
      "direction": 4668,
      "couldn": 4669,
      "thinking": 4670,
      "earned": 4671,
      "##well": 4672,
      "lob": 4673,
      "load": 4674,
      "surround": 4675,
      "connectivity": 4676,
      "##prene": 4677,
      "facing": 4678,
      "oversight": 4679,
      "telling": 4680,
      "millenn": 4681,
      "##icultural": 4682,
      "photo": 4683,
      "diego": 4684,
      "nexstar": 4685,
      "entreprene": 4686,
      "houston": 4687,
      "whatever": 4688,
      "bond": 4689,
      "ga": 4690,
      "gear": 4691,
      "greg": 4692,
      "liter": 4693,
      "tied": 4694,
      "wga": 4695,
      "##fo": 4696,
      "##99": 4697,
      "##ales": 4698,
      "##omb": 4699,
      "##unk": 4700,
      "manage": 4701,
      "sens": 4702,
      "capit": 4703,
      "modern": 4704,
      "reasonable": 4705,
      "ultimate": 4706,
      "momentum": 4707,
      "jackson": 4708,
      "principal": 4709,
      "adjust": 4710,
      "ariz": 4711,
      "71": 4712,
      "cited": 4713,
      "lyn": 4714,
      "pip": 4715,
      "sort": 4716,
      "tag": 4717,
      "##ai": 4718,
      "##27": 4719,
      "##reci": 4720,
      "##eless": 4721,
      "##ches": 4722,
      "amend": 4723,
      "boy": 4724,
      "##ittee": 4725,
      "billions": 4726,
      "engage": 4727,
      "150": 4728,
      "approp": 4729,
      "discri": 4730,
      "remaining": 4731,
      "sponsor": 4732,
      "##ommittee": 4733,
      "enhanced": 4734,
      "camera": 4735,
      "soph": 4736,
      "subcommittee": 4737,
      "burn": 4738,
      "syn": 4739,
      "sides": 4740,
      "x1": 4741,
      "##pet": 4742,
      "##gl": 4743,
      "##igan": 4744,
      "interests": 4745,
      "##ope": 4746,
      "indic": 4747,
      "phones": 4748,
      "avo": 4749,
      "crew": 4750,
      "primarily": 4751,
      "##attan": 4752,
      "funds": 4753,
      "animation": 4754,
      "journalists": 4755,
      "incredible": 4756,
      "elevated": 4757,
      "nomine": 4758,
      "aol": 4759,
      "du": 4760,
      "divid": 4761,
      "lab": 4762,
      "qvc": 4763,
      "rid": 4764,
      "sant": 4765,
      "##oen": 4766,
      "##ei": 4767,
      "##ripted": 4768,
      "regist": 4769,
      "##rah": 4770,
      "backed": 4771,
      "effici": 4772,
      "aired": 4773,
      "availability": 4774,
      "generate": 4775,
      "records": 4776,
      "factor": 4777,
      "claimed": 4778,
      "discussion": 4779,
      "adopt": 4780,
      "hotel": 4781,
      "choices": 4782,
      "practice": 4783,
      "aimed": 4784,
      "situation": 4785,
      "sister": 4786,
      "##know": 4787,
      "ryan": 4788,
      "gh": 4789,
      "gri": 4790,
      "il": 4791,
      "ny": 4792,
      "pending": 4793,
      "rout": 4794,
      "##eted": 4795,
      "coast": 4796,
      "agenda": 4797,
      "2002": 4798,
      "england": 4799,
      "loyal": 4800,
      "finished": 4801,
      "bills": 4802,
      "tried": 4803,
      "swim": 4804,
      "sometimes": 4805,
      "southern": 4806,
      "producing": 4807,
      "section": 4808,
      "choose": 4809,
      "solid": 4810,
      "destination": 4811,
      "festival": 4812,
      "din": 4813,
      "kar": 4814,
      "mun": 4815,
      "ori": 4816,
      "ral": 4817,
      "yah": 4818,
      "##rative": 4819,
      "##stone": 4820,
      "spin": 4821,
      "spino": 4822,
      "advent": 4823,
      "##erem": 4824,
      "marri": 4825,
      "##itted": 4826,
      "capable": 4827,
      "extend": 4828,
      "mainly": 4829,
      "confident": 4830,
      "significantly": 4831,
      "switched": 4832,
      "friendly": 4833,
      "cw": 4834,
      "##bro": 4835,
      "##50": 4836,
      "##amed": 4837,
      "##illy": 4838,
      "operation": 4839,
      "intell": 4840,
      "accept": 4841,
      "engaged": 4842,
      "numerous": 4843,
      "finance": 4844,
      "written": 4845,
      "successfully": 4846,
      "peer": 4847,
      "handle": 4848,
      "critic": 4849,
      "challenging": 4850,
      "legislators": 4851,
      "ranging": 4852,
      "spinoff": 4853,
      "intellig": 4854,
      "cities": 4855,
      "eth": 4856,
      "ken": 4857,
      "om": 4858,
      "pit": 4859,
      "pain": 4860,
      "##ray": 4861,
      "##ipped": 4862,
      "##iracy": 4863,
      "##agram": 4864,
      "##eover": 4865,
      "aggreg": 4866,
      "##igned": 4867,
      "afterno": 4868,
      "instagram": 4869,
      "acquire": 4870,
      "rolling": 4871,
      "medium": 4872,
      "requirements": 4873,
      "oppos": 4874,
      "ralph": 4875,
      "66": 4876,
      "700": 4877,
      "der": 4878,
      "hits": 4879,
      "##cil": 4880,
      "##arc": 4881,
      "convert": 4882,
      "concept": 4883,
      "save": 4884,
      "##astic": 4885,
      "##ordin": 4886,
      "multicultural": 4887,
      "acknow": 4888,
      "##eller": 4889,
      "commissioners": 4890,
      "losing": 4891,
      "runs": 4892,
      "##athy": 4893,
      "metrics": 4894,
      "sundance": 4895,
      "supports": 4896,
      "atlantic": 4897,
      "massive": 4898,
      "healthy": 4899,
      "urban": 4900,
      "shopping": 4901,
      "vendor": 4902,
      "rsns": 4903,
      "umstead": 4904,
      "yahoo": 4905,
      "josh": 4906,
      "names": 4907,
      "forecast": 4908,
      "##ota": 4909,
      "prohib": 4910,
      "##emy": 4911,
      "unsc": 4912,
      "multim": 4913,
      "wars": 4914,
      "creators": 4915,
      "importance": 4916,
      "argu": 4917,
      "restrict": 4918,
      "tonight": 4919,
      "civil": 4920,
      "british": 4921,
      "compensation": 4922,
      "62": 4923,
      "bul": 4924,
      "ix": 4925,
      "##inn": 4926,
      "##ened": 4927,
      "##itary": 4928,
      "##lying": 4929,
      "prosp": 4930,
      "beverly": 4931,
      "chip": 4932,
      "##unction": 4933,
      "newly": 4934,
      "##icht": 4935,
      "marketers": 4936,
      "clips": 4937,
      "indeed": 4938,
      "remember": 4939,
      "graph": 4940,
      "headed": 4941,
      "older": 4942,
      "considering": 4943,
      "electronic": 4944,
      "educational": 4945,
      "averaging": 4946,
      "nomination": 4947,
      "words": 4948,
      "housew": 4949,
      "pilot": 4950,
      "fueled": 4951,
      "jennifer": 4952,
      "yankees": 4953,
      "afternoon": 4954,
      "67": 4955,
      "88": 4956,
      "bott": 4957,
      "##rent": 4958,
      "##fy": 4959,
      "##bu": 4960,
      "##iseries": 4961,
      "item": 4962,
      "incumb": 4963,
      "appar": 4964,
      "brad": 4965,
      "twice": 4966,
      "columb": 4967,
      "peg": 4968,
      "fundament": 4969,
      "responsibility": 4970,
      "condition": 4971,
      "##doch": 4972,
      "murdoch": 4973,
      "voices": 4974,
      "sponsorship": 4975,
      "foreign": 4976,
      "exactly": 4977,
      "unscripted": 4978,
      "fine": 4979,
      "hers": 4980,
      "mig": 4981,
      "ron": 4982,
      "wl": 4983,
      "wes": 4984,
      "##yer": 4985,
      "##ians": 4986,
      "##pond": 4987,
      "##12": 4988,
      "##abit": 4989,
      "##abet": 4990,
      "beat": 4991,
      "check": 4992,
      "shap": 4993,
      "adapt": 4994,
      "##anne": 4995,
      "covid": 4996,
      "operational": 4997,
      "2001": 4998,
      "buys": 4999,
      "consumption": 5000,
      "blood": 5001,
      "simul": 5002,
      "250": 5003,
      "object": 5004,
      "maxim": 5005,
      "draft": 5006,
      "hills": 5007,
      "covering": 5008,
      "segments": 5009,
      "military": 5010,
      "meaningful": 5011,
      "susp": 5012,
      "##paper": 5013,
      "showcase": 5014,
      "consolidation": 5015,
      "capitol": 5016,
      "63": 5017,
      "hunt": 5018,
      "svp": 5019,
      "##ield": 5020,
      "##bling": 5021,
      "##hd": 5022,
      "programmatic": 5023,
      "mont": 5024,
      "explo": 5025,
      "quarters": 5026,
      "##achel": 5027,
      "efficient": 5028,
      "miniseries": 5029,
      "waiver": 5030,
      "animal": 5031,
      "fixed": 5032,
      "alphabet": 5033,
      "treat": 5034,
      "van": 5035,
      "##night": 5036,
      "##rated": 5037,
      "##van": 5038,
      "##ews": 5039,
      "churn": 5040,
      "moon": 5041,
      "##uman": 5042,
      "brother": 5043,
      "presidential": 5044,
      "newspaper": 5045,
      "phoen": 5046,
      "flat": 5047,
      "oprah": 5048,
      "extensive": 5049,
      "clean": 5050,
      "##conn": 5051,
      "evp": 5052,
      "debuted": 5053,
      "raising": 5054,
      "amazing": 5055,
      "emerg": 5056,
      "photos": 5057,
      "hundreds": 5058,
      "phoenix": 5059,
      "46": 5060,
      "86": 5061,
      "96": 5062,
      "era": 5063,
      "fsn": 5064,
      "gross": 5065,
      "jam": 5066,
      "pod": 5067,
      "que": 5068,
      "##ette": 5069,
      "##ading": 5070,
      "noting": 5071,
      "##ansas": 5072,
      "origin": 5073,
      "desire": 5074,
      "slated": 5075,
      "##ronic": 5076,
      "complement": 5077,
      "##ught": 5078,
      "rollout": 5079,
      "##ucker": 5080,
      "madison": 5081,
      "separately": 5082,
      "frequ": 5083,
      "leaving": 5084,
      "obviously": 5085,
      "neighbor": 5086,
      "jason": 5087,
      "lisa": 5088,
      "wow": 5089,
      "##of": 5090,
      "##year": 5091,
      "##jected": 5092,
      "##arant": 5093,
      "andrew": 5094,
      "##amond": 5095,
      "death": 5096,
      "adm": 5097,
      "adam": 5098,
      "diamond": 5099,
      "tru": 5100,
      "##ift": 5101,
      "##ishing": 5102,
      "mergers": 5103,
      "factors": 5104,
      "magn": 5105,
      "improved": 5106,
      "elements": 5107,
      "nature": 5108,
      "nascar": 5109,
      "inclusion": 5110,
      "colleagues": 5111,
      "68": 5112,
      "hip": 5113,
      "mr": 5114,
      "q2": 5115,
      "song": 5116,
      "##lan": 5117,
      "##wise": 5118,
      "##xim": 5119,
      "##13": 5120,
      "onto": 5121,
      "whom": 5122,
      "rebrand": 5123,
      "chef": 5124,
      "wealth": 5125,
      "exec": 5126,
      "spread": 5127,
      "haw": 5128,
      "temp": 5129,
      "##apers": 5130,
      "quad": 5131,
      "sportsnet": 5132,
      "affect": 5133,
      "##brid": 5134,
      "opin": 5135,
      "storyt": 5136,
      "harris": 5137,
      "priority": 5138,
      "230": 5139,
      "council": 5140,
      "schools": 5141,
      "commercials": 5142,
      "please": 5143,
      "consistent": 5144,
      "passionate": 5145,
      "training": 5146,
      "housewives": 5147,
      "lam": 5148,
      "mg": 5149,
      "nt": 5150,
      "nights": 5151,
      "##aud": 5152,
      "##bell": 5153,
      "##hattan": 5154,
      "##ara": 5155,
      "##iling": 5156,
      "scored": 5157,
      "buzz": 5158,
      "anywhere": 5159,
      "understanding": 5160,
      "creation": 5161,
      "respective": 5162,
      "heads": 5163,
      "globe": 5164,
      "approved": 5165,
      "debuting": 5166,
      "steps": 5167,
      "potentially": 5168,
      "himself": 5169,
      "predic": 5170,
      "recognized": 5171,
      "mvpd": 5172,
      "published": 5173,
      "lawsuit": 5174,
      "activities": 5175,
      "mach": 5176,
      "osc": 5177,
      "ride": 5178,
      "##frey": 5179,
      "##la": 5180,
      "thus": 5181,
      "##elines": 5182,
      "comfort": 5183,
      "stad": 5184,
      "beaut": 5185,
      "plant": 5186,
      "broader": 5187,
      "doct": 5188,
      "corres": 5189,
      "associates": 5190,
      "investments": 5191,
      "winfrey": 5192,
      "electric": 5193,
      "somewh": 5194,
      "hardware": 5195,
      "limit": 5196,
      "purchased": 5197,
      "brief": 5198,
      "sanford": 5199,
      "pushed": 5200,
      "antenn": 5201,
      "recognize": 5202,
      "360": 5203,
      "necessarily": 5204,
      "feeds": 5205,
      "hammer": 5206,
      "described": 5207,
      "master": 5208,
      "tremendous": 5209,
      "59": 5210,
      "lu": 5211,
      "pages": 5212,
      "q1": 5213,
      "q3": 5214,
      "##outs": 5215,
      "##igious": 5216,
      "weigh": 5217,
      "##ula": 5218,
      "##iles": 5219,
      "appreci": 5220,
      "directed": 5221,
      "ifc": 5222,
      "phase": 5223,
      "background": 5224,
      "veh": 5225,
      "investor": 5226,
      "wins": 5227,
      "surprise": 5228,
      "epix": 5229,
      "edited": 5230,
      "difference": 5231,
      "obl": 5232,
      "storage": 5233,
      "turns": 5234,
      "turning": 5235,
      "greenfield": 5236,
      "ranking": 5237,
      "nctc": 5238,
      "representing": 5239,
      "learned": 5240,
      "element": 5241,
      "mandate": 5242,
      "sarah": 5243,
      "confirmed": 5244,
      "predicted": 5245,
      "weren": 5246,
      "floor": 5247,
      "enforcement": 5248,
      "cablecard": 5249,
      "correspond": 5250,
      "58": 5251,
      "gra": 5252,
      "lunch": 5253,
      "mir": 5254,
      "rely": 5255,
      "tiers": 5256,
      "##pro": 5257,
      "##point": 5258,
      "##edy": 5259,
      "##itude": 5260,
      "##ros": 5261,
      "##the": 5262,
      "##ender": 5263,
      "usually": 5264,
      "bresn": 5265,
      "##loying": 5266,
      "airs": 5267,
      "##phy": 5268,
      "gray": 5269,
      "auto": 5270,
      "universe": 5271,
      "formed": 5272,
      "hoping": 5273,
      "buyers": 5274,
      "happened": 5275,
      "burke": 5276,
      "mixed": 5277,
      "identify": 5278,
      "enables": 5279,
      "constit": 5280,
      "tapped": 5281,
      "skills": 5282,
      "expertise": 5283,
      "disappoint": 5284,
      "appropriate": 5285,
      "bresnan": 5286,
      "74": 5287,
      "98": 5288,
      "dang": 5289,
      "fol": 5290,
      "mother": 5291,
      "rand": 5292,
      "rough": 5293,
      "ramp": 5294,
      "##iel": 5295,
      "##ench": 5296,
      "##icon": 5297,
      "##aco": 5298,
      "exhib": 5299,
      "sean": 5300,
      "presents": 5301,
      "consensus": 5302,
      "manhattan": 5303,
      "impl": 5304,
      "120": 5305,
      "guild": 5306,
      "surf": 5307,
      "knows": 5308,
      "driver": 5309,
      "keyn": 5310,
      "competitor": 5311,
      "securities": 5312,
      "complaints": 5313,
      "safety": 5314,
      "harmon": 5315,
      "garden": 5316,
      "94": 5317,
      "aar": 5318,
      "blo": 5319,
      "fisc": 5320,
      "gac": 5321,
      "xbox": 5322,
      "##eper": 5323,
      "##gna": 5324,
      "##junction": 5325,
      "forum": 5326,
      "chronic": 5327,
      "##rif": 5328,
      "##ivals": 5329,
      "tegna": 5330,
      "marsh": 5331,
      "outlet": 5332,
      "communic": 5333,
      "district": 5334,
      "phys": 5335,
      "downstream": 5336,
      "guest": 5337,
      "drag": 5338,
      "winners": 5339,
      "kept": 5340,
      "police": 5341,
      "possibly": 5342,
      "singer": 5343,
      "counts": 5344,
      "secured": 5345,
      "easily": 5346,
      "anti": 5347,
      "nominated": 5348,
      "priced": 5349,
      "explore": 5350,
      "volunt": 5351,
      "renewed": 5352,
      "oriented": 5353,
      "mgm": 5354,
      "stadium": 5355,
      "81": 5356,
      "bio": 5357,
      "hus": 5358,
      "kenn": 5359,
      "ran": 5360,
      "##iary": 5361,
      "##za": 5362,
      "##70": 5363,
      "tow": 5364,
      "##alu": 5365,
      "##omer": 5366,
      "##ulate": 5367,
      "cool": 5368,
      "##ops": 5369,
      "score": 5370,
      "otherwise": 5371,
      "promise": 5372,
      "valley": 5373,
      "charlie": 5374,
      "formerly": 5375,
      "portal": 5376,
      "21st": 5377,
      "attractive": 5378,
      "unlike": 5379,
      "budget": 5380,
      "pioneer": 5381,
      "daughter": 5382,
      "78": 5383,
      "cerem": 5384,
      "dere": 5385,
      "hen": 5386,
      "jose": 5387,
      "tab": 5388,
      "##kins": 5389,
      "##ano": 5390,
      "##aly": 5391,
      "##reh": 5392,
      "comsc": 5393,
      "##tered": 5394,
      "##essed": 5395,
      "teach": 5396,
      "marks": 5397,
      "upon": 5398,
      "unve": 5399,
      "operate": 5400,
      "resolution": 5401,
      "consecut": 5402,
      "conserv": 5403,
      "reporter": 5404,
      "preview": 5405,
      "strugg": 5406,
      "actions": 5407,
      "advertiser": 5408,
      "delivers": 5409,
      "fla": 5410,
      "quarterly": 5411,
      "instance": 5412,
      "oversees": 5413,
      "moments": 5414,
      "represented": 5415,
      "athle": 5416,
      "ntia": 5417,
      "comscore": 5418,
      "ka": 5419,
      "kim": 5420,
      "ru": 5421,
      "vac": 5422,
      "##making": 5423,
      "##zak": 5424,
      "##burn": 5425,
      "##isan": 5426,
      "beach": 5427,
      "##unes": 5428,
      "##antly": 5429,
      "produces": 5430,
      "expo": 5431,
      "streamed": 5432,
      "looked": 5433,
      "unders": 5434,
      "locations": 5435,
      "longtime": 5436,
      "values": 5437,
      "wireline": 5438,
      "wrong": 5439,
      "entry": 5440,
      "metro": 5441,
      "mtvn": 5442,
      "concert": 5443,
      "soul": 5444,
      "sidebar": 5445,
      "dvrs": 5446,
      "journalism": 5447,
      "effectively": 5448,
      "sweep": 5449,
      "fiscal": 5450,
      "00": 5451,
      "gian": 5452,
      "nar": 5453,
      "##si": 5454,
      "##wire": 5455,
      "##ework": 5456,
      "##cher": 5457,
      "##ulated": 5458,
      "alle": 5459,
      "coordin": 5460,
      "operated": 5461,
      "scr": 5462,
      "struck": 5463,
      "topic": 5464,
      "regions": 5465,
      "enterprise": 5466,
      "reli": 5467,
      "transact": 5468,
      "approxim": 5469,
      "ordered": 5470,
      "coup": 5471,
      "conversations": 5472,
      "encourage": 5473,
      "granted": 5474,
      "absolut": 5475,
      "excell": 5476,
      "wrestling": 5477,
      "academy": 5478,
      "approximately": 5479,
      "ak": 5480,
      "cow": 5481,
      "dsl": 5482,
      "file": 5483,
      "lop": 5484,
      "##ym": 5485,
      "##iate": 5486,
      "##cm": 5487,
      "##uty": 5488,
      "##urch": 5489,
      "convin": 5490,
      "trick": 5491,
      "leicht": 5492,
      "prec": 5493,
      "##elson": 5494,
      "greatest": 5495,
      "negative": 5496,
      "keeps": 5497,
      "meta": 5498,
      "syfy": 5499,
      "journey": 5500,
      "considered": 5501,
      "horizon": 5502,
      "happening": 5503,
      "theater": 5504,
      "conducted": 5505,
      "consulting": 5506,
      "overseeing": 5507,
      "iconic": 5508,
      "slightly": 5509,
      "amendment": 5510,
      "bottom": 5511,
      "giants": 5512,
      "89": 5513,
      "kid": 5514,
      "nice": 5515,
      "nca": 5516,
      "##mond": 5517,
      "##alition": 5518,
      "##llo": 5519,
      "##ighter": 5520,
      "placed": 5521,
      "shown": 5522,
      "goals": 5523,
      "resol": 5524,
      "##iley": 5525,
      "perman": 5526,
      "asset": 5527,
      "regime": 5528,
      "technological": 5529,
      "memor": 5530,
      "michelle": 5531,
      "holds": 5532,
      "controvers": 5533,
      "infring": 5534,
      "navig": 5535,
      "evolving": 5536,
      "litigation": 5537,
      "completely": 5538,
      "avoid": 5539,
      "illeg": 5540,
      "consecutive": 5541,
      "leichtman": 5542,
      "bat": 5543,
      "bor": 5544,
      "ble": 5545,
      "bol": 5546,
      "ly": 5547,
      "lake": 5548,
      "vill": 5549,
      "##makers": 5550,
      "##inent": 5551,
      "##alog": 5552,
      "##oses": 5553,
      "spir": 5554,
      "fred": 5555,
      "newer": 5556,
      "notes": 5557,
      "bruce": 5558,
      "buff": 5559,
      "wright": 5560,
      "##attle": 5561,
      "peak": 5562,
      "patent": 5563,
      "tracking": 5564,
      "franchises": 5565,
      "collection": 5566,
      "respondents": 5567,
      "windows": 5568,
      "heavily": 5569,
      "witness": 5570,
      "intelligence": 5571,
      "keynote": 5572,
      "ncaa": 5573,
      "84": 5574,
      "ba": 5575,
      "bry": 5576,
      "fer": 5577,
      "gary": 5578,
      "ion": 5579,
      "ram": 5580,
      "sle": 5581,
      "##va": 5582,
      "##ship": 5583,
      "##cbs": 5584,
      "##mi": 5585,
      "##74": 5586,
      "##ington": 5587,
      "##ared": 5588,
      "##imer": 5589,
      "brow": 5590,
      "uncle": 5591,
      "relief": 5592,
      "location": 5593,
      "deploying": 5594,
      "dauman": 5595,
      "guarant": 5596,
      "puts": 5597,
      "approval": 5598,
      "storm": 5599,
      "email": 5600,
      "waiting": 5601,
      "natural": 5602,
      "responded": 5603,
      "matters": 5604,
      "publishing": 5605,
      "cameras": 5606,
      "extreme": 5607,
      "syndication": 5608,
      "attendees": 5609,
      "institute": 5610,
      "secretary": 5611,
      "orders": 5612,
      "truth": 5613,
      "architecture": 5614,
      "component": 5615,
      "concluded": 5616,
      "arizona": 5617,
      "neighborhood": 5618,
      "husband": 5619,
      "bir": 5620,
      "gap": 5621,
      "hart": 5622,
      "kansas": 5623,
      "mu": 5624,
      "pact": 5625,
      "rf": 5626,
      "tent": 5627,
      "vm": 5628,
      "zone": 5629,
      "##vy": 5630,
      "##roit": 5631,
      "ship": 5632,
      "exceed": 5633,
      "viewed": 5634,
      "subscribe": 5635,
      "pool": 5636,
      "leads": 5637,
      "estate": 5638,
      "writing": 5639,
      "regulators": 5640,
      "hearst": 5641,
      "recorder": 5642,
      "meth": 5643,
      "connecting": 5644,
      "supply": 5645,
      "virtually": 5646,
      "detroit": 5647,
      "messages": 5648,
      "syndicated": 5649,
      "expressed": 5650,
      "wilson": 5651,
      "vehic": 5652,
      "600": 5653,
      "dick": 5654,
      "fights": 5655,
      "lt": 5656,
      "lock": 5657,
      "mas": 5658,
      "##col": 5659,
      "##gets": 5660,
      "##16": 5661,
      "##isher": 5662,
      "amy": 5663,
      "unless": 5664,
      "indicated": 5665,
      "thank": 5666,
      "workers": 5667,
      "signs": 5668,
      "extended": 5669,
      "requests": 5670,
      "##rises": 5671,
      "generating": 5672,
      "blackout": 5673,
      "1996": 5674,
      "argument": 5675,
      "larry": 5676,
      "##graphy": 5677,
      "involve": 5678,
      "participation": 5679,
      "premiered": 5680,
      "window": 5681,
      "rulemaking": 5682,
      "dramatic": 5683,
      "housing": 5684,
      "update": 5685,
      "cannot": 5686,
      "bes": 5687,
      "bann": 5688,
      "ko": 5689,
      "kell": 5690,
      "ov": 5691,
      "tie": 5692,
      "bear": 5693,
      "shop": 5694,
      "##oop": 5695,
      "##sey": 5696,
      "showed": 5697,
      "newsp": 5698,
      "associated": 5699,
      "lots": 5700,
      "hearings": 5701,
      "clearwire": 5702,
      "patrick": 5703,
      "viacomcbs": 5704,
      "snl": 5705,
      "daniels": 5706,
      "participating": 5707,
      "adobe": 5708,
      "madness": 5709,
      "contributions": 5710,
      "arrange": 5711,
      "manufactur": 5712,
      "structure": 5713,
      "surrounding": 5714,
      "oscar": 5715,
      "bloom": 5716,
      "69": 5717,
      "fle": 5718,
      "g4": 5719,
      "q4": 5720,
      "russ": 5721,
      "sac": 5722,
      "sir": 5723,
      "##sch": 5724,
      "##ipping": 5725,
      "##lor": 5726,
      "##28": 5727,
      "##24": 5728,
      "stern": 5729,
      "revers": 5730,
      "##osing": 5731,
      "##ereo": 5732,
      "compreh": 5733,
      "clim": 5734,
      "genres": 5735,
      "assess": 5736,
      "streamers": 5737,
      "espn2": 5738,
      "depth": 5739,
      "begun": 5740,
      "polka": 5741,
      "insur": 5742,
      "leagues": 5743,
      "1999": 5744,
      "1990s": 5745,
      "cert": 5746,
      "tyler": 5747,
      "funny": 5748,
      "ranks": 5749,
      "covered": 5750,
      "selected": 5751,
      "bankrupt": 5752,
      "arena": 5753,
      "computers": 5754,
      "cmt": 5755,
      "demonstrated": 5756,
      "repeated": 5757,
      "flexibility": 5758,
      "embrace": 5759,
      "austin": 5760,
      "fantas": 5761,
      "rapidly": 5762,
      "abbott": 5763,
      "niche": 5764,
      "simulcast": 5765,
      "opinion": 5766,
      "folks": 5767,
      "lopez": 5768,
      "newspapers": 5769,
      "dar": 5770,
      "eagan": 5771,
      "freed": 5772,
      "gord": 5773,
      "tor": 5774,
      "trib": 5775,
      "wish": 5776,
      "##east": 5777,
      "##uced": 5778,
      "##ker": 5779,
      "##10": 5780,
      "atsc": 5781,
      "##iest": 5782,
      "compl": 5783,
      "pled": 5784,
      "coalition": 5785,
      "laugh": 5786,
      "##icks": 5787,
      "##enson": 5788,
      "blu": 5789,
      "theme": 5790,
      "originals": 5791,
      "docu": 5792,
      "apart": 5793,
      "elected": 5794,
      "stronger": 5795,
      "stephen": 5796,
      "##ucky": 5797,
      "hispanics": 5798,
      "faced": 5799,
      "controls": 5800,
      "declines": 5801,
      "##ikely": 5802,
      "bidding": 5803,
      "snow": 5804,
      "sponsored": 5805,
      "unlikely": 5806,
      "authentic": 5807,
      "guidance": 5808,
      "intellect": 5809,
      "gradu": 5810,
      "functions": 5811,
      "garnered": 5812,
      "acknowled": 5813,
      "multimedia": 5814,
      "comprehensive": 5815,
      "06": 5816,
      "73": 5817,
      "aereo": 5818,
      "psy": 5819,
      "##fit": 5820,
      "##aur": 5821,
      "##etv": 5822,
      "##lyn": 5823,
      "copps": 5824,
      "lie": 5825,
      "decide": 5826,
      "acce": 5827,
      "ends": 5828,
      "centers": 5829,
      "affected": 5830,
      "engaging": 5831,
      "experts": 5832,
      "charles": 5833,
      "michigan": 5834,
      "powered": 5835,
      "controlled": 5836,
      "finals": 5837,
      "policies": 5838,
      "artists": 5839,
      "ross": 5840,
      "pieces": 5841,
      "array": 5842,
      "##burg": 5843,
      "welcome": 5844,
      "imagine": 5845,
      "mentioned": 5846,
      "purpose": 5847,
      "gateway": 5848,
      "wlod": 5849,
      "western": 5850,
      "psych": 5851,
      "ast": 5852,
      "ft": 5853,
      "ice": 5854,
      "ign": 5855,
      "map": 5856,
      "oc": 5857,
      "rd": 5858,
      "rick": 5859,
      "##feller": 5860,
      "##lvan": 5861,
      "##mart": 5862,
      "##pre": 5863,
      "##14": 5864,
      "##stain": 5865,
      "chase": 5866,
      "weak": 5867,
      "##imited": 5868,
      "##thy": 5869,
      "brothers": 5870,
      "##kefeller": 5871,
      "cancel": 5872,
      "exposure": 5873,
      "newsm": 5874,
      "prep": 5875,
      "warned": 5876,
      "##wards": 5877,
      "worst": 5878,
      "attach": 5879,
      "transc": 5880,
      "sixth": 5881,
      "alongside": 5882,
      "gained": 5883,
      "theaters": 5884,
      "missing": 5885,
      "licenses": 5886,
      "extraord": 5887,
      "charges": 5888,
      "divide": 5889,
      "rodrig": 5890,
      "recommendations": 5891,
      "junior": 5892,
      "rockefeller": 5893,
      "broken": 5894,
      "mcdowell": 5895,
      "##arczak": 5896,
      "originally": 5897,
      "##lvania": 5898,
      "09": 5899,
      "boss": 5900,
      "dur": 5901,
      "iger": 5902,
      "lew": 5903,
      "none": 5904,
      "vital": 5905,
      "##ij": 5906,
      "##29": 5907,
      "##erts": 5908,
      "input": 5909,
      "##lla": 5910,
      "ford": 5911,
      "shed": 5912,
      "##using": 5913,
      "sustain": 5914,
      "##estri": 5915,
      "##iao": 5916,
      "lift": 5917,
      "accur": 5918,
      "topics": 5919,
      "depending": 5920,
      "heading": 5921,
      "believed": 5922,
      "sharp": 5923,
      "population": 5924,
      "evalu": 5925,
      "representatives": 5926,
      "improving": 5927,
      "talented": 5928,
      "esser": 5929,
      "scheduling": 5930,
      "multiyear": 5931,
      "unlimited": 5932,
      "tenure": 5933,
      "##sylvania": 5934,
      "hybrid": 5935,
      "exception": 5936,
      "pennsylvania": 5937,
      "suppliers": 5938,
      "reclass": 5939,
      "literally": 5940,
      "henry": 5941,
      "bankruptcy": 5942,
      "extraordinary": 5943,
      "79": 5944,
      "aven": 5945,
      "cry": 5946,
      "gib": 5947,
      "kyle": 5948,
      "nod": 5949,
      "nelson": 5950,
      "rom": 5951,
      "zucker": 5952,
      "##oved": 5953,
      "##run": 5954,
      "##een": 5955,
      "##pass": 5956,
      "##15": 5957,
      "##inform": 5958,
      "##isd": 5959,
      "##roll": 5960,
      "conced": 5961,
      "pra": 5962,
      "##anna": 5963,
      "resc": 5964,
      "##quir": 5965,
      "sole": 5966,
      "feels": 5967,
      "##licated": 5968,
      "##certain": 5969,
      "remind": 5970,
      "##phones": 5971,
      "experiment": 5972,
      "capability": 5973,
      "reduced": 5974,
      "likes": 5975,
      "emot": 5976,
      "priorit": 5977,
      "portion": 5978,
      "function": 5979,
      "fighting": 5980,
      "protecting": 5981,
      "dropping": 5982,
      "##ruption": 5983,
      "dollar": 5984,
      "figures": 5985,
      "revol": 5986,
      "eyes": 5987,
      "encouraging": 5988,
      "jonathan": 5989,
      "stickiness": 5990,
      "julius": 5991,
      "widely": 5992,
      "institut": 5993,
      "impressions": 5994,
      "##iasm": 5995,
      "enthusiasm": 5996,
      "code": 5997,
      "attacks": 5998,
      "virginia": 5999,
      "normal": 6000,
      "substantial": 6001,
      "sophom": 6002,
      "dinner": 6003,
      "intellectual": 6004,
      "76": 6005,
      "cant": 6006,
      "cfo": 6007,
      "gosp": 6008,
      "jur": 6009,
      "wake": 6010,
      "##bled": 6011,
      "##eration": 6012,
      "conven": 6013,
      "##aste": 6014,
      "20th": 6015,
      "places": 6016,
      "cancer": 6017,
      "recall": 6018,
      "basically": 6019,
      "##aves": 6020,
      "assum": 6021,
      "retention": 6022,
      "cris": 6023,
      "caused": 6024,
      "evening": 6025,
      "valued": 6026,
      "##gerton": 6027,
      "finish": 6028,
      "stands": 6029,
      "receiving": 6030,
      "remained": 6031,
      "protections": 6032,
      "recognition": 6033,
      "voting": 6034,
      "surpass": 6035,
      "advocacy": 6036,
      "anthony": 6037,
      "task": 6038,
      "storytelling": 6039,
      "method": 6040,
      "##information": 6041,
      "gospel": 6042,
      "dual": 6043,
      "rival": 6044,
      "tca": 6045,
      "##oy": 6046,
      "##nathanson": 6047,
      "##more": 6048,
      "##inson": 6049,
      "##asc": 6050,
      "##oted": 6051,
      "##uses": 6052,
      "tra": 6053,
      "disrupt": 6054,
      "lever": 6055,
      "coach": 6056,
      "##uez": 6057,
      "broadcom": 6058,
      "##kets": 6059,
      "god": 6060,
      "perce": 6061,
      "espan": 6062,
      "discover": 6063,
      "promises": 6064,
      "reaches": 6065,
      "traded": 6066,
      "carried": 6067,
      "rolled": 6068,
      "barri": 6069,
      "congressional": 6070,
      "applied": 6071,
      "seemed": 6072,
      "cultural": 6073,
      "enabling": 6074,
      "opposed": 6075,
      "tuned": 6076,
      "incredibly": 6077,
      "guidelines": 6078,
      "ebif": 6079,
      "accomplish": 6080,
      "aaron": 6081,
      "wlodarczak": 6082,
      "rdk": 6083,
      "sophomore": 6084,
      "born": 6085,
      "dad": 6086,
      "dtv": 6087,
      "nite": 6088,
      "nancy": 6089,
      "tay": 6090,
      "tail": 6091,
      "##eon": 6092,
      "##person": 6093,
      "##war": 6094,
      "##xter": 6095,
      "##2way": 6096,
      "##enger": 6097,
      "##itory": 6098,
      "itunes": 6099,
      "ash": 6100,
      "dexter": 6101,
      "##ulf": 6102,
      "##ulus": 6103,
      "##anda": 6104,
      "seattle": 6105,
      "##aked": 6106,
      "truck": 6107,
      "neither": 6108,
      "##ountain": 6109,
      "britt": 6110,
      "customized": 6111,
      "internal": 6112,
      "##asonic": 6113,
      "carl": 6114,
      "advice": 6115,
      "125": 6116,
      "officially": 6117,
      "requiring": 6118,
      "opened": 6119,
      "panasonic": 6120,
      "subscriptions": 6121,
      "reportedly": 6122,
      "humor": 6123,
      "tablets": 6124,
      "paley": 6125,
      "subsidiary": 6126,
      "achievement": 6127,
      "heroes": 6128,
      "arbitration": 6129,
      "santa": 6130,
      "herself": 6131,
      "tru2way": 6132,
      "unclear": 6133,
      "besides": 6134,
      "fantasy": 6135,
      "hang": 6136,
      "hosp": 6137,
      "##nic": 6138,
      "##ext": 6139,
      "##erc": 6140,
      "theory": 6141,
      "##ato": 6142,
      "##iding": 6143,
      "##ela": 6144,
      "##aded": 6145,
      "deeper": 6146,
      "##uster": 6147,
      "seat": 6148,
      "beta": 6149,
      "howard": 6150,
      "worry": 6151,
      "daytime": 6152,
      "write": 6153,
      "insert": 6154,
      "stores": 6155,
      "frontier": 6156,
      "honored": 6157,
      "denied": 6158,
      "publ": 6159,
      "upgrades": 6160,
      "confirm": 6161,
      "occur": 6162,
      "crowd": 6163,
      "ghost": 6164,
      "800": 6165,
      "aj": 6166,
      "bip": 6167,
      "hub": 6168,
      "iphone": 6169,
      "sought": 6170,
      "##sen": 6171,
      "##bn": 6172,
      "inquir": 6173,
      "##ito": 6174,
      "##icast": 6175,
      "comic": 6176,
      "shape": 6177,
      "adelphia": 6178,
      "##artisan": 6179,
      "unpre": 6180,
      "uncertain": 6181,
      "indec": 6182,
      "perm": 6183,
      "recess": 6184,
      "distin": 6185,
      "demos": 6186,
      "phen": 6187,
      "poll": 6188,
      "guess": 6189,
      "invested": 6190,
      "mobility": 6191,
      "performances": 6192,
      "exclusively": 6193,
      "glass": 6194,
      "construct": 6195,
      "dramas": 6196,
      "doubt": 6197,
      "candidates": 6198,
      "graphics": 6199,
      "incumbent": 6200,
      "machine": 6201,
      "permanent": 6202,
      "bloomberg": 6203,
      "aware": 6204,
      "bart": 6205,
      "baby": 6206,
      "cos": 6207,
      "kap": 6208,
      "makers": 6209,
      "mountain": 6210,
      "rm": 6211,
      "row": 6212,
      "##rate": 6213,
      "##iro": 6214,
      "##23": 6215,
      "##era": 6216,
      "##rees": 6217,
      "weed": 6218,
      "seam": 6219,
      "context": 6220,
      "youth": 6221,
      "recording": 6222,
      "cause": 6223,
      "deport": 6224,
      "reporters": 6225,
      "slam": 6226,
      "comedian": 6227,
      "targets": 6228,
      "drives": 6229,
      "reduc": 6230,
      "encod": 6231,
      "glenn": 6232,
      "introduce": 6233,
      "murder": 6234,
      "pacqu": 6235,
      "jimmy": 6236,
      "signaled": 6237,
      "colorado": 6238,
      "collaboration": 6239,
      "playoffs": 6240,
      "##connect": 6241,
      "absolutely": 6242,
      "gordon": 6243,
      "espanol": 6244,
      "hsn": 6245,
      "lor": 6246,
      "md": 6247,
      "tact": 6248,
      "wim": 6249,
      "##ipp": 6250,
      "##turn": 6251,
      "##hal": 6252,
      "##iny": 6253,
      "ina": 6254,
      "##itors": 6255,
      "stone": 6256,
      "conclus": 6257,
      "##ched": 6258,
      "##usive": 6259,
      "##uls": 6260,
      "##ager": 6261,
      "commis": 6262,
      "diss": 6263,
      "##season": 6264,
      "intent": 6265,
      "brain": 6266,
      "india": 6267,
      "ourselves": 6268,
      "nobody": 6269,
      "assem": 6270,
      "thinks": 6271,
      "crack": 6272,
      "promo": 6273,
      "regulate": 6274,
      "empower": 6275,
      "strongly": 6276,
      "embed": 6277,
      "gotten": 6278,
      "falls": 6279,
      "challenged": 6280,
      "seeks": 6281,
      "moffettnathanson": 6282,
      "scenar": 6283,
      "entirely": 6284,
      "encouraged": 6285,
      "spokeswoman": 6286,
      "spokesperson": 6287,
      "sopran": 6288,
      "influence": 6289,
      "cooperative": 6290,
      "lauren": 6291,
      "victory": 6292,
      "rodriguez": 6293,
      "hospital": 6294,
      "bipartisan": 6295,
      "phenom": 6296,
      "bed": 6297,
      "gate": 6298,
      "narrow": 6299,
      "tro": 6300,
      "wolf": 6301,
      "##nell": 6302,
      "##gor": 6303,
      "##wyn": 6304,
      "##80": 6305,
      "##alone": 6306,
      "##oma": 6307,
      "##ionally": 6308,
      "##idence": 6309,
      "##eland": 6310,
      "##rix": 6311,
      "##olis": 6312,
      "seach": 6313,
      "notably": 6314,
      "##ultane": 6315,
      "clock": 6316,
      "##cedented": 6317,
      "##encing": 6318,
      "filmm": 6319,
      "avod": 6320,
      "flag": 6321,
      "transm": 6322,
      "branding": 6323,
      "additionally": 6324,
      "standing": 6325,
      "simultane": 6326,
      "##umental": 6327,
      "nonpro": 6328,
      "honore": 6329,
      "tracks": 6330,
      "premiering": 6331,
      "identity": 6332,
      "africa": 6333,
      "silicon": 6334,
      "renewal": 6335,
      "shareholder": 6336,
      "consistently": 6337,
      "hurt": 6338,
      "laura": 6339,
      "stanley": 6340,
      "surprised": 6341,
      "enthusi": 6342,
      "monetize": 6343,
      "monitoring": 6344,
      "minimum": 6345,
      "restrictions": 6346,
      "emergency": 6347,
      "oblig": 6348,
      "harmonic": 6349,
      "voluntary": 6350,
      "vmvp": 6351,
      "newsmax": 6352,
      "unprecedented": 6353,
      "commisso": 6354,
      "seachange": 6355,
      "83": 6356,
      "hay": 6357,
      "hook": 6358,
      "lights": 6359,
      "mv": 6360,
      "nic": 6361,
      "nur": 6362,
      "nash": 6363,
      "rss": 6364,
      "##ev": 6365,
      "##ien": 6366,
      "##ita": 6367,
      "##ican": 6368,
      "concent": 6369,
      "##riet": 6370,
      "##ript": 6371,
      "exerc": 6372,
      "displ": 6373,
      "upload": 6374,
      "upstream": 6375,
      "canad": 6376,
      "overl": 6377,
      "firms": 6378,
      "actively": 6379,
      "beth": 6380,
      "ending": 6381,
      "mcm": 6382,
      "standalone": 6383,
      "paper": 6384,
      "erent": 6385,
      "integrate": 6386,
      "ca643": 6387,
      "argue": 6388,
      "barry": 6389,
      "screening": 6390,
      "dominated": 6391,
      "cmts": 6392,
      "enjoyed": 6393,
      "capture": 6394,
      "historic": 6395,
      "austral": 6396,
      "transparency": 6397,
      "assistant": 6398,
      "ceremony": 6399,
      "ltd": 6400,
      "freedom": 6401,
      "92": 6402,
      "97": 6403,
      "cc": 6404,
      "gon": 6405,
      "german": 6406,
      "maker": 6407,
      "rush": 6408,
      "sd": 6409,
      "##over": 6410,
      "##tz": 6411,
      "##lah": 6412,
      "##56": 6413,
      "##icut": 6414,
      "##iration": 6415,
      "##osen": 6416,
      "fram": 6417,
      "maria": 6418,
      "marque": 6419,
      "entering": 6420,
      "entered": 6421,
      "correct": 6422,
      "poor": 6423,
      "slot": 6424,
      "versions": 6425,
      "formula": 6426,
      "hosting": 6427,
      "connecticut": 6428,
      "1992": 6429,
      "1994": 6430,
      "carrying": 6431,
      "tablet": 6432,
      "individuals": 6433,
      "voted": 6434,
      "profitable": 6435,
      "settled": 6436,
      "##burgh": 6437,
      "survive": 6438,
      "territory": 6439,
      "incentive": 6440,
      "margins": 6441,
      "correspondent": 6442,
      "kelly": 6443,
      "pacquiao": 6444,
      "barg": 6445,
      "cto": 6446,
      "dtc": 6447,
      "gill": 6448,
      "labor": 6449,
      "mitch": 6450,
      "piracy": 6451,
      "rub": 6452,
      "sid": 6453,
      "##rak": 6454,
      "##men": 6455,
      "##ubs": 6456,
      "##ora": 6457,
      "##iti": 6458,
      "##rel": 6459,
      "stakes": 6460,
      "prove": 6461,
      "chat": 6462,
      "##tsburgh": 6463,
      "##eop": 6464,
      "coax": 6465,
      "amid": 6466,
      "dod": 6467,
      "reserved": 6468,
      "broadcasts": 6469,
      "##issions": 6470,
      "annually": 6471,
      "##boy": 6472,
      "corner": 6473,
      "signature": 6474,
      "transmission": 6475,
      "associations": 6476,
      "campbell": 6477,
      "recorded": 6478,
      "movement": 6479,
      "##aimed": 6480,
      "honors": 6481,
      "involving": 6482,
      "participants": 6483,
      "emmys": 6484,
      "attracted": 6485,
      "murphy": 6486,
      "optimistic": 6487,
      "european": 6488,
      "updated": 6489,
      "determined": 6490,
      "trouble": 6491,
      "affordable": 6492,
      "ethnic": 6493,
      "exploit": 6494,
      "roughly": 6495,
      "inaug": 6496,
      "08": 6497,
      "87": 6498,
      "93": 6499,
      "900": 6500,
      "es": 6501,
      "gem": 6502,
      "mile": 6503,
      "nu": 6504,
      "oreg": 6505,
      "poc": 6506,
      "rip": 6507,
      "rivals": 6508,
      "sor": 6509,
      "tand": 6510,
      "tcm": 6511,
      "vin": 6512,
      "##oper": 6513,
      "anderson": 6514,
      "##outh": 6515,
      "##iller": 6516,
      "reel": 6517,
      "wein": 6518,
      "shock": 6519,
      "##iveness": 6520,
      "diy": 6521,
      "markey": 6522,
      "margin": 6523,
      "reput": 6524,
      "dealing": 6525,
      "##angler": 6526,
      "payment": 6527,
      "deputy": 6528,
      "centric": 6529,
      "idol": 6530,
      "lawyer": 6531,
      "acquiring": 6532,
      "creates": 6533,
      "personality": 6534,
      "sells": 6535,
      "##veland": 6536,
      "behalf": 6537,
      "sitcom": 6538,
      "farm": 6539,
      "moreover": 6540,
      "suggesting": 6541,
      "picked": 6542,
      "summary": 6543,
      "sprout": 6544,
      "types": 6545,
      "proceeds": 6546,
      "leaves": 6547,
      "illust": 6548,
      "candidate": 6549,
      "ellis": 6550,
      "leslie": 6551,
      "manner": 6552,
      "entrepreneur": 6553,
      "nominee": 6554,
      "columbia": 6555,
      "podcast": 6556,
      "unveiled": 6557,
      "crisis": 6558,
      "aud": 6559,
      "lm": 6560,
      "ps": 6561,
      "qam": 6562,
      "tub": 6563,
      "##rating": 6564,
      "##bd": 6565,
      "##17": 6566,
      "##onents": 6567,
      "andy": 6568,
      "##road": 6569,
      "confer": 6570,
      "isp": 6571,
      "##iva": 6572,
      "##umn": 6573,
      "##pert": 6574,
      "dism": 6575,
      "communication": 6576,
      "somebody": 6577,
      "worse": 6578,
      "##olds": 6579,
      "realize": 6580,
      "defense": 6581,
      "runway": 6582,
      "##efully": 6583,
      "approve": 6584,
      "##onym": 6585,
      "profits": 6586,
      "limits": 6587,
      "blocks": 6588,
      "specification": 6589,
      "celebrate": 6590,
      "dominant": 6591,
      "##iciary": 6592,
      "echo": 6593,
      "jackie": 6594,
      "aspects": 6595,
      "pivotal": 6596,
      "linda": 6597,
      "eggerton": 6598,
      "incorporated": 6599,
      "pittsburgh": 6600,
      "luncheon": 6601,
      "dereg": 6602,
      "conservative": 6603,
      "transactions": 6604,
      "brows": 6605,
      "deportes": 6606,
      "rssid": 6607,
      "bargain": 6608,
      "07": 6609,
      "bew": 6610,
      "cly": 6611,
      "dance": 6612,
      "gci": 6613,
      "hal": 6614,
      "hbc": 6615,
      "iron": 6616,
      "jerry": 6617,
      "kel": 6618,
      "rat": 6619,
      "races": 6620,
      "tend": 6621,
      "##lim": 6622,
      "##zy": 6623,
      "##win": 6624,
      "reference": 6625,
      "##acher": 6626,
      "chips": 6627,
      "##unte": 6628,
      "orange": 6629,
      "algor": 6630,
      "sem": 6631,
      "servers": 6632,
      "lean": 6633,
      "medical": 6634,
      "teleph": 6635,
      "##oph": 6636,
      "agent": 6637,
      "scient": 6638,
      "mega": 6639,
      "multicast": 6640,
      "operates": 6641,
      "religious": 6642,
      "accessible": 6643,
      "latter": 6644,
      "extent": 6645,
      "##cont": 6646,
      "ca65": 6647,
      "equally": 6648,
      "skin": 6649,
      "morgan": 6650,
      "proposals": 6651,
      "olympus": 6652,
      "artist": 6653,
      "identified": 6654,
      "volunte": 6655,
      "##letes": 6656,
      "disclose": 6657,
      "mentor": 6658,
      "drawing": 6659,
      "susan": 6660,
      "repeat": 6661,
      "unfair": 6662,
      "contestants": 6663,
      "athletes": 6664,
      "bridge": 6665,
      "dubbed": 6666,
      "discrimin": 6667,
      "implications": 6668,
      "manufacturers": 6669,
      "lewis": 6670,
      "obligations": 6671,
      "algorith": 6672,
      "telephony": 6673,
      "dim": 6674,
      "gsn": 6675,
      "kan": 6676,
      "na": 6677,
      "pt": 6678,
      "racing": 6679,
      "tamp": 6680,
      "yell": 6681,
      "##ique": 6682,
      "##feld": 6683,
      "##king": 6684,
      "thri": 6685,
      "topped": 6686,
      "wholes": 6687,
      "##olit": 6688,
      "##ilton": 6689,
      "france": 6690,
      "prison": 6691,
      "teens": 6692,
      "command": 6693,
      "##eman": 6694,
      "disag": 6695,
      "intention": 6696,
      "bra": 6697,
      "##ifies": 6698,
      "joins": 6699,
      "##issa": 6700,
      "bold": 6701,
      "bigband": 6702,
      "##inton": 6703,
      "##raid": 6704,
      "mayor": 6705,
      "speculation": 6706,
      "termination": 6707,
      "billing": 6708,
      "experienced": 6709,
      "ruled": 6710,
      "cleveland": 6711,
      "raw": 6712,
      "1998": 6713,
      "combat": 6714,
      "matth": 6715,
      "argues": 6716,
      "collective": 6717,
      "shifted": 6718,
      "explor": 6719,
      "watson": 6720,
      "updates": 6721,
      "pioneers": 6722,
      "treas": 6723,
      "consultant": 6724,
      "sessions": 6725,
      "televised": 6726,
      "satisfaction": 6727,
      "juenger": 6728,
      "megabits": 6729,
      "efficiency": 6730,
      "items": 6731,
      "repeatedly": 6732,
      "accepted": 6733,
      "mvno": 6734,
      "olympusat": 6735,
      "gre": 6736,
      "habits": 6737,
      "mut": 6738,
      "##oly": 6739,
      "##lot": 6740,
      "##eno": 6741,
      "andre": 6742,
      "##leman": 6743,
      "##ller": 6744,
      "itv": 6745,
      "church": 6746,
      "sag": 6747,
      "sha": 6748,
      "sher": 6749,
      "shine": 6750,
      "spur": 6751,
      "complicated": 6752,
      "contests": 6753,
      "contacts": 6754,
      "enorm": 6755,
      "amb": 6756,
      "monop": 6757,
      "flight": 6758,
      "transfer": 6759,
      "instr": 6760,
      "pointing": 6761,
      "propriet": 6762,
      "discount": 6763,
      "evident": 6764,
      "processing": 6765,
      "tested": 6766,
      "facilities": 6767,
      "brien": 6768,
      "risks": 6769,
      "bundled": 6770,
      "3dtv": 6771,
      "mandates": 6772,
      "pulling": 6773,
      "threats": 6774,
      "inspired": 6775,
      "william": 6776,
      "eastern": 6777,
      "charged": 6778,
      "adviser": 6779,
      "televise": 6780,
      "trutv": 6781,
      "lobby": 6782,
      "quadr": 6783,
      "controversial": 6784,
      "acknowledged": 6785,
      "oregon": 6786,
      "tampa": 6787,
      "77": 6788,
      "bally": 6789,
      "cd": 6790,
      "cul": 6791,
      "dc": 6792,
      "dut": 6793,
      "fs": 6794,
      "gad": 6795,
      "gol": 6796,
      "hr": 6797,
      "pad": 6798,
      "##ault": 6799,
      "##gia": 6800,
      "##200": 6801,
      "##ati": 6802,
      "##ari": 6803,
      "reilly": 6804,
      "proven": 6805,
      "asia": 6806,
      "chart": 6807,
      "orland": 6808,
      "marath": 6809,
      "brook": 6810,
      "interim": 6811,
      "recru": 6812,
      "distance": 6813,
      "boys": 6814,
      "anytime": 6815,
      "mayer": 6816,
      "realized": 6817,
      "schw": 6818,
      "paris": 6819,
      "footage": 6820,
      "trip": 6821,
      "trials": 6822,
      "presenting": 6823,
      "cuts": 6824,
      "arguing": 6825,
      "magic": 6826,
      "restaur": 6827,
      "personalized": 6828,
      "adopted": 6829,
      "conversion": 6830,
      "staffers": 6831,
      "installation": 6832,
      "installment": 6833,
      "books": 6834,
      "residents": 6835,
      "doubled": 6836,
      "authentication": 6837,
      "cellular": 6838,
      "unserved": 6839,
      "appointed": 6840,
      "pcs": 6841,
      "gathering": 6842,
      "griff": 6843,
      "##build": 6844,
      "somewhat": 6845,
      "sirius": 6846,
      "reducing": 6847,
      "reputation": 6848,
      "yellow": 6849,
      "orlando": 6850,
      "bi": 6851,
      "bing": 6852,
      "dir": 6853,
      "dating": 6854,
      "dup": 6855,
      "hack": 6856,
      "sitting": 6857,
      "tall": 6858,
      "zero": 6859,
      "##nie": 6860,
      "##rants": 6861,
      "##iet": 6862,
      "##hall": 6863,
      "##prises": 6864,
      "##19": 6865,
      "##oney": 6866,
      "reed": 6867,
      "##urity": 6868,
      "asian": 6869,
      "shield": 6870,
      "##unately": 6871,
      "spark": 6872,
      "spangler": 6873,
      "##works": 6874,
      "contrast": 6875,
      "traction": 6876,
      "notion": 6877,
      "covers": 6878,
      "##nerg": 6879,
      "feet": 6880,
      "royal": 6881,
      "##ensed": 6882,
      "carey": 6883,
      "enterprises": 6884,
      "retire": 6885,
      "curb": 6886,
      "desk": 6887,
      "famous": 6888,
      "##anks": 6889,
      "extending": 6890,
      "defined": 6891,
      "freeform": 6892,
      "yourself": 6893,
      "metrop": 6894,
      "reception": 6895,
      "importantly": 6896,
      "negotiation": 6897,
      "1995": 6898,
      "1997": 6899,
      "combining": 6900,
      "restruct": 6901,
      "blocking": 6902,
      "exclud": 6903,
      "judiciary": 6904,
      "immers": 6905,
      "1984": 6906,
      "volume": 6907,
      "mccar": 6908,
      "veterans": 6909,
      "typical": 6910,
      "automatically": 6911,
      "links": 6912,
      "explained": 6913,
      "fantastic": 6914,
      "cooking": 6915,
      "preferred": 6916,
      "shooting": 6917,
      "lynch": 6918,
      "beauty": 6919,
      "spirit": 6920,
      "seamless": 6921,
      "sopranos": 6922,
      "wholesale": 6923,
      "proprietary": 6924,
      "cub": 6925,
      "eld": 6926,
      "gb": 6927,
      "gun": 6928,
      "lakers": 6929,
      "odd": 6930,
      "##fest": 6931,
      "##ux": 6932,
      "##bt": 6933,
      "##bing": 6934,
      "##83": 6935,
      "thron": 6936,
      "##ini": 6937,
      "##aro": 6938,
      "ing": 6939,
      "ink": 6940,
      "##stit": 6941,
      "##eting": 6942,
      "##reach": 6943,
      "sto": 6944,
      "stated": 6945,
      "congl": 6946,
      "##asts": 6947,
      "##annah": 6948,
      "disruption": 6949,
      "leap": 6950,
      "ups": 6951,
      "interference": 6952,
      "showrun": 6953,
      "nev": 6954,
      "##weather": 6955,
      "hdnet": 6956,
      "connects": 6957,
      "investing": 6958,
      "extens": 6959,
      "simpl": 6960,
      "##holders": 6961,
      "jane": 6962,
      "130": 6963,
      "entity": 6964,
      "calc": 6965,
      "equal": 6966,
      "recorders": 6967,
      "postseason": 6968,
      "handful": 6969,
      "emb": 6970,
      "mainstream": 6971,
      "rolls": 6972,
      "economics": 6973,
      "studies": 6974,
      "encore": 6975,
      "wedding": 6976,
      "departure": 6977,
      "350": 6978,
      "accounting": 6979,
      "cycle": 6980,
      "improvement": 6981,
      "wonderful": 6982,
      "killer": 6983,
      "sufficient": 6984,
      "pursue": 6985,
      "anticipated": 6986,
      "utility": 6987,
      "rentrak": 6988,
      "false": 6989,
      "marriage": 6990,
      "shapiro": 6991,
      "tempor": 6992,
      "antenna": 6993,
      "bryan": 6994,
      "taylor": 6995,
      "conclusion": 6996,
      "simultaneously": 6997,
      "thrones": 6998,
      "05": 6999,
      "bitt": 7000,
      "gay": 7001,
      "iow": 7002,
      "mist": 7003,
      "math": 7004,
      "pun": 7005,
      "##bles": 7006,
      "##25": 7007,
      "##orrent": 7008,
      "##roc": 7009,
      "##igger": 7010,
      "chosen": 7011,
      "suite": 7012,
      "heat": 7013,
      "unc": 7014,
      "reson": 7015,
      "intended": 7016,
      "cla": 7017,
      "bron": 7018,
      "fold": 7019,
      "induct": 7020,
      "overbuild": 7021,
      "vertic": 7022,
      "##licensed": 7023,
      "anna": 7024,
      "##pled": 7025,
      "differences": 7026,
      "hopefully": 7027,
      "subjects": 7028,
      "letters": 7029,
      "releases": 7030,
      "skew": 7031,
      "authors": 7032,
      "integrating": 7033,
      "synerg": 7034,
      "faces": 7035,
      "facts": 7036,
      "lowe": 7037,
      "declining": 7038,
      "reviews": 7039,
      "fairly": 7040,
      "statist": 7041,
      "aims": 7042,
      "gigabit": 7043,
      "violence": 7044,
      "reflects": 7045,
      "aggressively": 7046,
      "arguments": 7047,
      "fundamental": 7048,
      "doctor": 7049,
      "rupert": 7050,
      "reliable": 7051,
      "nashville": 7052,
      "framework": 7053,
      "bewkes": 7054,
      "conglomer": 7055,
      "bittorrent": 7056,
      "fab": 7057,
      "fulf": 7058,
      "hud": 7059,
      "hugh": 7060,
      "kate": 7061,
      "krist": 7062,
      "kerry": 7063,
      "tips": 7064,
      "##ole": 7065,
      "##ooth": 7066,
      "##any": 7067,
      "stim": 7068,
      "stages": 7069,
      "reyn": 7070,
      "prol": 7071,
      "frag": 7072,
      "##graf": 7073,
      "died": 7074,
      "notable": 7075,
      "liability": 7076,
      "upside": 7077,
      "presch": 7078,
      "climate": 7079,
      "meets": 7080,
      "rovi": 7081,
      "roster": 7082,
      "formats": 7083,
      "personally": 7084,
      "subsequ": 7085,
      "confidence": 7086,
      "hob": 7087,
      "motiv": 7088,
      "landgraf": 7089,
      "oversaw": 7090,
      "##ducing": 7091,
      "politics": 7092,
      "messaging": 7093,
      "##iece": 7094,
      "hopeful": 7095,
      "preparing": 7096,
      "sporting": 7097,
      "rangers": 7098,
      "authenticated": 7099,
      "modems": 7100,
      "citiz": 7101,
      "##iques": 7102,
      "tabak": 7103,
      "underserved": 7104,
      "ovation": 7105,
      "transcript": 7106,
      "nonprofit": 7107,
      "canadian": 7108,
      "marquee": 7109,
      "reynolds": 7110,
      "ax": 7111,
      "bound": 7112,
      "cp": 7113,
      "dun": 7114,
      "eat": 7115,
      "fro": 7116,
      "gi": 7117,
      "gang": 7118,
      "hp": 7119,
      "jaco": 7120,
      "mol": 7121,
      "muse": 7122,
      "pga": 7123,
      "wy": 7124,
      "##ns": 7125,
      "##sewh": 7126,
      "##uous": 7127,
      "##itable": 7128,
      "##owitz": 7129,
      "china": 7130,
      "##andez": 7131,
      "spaces": 7132,
      "french": 7133,
      "compat": 7134,
      "unlicensed": 7135,
      "army": 7136,
      "lapt": 7137,
      "##icker": 7138,
      "prize": 7139,
      "##ibilities": 7140,
      "cars": 7141,
      "relative": 7142,
      "drug": 7143,
      "loved": 7144,
      "##ression": 7145,
      "define": 7146,
      "elsewh": 7147,
      "walter": 7148,
      "privile": 7149,
      "##ettes": 7150,
      "performing": 7151,
      "harder": 7152,
      "portray": 7153,
      "ca644": 7154,
      "marked": 7155,
      "employee": 7156,
      "engineer": 7157,
      "celebrities": 7158,
      "panelists": 7159,
      "freew": 7160,
      "disputes": 7161,
      "valuation": 7162,
      "maintaining": 7163,
      "minds": 7164,
      "kicked": 7165,
      "fearnet": 7166,
      "subsidies": 7167,
      "alternatives": 7168,
      "proceeding": 7169,
      "hunter": 7170,
      "situations": 7171,
      "terrestri": 7172,
      "savings": 7173,
      "components": 7174,
      "incentives": 7175,
      "revealed": 7176,
      "meantime": 7177,
      "remarks": 7178,
      "transparent": 7179,
      "exemption": 7180,
      "dividend": 7181,
      "physical": 7182,
      "convinced": 7183,
      "prepare": 7184,
      "ajit": 7185,
      "phenomen": 7186,
      "displays": 7187,
      "elsewhere": 7188,
      "bag": 7189,
      "bod": 7190,
      "body": 7191,
      "bachel": 7192,
      "fly": 7193,
      "ghz": 7194,
      "iac": 7195,
      "kl": 7196,
      "kir": 7197,
      "mech": 7198,
      "pg": 7199,
      "rac": 7200,
      "tut": 7201,
      "##ders": 7202,
      "##fast": 7203,
      "##tes": 7204,
      "##lest": 7205,
      "##pson": 7206,
      "##ko": 7207,
      "##22": 7208,
      "##64": 7209,
      "throw": 7210,
      "##alo": 7211,
      "##icip": 7212,
      "forces": 7213,
      "stap": 7214,
      "anton": 7215,
      "shore": 7216,
      "dean": 7217,
      "##ateful": 7218,
      "moore": 7219,
      "plug": 7220,
      "unus": 7221,
      "outreach": 7222,
      "##ieg": 7223,
      "clay": 7224,
      "##isted": 7225,
      "cance": 7226,
      "workfl": 7227,
      "worksh": 7228,
      "advertise": 7229,
      "developers": 7230,
      "demands": 7231,
      "memo": 7232,
      "##loyd": 7233,
      "priorities": 7234,
      "hoff": 7235,
      "possibility": 7236,
      "ca646": 7237,
      "gaining": 7238,
      "popularity": 7239,
      "measures": 7240,
      "introducing": 7241,
      "lineups": 7242,
      "daniel": 7243,
      "ensuring": 7244,
      "environmental": 7245,
      "thompson": 7246,
      "announcements": 7247,
      "##icians": 7248,
      "achieved": 7249,
      "cybers": 7250,
      "improvements": 7251,
      "unfort": 7252,
      "sexual": 7253,
      "moderator": 7254,
      "utilities": 7255,
      "obser": 7256,
      "lobb": 7257,
      "millennials": 7258,
      "adjusted": 7259,
      "treatment": 7260,
      "predicting": 7261,
      "rescue": 7262,
      "kaplan": 7263,
      "inaugural": 7264,
      "instrumental": 7265,
      "metropolit": 7266,
      "iowa": 7267,
      "fulfill": 7268,
      "bachelor": 7269,
      "mechan": 7270,
      "az": 7271,
      "aids": 7272,
      "bunch": 7273,
      "docus": 7274,
      "esc": 7275,
      "fish": 7276,
      "gall": 7277,
      "lion": 7278,
      "mey": 7279,
      "ri": 7280,
      "sket": 7281,
      "sending": 7282,
      "ties": 7283,
      "wra": 7284,
      "##rina": 7285,
      "##die": 7286,
      "ther": 7287,
      "##inger": 7288,
      "##itv": 7289,
      "##station": 7290,
      "##aska": 7291,
      "##ution": 7292,
      "conjunction": 7293,
      "shel": 7294,
      "##osoph": 7295,
      "frame": 7296,
      "comply": 7297,
      "offices": 7298,
      "##apolis": 7299,
      "brill": 7300,
      "indiana": 7301,
      "afraid": 7302,
      "##space": 7303,
      "warren": 7304,
      "phill": 7305,
      "specif": 7306,
      "speakers": 7307,
      "promised": 7308,
      "colbert": 7309,
      "grateful": 7310,
      "mobitv": 7311,
      "keith": 7312,
      "shouldn": 7313,
      "180": 7314,
      "imper": 7315,
      "letting": 7316,
      "northern": 7317,
      "patri": 7318,
      "judges": 7319,
      "claiming": 7320,
      "approaches": 7321,
      "democrat": 7322,
      "feeling": 7323,
      "neutral": 7324,
      "philosoph": 7325,
      "rounds": 7326,
      "downloadable": 7327,
      "editorial": 7328,
      "georgia": 7329,
      "aspect": 7330,
      "essentials": 7331,
      "slowing": 7332,
      "principles": 7333,
      "budgets": 7334,
      "jumped": 7335,
      "recommendation": 7336,
      "savvy": 7337,
      "speaks": 7338,
      "obtained": 7339,
      "entrepreneurs": 7340,
      "discrimination": 7341,
      "prospects": 7342,
      "comfortable": 7343,
      "navigate": 7344,
      "fasc": 7345,
      "gab": 7346,
      "mos": 7347,
      "nathanson": 7348,
      "ske": 7349,
      "samp": 7350,
      "wend": 7351,
      "wisc": 7352,
      "##nation": 7353,
      "##ele": 7354,
      "##mons": 7355,
      "##pin": 7356,
      "##57": 7357,
      "##ese": 7358,
      "##itively": 7359,
      "##stakes": 7360,
      "##iser": 7361,
      "##abeth": 7362,
      "consequ": 7363,
      "weight": 7364,
      "##channel": 7365,
      "##tha": 7366,
      "##osition": 7367,
      "difer": 7368,
      "disinformation": 7369,
      "leased": 7370,
      "accl": 7371,
      "consp": 7372,
      "expire": 7373,
      "scal": 7374,
      "workforce": 7375,
      "betting": 7376,
      "distributing": 7377,
      "smit": 7378,
      "payments": 7379,
      "developments": 7380,
      "underlying": 7381,
      "remove": 7382,
      "transport": 7383,
      "entities": 7384,
      "midnight": 7385,
      "ca640": 7386,
      "falling": 7387,
      "info": 7388,
      "patents": 7389,
      "nationally": 7390,
      "goldwyn": 7391,
      "##center": 7392,
      "bundling": 7393,
      "emerge": 7394,
      "celebrating": 7395,
      "urged": 7396,
      "advantages": 7397,
      "mentors": 7398,
      "sounds": 7399,
      "deeply": 7400,
      "advocate": 7401,
      "ebay": 7402,
      "seriously": 7403,
      "bonus": 7404,
      "outlook": 7405,
      "municip": 7406,
      "apparently": 7407,
      "montana": 7408,
      "##rific": 7409,
      "kennedy": 7410,
      "struggling": 7411,
      "sweepstakes": 7412,
      "guarantee": 7413,
      "avenue": 7414,
      "recession": 7415,
      "hbcu": 7416,
      "docuseries": 7417,
      "municipal": 7418,
      "eri": 7419,
      "gut": 7420,
      "kay": 7421,
      "lig": 7422,
      "nd": 7423,
      "tests": 7424,
      "##rest": 7425,
      "##sg": 7426,
      "##ience": 7427,
      "##fri": 7428,
      "##mo": 7429,
      "##wr": 7430,
      "inch": 7431,
      "##rell": 7432,
      "##iders": 7433,
      "##illon": 7434,
      "reaction": 7435,
      "saving": 7436,
      "##agon": 7437,
      "##mental": 7438,
      "sevent": 7439,
      "haiti": 7440,
      "##ardo": 7441,
      "unn": 7442,
      "clark": 7443,
      "soap": 7444,
      "root": 7445,
      "techniques": 7446,
      "smooth": 7447,
      "knock": 7448,
      "caught": 7449,
      "cahall": 7450,
      "grants": 7451,
      "publicity": 7452,
      "caps": 7453,
      "interactivity": 7454,
      "evil": 7455,
      "ski": 7456,
      "supplement": 7457,
      "discussing": 7458,
      "resulting": 7459,
      "urge": 7460,
      "retailer": 7461,
      "regularly": 7462,
      "requested": 7463,
      "##ossible": 7464,
      "##heel": 7465,
      "layer": 7466,
      "navigation": 7467,
      "sandy": 7468,
      "visitors": 7469,
      "emphasis": 7470,
      "mystery": 7471,
      "pipeline": 7472,
      "appreciate": 7473,
      "alleged": 7474,
      "excellence": 7475,
      "infringe": 7476,
      "jurisd": 7477,
      "distinct": 7478,
      "mcmah": 7479,
      "clyburn": 7480,
      "showrunner": 7481,
      "museum": 7482,
      "freewheel": 7483,
      "91": 7484,
      "gil": 7485,
      "gbps": 7486,
      "lum": 7487,
      "native": 7488,
      "rus": 7489,
      "rachel": 7490,
      "tam": 7491,
      "vign": 7492,
      "wired": 7493,
      "xm": 7494,
      "##lon": 7495,
      "##gence": 7496,
      "##wick": 7497,
      "##54": 7498,
      "##eli": 7499,
      "isra": 7500,
      "pride": 7501,
      "##oca": 7502,
      "sequ": 7503,
      "dialog": 7504,
      "encom": 7505,
      "##ffei": 7506,
      "butt": 7507,
      "preserve": 7508,
      "unable": 7509,
      "accused": 7510,
      "foster": 7511,
      "expend": 7512,
      "blank": 7513,
      "maffei": 7514,
      "mayweather": 7515,
      "##xton": 7516,
      "entertaining": 7517,
      "crash": 7518,
      "prompted": 7519,
      "flip": 7520,
      "demanding": 7521,
      "surge": 7522,
      "edition": 7523,
      "calend": 7524,
      "performers": 7525,
      "controlling": 7526,
      "ers": 7527,
      "membership": 7528,
      "steph": 7529,
      "stephan": 7530,
      "portable": 7531,
      "morris": 7532,
      "magid": 7533,
      "credits": 7534,
      "positioned": 7535,
      "declar": 7536,
      "personalities": 7537,
      "legislative": 7538,
      "selection": 7539,
      "solve": 7540,
      "##exp": 7541,
      "##erto": 7542,
      "exploring": 7543,
      "contribute": 7544,
      "votes": 7545,
      "kicking": 7546,
      "demonstrate": 7547,
      "mysteries": 7548,
      "accomplished": 7549,
      "nominees": 7550,
      "loyalty": 7551,
      "arguably": 7552,
      "publisher": 7553,
      "marathon": 7554,
      "metropolitan": 7555,
      "encompass": 7556,
      "cens": 7557,
      "cinc": 7558,
      "gues": 7559,
      "joost": 7560,
      "##nel": 7561,
      "##rad": 7562,
      "##vine": 7563,
      "##zo": 7564,
      "##gs": 7565,
      "##90": 7566,
      "##organ": 7567,
      "##ingu": 7568,
      "##etch": 7569,
      "##rol": 7570,
      "##ecurity": 7571,
      "shorts": 7572,
      "except": 7573,
      "spun": 7574,
      "hair": 7575,
      "##gry": 7576,
      "##ained": 7577,
      "ampl": 7578,
      "outcome": 7579,
      "quiet": 7580,
      "impossible": 7581,
      "justin": 7582,
      "##encable": 7583,
      "wells": 7584,
      "poised": 7585,
      "advised": 7586,
      "gram": 7587,
      "guard": 7588,
      "opencable": 7589,
      "courts": 7590,
      "##aze": 7591,
      "differenti": 7592,
      "bread": 7593,
      "protected": 7594,
      "peers": 7595,
      "passing": 7596,
      "raven": 7597,
      "presentations": 7598,
      "appearances": 7599,
      "conflic": 7600,
      "supposed": 7601,
      "facility": 7602,
      "expecting": 7603,
      "smartphones": 7604,
      "kinds": 7605,
      "northwest": 7606,
      "##keye": 7607,
      "rooms": 7608,
      "towards": 7609,
      "parks": 7610,
      "violation": 7611,
      "magazines": 7612,
      "evolved": 7613,
      "transformation": 7614,
      "occup": 7615,
      "fubo": 7616,
      "appointment": 7617,
      "translation": 7618,
      "gateways": 7619,
      "submit": 7620,
      "accelerate": 7621,
      "adventure": 7622,
      "##innati": 7623,
      "confirmation": 7624,
      "cybersecurity": 7625,
      "sketch": 7626,
      "cincinnati": 7627,
      "guests": 7628,
      "bind": 7629,
      "dbs": 7630,
      "ect": 7631,
      "fn": 7632,
      "fav": 7633,
      "hat": 7634,
      "hast": 7635,
      "lte": 7636,
      "nv": 7637,
      "nathan": 7638,
      "river": 7639,
      "sr": 7640,
      "ses": 7641,
      "upped": 7642,
      "wo": 7643,
      "wn": 7644,
      "##gy": 7645,
      "inher": 7646,
      "forth": 7647,
      "forms": 7648,
      "stem": 7649,
      "stats": 7650,
      "rey": 7651,
      "proced": 7652,
      "conv": 7653,
      "##andon": 7654,
      "netf": 7655,
      "##ilm": 7656,
      "alleg": 7657,
      "comprom": 7658,
      "hasbro": 7659,
      "##artz": 7660,
      "tvod": 7661,
      "trigger": 7662,
      "disast": 7663,
      "##sell": 7664,
      "##izabeth": 7665,
      "clinton": 7666,
      "##video": 7667,
      "laid": 7668,
      "prelim": 7669,
      "execute": 7670,
      "blow": 7671,
      "phili": 7672,
      "101": 7673,
      "##argo": 7674,
      "retired": 7675,
      "backers": 7676,
      "fled": 7677,
      "##azin": 7678,
      "headend": 7679,
      "focuses": 7680,
      "countdown": 7681,
      "thoughts": 7682,
      "globes": 7683,
      "elizabeth": 7684,
      "processes": 7685,
      "combine": 7686,
      "doug": 7687,
      "blockb": 7688,
      "divisions": 7689,
      "addresses": 7690,
      "dana": 7691,
      "journalist": 7692,
      "urging": 7693,
      "banking": 7694,
      "gigi": 7695,
      "##backs": 7696,
      "levy": 7697,
      "automated": 7698,
      "roger": 7699,
      "charging": 7700,
      "advisor": 7701,
      "advisory": 7702,
      "pitching": 7703,
      "sweet": 7704,
      "embracing": 7705,
      "freshman": 7706,
      "werner": 7707,
      "supplied": 7708,
      "remarkable": 7709,
      "replacement": 7710,
      "eliminate": 7711,
      "frequently": 7712,
      "execs": 7713,
      "dangerous": 7714,
      "indecency": 7715,
      "wimax": 7716,
      "embedded": 7717,
      "vince": 7718,
      "conferences": 7719,
      "matthew": 7720,
      "enormous": 7721,
      "mccarthy": 7722,
      "avid": 7723,
      "dates": 7724,
      "esh": 7725,
      "fighter": 7726,
      "gent": 7727,
      "lies": 7728,
      "nut": 7729,
      "rou": 7730,
      "vet": 7731,
      "##eg": 7732,
      "##tim": 7733,
      "##bi": 7734,
      "##page": 7735,
      "##gests": 7736,
      "##word": 7737,
      "##36": 7738,
      "##96": 7739,
      "##itate": 7740,
      "##omp": 7741,
      "forb": 7742,
      "whit": 7743,
      "##ried": 7744,
      "##ander": 7745,
      "frust": 7746,
      "##ested": 7747,
      "contem": 7748,
      "##aine": 7749,
      "button": 7750,
      "ambit": 7751,
      "broadly": 7752,
      "output": 7753,
      "monica": 7754,
      "preced": 7755,
      "boom": 7756,
      "playstation": 7757,
      "anne": 7758,
      "mapping": 7759,
      "knology": 7760,
      "underway": 7761,
      "##phere": 7762,
      "teamed": 7763,
      "keen": 7764,
      "simington": 7765,
      "##uctions": 7766,
      "timing": 7767,
      "merc": 7768,
      "affiliated": 7769,
      "##whel": 7770,
      "traditionally": 7771,
      "##umped": 7772,
      "##graphics": 7773,
      "ideal": 7774,
      "measuring": 7775,
      "suggests": 7776,
      "sectors": 7777,
      "snap": 7778,
      "resulted": 7779,
      "drawn": 7780,
      "replaced": 7781,
      "##strong": 7782,
      "constantly": 7783,
      "descri": 7784,
      "sample": 7785,
      "progressive": 7786,
      "attempts": 7787,
      "dozens": 7788,
      "ballroom": 7789,
      "melissa": 7790,
      "graham": 7791,
      "joseph": 7792,
      "athletic": 7793,
      "narrative": 7794,
      "memorial": 7795,
      "illegal": 7796,
      "accurate": 7797,
      "inquiry": 7798,
      "uncertainty": 7799,
      "compatible": 7800,
      "mcmahon": 7801,
      "expendit": 7802,
      "calendar": 7803,
      "bt": 7804,
      "ced": 7805,
      "cree": 7806,
      "dat": 7807,
      "fbn": 7808,
      "hind": 7809,
      "pix": 7810,
      "rum": 7811,
      "sween": 7812,
      "##rant": 7813,
      "##equ": 7814,
      "##sky": 7815,
      "##bie": 7816,
      "##giving": 7817,
      "##88": 7818,
      "##76": 7819,
      "stu": 7820,
      "##acon": 7821,
      "aside": 7822,
      "cham": 7823,
      "chain": 7824,
      "shake": 7825,
      "sued": 7826,
      "ort": 7827,
      "##cean": 7828,
      "alike": 7829,
      "##odi": 7830,
      "##apan": 7831,
      "consoles": 7832,
      "clubs": 7833,
      "quant": 7834,
      "howe": 7835,
      "securing": 7836,
      "seth": 7837,
      "everyday": 7838,
      "curios": 7839,
      "earn": 7840,
      "cru": 7841,
      "colo": 7842,
      "flash": 7843,
      "associate": 7844,
      "grace": 7845,
      "opens": 7846,
      "legit": 7847,
      "instant": 7848,
      "pawn": 7849,
      "thirds": 7850,
      "formal": 7851,
      "harry": 7852,
      "privately": 7853,
      "stein": 7854,
      "stepped": 7855,
      "factiva": 7856,
      "placement": 7857,
      "cutters": 7858,
      "student": 7859,
      "partnered": 7860,
      "reading": 7861,
      "goldman": 7862,
      "representative": 7863,
      "puerto": 7864,
      "sny": 7865,
      "##ternal": 7866,
      "missed": 7867,
      "responding": 7868,
      "collins": 7869,
      "installed": 7870,
      "baltim": 7871,
      "contributed": 7872,
      "750": 7873,
      "miles": 7874,
      "blogs": 7875,
      "sunny": 7876,
      "tweets": 7877,
      "immediate": 7878,
      "historical": 7879,
      "louisiana": 7880,
      "##breaking": 7881,
      "married": 7882,
      "disappointed": 7883,
      "revolt": 7884,
      "tactics": 7885,
      "exercise": 7886,
      "scientific": 7887,
      "hughes": 7888,
      "observers": 7889,
      "brilliant": 7890,
      "wendy": 7891,
      "curiosity": 7892,
      "baltimore": 7893,
      "csn": 7894,
      "denn": 7895,
      "hate": 7896,
      "hire": 7897,
      "hannah": 7898,
      "loud": 7899,
      "nb": 7900,
      "os": 7901,
      "pin": 7902,
      "pel": 7903,
      "pep": 7904,
      "tve": 7905,
      "tik": 7906,
      "von": 7907,
      "vamp": 7908,
      "##yers": 7909,
      "##lers": 7910,
      "##bol": 7911,
      "##ho": 7912,
      "##ken": 7913,
      "##55": 7914,
      "##86": 7915,
      "##anim": 7916,
      "ingr": 7917,
      "##uto": 7918,
      "stack": 7919,
      "##igible": 7920,
      "chrom": 7921,
      "##ulating": 7922,
      "nets": 7923,
      "##ppe": 7924,
      "compris": 7925,
      "plain": 7926,
      "upt": 7927,
      "##izz": 7928,
      "##izable": 7929,
      "clip": 7930,
      "aged": 7931,
      "reps": 7932,
      "expense": 7933,
      "distingu": 7934,
      "##anged": 7935,
      "wherever": 7936,
      "watches": 7937,
      "delight": 7938,
      "cruc": 7939,
      "pole": 7940,
      "schol": 7941,
      "grid": 7942,
      "grab": 7943,
      "myself": 7944,
      "##ennial": 7945,
      "defend": 7946,
      "generations": 7947,
      "campus": 7948,
      "subur": 7949,
      "trio": 7950,
      "harvey": 7951,
      "governments": 7952,
      "ering": 7953,
      "returned": 7954,
      "finds": 7955,
      "ceos": 7956,
      "innovations": 7957,
      "partnering": 7958,
      "exists": 7959,
      "franchising": 7960,
      "christian": 7961,
      "matchup": 7962,
      "northeast": 7963,
      "collecting": 7964,
      "missou": 7965,
      "shifting": 7966,
      "commitments": 7967,
      "circum": 7968,
      "voip": 7969,
      "dramatically": 7970,
      "valuations": 7971,
      "strauss": 7972,
      "mexican": 7973,
      "trusted": 7974,
      "trailer": 7975,
      "crowded": 7976,
      "rebranded": 7977,
      "vehicle": 7978,
      "ftth": 7979,
      "leveraging": 7980,
      "australia": 7981,
      "gemstar": 7982,
      "synergies": 7983,
      "antonio": 7984,
      "wnba": 7985,
      "04": 7986,
      "ai": 7987,
      "bout": 7988,
      "dma": 7989,
      "hend": 7990,
      "ic": 7991,
      "ng": 7992,
      "naked": 7993,
      "pound": 7994,
      "ubs": 7995,
      "vel": 7996,
      "wives": 7997,
      "##de": 7998,
      "##irect": 7999,
      "##cable": 8000,
      "##lat": 8001,
      "##hor": 8002,
      "##21": 8003,
      "##ja": 8004,
      "##73": 8005,
      "##erun": 8006,
      "##edith": 8007,
      "##arch": 8008,
      "##idays": 8009,
      "##eca": 8010,
      "##uted": 8011,
      "stunt": 8012,
      "rejected": 8013,
      "chines": 8014,
      "willner": 8015,
      "diane": 8016,
      "cold": 8017,
      "alloc": 8018,
      "offset": 8019,
      "opera": 8020,
      "resid": 8021,
      "newscast": 8022,
      "internation": 8023,
      "consume": 8024,
      "booth": 8025,
      "incremental": 8026,
      "espn3": 8027,
      "##cling": 8028,
      "managers": 8029,
      "minnes": 8030,
      "lawmakers": 8031,
      "timeline": 8032,
      "courtney": 8033,
      "meredith": 8034,
      "packaging": 8035,
      "tries": 8036,
      "negotiated": 8037,
      "combines": 8038,
      "pattern": 8039,
      "addressed": 8040,
      "visual": 8041,
      "immun": 8042,
      "introduction": 8043,
      "collectively": 8044,
      "coupled": 8045,
      "similarly": 8046,
      "demographics": 8047,
      "staying": 8048,
      "constant": 8049,
      "violent": 8050,
      "publishers": 8051,
      "appealing": 8052,
      "concur": 8053,
      "##heimer": 8054,
      "fifa": 8055,
      "utah": 8056,
      "purposes": 8057,
      "oklah": 8058,
      "touting": 8059,
      "touted": 8060,
      "recipients": 8061,
      "millennial": 8062,
      "tagline": 8063,
      "route": 8064,
      "maximize": 8065,
      "kaitz": 8066,
      "couples": 8067,
      "arrangements": 8068,
      "tribune": 8069,
      "vmvpd": 8070,
      "tandberg": 8071,
      "schwartz": 8072,
      "stimulus": 8073,
      "diferent": 8074,
      "hastings": 8075,
      "chromecast": 8076,
      "chinese": 8077,
      "minnesota": 8078,
      "oklahoma": 8079,
      "bord": 8080,
      "bird": 8081,
      "dp": 8082,
      "gle": 8083,
      "gome": 8084,
      "hilton": 8085,
      "mp": 8086,
      "rig": 8087,
      "wider": 8088,
      "zee": 8089,
      "##ya": 8090,
      "##fred": 8091,
      "##li": 8092,
      "##lined": 8093,
      "##bum": 8094,
      "##alk": 8095,
      "##roy": 8096,
      "##erse": 8097,
      "stead": 8098,
      "reject": 8099,
      "##cht": 8100,
      "anonym": 8101,
      "##unate": 8102,
      "adel": 8103,
      "server": 8104,
      "fraud": 8105,
      "albre": 8106,
      "##annon": 8107,
      "##anning": 8108,
      "brods": 8109,
      "##ortium": 8110,
      "dispar": 8111,
      "broadway": 8112,
      "##bson": 8113,
      "presum": 8114,
      "unre": 8115,
      "doyle": 8116,
      "consortium": 8117,
      "brady": 8118,
      "overwhel": 8119,
      "##hertz": 8120,
      "newsnation": 8121,
      "sportscenter": 8122,
      "streamer": 8123,
      "carr": 8124,
      "prominent": 8125,
      "schm": 8126,
      "founding": 8127,
      "myth": 8128,
      "awarded": 8129,
      "##enness": 8130,
      "knowing": 8131,
      "hallow": 8132,
      "lincol": 8133,
      "redstone": 8134,
      "posting": 8135,
      "funded": 8136,
      "martial": 8137,
      "portland": 8138,
      "landing": 8139,
      "panels": 8140,
      "listening": 8141,
      "shortly": 8142,
      "refres": 8143,
      "consideration": 8144,
      "revolution": 8145,
      "downloads": 8146,
      "mandated": 8147,
      "conducting": 8148,
      "websites": 8149,
      "evolve": 8150,
      "materials": 8151,
      "occas": 8152,
      "masters": 8153,
      "macro": 8154,
      "armstrong": 8155,
      "##abytes": 8156,
      "irre": 8157,
      "damages": 8158,
      "katz": 8159,
      "accelerated": 8160,
      "cinemax": 8161,
      "##chester": 8162,
      "indicates": 8163,
      "label": 8164,
      "criticism": 8165,
      "documents": 8166,
      "ocap": 8167,
      "insertion": 8168,
      "flagship": 8169,
      "hoffman": 8170,
      "unfortunately": 8171,
      "conspiracy": 8172,
      "dialogue": 8173,
      "netfix": 8174,
      "preliminary": 8175,
      "mercury": 8176,
      "expenditures": 8177,
      "gomez": 8178,
      "albrecht": 8179,
      "brodsky": 8180,
      "lincoln": 8181,
      "82": 8182,
      "ebit": 8183,
      "fargo": 8184,
      "gro": 8185,
      "hiring": 8186,
      "jer": 8187,
      "japan": 8188,
      "kra": 8189,
      "nds": 8190,
      "pas": 8191,
      "rack": 8192,
      "tbd": 8193,
      "##tok": 8194,
      "##how": 8195,
      "##part": 8196,
      "##omo": 8197,
      "##leiff": 8198,
      "##etn": 8199,
      "##ecca": 8200,
      "stun": 8201,
      "##adow": 8202,
      "reap": 8203,
      "beef": 8204,
      "ascent": 8205,
      "frst": 8206,
      "alan": 8207,
      "##emble": 8208,
      "ampt": 8209,
      "doors": 8210,
      "goei": 8211,
      "partly": 8212,
      "brett": 8213,
      "##iful": 8214,
      "quo": 8215,
      "carpet": 8216,
      "signing": 8217,
      "##onsin": 8218,
      "128": 8219,
      "schleiff": 8220,
      "depend": 8221,
      "tale": 8222,
      "guides": 8223,
      "drink": 8224,
      "openness": 8225,
      "myspace": 8226,
      "##aza": 8227,
      "standpoint": 8228,
      "costly": 8229,
      "script": 8230,
      "insider": 8231,
      "empire": 8232,
      "merge": 8233,
      "handed": 8234,
      "integral": 8235,
      "buyer": 8236,
      "superv": 8237,
      "encry": 8238,
      "estimate": 8239,
      "positioning": 8240,
      "measured": 8241,
      "independently": 8242,
      "proposition": 8243,
      "streets": 8244,
      "celebration": 8245,
      "lasso": 8246,
      "renewals": 8247,
      "groundbreaking": 8248,
      "answers": 8249,
      "proceedings": 8250,
      "hurric": 8251,
      "flexible": 8252,
      "catal": 8253,
      "oliver": 8254,
      "attributed": 8255,
      "legendary": 8256,
      "opposition": 8257,
      "mirror": 8258,
      "resolve": 8259,
      "resolved": 8260,
      "conceded": 8261,
      "recalled": 8262,
      "disruptive": 8263,
      "germany": 8264,
      "citizens": 8265,
      "phenomenon": 8266,
      "wisconsin": 8267,
      "acclaimed": 8268,
      "vignettes": 8269,
      "sweeney": 8270,
      "tiktok": 8271,
      "crucial": 8272,
      "internationally": 8273,
      "amptp": 8274,
      "dor": 8275,
      "ec": 8276,
      "pir": 8277,
      "sab": 8278,
      "tone": 8279,
      "ub": 8280,
      "vangu": 8281,
      "wgn": 8282,
      "##mel": 8283,
      "##uk": 8284,
      "##uins": 8285,
      "##bons": 8286,
      "##hol": 8287,
      "##here": 8288,
      "injunction": 8289,
      "forever": 8290,
      "iteration": 8291,
      "##igner": 8292,
      "proof": 8293,
      "chuck": 8294,
      "excess": 8295,
      "compression": 8296,
      "abandon": 8297,
      "vibr": 8298,
      "unanim": 8299,
      "medal": 8300,
      "##ounce": 8301,
      "scope": 8302,
      "prev": 8303,
      "##arez": 8304,
      "stress": 8305,
      "strang": 8306,
      "senator": 8307,
      "justify": 8308,
      "salary": 8309,
      "underst": 8310,
      "##comm": 8311,
      "chairwoman": 8312,
      "attended": 8313,
      "mckin": 8314,
      "remake": 8315,
      "designer": 8316,
      "119": 8317,
      "epic": 8318,
      "manages": 8319,
      "globally": 8320,
      "##parts": 8321,
      "merch": 8322,
      "expands": 8323,
      "walmart": 8324,
      "storylines": 8325,
      "norman": 8326,
      "harms": 8327,
      "lessons": 8328,
      "bench": 8329,
      "centered": 8330,
      "renov": 8331,
      "addressing": 8332,
      "puzz": 8333,
      "uniqu": 8334,
      "tells": 8335,
      "450": 8336,
      "requirement": 8337,
      "theatre": 8338,
      "ensemble": 8339,
      "hotsp": 8340,
      "collected": 8341,
      "murray": 8342,
      "shifts": 8343,
      "establishing": 8344,
      "licensed": 8345,
      "dominance": 8346,
      "wheel": 8347,
      "upgraded": 8348,
      "mentoring": 8349,
      "rebu": 8350,
      "surviv": 8351,
      "kentucky": 8352,
      "clarity": 8353,
      "highlighted": 8354,
      "investigate": 8355,
      "katrina": 8356,
      "attributes": 8357,
      "provisions": 8358,
      "thanksgiving": 8359,
      "bulk": 8360,
      "maximum": 8361,
      "predicts": 8362,
      "russian": 8363,
      "insurance": 8364,
      "pledge": 8365,
      "exceptional": 8366,
      "emotional": 8367,
      "encoding": 8368,
      "scenario": 8369,
      "honorees": 8370,
      "bargaining": 8371,
      "retirement": 8372,
      "temporary": 8373,
      "vertical": 8374,
      "terrestrial": 8375,
      "jurisdiction": 8376,
      "eshoo": 8377,
      "ambitious": 8378,
      "immunity": 8379,
      "halloween": 8380,
      "ebitda": 8381,
      "eve": 8382,
      "hog": 8383,
      "jere": 8384,
      "lad": 8385,
      "luck": 8386,
      "oak": 8387,
      "pall": 8388,
      "rerun": 8389,
      "si": 8390,
      "sons": 8391,
      "zo": 8392,
      "##nick": 8393,
      "##mein": 8394,
      "##bon": 8395,
      "##kings": 8396,
      "##92": 8397,
      "##ater": 8398,
      "##oria": 8399,
      "##orge": 8400,
      "##arian": 8401,
      "##alle": 8402,
      "inj": 8403,
      "reh": 8404,
      "##acqu": 8405,
      "##abil": 8406,
      "##irational": 8407,
      "shout": 8408,
      "##asty": 8409,
      "##mented": 8410,
      "albert": 8411,
      "##estamp": 8412,
      "wash": 8413,
      "pluto": 8414,
      "broaden": 8415,
      "interpr": 8416,
      "neil": 8417,
      "##orship": 8418,
      "##enders": 8419,
      "##opher": 8420,
      "##ista": 8421,
      "overturn": 8422,
      "sheet": 8423,
      "executed": 8424,
      "decre": 8425,
      "weekday": 8426,
      "impose": 8427,
      "warri": 8428,
      "190": 8429,
      "##boards": 8430,
      "files": 8431,
      "126": 8432,
      "118": 8433,
      "polar": 8434,
      "defe": 8435,
      "simmons": 8436,
      "timestamp": 8437,
      "protest": 8438,
      "careers": 8439,
      "metric": 8440,
      "holders": 8441,
      "superior": 8442,
      "deployments": 8443,
      "renamed": 8444,
      "discussed": 8445,
      "glance": 8446,
      "christopher": 8447,
      "administrative": 8448,
      "url": 8449,
      "1980s": 8450,
      "logmein": 8451,
      "picking": 8452,
      "pacific": 8453,
      "rocky": 8454,
      "feedback": 8455,
      "parker": 8456,
      "subsidy": 8457,
      "criminal": 8458,
      "rebecca": 8459,
      "##ervation": 8460,
      "gardner": 8461,
      "victim": 8462,
      "citrix": 8463,
      "rental": 8464,
      "adventures": 8465,
      "columbus": 8466,
      "vacation": 8467,
      "scratch": 8468,
      "vehicles": 8469,
      "prioritization": 8470,
      "barriers": 8471,
      "glasses": 8472,
      "skinny": 8473,
      "monopoly": 8474,
      "duties": 8475,
      "brooklyn": 8476,
      "pgi": 8477,
      "philosophy": 8478,
      "blockbuster": 8479,
      "scholars": 8480,
      "adelstein": 8481,
      "vanguard": 8482,
      "cathy": 8483,
      "dow": 8484,
      "fat": 8485,
      "pie": 8486,
      "sad": 8487,
      "sach": 8488,
      "ting": 8489,
      "tina": 8490,
      "vic": 8491,
      "waste": 8492,
      "zar": 8493,
      "##ollo": 8494,
      "##nandez": 8495,
      "##vest": 8496,
      "##aunch": 8497,
      "##log": 8498,
      "##mos": 8499,
      "##uel": 8500,
      "##game": 8501,
      "##enheimer": 8502,
      "##sta": 8503,
      "##stal": 8504,
      "stable": 8505,
      "reif": 8506,
      "conce": 8507,
      "beales": 8508,
      "shr": 8509,
      "##immer": 8510,
      "##through": 8511,
      "plun": 8512,
      "tvn": 8513,
      "tem": 8514,
      "##perform": 8515,
      "broke": 8516,
      "coff": 8517,
      "median": 8518,
      "outd": 8519,
      "resigned": 8520,
      "##ordan": 8521,
      "scream": 8522,
      "roy": 8523,
      "bush": 8524,
      "dece": 8525,
      "blument": 8526,
      "hernandez": 8527,
      "playboy": 8528,
      "anymore": 8529,
      "starred": 8530,
      "effects": 8531,
      "hdr": 8532,
      "located": 8533,
      "##elli": 8534,
      "removed": 8535,
      "longstanding": 8536,
      "termin": 8537,
      "slower": 8538,
      "slugg": 8539,
      "memory": 8540,
      "edward": 8541,
      "builds": 8542,
      "apollo": 8543,
      "##iously": 8544,
      "informed": 8545,
      "nightly": 8546,
      "differentiate": 8547,
      "profiles": 8548,
      "discip": 8549,
      "equival": 8550,
      "posts": 8551,
      "lowest": 8552,
      "applaud": 8553,
      "breaks": 8554,
      "jean": 8555,
      "democracy": 8556,
      "christine": 8557,
      "christina": 8558,
      "favorable": 8559,
      "attracting": 8560,
      "jeffrey": 8561,
      "craft": 8562,
      "crazy": 8563,
      "revamp": 8564,
      "replacing": 8565,
      "professor": 8566,
      "mccain": 8567,
      "violated": 8568,
      "inspiration": 8569,
      "cameron": 8570,
      "penal": 8571,
      "detailed": 8572,
      "tuning": 8573,
      "libraries": 8574,
      "advocates": 8575,
      "julia": 8576,
      "settlement": 8577,
      "explaining": 8578,
      "emphasized": 8579,
      "anticipate": 8580,
      "submissions": 8581,
      "delayed": 8582,
      "functional": 8583,
      "convergence": 8584,
      "registration": 8585,
      "registered": 8586,
      "karen": 8587,
      "prospect": 8588,
      "apparent": 8589,
      "moonves": 8590,
      "antennas": 8591,
      "##theimer": 8592,
      "excellent": 8593,
      "birth": 8594,
      "reverse": 8595,
      "tailored": 8596,
      "nurse": 8597,
      "binge": 8598,
      "unusual": 8599,
      "workshop": 8600,
      "wrapped": 8601,
      "skept": 8602,
      "consequences": 8603,
      "seventh": 8604,
      "infringement": 8605,
      "philippe": 8606,
      "missouri": 8607,
      "blumenthal": 8608,
      "03": 8609,
      "hott": 8610,
      "jen": 8611,
      "ky": 8612,
      "kathy": 8613,
      "mids": 8614,
      "nond": 8615,
      "punch": 8616,
      "sized": 8617,
      "tu": 8618,
      "tig": 8619,
      "tight": 8620,
      "tank": 8621,
      "xd": 8622,
      "##ye": 8623,
      "##fe": 8624,
      "##tr": 8625,
      "##hwar": 8626,
      "##gment": 8627,
      "##kates": 8628,
      "##46": 8629,
      "##erving": 8630,
      "##inth": 8631,
      "##orrow": 8632,
      "##iced": 8633,
      "##sters": 8634,
      "##etz": 8635,
      "forcing": 8636,
      "reim": 8637,
      "reorgan": 8638,
      "projected": 8639,
      "beating": 8640,
      "saul": 8641,
      "shanks": 8642,
      "##essee": 8643,
      "##agn": 8644,
      "##ila": 8645,
      "alv": 8646,
      "album": 8647,
      "hey": 8648,
      "heels": 8649,
      "placing": 8650,
      "##umber": 8651,
      "##ains": 8652,
      "##sole": 8653,
      "##ardi": 8654,
      "manip": 8655,
      "directing": 8656,
      "joel": 8657,
      "shell": 8658,
      "novel": 8659,
      "distant": 8660,
      "##enses": 8661,
      "##licit": 8662,
      "carroll": 8663,
      "106": 8664,
      "signifi": 8665,
      "filings": 8666,
      "##comes": 8667,
      "locast": 8668,
      "advances": 8669,
      "positively": 8670,
      "gran": 8671,
      "belief": 8672,
      "beloved": 8673,
      "modest": 8674,
      "eligible": 8675,
      "swift": 8676,
      "raises": 8677,
      "testim": 8678,
      "restore": 8679,
      "facil": 8680,
      "credited": 8681,
      "tomorrow": 8682,
      "breakthrough": 8683,
      "horowitz": 8684,
      "emerged": 8685,
      "visits": 8686,
      "deny": 8687,
      "craw": 8688,
      "battles": 8689,
      "banks": 8690,
      "replay": 8691,
      "explores": 8692,
      "installments": 8693,
      "stayed": 8694,
      "opponents": 8695,
      "tennessee": 8696,
      "milest": 8697,
      "slowdown": 8698,
      "principle": 8699,
      "centurylink": 8700,
      "trek": 8701,
      "professionals": 8702,
      "julie": 8703,
      "hdtvs": 8704,
      "tweet": 8705,
      "transforming": 8706,
      "historically": 8707,
      "accompan": 8708,
      "venkates": 8709,
      "lucas": 8710,
      "damage": 8711,
      "##haul": 8712,
      "filled": 8713,
      "loaded": 8714,
      "divided": 8715,
      "somewhere": 8716,
      "illegally": 8717,
      "involvement": 8718,
      "gibbons": 8719,
      "solely": 8720,
      "weeds": 8721,
      "ethnicity": 8722,
      "dismiss": 8723,
      "disagree": 8724,
      "##lotte": 8725,
      "griffin": 8726,
      "bronx": 8727,
      "stephanie": 8728,
      "venkateshwar": 8729,
      "benn": 8730,
      "bazin": 8731,
      "cum": 8732,
      "cav": 8733,
      "gym": 8734,
      "hi": 8735,
      "kit": 8736,
      "kard": 8737,
      "nail": 8738,
      "ntv": 8739,
      "sque": 8740,
      "sizes": 8741,
      "vig": 8742,
      "xum": 8743,
      "zomb": 8744,
      "##rus": 8745,
      "##iors": 8746,
      "##ua": 8747,
      "##gart": 8748,
      "##wc": 8749,
      "##85": 8750,
      "##43": 8751,
      "##ani": 8752,
      "toy": 8753,
      "##etic": 8754,
      "fores": 8755,
      "##utt": 8756,
      "stall": 8757,
      "stance": 8758,
      "stood": 8759,
      "stint": 8760,
      "stuck": 8761,
      "reun": 8762,
      "##acle": 8763,
      "##owers": 8764,
      "chad": 8765,
      "##una": 8766,
      "degr": 8767,
      "##usal": 8768,
      "sull": 8769,
      "exit": 8770,
      "spear": 8771,
      "newest": 8772,
      "newcom": 8773,
      "align": 8774,
      "##ivan": 8775,
      "heights": 8776,
      "##oof": 8777,
      "amounts": 8778,
      "unified": 8779,
      "telef": 8780,
      "appet": 8781,
      "consc": 8782,
      "intense": 8783,
      "sox": 8784,
      "monster": 8785,
      "expenses": 8786,
      "busy": 8787,
      "imposed": 8788,
      "genius": 8789,
      "americas": 8790,
      "continu": 8791,
      "worlds": 8792,
      "##ancial": 8793,
      "##onsider": 8794,
      "realm": 8795,
      "nextel": 8796,
      "brandon": 8797,
      "supporters": 8798,
      "headlines": 8799,
      "useful": 8800,
      "succession": 8801,
      "regulating": 8802,
      "entit": 8803,
      "entrants": 8804,
      "elite": 8805,
      "stepping": 8806,
      "##itches": 8807,
      "findings": 8808,
      "committees": 8809,
      "confi": 8810,
      "cea": 8811,
      "fastest": 8812,
      "employment": 8813,
      "tns": 8814,
      "purchasing": 8815,
      "involves": 8816,
      "seemingly": 8817,
      "pupp": 8818,
      "childhood": 8819,
      "responsibilities": 8820,
      "1988": 8821,
      "casey": 8822,
      "solom": 8823,
      "surveyed": 8824,
      "waters": 8825,
      "failure": 8826,
      "franklin": 8827,
      "stakeholders": 8828,
      "reflected": 8829,
      "profitability": 8830,
      "##blatt": 8831,
      "killing": 8832,
      "influential": 8833,
      "sisters": 8834,
      "troubles": 8835,
      "cheap": 8836,
      "heavyweight": 8837,
      "submitted": 8838,
      "lgbt": 8839,
      "tackle": 8840,
      "arrived": 8841,
      "queen": 8842,
      "chronicle": 8843,
      "athlete": 8844,
      "sleep": 8845,
      "arrangement": 8846,
      "mitchell": 8847,
      "dodgers": 8848,
      "ripley": 8849,
      "fs1": 8850,
      "hudson": 8851,
      "fascin": 8852,
      "legitimate": 8853,
      "catalyst": 8854,
      "vibrant": 8855,
      "jeremy": 8856,
      "equivalent": 8857,
      "bazinet": 8858,
      "xumo": 8859,
      "bou": 8860,
      "diller": 8861,
      "iv": 8862,
      "jew": 8863,
      "kath": 8864,
      "mak": 8865,
      "mort": 8866,
      "mign": 8867,
      "pd": 8868,
      "pm": 8869,
      "pure": 8870,
      "rico": 8871,
      "tens": 8872,
      "uk": 8873,
      "##ob": 8874,
      "##rament": 8875,
      "##list": 8876,
      "##mar": 8877,
      "##mers": 8878,
      "##zing": 8879,
      "##wind": 8880,
      "thor": 8881,
      "##arm": 8882,
      "##arge": 8883,
      "##stv": 8884,
      "##eco": 8885,
      "##utsch": 8886,
      "rebo": 8887,
      "##acey": 8888,
      "##abama": 8889,
      "beer": 8890,
      "chi": 8891,
      "deutsch": 8892,
      "##theless": 8893,
      "external": 8894,
      "serial": 8895,
      "##ils": 8896,
      "alabama": 8897,
      "sea": 8898,
      "##anny": 8899,
      "envision": 8900,
      "neill": 8901,
      "##opia": 8902,
      "intimate": 8903,
      "perpet": 8904,
      "recover": 8905,
      "expires": 8906,
      "devoted": 8907,
      "acts": 8908,
      "##cove": 8909,
      "worried": 8910,
      "anyway": 8911,
      "smack": 8912,
      "undert": 8913,
      "statements": 8914,
      "speaker": 8915,
      "##icted": 8916,
      "123": 8917,
      "##ennan": 8918,
      "extract": 8919,
      "charlotte": 8920,
      "mini": 8921,
      "sellers": 8922,
      "walton": 8923,
      "steal": 8924,
      "midwest": 8925,
      "martine": 8926,
      "dvds": 8927,
      "finalized": 8928,
      "boards": 8929,
      "landed": 8930,
      "supplier": 8931,
      "listing": 8932,
      "drops": 8933,
      "nevertheless": 8934,
      "honest": 8935,
      "risen": 8936,
      "exclusivity": 8937,
      "breakfast": 8938,
      "humans": 8939,
      "detective": 8940,
      "authorized": 8941,
      "choosing": 8942,
      "revised": 8943,
      "brightcove": 8944,
      "retailers": 8945,
      "cyber": 8946,
      "bobby": 8947,
      "aspire": 8948,
      "boosted": 8949,
      "activevideo": 8950,
      "latinos": 8951,
      "treated": 8952,
      "attendance": 8953,
      "implementation": 8954,
      "dogs": 8955,
      "cheer": 8956,
      "pursuing": 8957,
      "translate": 8958,
      "recipient": 8959,
      "cinema": 8960,
      "buckeye": 8961,
      "jamie": 8962,
      "tower": 8963,
      "sacrament": 8964,
      "attached": 8965,
      "duration": 8966,
      "filmmakers": 8967,
      "tubi": 8968,
      "volunteer": 8969,
      "duplic": 8970,
      "immersive": 8971,
      "statistics": 8972,
      "cancelled": 8973,
      "breadth": 8974,
      "suburban": 8975,
      "scholarship": 8976,
      "sachs": 8977,
      "mignon": 8978,
      "sacramento": 8979,
      "auctions": 8980,
      "bub": 8981,
      "eco": 8982,
      "etc": 8983,
      "gas": 8984,
      "glo": 8985,
      "grey": 8986,
      "jill": 8987,
      "kle": 8988,
      "lady": 8989,
      "labs": 8990,
      "mit": 8991,
      "moss": 8992,
      "node": 8993,
      "ore": 8994,
      "pul": 8995,
      "pere": 8996,
      "picket": 8997,
      "rg": 8998,
      "ts": 8999,
      "tip": 9000,
      "tree": 9001,
      "tiny": 9002,
      "ward": 9003,
      "yield": 9004,
      "##sm": 9005,
      "##lif": 9006,
      "##uits": 9007,
      "##bb": 9008,
      "##po": 9009,
      "##gie": 9010,
      "##onald": 9011,
      "##enberg": 9012,
      "##edge": 9013,
      "##idge": 9014,
      "##asse": 9015,
      "foray": 9016,
      "##utional": 9017,
      "##adata": 9018,
      "reins": 9019,
      "reiter": 9020,
      "##urally": 9021,
      "proved": 9022,
      "##tering": 9023,
      "shaw": 9024,
      "prest": 9025,
      "ala": 9026,
      "alien": 9027,
      "##ocity": 9028,
      "dipped": 9029,
      "martha": 9030,
      "enfor": 9031,
      "##emp": 9032,
      "levin": 9033,
      "cov": 9034,
      "unt": 9035,
      "unh": 9036,
      "##ptive": 9037,
      "##ghami": 9038,
      "companion": 9039,
      "resume": 9040,
      "##active": 9041,
      "brennan": 9042,
      "reconsider": 9043,
      "newsroom": 9044,
      "therefore": 9045,
      "##cover": 9046,
      "consumed": 9047,
      "warm": 9048,
      "retro": 9049,
      "earning": 9050,
      "ende": 9051,
      "currency": 9052,
      "deserve": 9053,
      "##cles": 9054,
      "seconds": 9055,
      "##ups": 9056,
      "113": 9057,
      "##ugger": 9058,
      "##atherine": 9059,
      "billy": 9060,
      "charts": 9061,
      "elections": 9062,
      "merely": 9063,
      "hoped": 9064,
      "strongest": 9065,
      "discour": 9066,
      "carefully": 9067,
      "metadata": 9068,
      "performed": 9069,
      "handling": 9070,
      "optic": 9071,
      "concerts": 9072,
      "periods": 9073,
      "barr": 9074,
      "barack": 9075,
      "##aux": 9076,
      "refused": 9077,
      "robinson": 9078,
      "judgment": 9079,
      "horse": 9080,
      "pushback": 9081,
      "geico": 9082,
      "immig": 9083,
      "southeast": 9084,
      "sooner": 9085,
      "downloaded": 9086,
      "unlock": 9087,
      "switching": 9088,
      "frankly": 9089,
      "understands": 9090,
      "maintained": 9091,
      "kicks": 9092,
      "fears": 9093,
      "taught": 9094,
      "middleweight": 9095,
      "recommended": 9096,
      "hunting": 9097,
      "pursuit": 9098,
      "venues": 9099,
      "normally": 9100,
[...]
