{
  "version": "1.0",
  "truncation": null,
  "padding": null,
  "added_tokens": [
    {
      "id": 0,
      "content": "[CLS]",
      "single_word": false,
      "lstrip": false,
      "rstrip": false,
      "normalized": false,
      "special": true
    },
    {
      "id": 1,
      "content": "[UNK]",
      "single_word": false,
      "lstrip": false,
      "rstrip": false,
      "normalized": false,
      "special": true
    },
    {
      "id": 2,
      "content": "[PAD]",
      "single_word": false,
      "lstrip": false,
      "rstrip": false,
      "normalized": false,
      "special": true
    },
    {
      "id": 3,
      "content": "[SEP]",
      "single_word": false,
      "lstrip": false,
      "rstrip": false,
      "normalized": false,
      "special": true
    },
    {
      "id": 4,
      "content": "[MASK]",
      "single_word": false,
      "lstrip": false,
      "rstrip": false,
      "normalized": false,
      "special": true
    }
  ],
  "normalizer": {
    "type": "BertNormalizer",
    "clean_text": true,
    "handle_chinese_chars": true,
    "strip_accents": null,
    "lowercase": true
  },
  "pre_tokenizer": {
    "type": "BertPreTokenizer"
  },
  "post_processor": {
    "type": "TemplateProcessing",
    "single": [
      {
        "SpecialToken": {
          "id": "[CLS]",
          "type_id": 0
        }
      },
      {
        "Sequence": {
          "id": "A",
          "type_id": 0
        }
      },
      {
        "SpecialToken": {
          "id": "[SEP]",
          "type_id": 0
        }
      }
    ],
    "pair": [
      {
        "SpecialToken": {
          "id": "[CLS]",
          "type_id": 0
        }
      },
      {
        "Sequence": {
          "id": "A",
          "type_id": 0
        }
      },
      {
        "SpecialToken": {
          "id": "[SEP]",
          "type_id": 0
        }
      },
      {
        "Sequence": {
          "id": "B",
          "type_id": 1
        }
      },
      {
        "SpecialToken": {
          "id": "[SEP]",
          "type_id": 1
        }
      }
    ],
    "special_tokens": {
      "[CLS]": {
        "id": "[CLS]",
        "ids": [
          0
        ],
        "tokens": [
          "[CLS]"
        ]
      },
      "[SEP]": {
        "id": "[SEP]",
        "ids": [
          3
        ],
        "tokens": [
          "[SEP]"
        ]
      }
    }
  },
  "decoder": {
    "type": "WordPiece",
    "prefix": "##",
    "cleanup": true
  },
  "model": {
    "type": "WordPiece",
    "unk_token": "[UNK]",
    "continuing_subword_prefix": "##",
    "max_input_chars_per_word": 100,
    "vocab": {
      "[CLS]": 0,
      "[UNK]": 1,
      "[PAD]": 2,
      "[SEP]": 3,
      "[MASK]": 4,
      "[unused1]": 5,
      "[unused2]": 6,
      "[unused3]": 7,
      "[unused4]": 8,
      "[unused5]": 9,
      "[unused6]": 10,
      "[unused7]": 11,
      "[unused8]": 12,
      "[unused9]": 13,
      "[unused10]": 14,
      "[unused11]": 15,
      "[unused12]": 16,
      "[unused13]": 17,
      "[unused14]": 18,
      "[unused15]": 19,
      "[unused16]": 20,
      "[unused17]": 21,
      "[unused18]": 22,
      "[unused19]": 23,
      "[unused20]": 24,
      "[unused21]": 25,
      "[unused22]": 26,
      "[unused23]": 27,
      "[unused24]": 28,
      "[unused25]": 29,
      "[unused26]": 30,
      "[unused27]": 31,
      "[unused28]": 32,
      "[unused29]": 33,
      "[unused30]": 34,
      "[unused31]": 35,
      "[unused32]": 36,
      "[unused33]": 37,
      "[unused34]": 38,
      "[unused35]": 39,
      "[unused36]": 40,
      "[unused37]": 41,
      "[unused38]": 42,
      "[unused39]": 43,
      "[unused40]": 44,
      "[unused41]": 45,
      "[unused42]": 46,
      "[unused43]": 47,
      "[unused44]": 48,
      "[unused45]": 49,
      "[unused46]": 50,
      "[unused47]": 51,
      "[unused48]": 52,
      "[unused49]": 53,
      "[unused50]": 54,
      "[unused51]": 55,
      "[unused52]": 56,
      "[unused53]": 57,
      "[unused54]": 58,
      "[unused55]": 59,
      "[unused56]": 60,
      "[unused57]": 61,
      "[unused58]": 62,
      "[unused59]": 63,
      "[unused60]": 64,
      "[unused61]": 65,
      "[unused62]": 66,
      "[unused63]": 67,
      "[unused64]": 68,
      "[unused65]": 69,
      "[unused66]": 70,
      "[unused67]": 71,
      "[unused68]": 72,
      "[unused69]": 73,
      "[unused70]": 74,
      "[unused71]": 75,
      "[unused72]": 76,
      "[unused73]": 77,
      "[unused74]": 78,
      "[unused75]": 79,
      "[unused76]": 80,
      "[unused77]": 81,
      "[unused78]": 82,
      "[unused79]": 83,
      "[unused80]": 84,
      "[unused81]": 85,
      "[unused82]": 86,
      "[unused83]": 87,
      "[unused84]": 88,
      "[unused85]": 89,
      "[unused86]": 90,
      "[unused87]": 91,
      "[unused88]": 92,
      "[unused89]": 93,
      "[unused90]": 94,
      "[unused91]": 95,
      "[unused92]": 96,
      "[unused93]": 97,
      "[unused94]": 98,
      "[unused95]": 99,
      "[unused96]": 100,
      "[unused97]": 101,
      "[unused98]": 102,
      "[unused99]": 103,
      "[unused100]": 104,
      "[unused101]": 105,
      "[unused102]": 106,
      "[unused103]": 107,
      "[unused104]": 108,
      "[unused105]": 109,
      "[unused106]": 110,
      "[unused107]": 111,
      "[unused108]": 112,
      "[unused109]": 113,
      "[unused110]": 114,
      "[unused111]": 115,
      "[unused112]": 116,
      "[unused113]": 117,
      "[unused114]": 118,
      "[unused115]": 119,
      "[unused116]": 120,
      "[unused117]": 121,
      "[unused118]": 122,
      "[unused119]": 123,
      "[unused120]": 124,
      "[unused121]": 125,
      "[unused122]": 126,
      "[unused123]": 127,
      "[unused124]": 128,
      "[unused125]": 129,
      "[unused126]": 130,
      "[unused127]": 131,
      "[unused128]": 132,
      "[unused129]": 133,
      "[unused130]": 134,
      "[unused131]": 135,
      "[unused132]": 136,
      "[unused133]": 137,
      "[unused134]": 138,
      "[unused135]": 139,
      "[unused136]": 140,
      "[unused137]": 141,
      "[unused138]": 142,
      "[unused139]": 143,
      "[unused140]": 144,
      "[unused141]": 145,
      "[unused142]": 146,
      "[unused143]": 147,
      "[unused144]": 148,
      "[unused145]": 149,
      "[unused146]": 150,
      "[unused147]": 151,
      "[unused148]": 152,
      "[unused149]": 153,
      "[unused150]": 154,
      "[unused151]": 155,
      "[unused152]": 156,
      "[unused153]": 157,
      "[unused154]": 158,
      "[unused155]": 159,
      "[unused156]": 160,
      "[unused157]": 161,
      "[unused158]": 162,
      "[unused159]": 163,
      "[unused160]": 164,
      "[unused161]": 165,
      "[unused162]": 166,
      "[unused163]": 167,
      "[unused164]": 168,
      "[unused165]": 169,
      "[unused166]": 170,
      "[unused167]": 171,
      "[unused168]": 172,
      "[unused169]": 173,
      "[unused170]": 174,
      "[unused171]": 175,
      "[unused172]": 176,
      "[unused173]": 177,
      "[unused174]": 178,
      "[unused175]": 179,
      "[unused176]": 180,
      "[unused177]": 181,
      "[unused178]": 182,
      "[unused179]": 183,
      "[unused180]": 184,
      "[unused181]": 185,
      "[unused182]": 186,
      "[unused183]": 187,
      "[unused184]": 188,
      "[unused185]": 189,
      "[unused186]": 190,
      "[unused187]": 191,
      "[unused188]": 192,
      "[unused189]": 193,
      "[unused190]": 194,
      "[unused191]": 195,
      "[unused192]": 196,
      "[unused193]": 197,
      "[unused194]": 198,
      "[unused195]": 199,
      "[unused196]": 200,
      "[unused197]": 201,
      "[unused198]": 202,
      "[unused199]": 203,
      "[unused200]": 204,
      "[unused201]": 205,
      "[unused202]": 206,
      "[unused203]": 207,
      "[unused204]": 208,
      "[unused205]": 209,
      "[unused206]": 210,
      "[unused207]": 211,
      "[unused208]": 212,
      "[unused209]": 213,
      "[unused210]": 214,
      "[unused211]": 215,
      "[unused212]": 216,
      "[unused213]": 217,
      "[unused214]": 218,
      "[unused215]": 219,
      "[unused216]": 220,
      "[unused217]": 221,
      "[unused218]": 222,
      "[unused219]": 223,
      "[unused220]": 224,
      "[unused221]": 225,
      "[unused222]": 226,
      "[unused223]": 227,
      "[unused224]": 228,
      "[unused225]": 229,
      "[unused226]": 230,
      "[unused227]": 231,
      "[unused228]": 232,
      "[unused229]": 233,
      "[unused230]": 234,
      "[unused231]": 235,
      "[unused232]": 236,
      "[unused233]": 237,
      "[unused234]": 238,
      "[unused235]": 239,
      "[unused236]": 240,
      "[unused237]": 241,
      "[unused238]": 242,
      "[unused239]": 243,
      "[unused240]": 244,
      "[unused241]": 245,
      "[unused242]": 246,
      "[unused243]": 247,
      "[unused244]": 248,
      "[unused245]": 249,
      "[unused246]": 250,
      "[unused247]": 251,
      "[unused248]": 252,
      "[unused249]": 253,
      "[unused250]": 254,
      "[unused251]": 255,
      "[unused252]": 256,
      "[unused253]": 257,
      "[unused254]": 258,
      "[unused255]": 259,
      "[unused256]": 260,
      "[unused257]": 261,
      "[unused258]": 262,
      "[unused259]": 263,
      "[unused260]": 264,
      "[unused261]": 265,
      "[unused262]": 266,
      "[unused263]": 267,
      "[unused264]": 268,
      "[unused265]": 269,
      "[unused266]": 270,
      "[unused267]": 271,
      "[unused268]": 272,
      "[unused269]": 273,
      "[unused270]": 274,
      "[unused271]": 275,
      "[unused272]": 276,
      "[unused273]": 277,
      "[unused274]": 278,
      "[unused275]": 279,
      "[unused276]": 280,
      "[unused277]": 281,
      "[unused278]": 282,
      "[unused279]": 283,
      "[unused280]": 284,
      "[unused281]": 285,
      "[unused282]": 286,
      "[unused283]": 287,
      "[unused284]": 288,
      "[unused285]": 289,
      "[unused286]": 290,
      "[unused287]": 291,
      "[unused288]": 292,
      "[unused289]": 293,
      "[unused290]": 294,
      "[unused291]": 295,
      "[unused292]": 296,
      "[unused293]": 297,
      "[unused294]": 298,
      "[unused295]": 299,
      "[unused296]": 300,
      "[unused297]": 301,
      "[unused298]": 302,
      "[unused299]": 303,
      "[unused300]": 304,
      "[unused301]": 305,
      "[unused302]": 306,
      "[unused303]": 307,
      "[unused304]": 308,
      "[unused305]": 309,
      "[unused306]": 310,
      "[unused307]": 311,
      "[unused308]": 312,
      "[unused309]": 313,
      "[unused310]": 314,
      "[unused311]": 315,
      "[unused312]": 316,
      "[unused313]": 317,
      "[unused314]": 318,
      "[unused315]": 319,
      "[unused316]": 320,
      "[unused317]": 321,
      "[unused318]": 322,
      "[unused319]": 323,
      "[unused320]": 324,
      "[unused321]": 325,
      "[unused322]": 326,
      "[unused323]": 327,
      "[unused324]": 328,
      "[unused325]": 329,
      "[unused326]": 330,
      "[unused327]": 331,
      "[unused328]": 332,
      "[unused329]": 333,
      "[unused330]": 334,
      "[unused331]": 335,
      "[unused332]": 336,
      "[unused333]": 337,
      "[unused334]": 338,
      "[unused335]": 339,
      "[unused336]": 340,
      "[unused337]": 341,
      "[unused338]": 342,
      "[unused339]": 343,
      "[unused340]": 344,
      "[unused341]": 345,
      "[unused342]": 346,
      "[unused343]": 347,
      "[unused344]": 348,
      "[unused345]": 349,
      "[unused346]": 350,
      "[unused347]": 351,
      "[unused348]": 352,
      "[unused349]": 353,
      "[unused350]": 354,
      "[unused351]": 355,
      "[unused352]": 356,
      "[unused353]": 357,
      "[unused354]": 358,
      "[unused355]": 359,
      "[unused356]": 360,
      "[unused357]": 361,
      "[unused358]": 362,
      "[unused359]": 363,
      "[unused360]": 364,
      "[unused361]": 365,
      "[unused362]": 366,
      "[unused363]": 367,
      "[unused364]": 368,
      "[unused365]": 369,
      "[unused366]": 370,
      "[unused367]": 371,
      "[unused368]": 372,
      "[unused369]": 373,
      "[unused370]": 374,
      "[unused371]": 375,
      "[unused372]": 376,
      "[unused373]": 377,
      "[unused374]": 378,
      "[unused375]": 379,
      "[unused376]": 380,
      "[unused377]": 381,
      "[unused378]": 382,
      "[unused379]": 383,
      "[unused380]": 384,
      "[unused381]": 385,
      "[unused382]": 386,
      "[unused383]": 387,
      "[unused384]": 388,
      "[unused385]": 389,
      "[unused386]": 390,
      "[unused387]": 391,
      "[unused388]": 392,
      "[unused389]": 393,
      "[unused390]": 394,
      "[unused391]": 395,
      "[unused392]": 396,
      "[unused393]": 397,
      "[unused394]": 398,
      "[unused395]": 399,
      "[unused396]": 400,
      "[unused397]": 401,
      "[unused398]": 402,
      "[unused399]": 403,
      "[unused400]": 404,
      "[unused401]": 405,
      "[unused402]": 406,
      "[unused403]": 407,
      "[unused404]": 408,
      "[unused405]": 409,
      "[unused406]": 410,
      "[unused407]": 411,
      "[unused408]": 412,
      "[unused409]": 413,
      "[unused410]": 414,
      "[unused411]": 415,
      "[unused412]": 416,
      "[unused413]": 417,
      "[unused414]": 418,
      "[unused415]": 419,
      "[unused416]": 420,
      "[unused417]": 421,
      "[unused418]": 422,
      "[unused419]": 423,
      "[unused420]": 424,
      "[unused421]": 425,
      "[unused422]": 426,
      "[unused423]": 427,
      "[unused424]": 428,
      "[unused425]": 429,
      "[unused426]": 430,
      "[unused427]": 431,
      "[unused428]": 432,
      "[unused429]": 433,
      "[unused430]": 434,
      "[unused431]": 435,
      "[unused432]": 436,
      "[unused433]": 437,
      "[unused434]": 438,
      "[unused435]": 439,
      "[unused436]": 440,
      "[unused437]": 441,
      "[unused438]": 442,
      "[unused439]": 443,
      "[unused440]": 444,
      "[unused441]": 445,
      "[unused442]": 446,
      "[unused443]": 447,
      "[unused444]": 448,
      "[unused445]": 449,
      "[unused446]": 450,
      "[unused447]": 451,
      "[unused448]": 452,
      "[unused449]": 453,
      "[unused450]": 454,
      "[unused451]": 455,
      "[unused452]": 456,
      "[unused453]": 457,
      "[unused454]": 458,
      "[unused455]": 459,
      "[unused456]": 460,
      "[unused457]": 461,
      "[unused458]": 462,
      "[unused459]": 463,
      "[unused460]": 464,
      "[unused461]": 465,
      "[unused462]": 466,
      "[unused463]": 467,
      "[unused464]": 468,
      "[unused465]": 469,
      "[unused466]": 470,
      "[unused467]": 471,
      "[unused468]": 472,
      "[unused469]": 473,
      "[unused470]": 474,
      "[unused471]": 475,
      "[unused472]": 476,
      "[unused473]": 477,
      "[unused474]": 478,
      "[unused475]": 479,
      "[unused476]": 480,
      "[unused477]": 481,
      "[unused478]": 482,
      "[unused479]": 483,
      "[unused480]": 484,
      "[unused481]": 485,
      "[unused482]": 486,
      "[unused483]": 487,
      "[unused484]": 488,
      "[unused485]": 489,
      "[unused486]": 490,
      "[unused487]": 491,
      "[unused488]": 492,
      "[unused489]": 493,
      "[unused490]": 494,
      "[unused491]": 495,
      "[unused492]": 496,
      "[unused493]": 497,
      "[unused494]": 498,
      "[unused495]": 499,
      "[unused496]": 500,
      "[unused497]": 501,
      "[unused498]": 502,
      "[unused499]": 503,
      "[unused500]": 504,
      "[unused501]": 505,
      "[unused502]": 506,
      "[unused503]": 507,
      "[unused504]": 508,
      "[unused505]": 509,
      "[unused506]": 510,
      "[unused507]": 511,
      "[unused508]": 512,
      "[unused509]": 513,
      "[unused510]": 514,
      "[unused511]": 515,
      "[unused512]": 516,
      "[unused513]": 517,
      "[unused514]": 518,
      "[unused515]": 519,
      "[unused516]": 520,
      "[unused517]": 521,
      "[unused518]": 522,
      "[unused519]": 523,
      "[unused520]": 524,
      "[unused521]": 525,
      "[unused522]": 526,
      "[unused523]": 527,
      "[unused524]": 528,
      "[unused525]": 529,
      "[unused526]": 530,
      "[unused527]": 531,
      "[unused528]": 532,
      "[unused529]": 533,
      "[unused530]": 534,
      "[unused531]": 535,
      "[unused532]": 536,
      "[unused533]": 537,
      "[unused534]": 538,
      "[unused535]": 539,
      "[unused536]": 540,
      "[unused537]": 541,
      "[unused538]": 542,
      "[unused539]": 543,
      "[unused540]": 544,
      "[unused541]": 545,
      "[unused542]": 546,
      "[unused543]": 547,
      "[unused544]": 548,
      "[unused545]": 549,
      "[unused546]": 550,
      "[unused547]": 551,
      "[unused548]": 552,
      "[unused549]": 553,
      "[unused550]": 554,
      "[unused551]": 555,
      "[unused552]": 556,
      "[unused553]": 557,
      "[unused554]": 558,
      "[unused555]": 559,
      "[unused556]": 560,
      "[unused557]": 561,
      "[unused558]": 562,
      "[unused559]": 563,
      "[unused560]": 564,
      "[unused561]": 565,
      "[unused562]": 566,
      "[unused563]": 567,
      "[unused564]": 568,
      "[unused565]": 569,
      "[unused566]": 570,
      "[unused567]": 571,
      "[unused568]": 572,
      "[unused569]": 573,
      "[unused570]": 574,
      "[unused571]": 575,
      "[unused572]": 576,
      "[unused573]": 577,
      "[unused574]": 578,
      "[unused575]": 579,
      "[unused576]": 580,
      "[unused577]": 581,
      "[unused578]": 582,
      "[unused579]": 583,
      "[unused580]": 584,
      "[unused581]": 585,
      "[unused582]": 586,
      "[unused583]": 587,
      "[unused584]": 588,
      "[unused585]": 589,
      "[unused586]": 590,
      "[unused587]": 591,
      "[unused588]": 592,
      "[unused589]": 593,
      "[unused590]": 594,
      "[unused591]": 595,
      "[unused592]": 596,
      "[unused593]": 597,
      "[unused594]": 598,
      "[unused595]": 599,
      "[unused596]": 600,
      "[unused597]": 601,
      "[unused598]": 602,
      "[unused599]": 603,
      "[unused600]": 604,
      "[unused601]": 605,
      "[unused602]": 606,
      "[unused603]": 607,
      "[unused604]": 608,
      "[unused605]": 609,
      "[unused606]": 610,
      "[unused607]": 611,
      "[unused608]": 612,
      "[unused609]": 613,
      "[unused610]": 614,
      "[unused611]": 615,
      "[unused612]": 616,
      "[unused613]": 617,
      "[unused614]": 618,
      "[unused615]": 619,
      "[unused616]": 620,
      "[unused617]": 621,
      "[unused618]": 622,
      "[unused619]": 623,
      "[unused620]": 624,
      "[unused621]": 625,
      "[unused622]": 626,
      "[unused623]": 627,
      "[unused624]": 628,
      "[unused625]": 629,
      "[unused626]": 630,
      "[unused627]": 631,
      "[unused628]": 632,
      "[unused629]": 633,
      "[unused630]": 634,
      "[unused631]": 635,
      "[unused632]": 636,
      "[unused633]": 637,
      "[unused634]": 638,
      "[unused635]": 639,
      "[unused636]": 640,
      "[unused637]": 641,
      "[unused638]": 642,
      "[unused639]": 643,
      "[unused640]": 644,
      "[unused641]": 645,
      "[unused642]": 646,
      "[unused643]": 647,
      "[unused644]": 648,
      "[unused645]": 649,
      "[unused646]": 650,
      "[unused647]": 651,
      "[unused648]": 652,
      "[unused649]": 653,
      "[unused650]": 654,
      "[unused651]": 655,
      "[unused652]": 656,
      "[unused653]": 657,
      "[unused654]": 658,
      "[unused655]": 659,
      "[unused656]": 660,
      "[unused657]": 661,
      "[unused658]": 662,
      "[unused659]": 663,
      "[unused660]": 664,
      "[unused661]": 665,
      "[unused662]": 666,
      "[unused663]": 667,
      "[unused664]": 668,
      "[unused665]": 669,
      "[unused666]": 670,
      "[unused667]": 671,
      "[unused668]": 672,
      "[unused669]": 673,
      "[unused670]": 674,
      "[unused671]": 675,
      "[unused672]": 676,
      "[unused673]": 677,
      "[unused674]": 678,
      "[unused675]": 679,
      "[unused676]": 680,
      "[unused677]": 681,
      "[unused678]": 682,
      "[unused679]": 683,
      "[unused680]": 684,
      "[unused681]": 685,
      "[unused682]": 686,
      "[unused683]": 687,
      "[unused684]": 688,
      "[unused685]": 689,
      "[unused686]": 690,
      "[unused687]": 691,
      "[unused688]": 692,
      "[unused689]": 693,
      "[unused690]": 694,
      "[unused691]": 695,
      "[unused692]": 696,
      "[unused693]": 697,
      "[unused694]": 698,
      "[unused695]": 699,
      "[unused696]": 700,
      "[unused697]": 701,
      "[unused698]": 702,
      "[unused699]": 703,
      "[unused700]": 704,
      "[unused701]": 705,
      "[unused702]": 706,
      "[unused703]": 707,
      "[unused704]": 708,
      "[unused705]": 709,
      "[unused706]": 710,
      "[unused707]": 711,
      "[unused708]": 712,
      "[unused709]": 713,
      "[unused710]": 714,
      "[unused711]": 715,
      "[unused712]": 716,
      "[unused713]": 717,
      "[unused714]": 718,
      "[unused715]": 719,
      "[unused716]": 720,
      "[unused717]": 721,
      "[unused718]": 722,
      "[unused719]": 723,
      "[unused720]": 724,
      "[unused721]": 725,
      "[unused722]": 726,
      "[unused723]": 727,
      "[unused724]": 728,
      "[unused725]": 729,
      "[unused726]": 730,
      "[unused727]": 731,
      "[unused728]": 732,
      "[unused729]": 733,
      "[unused730]": 734,
      "[unused731]": 735,
      "[unused732]": 736,
      "[unused733]": 737,
      "[unused734]": 738,
      "[unused735]": 739,
      "[unused736]": 740,
      "[unused737]": 741,
      "[unused738]": 742,
      "[unused739]": 743,
      "[unused740]": 744,
      "[unused741]": 745,
      "[unused742]": 746,
      "[unused743]": 747,
      "[unused744]": 748,
      "[unused745]": 749,
      "[unused746]": 750,
      "[unused747]": 751,
      "[unused748]": 752,
      "[unused749]": 753,
      "[unused750]": 754,
      "[unused751]": 755,
      "[unused752]": 756,
      "[unused753]": 757,
      "[unused754]": 758,
      "[unused755]": 759,
      "[unused756]": 760,
      "[unused757]": 761,
      "[unused758]": 762,
      "[unused759]": 763,
      "[unused760]": 764,
      "[unused761]": 765,
      "[unused762]": 766,
      "[unused763]": 767,
      "[unused764]": 768,
      "[unused765]": 769,
      "[unused766]": 770,
      "[unused767]": 771,
      "[unused768]": 772,
      "[unused769]": 773,
      "[unused770]": 774,
      "[unused771]": 775,
      "[unused772]": 776,
      "[unused773]": 777,
      "[unused774]": 778,
      "[unused775]": 779,
      "[unused776]": 780,
      "[unused777]": 781,
      "[unused778]": 782,
      "[unused779]": 783,
      "[unused780]": 784,
      "[unused781]": 785,
      "[unused782]": 786,
      "[unused783]": 787,
      "[unused784]": 788,
      "[unused785]": 789,
      "[unused786]": 790,
      "[unused787]": 791,
      "[unused788]": 792,
      "[unused789]": 793,
      "[unused790]": 794,
      "[unused791]": 795,
      "[unused792]": 796,
      "[unused793]": 797,
      "[unused794]": 798,
      "[unused795]": 799,
      "[unused796]": 800,
      "[unused797]": 801,
      "[unused798]": 802,
      "[unused799]": 803,
      "[unused800]": 804,
      "[unused801]": 805,
      "[unused802]": 806,
      "[unused803]": 807,
      "[unused804]": 808,
      "[unused805]": 809,
      "[unused806]": 810,
      "[unused807]": 811,
      "[unused808]": 812,
      "[unused809]": 813,
      "[unused810]": 814,
      "[unused811]": 815,
      "[unused812]": 816,
      "[unused813]": 817,
      "[unused814]": 818,
      "[unused815]": 819,
      "[unused816]": 820,
      "[unused817]": 821,
      "[unused818]": 822,
      "[unused819]": 823,
      "[unused820]": 824,
      "[unused821]": 825,
      "[unused822]": 826,
      "[unused823]": 827,
      "[unused824]": 828,
      "[unused825]": 829,
      "[unused826]": 830,
      "[unused827]": 831,
      "[unused828]": 832,
      "[unused829]": 833,
      "[unused830]": 834,
      "[unused831]": 835,
      "[unused832]": 836,
      "[unused833]": 837,
      "[unused834]": 838,
      "[unused835]": 839,
      "[unused836]": 840,
      "[unused837]": 841,
      "[unused838]": 842,
      "[unused839]": 843,
      "[unused840]": 844,
      "[unused841]": 845,
      "[unused842]": 846,
      "[unused843]": 847,
      "[unused844]": 848,
      "[unused845]": 849,
      "[unused846]": 850,
      "[unused847]": 851,
      "[unused848]": 852,
      "[unused849]": 853,
      "[unused850]": 854,
      "[unused851]": 855,
      "[unused852]": 856,
      "[unused853]": 857,
      "[unused854]": 858,
      "[unused855]": 859,
      "[unused856]": 860,
      "[unused857]": 861,
      "[unused858]": 862,
      "[unused859]": 863,
      "[unused860]": 864,
      "[unused861]": 865,
      "[unused862]": 866,
      "[unused863]": 867,
      "[unused864]": 868,
      "[unused865]": 869,
      "[unused866]": 870,
      "[unused867]": 871,
      "[unused868]": 872,
      "[unused869]": 873,
      "[unused870]": 874,
      "[unused871]": 875,
      "[unused872]": 876,
      "[unused873]": 877,
      "[unused874]": 878,
      "[unused875]": 879,
      "[unused876]": 880,
      "[unused877]": 881,
      "[unused878]": 882,
      "[unused879]": 883,
      "[unused880]": 884,
      "[unused881]": 885,
      "[unused882]": 886,
      "[unused883]": 887,
      "[unused884]": 888,
      "[unused885]": 889,
      "[unused886]": 890,
      "[unused887]": 891,
      "[unused888]": 892,
      "[unused889]": 893,
      "[unused890]": 894,
      "[unused891]": 895,
      "[unused892]": 896,
      "[unused893]": 897,
      "[unused894]": 898,
      "[unused895]": 899,
      "[unused896]": 900,
      "[unused897]": 901,
      "[unused898]": 902,
      "[unused899]": 903,
      "[unused900]": 904,
      "[unused901]": 905,
      "[unused902]": 906,
      "[unused903]": 907,
      "[unused904]": 908,
      "[unused905]": 909,
      "[unused906]": 910,
      "[unused907]": 911,
      "[unused908]": 912,
      "[unused909]": 913,
      "[unused910]": 914,
      "[unused911]": 915,
      "[unused912]": 916,
      "[unused913]": 917,
      "[unused914]": 918,
      "[unused915]": 919,
      "[unused916]": 920,
      "[unused917]": 921,
      "[unused918]": 922,
      "[unused919]": 923,
      "[unused920]": 924,
      "[unused921]": 925,
      "[unused922]": 926,
      "[unused923]": 927,
      "[unused924]": 928,
      "[unused925]": 929,
      "[unused926]": 930,
      "[unused927]": 931,
      "[unused928]": 932,
      "[unused929]": 933,
      "[unused930]": 934,
      "[unused931]": 935,
      "[unused932]": 936,
      "[unused933]": 937,
      "[unused934]": 938,
      "[unused935]": 939,
      "[unused936]": 940,
      "[unused937]": 941,
      "[unused938]": 942,
      "[unused939]": 943,
      "[unused940]": 944,
      "[unused941]": 945,
      "[unused942]": 946,
      "[unused943]": 947,
      "[unused944]": 948,
      "[unused945]": 949,
      "[unused946]": 950,
      "[unused947]": 951,
      "[unused948]": 952,
      "[unused949]": 953,
      "[unused950]": 954,
      "[unused951]": 955,
      "[unused952]": 956,
      "[unused953]": 957,
      "[unused954]": 958,
      "[unused955]": 959,
      "[unused956]": 960,
      "[unused957]": 961,
      "[unused958]": 962,
      "[unused959]": 963,
      "[unused960]": 964,
      "[unused961]": 965,
      "[unused962]": 966,
      "[unused963]": 967,
      "[unused964]": 968,
      "[unused965]": 969,
      "[unused966]": 970,
      "[unused967]": 971,
      "[unused968]": 972,
      "[unused969]": 973,
      "[unused970]": 974,
      "[unused971]": 975,
      "[unused972]": 976,
      "[unused973]": 977,
      "[unused974]": 978,
      "[unused975]": 979,
      "[unused976]": 980,
      "[unused977]": 981,
      "[unused978]": 982,
      "[unused979]": 983,
      "[unused980]": 984,
      "[unused981]": 985,
      "[unused982]": 986,
      "[unused983]": 987,
      "[unused984]": 988,
      "[unused985]": 989,
      "[unused986]": 990,
      "[unused987]": 991,
      "[unused988]": 992,
      "[unused989]": 993,
      "[unused990]": 994,
      "[unused991]": 995,
      "[unused992]": 996,
      "[unused993]": 997,
      "[unused994]": 998,
      "[unused995]": 999,
      "[unused996]": 1000,
      "[unused997]": 1001,
      "[unused998]": 1002,
      "[unused999]": 1003,
      "[unused1000]": 1004,
      "!": 1005,
      "\"": 1006,
      "#": 1007,
      "$": 1008,
      "%": 1009,
      "&": 1010,
      "'": 1011,
      "(": 1012,
      ")": 1013,
      "*": 1014,
      "+": 1015,
      ",": 1016,
      "-": 1017,
      ".": 1018,
      "/": 1019,
      "0": 1020,
      "1": 1021,
      "2": 1022,
      "3": 1023,
      "4": 1024,
      "5": 1025,
      "6": 1026,
      "7": 1027,
      "8": 1028,
      "9": 1029,
      ":": 1030,
      ";": 1031,
      "<": 1032,
      "=": 1033,
      ">": 1034,
      "?": 1035,
      "@": 1036,
      "[": 1037,
      "\\": 1038,
      "]": 1039,
      "^": 1040,
      "_": 1041,
      "`": 1042,
      "a": 1043,
      "b": 1044,
      "c": 1045,
      "d": 1046,
      "e": 1047,
      "f": 1048,
      "g": 1049,
      "h": 1050,
      "i": 1051,
      "j": 1052,
      "k": 1053,
      "l": 1054,
      "m": 1055,
      "n": 1056,
      "o": 1057,
      "p": 1058,
      "q": 1059,
      "r": 1060,
      "s": 1061,
      "t": 1062,
      "u": 1063,
      "v": 1064,
      "w": 1065,
      "x": 1066,
      "y": 1067,
      "z": 1068,
      "{": 1069,
      "|": 1070,
      "}": 1071,
      "~": 1072,
      "¡": 1073,
      "¢": 1074,
      "£": 1075,
      "¤": 1076,
      "¥": 1077,
      "¦": 1078,
      "§": 1079,
      "©": 1080,
      "«": 1081,
      "¬": 1082,
      "®": 1083,
      "°": 1084,
      "±": 1085,
      "¶": 1086,
      "·": 1087,
      "»": 1088,
      "¿": 1089,
      "×": 1090,
      "æ": 1091,
      "ð": 1092,
      "÷": 1093,
      "ø": 1094,
      "þ": 1095,
      "đ": 1096,
      "ı": 1097,
      "ł": 1098,
      "œ": 1099,
      "ƒ": 1100,
      "ɚ": 1101,
      "ɛ": 1102,
      "ɧ": 1103,
      "ɨ": 1104,
      "ɪ": 1105,
      "ɬ": 1106,
      "ɵ": 1107,
      "ɿ": 1108,
      "ʼ": 1109,
      "ʿ": 1110,
      "ˆ": 1111,
      "ˇ": 1112,
      "ͻ": 1113,
      "ͼ": 1114,
      "α": 1115,
      "β": 1116,
      "γ": 1117,
      "δ": 1118,
      "ε": 1119,
      "ζ": 1120,
      "η": 1121,
      "θ": 1122,
      "ι": 1123,
      "κ": 1124,
      "λ": 1125,
      "μ": 1126,
      "ν": 1127,
      "ξ": 1128,
      "ο": 1129,
      "π": 1130,
      "ρ": 1131,
      "σ": 1132,
      "τ": 1133,
      "υ": 1134,
      "φ": 1135,
      "χ": 1136,
      "ψ": 1137,
      "ω": 1138,
      "ϩ": 1139,
      "ϫ": 1140,
      "ϭ": 1141,
      "а": 1142,
      "б": 1143,
      "в": 1144,
      "г": 1145,
      "д": 1146,
      "е": 1147,
      "ж": 1148,
      "з": 1149,
      "и": 1150,
      "к": 1151,
      "л": 1152,
      "м": 1153,
      "н": 1154,
      "о": 1155,
      "п": 1156,
      "р": 1157,
      "с": 1158,
      "т": 1159,
      "у": 1160,
      "ф": 1161,
      "х": 1162,
      "ц": 1163,
      "ч": 1164,
      "ш": 1165,
      "щ": 1166,
      "ъ": 1167,
      "ы": 1168,
      "ь": 1169,
      "э": 1170,
      "ю": 1171,
      "я": 1172,
      "ђ": 1173,
      "є": 1174,
      "ѕ": 1175,
      "і": 1176,
      "ј": 1177,
      "љ": 1178,
      "њ": 1179,
      "ћ": 1180,
      "ґ": 1181,
      "қ": 1182,
      "յ": 1183,
      "ն": 1184,
      "א": 1185,
      "ا": 1186,
      "ب": 1187,
      "ة": 1188,
      "ت": 1189,
      "ج": 1190,
      "ح": 1191,
      "د": 1192,
      "ر": 1193,
      "س": 1194,
      "ص": 1195,
      "ط": 1196,
      "ع": 1197,
      "غ": 1198,
      "ف": 1199,
      "ق": 1200,
      "ك": 1201,
      "ل": 1202,
      "م": 1203,
      "ن": 1204,
      "ه": 1205,
      "و": 1206,
      "ي": 1207,
      "ی": 1208,
      "ଵ": 1209,
      "௧": 1210,
      "ท": 1211,
      "ป": 1212,
      "ย": 1213,
      "ร": 1214,
      "ไ": 1215,
      "ᄀ": 1216,
      "ᄂ": 1217,
      "ᄃ": 1218,
      "ᄅ": 1219,
      "ᄆ": 1220,
      "ᄇ": 1221,
      "ᄉ": 1222,
      "ᄋ": 1223,
      "ᄌ": 1224,
      "ᄎ": 1225,
      "ᄐ": 1226,
      "ᄑ": 1227,
      "ᄒ": 1228,
      "ᅡ": 1229,
      "ᅢ": 1230,
      "ᅥ": 1231,
      "ᅦ": 1232,
      "ᅧ": 1233,
      "ᅩ": 1234,
      "ᅪ": 1235,
      "ᅭ": 1236,
      "ᅮ": 1237,
      "ᅯ": 1238,
      "ᅳ": 1239,
      "ᅴ": 1240,
      "ᅵ": 1241,
      "ᆨ": 1242,
      "ᆫ": 1243,
      "ᆯ": 1244,
      "ᆷ": 1245,
      "ᆸ": 1246,
      "ᆼ": 1247,
      "ሺ": 1248,
      "ሻ": 1249,
      "‐": 1250,
      "–": 1251,
      "—": 1252,
      "―": 1253,
      "‖": 1254,
      "‘": 1255,
      "’": 1256,
      "‚": 1257,
      "“": 1258,
      "”": 1259,
      "„": 1260,
      "†": 1261,
      "‡": 1262,
      "•": 1263,
      "‣": 1264,
      "‰": 1265,
      "′": 1266,
      "‹": 1267,
      "›": 1268,
      "※": 1269,
      "⁄": 1270,
      "⁎": 1271,
      "₦": 1272,
      "€": 1273,
      "₹": 1274,
      "₽": 1275,
      "←": 1276,
      "↑": 1277,
      "→": 1278,
      "↓": 1279,
      "↵": 1280,
      "⇄": 1281,
      "⇒": 1282,
      "⇡": 1283,
      "⇤": 1284,
      "∀": 1285,
      "∂": 1286,
      "∃": 1287,
      "∅": 1288,
      "∆": 1289,
      "∇": 1290,
      "∈": 1291,
      "∑": 1292,
      "−": 1293,
      "∙": 1294,
      "√": 1295,
      "∝": 1296,
      "∞": 1297,
      "∧": 1298,
      "∩": 1299,
      "∪": 1300,
      "∼": 1301,
      "≈": 1302,
      "≡": 1303,
      "≤": 1304,
      "≥": 1305,
      "≪": 1306,
      "≫": 1307,
      "⊂": 1308,
      "⊆": 1309,
      "⊥": 1310,
      "⋅": 1311,
      "⋆": 1312,
      "⌬": 1313,
      "⎯": 1314,
      "␣": 1315,
      "␤": 1316,
      "─": 1317,
      "│": 1318,
      "└": 1319,
      "├": 1320,
      "■": 1321,
      "□": 1322,
      "▪": 1323,
      "▲": 1324,
      "△": 1325,
      "▶": 1326,
      "▸": 1327,
      "►": 1328,
      "▼": 1329,
      "▾": 1330,
      "◆": 1331,
      "◇": 1332,
      "◊": 1333,
      "○": 1334,
      "◎": 1335,
      "●": 1336,
      "◯": 1337,
      "★": 1338,
      "☆": 1339,
      "☎": 1340,
      "☰": 1341,
      "♥": 1342,
      "♦": 1343,
      "♪": 1344,
      "✓": 1345,
      "✔": 1346,
      "✖": 1347,
      "❤": 1348,
      "❬": 1349,
      "❭": 1350,
      "➢": 1351,
      "⟩": 1352,
      "、": 1353,
      "。": 1354,
      "々": 1355,
      "《": 1356,
      "》": 1357,
      "「": 1358,
      "」": 1359,
      "『": 1360,
      "』": 1361,
      "【": 1362,
      "】": 1363,
      "〒": 1364,
      "あ": 1365,
      "い": 1366,
      "う": 1367,
      "え": 1368,
      "お": 1369,
      "か": 1370,
      "き": 1371,
      "く": 1372,
      "け": 1373,
      "こ": 1374,
      "さ": 1375,
      "し": 1376,
      "す": 1377,
      "せ": 1378,
      "そ": 1379,
      "た": 1380,
      "ち": 1381,
      "っ": 1382,
      "つ": 1383,
      "て": 1384,
      "と": 1385,
      "な": 1386,
      "に": 1387,
      "ね": 1388,
      "の": 1389,
      "は": 1390,
      "ひ": 1391,
      "ふ": 1392,
      "へ": 1393,
      "ほ": 1394,
      "ま": 1395,
      "み": 1396,
      "め": 1397,
      "も": 1398,
      "や": 1399,
      "よ": 1400,
      "ら": 1401,
      "り": 1402,
      "る": 1403,
      "れ": 1404,
      "ろ": 1405,
      "わ": 1406,
      "を": 1407,
      "ん": 1408,
      "ァ": 1409,
      "ア": 1410,
      "ィ": 1411,
      "イ": 1412,
      "ウ": 1413,
      "ェ": 1414,
      "エ": 1415,
      "ォ": 1416,
      "オ": 1417,
      "カ": 1418,
      "キ": 1419,
      "ク": 1420,
      "ケ": 1421,
      "コ": 1422,
      "サ": 1423,
      "シ": 1424,
      "ス": 1425,
      "セ": 1426,
      "ソ": 1427,
      "タ": 1428,
      "チ": 1429,
      "ッ": 1430,
      "ツ": 1431,
      "テ": 1432,
      "ト": 1433,
      "ナ": 1434,
      "ニ": 1435,
      "ネ": 1436,
      "ノ": 1437,
      "ハ": 1438,
      "ヒ": 1439,
      "フ": 1440,
      "ヘ": 1441,
      "ホ": 1442,
      "マ": 1443,
      "ミ": 1444,
      "ム": 1445,
      "メ": 1446,
      "モ": 1447,
      "ャ": 1448,
      "ュ": 1449,
      "ョ": 1450,
      "ラ": 1451,
      "リ": 1452,
      "ル": 1453,
      "レ": 1454,
      "ロ": 1455,
      "ワ": 1456,
      "ン": 1457,
      "・": 1458,
      "ー": 1459,
      "一": 1460,
      "丁": 1461,
      "万": 1462,
      "三": 1463,
      "上": 1464,
      "下": 1465,
      "不": 1466,
      "与": 1467,
      "专": 1468,
      "世": 1469,
      "业": 1470,
      "中": 1471,
      "为": 1472,
      "主": 1473,
      "了": 1474,
      "予": 1475,
      "事": 1476,
      "二": 1477,
      "于": 1478,
      "交": 1479,
      "产": 1480,
      "京": 1481,
      "人": 1482,
      "今": 1483,
      "介": 1484,
      "仕": 1485,
      "他": 1486,
      "付": 1487,
      "代": 1488,
      "以": 1489,
      "们": 1490,
      "件": 1491,
      "任": 1492,
      "企": 1493,
      "休": 1494,
      "会": 1495,
      "位": 1496,
      "住": 1497,
      "体": 1498,
      "何": 1499,
      "作": 1500,
      "使": 1501,
      "例": 1502,
      "供": 1503,
      "価": 1504,
      "便": 1505,
      "保": 1506,
      "信": 1507,
      "修": 1508,
      "個": 1509,
      "備": 1510,
      "催": 1511,
      "元": 1512,
      "先": 1513,
      "光": 1514,
      "入": 1515,
      "全": 1516,
      "公": 1517,
      "共": 1518,
      "关": 1519,
      "具": 1520,
      "内": 1521,
      "円": 1522,
      "冷": 1523,
      "出": 1524,
      "分": 1525,
      "切": 1526,
      "创": 1527,
      "別": 1528,
      "利": 1529,
      "制": 1530,
      "前": 1531,
      "力": 1532,
      "功": 1533,
      "加": 1534,
      "务": 1535,
      "动": 1536,
      "動": 1537,
      "務": 1538,
      "化": 1539,
      "北": 1540,
      "区": 1541,
      "医": 1542,
      "南": 1543,
      "印": 1544,
      "原": 1545,
      "参": 1546,
      "及": 1547,
      "发": 1548,
      "取": 1549,
      "受": 1550,
      "口": 1551,
      "古": 1552,
      "可": 1553,
      "台": 1554,
      "号": 1555,
      "司": 1556,
      "各": 1557,
      "合": 1558,
      "同": 1559,
      "名": 1560,
      "向": 1561,
      "告": 1562,
      "味": 1563,
      "和": 1564,
      "品": 1565,
      "員": 1566,
      "商": 1567,
      "問": 1568,
      "営": 1569,
      "器": 1570,
      "回": 1571,
      "国": 1572,
      "國": 1573,
      "土": 1574,
      "在": 1575,
      "地": 1576,
      "型": 1577,
      "城": 1578,
      "域": 1579,
      "基": 1580,
      "報": 1581,
      "場": 1582,
      "境": 1583,
      "士": 1584,
      "売": 1585,
      "备": 1586,
      "変": 1587,
      "外": 1588,
      "多": 1589,
      "大": 1590,
      "天": 1591,
      "太": 1592,
      "好": 1593,
      "始": 1594,
      "子": 1595,
      "学": 1596,
      "宅": 1597,
      "安": 1598,
      "完": 1599,
      "定": 1600,
      "実": 1601,
      "客": 1602,
      "室": 1603,
      "家": 1604,
      "容": 1605,
      "富": 1606,
      "対": 1607,
      "専": 1608,
      "導": 1609,
      "小": 1610,
      "屋": 1611,
      "展": 1612,
      "山": 1613,
      "岡": 1614,
      "島": 1615,
      "川": 1616,
      "工": 1617,
      "市": 1618,
      "布": 1619,
      "常": 1620,
      "平": 1621,
      "年": 1622,
      "広": 1623,
      "应": 1624,
      "店": 1625,
      "度": 1626,
      "建": 1627,
      "弊": 1628,
      "式": 1629,
      "引": 1630,
      "当": 1631,
      "形": 1632,
      "役": 1633,
      "後": 1634,
      "得": 1635,
      "心": 1636,
      "必": 1637,
      "応": 1638,
      "思": 1639,
      "性": 1640,
      "情": 1641,
      "意": 1642,
      "感": 1643,
      "成": 1644,
      "我": 1645,
      "户": 1646,
      "戸": 1647,
      "所": 1648,
      "手": 1649,
      "承": 1650,
      "技": 1651,
      "投": 1652,
      "持": 1653,
      "指": 1654,
      "採": 1655,
      "接": 1656,
      "提": 1657,
      "換": 1658,
      "援": 1659,
      "支": 1660,
      "改": 1661,
      "教": 1662,
      "数": 1663,
      "整": 1664,
      "文": 1665,
      "料": 1666,
      "断": 1667,
      "新": 1668,
      "方": 1669,
      "施": 1670,
      "日": 1671,
      "时": 1672,
      "明": 1673,
      "是": 1674,
      "時": 1675,
      "更": 1676,
      "書": 1677,
      "最": 1678,
      "月": 1679,
      "有": 1680,
      "服": 1681,
      "望": 1682,
      "期": 1683,
      "木": 1684,
      "本": 1685,
      "术": 1686,
      "机": 1687,
      "材": 1688,
      "来": 1689,
      "東": 1690,
      "析": 1691,
      "果": 1692,
      "査": 1693,
      "校": 1694,
      "株": 1695,
      "格": 1696,
      "案": 1697,
      "検": 1698,
      "業": 1699,
      "概": 1700,
      "構": 1701,
      "様": 1702,
      "機": 1703,
      "次": 1704,
      "正": 1705,
      "歩": 1706,
      "気": 1707,
      "水": 1708,
      "求": 1709,
      "決": 1710,
      "法": 1711,
      "注": 1712,
      "活": 1713,
      "流": 1714,
      "海": 1715,
      "温": 1716,
      "測": 1717,
      "港": 1718,
      "源": 1719,
      "灣": 1720,
      "点": 1721,
      "為": 1722,
      "無": 1723,
      "熱": 1724,
      "版": 1725,
      "牌": 1726,
      "物": 1727,
      "特": 1728,
      "状": 1729,
      "現": 1730,
      "球": 1731,
      "理": 1732,
      "環": 1733,
      "生": 1734,
      "産": 1735,
      "用": 1736,
      "田": 1737,
      "申": 1738,
      "电": 1739,
      "町": 1740,
      "画": 1741,
      "界": 1742,
      "番": 1743,
      "療": 1744,
      "発": 1745,
      "登": 1746,
      "的": 1747,
      "目": 1748,
      "相": 1749,
      "県": 1750,
      "真": 1751,
      "着": 1752,
      "知": 1753,
      "石": 1754,
      "研": 1755,
      "確": 1756,
      "示": 1757,
      "社": 1758,
      "神": 1759,
      "福": 1760,
      "私": 1761,
      "科": 1762,
      "程": 1763,
      "税": 1764,
      "種": 1765,
      "積": 1766,
      "空": 1767,
      "立": 1768,
      "站": 1769,
      "端": 1770,
      "第": 1771,
      "等": 1772,
      "策": 1773,
      "简": 1774,
      "管": 1775,
      "築": 1776,
      "精": 1777,
      "系": 1778,
      "約": 1779,
      "素": 1780,
      "索": 1781,
      "紹": 1782,
      "組": 1783,
      "経": 1784,
      "絡": 1785,
      "続": 1786,
      "線": 1787,
      "績": 1788,
      "繁": 1789,
      "经": 1790,
      "统": 1791,
      "网": 1792,
      "置": 1793,
      "美": 1794,
      "考": 1795,
      "者": 1796,
      "联": 1797,
      "育": 1798,
      "能": 1799,
      "自": 1800,
      "致": 1801,
      "與": 1802,
      "般": 1803,
      "良": 1804,
      "行": 1805,
      "術": 1806,
      "表": 1807,
      "装": 1808,
      "製": 1809,
      "西": 1810,
      "要": 1811,
      "見": 1812,
      "規": 1813,
      "覧": 1814,
      "解": 1815,
      "言": 1816,
      "計": 1817,
      "記": 1818,
      "設": 1819,
      "証": 1820,
      "試": 1821,
      "話": 1822,
      "詳": 1823,
      "認": 1824,
      "語": 1825,
      "調": 1826,
      "談": 1827,
      "請": 1828,
      "護": 1829,
      "计": 1830,
      "设": 1831,
      "语": 1832,
      "販": 1833,
      "資": 1834,
      "賞": 1835,
      "質": 1836,
      "購": 1837,
      "资": 1838,
      "路": 1839,
      "車": 1840,
      "転": 1841,
      "載": 1842,
      "込": 1843,
      "近": 1844,
      "返": 1845,
      "送": 1846,
      "通": 1847,
      "速": 1848,
      "造": 1849,
      "連": 1850,
      "進": 1851,
      "運": 1852,
      "道": 1853,
      "適": 1854,
      "選": 1855,
      "部": 1856,
      "都": 1857,
      "配": 1858,
      "酒": 1859,
      "重": 1860,
      "野": 1861,
      "量": 1862,
      "金": 1863,
      "销": 1864,
      "長": 1865,
      "門": 1866,
      "開": 1867,
      "間": 1868,
      "関": 1869,
      "间": 1870,
      "闻": 1871,
      "阪": 1872,
      "防": 1873,
      "限": 1874,
      "際": 1875,
      "集": 1876,
      "電": 1877,
      "面": 1878,
      "音": 1879,
      "頂": 1880,
      "題": 1881,
      "页": 1882,
      "食": 1883,
      "首": 1884,
      "香": 1885,
      "駅": 1886,
      "験": 1887,
      "體": 1888,
      "高": 1889,
      "�": 1890,
      "the": 1891,
      "of": 1892,
      "and": 1893,
      "to": 1894,
      "in": 1895,
      "for": 1896,
      "our": 1897,
      "as": 1898,
      "is": 1899,
      "on": 1900,
      "we": 1901,
      "that": 1902,
      "are": 1903,
      "or": 1904,
      "with": 1905,
      "by": 1906,
      "from": 1907,
      "be": 1908,
      "an": 1909,
      "which": 1910,
      "this": 1911,
      "at": 1912,
      "not": 1913,
      "million": 1914,
      "other": 1915,
      "have": 1916,
      "31": 1917,
      "was": 1918,
      "year": 1919,
      "december": 1920,
      "company": 1921,
      "financial": 1922,
      "interest": 1923,
      "these": 1924,
      "may": 1925,
      "net": 1926,
      "income": 1927,
      "cash": 1928,
      "will": 1929,
      "its": 1930,
      "value": 1931,
      "it": 1932,
      "market": 1933,
      "sales": 1934,
      "increase": 1935,
      "operations": 1936,
      "business": 1937,
      "assets": 1938,
      "costs": 1939,
      "were": 1940,
      "due": 1941,
      "related": 1942,
      "000": 1943,
      "ended": 1944,
      "has": 1945,
      "based": 1946,
      "products": 1947,
      "rate": 1948,
      "such": 1949,
      "results": 1950,
      "all": 1951,
      "tax": 1952,
      "more": 1953,
      "operating": 1954,
      "under": 1955,
      "##s": 1956,
      "new": 1957,
      "services": 1958,
      "also": 1959,
      "stock": 1960,
      "during": 1961,
      "their": 1962,
      "capital": 1963,
      "any": 1964,
      "if": 1965,
      "credit": 1966,
      "primarily": 1967,
      "revenue": 1968,
      "fiscal": 1969,
      "management": 1970,
      "than": 1971,
      "future": 1972,
      "total": 1973,
      "expenses": 1974,
      "can": 1975,
      "us": 1976,
      "result": 1977,
      "information": 1978,
      "years": 1979,
      "cost": 1980,
      "development": 1981,
      "increased": 1982,
      "including": 1983,
      "statements": 1984,
      "could": 1985,
      "expense": 1986,
      "risk": 1987,
      "certain": 1988,
      "no": 1989,
      "period": 1990,
      "time": 1991,
      "compared": 1992,
      "loss": 1993,
      "table": 1994,
      "term": 1995,
      "product": 1996,
      "companys": 1997,
      "been": 1998,
      "one": 1999,
      "through": 2000,
      "accounting": 2001,
      "revenues": 2002,
      "debt": 2003,
      "approximately": 2004,
      "rates": 2005,
      "changes": 2006,
      "2008": 2007,
      "2009": 2008,
      "significant": 2009,
      "service": 2010,
      "price": 2011,
      "used": 2012,
      "2010": 2013,
      "amount": 2014,
      "loans": 2015,
      "fair": 2016,
      "use": 2017,
      "2011": 2018,
      "2007": 2019,
      "loan": 2020,
      "2006": 2021,
      "over": 2022,
      "2013": 2023,
      "2012": 2024,
      "into": 2025,
      "customers": 2026,
      "2005": 2027,
      "activities": 2028,
      "10": 2029,
      "2004": 2030,
      "non": 2031,
      "consolidated": 2032,
      "impact": 2033,
      "2014": 2034,
      "would": 2035,
      "investment": 2036,
      "when": 2037,
      "securities": 2038,
      "decrease": 2039,
      "2003": 2040,
      "additional": 2041,
      "data": 2042,
      "there": 2043,
      "change": 2044,
      "common": 2045,
      "each": 2046,
      "30": 2047,
      "higher": 2048,
      "2002": 2049,
      "between": 2050,
      "about": 2051,
      "well": 2052,
      "average": 2053,
      "they": 2054,
      "losses": 2055,
      "current": 2056,
      "agreement": 2057,
      "but": 2058,
      "factors": 2059,
      "performance": 2060,
      "following": 2061,
      "general": 2062,
      "research": 2063,
      "equity": 2064,
      "customer": 2065,
      "first": 2066,
      "number": 2067,
      "long": 2068,
      "facility": 2069,
      "sale": 2070,
      "basis": 2071,
      "liabilities": 2072,
      "lower": 2073,
      "per": 2074,
      "companies": 2075,
      "effect": 2076,
      "level": 2077,
      "growth": 2078,
      "notes": 2079,
      "those": 2080,
      "share": 2081,
      "do": 2082,
      "had": 2083,
      "addition": 2084,
      "2001": 2085,
      "2015": 2086,
      "estimates": 2087,
      "two": 2088,
      "analysis": 2089,
      "production": 2090,
      "associated": 2091,
      "expected": 2092,
      "quarter": 2093,
      "available": 2094,
      "foreign": 2095,
      "both": 2096,
      "required": 2097,
      "impairment": 2098,
      "purchase": 2099,
      "include": 2100,
      "included": 2101,
      "economic": 2102,
      "bank": 2103,
      "you": 2104,
      "industry": 2105,
      "obligations": 2106,
      "asset": 2107,
      "shares": 2108,
      "most": 2109,
      "after": 2110,
      "conditions": 2111,
      "acquisition": 2112,
      "provide": 2113,
      "quality": 2114,
      "only": 2115,
      "system": 2116,
      "some": 2117,
      "subject": 2118,
      "however": 2119,
      "investments": 2120,
      "offset": 2121,
      "balance": 2122,
      "upon": 2123,
      "insurance": 2124,
      "prior": 2125,
      "15": 2126,
      "date": 2127,
      "recorded": 2128,
      "estimated": 2129,
      "ability": 2130,
      "payments": 2131,
      "effective": 2132,
      "terms": 2133,
      "high": 2134,
      "markets": 2135,
      "using": 2136,
      "amounts": 2137,
      "material": 2138,
      "should": 2139,
      "prices": 2140,
      "compensation": 2141,
      "12": 2142,
      "within": 2143,
      "make": 2144,
      "equipment": 2145,
      "because": 2146,
      "less": 2147,
      "contracts": 2148,
      "third": 2149,
      "contents": 2150,
      "exchange": 2151,
      "gas": 2152,
      "process": 2153,
      "property": 2154,
      "public": 2155,
      "technology": 2156,
      "requirements": 2157,
      "while": 2158,
      "up": 2159,
      "part": 2160,
      "generally": 2161,
      "fees": 2162,
      "segment": 2163,
      "financing": 2164,
      "earnings": 2165,
      "flows": 2166,
      "condition": 2167,
      "support": 2168,
      "provided": 2169,
      "three": 2170,
      "taxes": 2171,
      "note": 2172,
      "commercial": 2173,
      "deferred": 2174,
      "plan": 2175,
      "systems": 2176,
      "see": 2177,
      "marketing": 2178,
      "made": 2179,
      "##a": 2180,
      "11": 2181,
      "outstanding": 2182,
      "portfolio": 2183,
      "model": 2184,
      "recognized": 2185,
      "percentage": 2186,
      "order": 2187,
      "state": 2188,
      "gross": 2189,
      "various": 2190,
      "group": 2191,
      "continue": 2192,
      "real": 2193,
      "states": 2194,
      "control": 2195,
      "existing": 2196,
      "accounts": 2197,
      "corporate": 2198,
      "funds": 2199,
      "where": 2200,
      "believe": 2201,
      "resources": 2202,
      "different": 2203,
      "annual": 2204,
      "facilities": 2205,
      "reporting": 2206,
      "respectively": 2207,
      "increases": 2208,
      "fixed": 2209,
      "energy": 2210,
      "periods": 2211,
      "demand": 2212,
      "potential": 2213,
      "government": 2214,
      "same": 2215,
      "firms": 2216,
      "june": 2217,
      "study": 2218,
      "agreements": 2219,
      "policy": 2220,
      "assumptions": 2221,
      "policies": 2222,
      "experience": 2223,
      "contract": 2224,
      "20": 2225,
      "affect": 2226,
      "employees": 2227,
      "benefit": 2228,
      "decreased": 2229,
      "issued": 2230,
      "liquidity": 2231,
      "work": 2232,
      "who": 2233,
      "benefits": 2234,
      "many": 2235,
      "out": 2236,
      "further": 2237,
      "##e": 2238,
      "above": 2239,
      "payment": 2240,
      "home": 2241,
      "liability": 2242,
      "your": 2243,
      "january": 2244,
      "allowance": 2245,
      "discussion": 2246,
      "international": 2247,
      "federal": 2248,
      "united": 2249,
      "administrative": 2250,
      "end": 2251,
      "line": 2252,
      "2000": 2253,
      "13": 2254,
      "since": 2255,
      "paid": 2256,
      "levels": 2257,
      "september": 2258,
      "risks": 2259,
      "goodwill": 2260,
      "distribution": 2261,
      "report": 2262,
      "firm": 2263,
      "sold": 2264,
      "march": 2265,
      "below": 2266,
      "25": 2267,
      "14": 2268,
      "form": 2269,
      "program": 2270,
      "lease": 2271,
      "al": 2272,
      "construction": 2273,
      "et": 2274,
      "limited": 2275,
      "currency": 2276,
      "100": 2277,
      "transactions": 2278,
      "percent": 2279,
      "partially": 2280,
      "acquired": 2281,
      "reported": 2282,
      "estate": 2283,
      "health": 2284,
      "principal": 2285,
      "forward": 2286,
      "second": 2287,
      "senior": 2288,
      "##i": 2289,
      "board": 2290,
      "countries": 2291,
      "resulting": 2292,
      "regulatory": 2293,
      "months": 2294,
      "among": 2295,
      "pay": 2296,
      "amortization": 2297,
      "includes": 2298,
      "actual": 2299,
      "project": 2300,
      "statement": 2301,
      "oil": 2302,
      "inventory": 2303,
      "being": 2304,
      "mortgage": 2305,
      "important": 2306,
      "currently": 2307,
      "large": 2308,
      "contact": 2309,
      "natural": 2310,
      "power": 2311,
      "how": 2312,
      "so": 2313,
      "case": 2314,
      "specific": 2315,
      "events": 2316,
      "does": 2317,
      "banks": 2318,
      "software": 2319,
      "short": 2320,
      "local": 2321,
      "expect": 2322,
      "supply": 2323,
      "16": 2324,
      "profit": 2325,
      "method": 2326,
      "legal": 2327,
      "manufacturing": 2328,
      "position": 2329,
      "claims": 2330,
      "incurred": 2331,
      "flow": 2332,
      "properties": 2333,
      "reduction": 2334,
      "party": 2335,
      "therefore": 2336,
      "instruments": 2337,
      "received": 2338,
      "charges": 2339,
      "charge": 2340,
      "rights": 2341,
      "private": 2342,
      "valuation": 2343,
      "margin": 2344,
      "selling": 2345,
      "carrying": 2346,
      "reduce": 2347,
      "life": 2348,
      "before": 2349,
      "2016": 2350,
      "18": 2351,
      "portion": 2352,
      "estimate": 2353,
      "plans": 2354,
      "standards": 2355,
      "expenditures": 2356,
      "able": 2357,
      "##o": 2358,
      "whether": 2359,
      "variable": 2360,
      "working": 2361,
      "17": 2362,
      "social": 2363,
      "require": 2364,
      "needs": 2365,
      "thousands": 2366,
      "need": 2367,
      "requires": 2368,
      "off": 2369,
      "values": 2370,
      "provides": 2371,
      "proceeds": 2372,
      "fund": 2373,
      "attributable": 2374,
      "them": 2375,
      "acquisitions": 2376,
      "projects": 2377,
      "50": 2378,
      "units": 2379,
      "likely": 2380,
      "volume": 2381,
      "unit": 2382,
      "determined": 2383,
      "access": 2384,
      "significantly": 2385,
      "security": 2386,
      "against": 2387,
      "must": 2388,
      "environmental": 2389,
      "then": 2390,
      "environment": 2391,
      "act": 2392,
      "ratio": 2393,
      "held": 2394,
      "consumer": 2395,
      "global": 2396,
      "low": 2397,
      "reserves": 2398,
      "provision": 2399,
      "effects": 2400,
      "network": 2401,
      "meet": 2402,
      "connection": 2403,
      "inc": 2404,
      "return": 2405,
      "strategy": 2406,
      "subsidiaries": 2407,
      "##r": 2408,
      "full": 2409,
      "decline": 2410,
      "borrowings": 2411,
      "news": 2412,
      "looking": 2413,
      "reduced": 2414,
      "sheet": 2415,
      "gain": 2416,
      "options": 2417,
      "##d": 2418,
      "transaction": 2419,
      "activity": 2420,
      "solutions": 2421,
      "set": 2422,
      "19": 2423,
      "owned": 2424,
      "section": 2425,
      "regulations": 2426,
      "several": 2427,
      "direct": 2428,
      "overall": 2429,
      "historical": 2430,
      "key": 2431,
      "##t": 2432,
      "adverse": 2433,
      "##n": 2434,
      "28": 2435,
      "employee": 2436,
      "programs": 2437,
      "intangible": 2438,
      "managements": 2439,
      "contractual": 2440,
      "regarding": 2441,
      "21": 2442,
      "similar": 2443,
      "although": 2444,
      "trade": 2445,
      "without": 2446,
      "option": 2447,
      "october": 2448,
      "items": 2449,
      "item": 2450,
      "24": 2451,
      "directors": 2452,
      "design": 2453,
      "account": 2454,
      "22": 2455,
      "accordance": 2456,
      "greater": 2457,
      "gains": 2458,
      "##ing": 2459,
      "positive": 2460,
      "national": 2461,
      "given": 2462,
      "resulted": 2463,
      "capacity": 2464,
      "considered": 2465,
      "depreciation": 2466,
      "sector": 2467,
      "retail": 2468,
      "arrangements": 2469,
      "businesses": 2470,
      "affected": 2471,
      "internal": 2472,
      "preferred": 2473,
      "entered": 2474,
      "small": 2475,
      "base": 2476,
      "possible": 2477,
      "offer": 2478,
      "area": 2479,
      "dollars": 2480,
      "deposits": 2481,
      "competitive": 2482,
      "29": 2483,
      "extent": 2484,
      "defined": 2485,
      "provisions": 2486,
      "receivable": 2487,
      "maintenance": 2488,
      "site": 2489,
      "necessary": 2490,
      "july": 2491,
      "maintain": 2492,
      "sfas": 2493,
      "office": 2494,
      "world": 2495,
      "what": 2496,
      "negative": 2497,
      "care": 2498,
      "fourth": 2499,
      "dividends": 2500,
      "knowledge": 2501,
      "individual": 2502,
      "continued": 2503,
      "beginning": 2504,
      "determine": 2505,
      "critical": 2506,
      "february": 2507,
      "adversely": 2508,
      "standard": 2509,
      "23": 2510,
      "relationship": 2511,
      "primary": 2512,
      "respect": 2513,
      "sources": 2514,
      "remaining": 2515,
      "own": 2516,
      "review": 2517,
      "27": 2518,
      "range": 2519,
      "even": 2520,
      "thus": 2521,
      "example": 2522,
      "excess": 2523,
      "test": 2524,
      "investors": 2525,
      "ii": 2526,
      "materials": 2527,
      "five": 2528,
      "26": 2529,
      "pricing": 2530,
      "adjusted": 2531,
      "measures": 2532,
      "commitments": 2533,
      "measure": 2534,
      "areas": 2535,
      "established": 2536,
      "recent": 2537,
      "paper": 2538,
      "sell": 2539,
      "purposes": 2540,
      "approach": 2541,
      "recognition": 2542,
      "did": 2543,
      "payable": 2544,
      "generated": 2545,
      "completed": 2546,
      "technologies": 2547,
      "laws": 2548,
      "aggregate": 2549,
      "people": 2550,
      "strategic": 2551,
      "funding": 2552,
      "major": 2553,
      "trading": 2554,
      "parties": 2555,
      "##l": 2556,
      "discussed": 2557,
      "restructuring": 2558,
      "april": 2559,
      "cannot": 2560,
      "event": 2561,
      "present": 2562,
      "professional": 2563,
      "find": 2564,
      "country": 2565,
      "applicable": 2566,
      "industrial": 2567,
      "application": 2568,
      "compliance": 2569,
      "derivative": 2570,
      "take": 2571,
      "best": 2572,
      "november": 2573,
      "particular": 2574,
      "exposure": 2575,
      "law": 2576,
      "reserve": 2577,
      "point": 2578,
      "either": 2579,
      "license": 2580,
      "described": 2581,
      "personnel": 2582,
      "fee": 2583,
      "four": 2584,
      "returns": 2585,
      "water": 2586,
      "develop": 2587,
      "corporation": 2588,
      "structure": 2589,
      "leases": 2590,
      "pension": 2591,
      "competition": 2592,
      "maturity": 2593,
      "size": 2594,
      "developed": 2595,
      "trust": 2596,
      "finance": 2597,
      "day": 2598,
      "ownership": 2599,
      "food": 2600,
      "continuing": 2601,
      "brand": 2602,
      "relating": 2603,
      "become": 2604,
      "past": 2605,
      "efforts": 2606,
      "previously": 2607,
      "studies": 2608,
      "revolving": 2609,
      "decision": 2610,
      "focus": 2611,
      "40": 2612,
      "presented": 2613,
      "shareholders": 2614,
      "delivery": 2615,
      "partners": 2616,
      "making": 2617,
      "days": 2618,
      "increasing": 2619,
      "store": 2620,
      "type": 2621,
      "according": 2622,
      "improve": 2623,
      "variables": 2624,
      "until": 2625,
      "innovation": 2626,
      "circumstances": 2627,
      "banking": 2628,
      "very": 2629,
      "materially": 2630,
      "initial": 2631,
      "settlement": 2632,
      "independent": 2633,
      "components": 2634,
      "##m": 2635,
      "sufficient": 2636,
      "main": 2637,
      "institutions": 2638,
      "issues": 2639,
      "series": 2640,
      "##c": 2641,
      "dollar": 2642,
      "technical": 2643,
      "adoption": 2644,
      "gaap": 2645,
      "august": 2646,
      "purchased": 2647,
      "next": 2648,
      "domestic": 2649,
      "offering": 2650,
      "obtain": 2651,
      "goods": 2652,
      "issuance": 2653,
      "secured": 2654,
      "organization": 2655,
      "##er": 2656,
      "timing": 2657,
      "appropriate": 2658,
      "interests": 2659,
      "minimum": 2660,
      "opportunities": 2661,
      "implementation": 2662,
      "substantial": 2663,
      "00": 2664,
      "joint": 2665,
      "medical": 2666,
      "plus": 2667,
      "realized": 2668,
      "subsidiary": 2669,
      "35": 2670,
      "differences": 2671,
      "better": 2672,
      "land": 2673,
      "clinical": 2674,
      "entities": 2675,
      "##ed": 2676,
      "place": 2677,
      "protection": 2678,
      "read": 2679,
      "adjustments": 2680,
      "##y": 2681,
      "building": 2682,
      "discount": 2683,
      "2017": 2684,
      "pre": 2685,
      "cause": 2686,
      "right": 2687,
      "consumers": 2688,
      "1999": 2689,
      "way": 2690,
      "lines": 2691,
      "pursuant": 2692,
      "receive": 2693,
      "directly": 2694,
      "substantially": 2695,
      "nature": 2696,
      "de": 2697,
      "relationships": 2698,
      "500": 2699,
      "found": 2700,
      "reflect": 2701,
      "points": 2702,
      "center": 2703,
      "plant": 2704,
      "month": 2705,
      "issue": 2706,
      "least": 2707,
      "across": 2708,
      "advertising": 2709,
      "consider": 2710,
      "segments": 2711,
      "types": 2712,
      "training": 2713,
      "fully": 2714,
      "now": 2715,
      "china": 2716,
      "follows": 2717,
      "fuel": 2718,
      "processing": 2719,
      "online": 2720,
      "operation": 2721,
      "balances": 2722,
      "economy": 2723,
      "down": 2724,
      "clients": 2725,
      "deposit": 2726,
      "represents": 2727,
      "repurchase": 2728,
      "free": 2729,
      "class": 2730,
      "anticipated": 2731,
      "personal": 2732,
      "disclosure": 2733,
      "believes": 2734,
      "majority": 2735,
      "last": 2736,
      "internet": 2737,
      "evidence": 2738,
      "purchases": 2739,
      "help": 2740,
      "record": 2741,
      "lived": 2742,
      "safety": 2743,
      "actions": 2744,
      "fluctuations": 2745,
      "single": 2746,
      "accrued": 2747,
      "located": 2748,
      "website": 2749,
      "differ": 2750,
      "equal": 2751,
      "driven": 2752,
      "assessment": 2753,
      "special": 2754,
      "quarterly": 2755,
      "often": 2756,
      "strategies": 2757,
      "##p": 2758,
      "manage": 2759,
      "practices": 2760,
      "processes": 2761,
      "strong": 2762,
      "stores": 2763,
      "relative": 2764,
      "cases": 2765,
      "39": 2766,
      "good": 2767,
      "stockholders": 2768,
      "executive": 2769,
      "weighted": 2770,
      "outside": 2771,
      "litigation": 2772,
      "providing": 2773,
      "com": 2774,
      "members": 2775,
      "might": 2776,
      "trends": 2777,
      "early": 2778,
      "excluding": 2779,
      "33": 2780,
      "community": 2781,
      "treatment": 2782,
      "convertible": 2783,
      "32": 2784,
      "role": 2785,
      "source": 2786,
      "experienced": 2787,
      "residential": 2788,
      "efficiency": 2789,
      "applications": 2790,
      "favorable": 2791,
      "open": 2792,
      "media": 2793,
      "impacted": 2794,
      "north": 2795,
      "infrastructure": 2796,
      "profitability": 2797,
      "availability": 2798,
      "shows": 2799,
      "guidance": 2800,
      "margins": 2801,
      "yield": 2802,
      "family": 2803,
      "34": 2804,
      "billion": 2805,
      "developing": 2806,
      "judgments": 2807,
      "others": 2808,
      "additionally": 2809,
      "agency": 2810,
      "models": 2811,
      "sample": 2812,
      "means": 2813,
      "investing": 2814,
      "60": 2815,
      "consistent": 2816,
      "human": 2817,
      "matters": 2818,
      "another": 2819,
      "region": 2820,
      "labor": 2821,
      "dependent": 2822,
      "core": 2823,
      "approval": 2824,
      "##g": 2825,
      "underlying": 2826,
      "collateral": 2827,
      "regulation": 2828,
      "generation": 2829,
      "success": 2830,
      "organizations": 2831,
      "45": 2832,
      "complete": 2833,
      "operate": 2834,
      "comprehensive": 2835,
      "contacts": 2836,
      "highly": 2837,
      "discontinued": 2838,
      "principles": 2839,
      "fasb": 2840,
      "collection": 2841,
      "enterprise": 2842,
      "characteristics": 2843,
      "earned": 2844,
      "uses": 2845,
      "staff": 2846,
      "equivalents": 2847,
      "typically": 2848,
      "write": 2849,
      "default": 2850,
      "america": 2851,
      "difference": 2852,
      "european": 2853,
      "reflected": 2854,
      "managers": 2855,
      "previous": 2856,
      "europe": 2857,
      "groups": 2858,
      "adjustment": 2859,
      "suppliers": 2860,
      "premium": 2861,
      "rules": 2862,
      "obligation": 2863,
      "recognize": 2864,
      "longer": 2865,
      "content": 2866,
      "co": 2867,
      "city": 2868,
      "accounted": 2869,
      "48": 2870,
      "accordingly": 2871,
      "volatility": 2872,
      "mix": 2873,
      "entity": 2874,
      "education": 2875,
      "useful": 2876,
      "disclosures": 2877,
      "volumes": 2878,
      "coverage": 2879,
      "improved": 2880,
      "component": 2881,
      "otherwise": 2882,
      "except": 2883,
      "external": 2884,
      "show": 2885,
      "amended": 2886,
      "failure": 2887,
      "36": 2888,
      "dividend": 2889,
      "achieve": 2890,
      "identified": 2891,
      "much": 2892,
      "millions": 2893,
      "combined": 2894,
      "view": 2895,
      "relevant": 2896,
      "##k": 2897,
      "consideration": 2898,
      "particularly": 2899,
      "money": 2900,
      "difficult": 2901,
      "successful": 2902,
      "expansion": 2903,
      "influence": 2904,
      "team": 2905,
      "generate": 2906,
      "positions": 2907,
      "##ly": 2908,
      "exercise": 2909,
      "evaluate": 2910,
      "multiple": 2911,
      "industries": 2912,
      "90": 2913,
      "forth": 2914,
      "assurance": 2915,
      "known": 2916,
      "merger": 2917,
      "electric": 2918,
      "evaluation": 2919,
      "factor": 2920,
      "covenants": 2921,
      "taxable": 2922,
      "##1": 2923,
      "subsequent": 2924,
      "##0": 2925,
      "cookies": 2926,
      "bearing": 2927,
      "index": 2928,
      "lead": 2929,
      "alternative": 2930,
      "action": 2931,
      "reflects": 2932,
      "like": 2933,
      "unable": 2934,
      "rather": 2935,
      "46": 2936,
      "partner": 2937,
      "methods": 2938,
      "reports": 2939,
      "measurement": 2940,
      "literature": 2941,
      "ongoing": 2942,
      "combination": 2943,
      "audit": 2944,
      "uncertainties": 2945,
      "field": 2946,
      "transportation": 2947,
      "comparable": 2948,
      "enterprises": 2949,
      "workers": 2950,
      "represent": 2951,
      "receivables": 2952,
      "agencies": 2953,
      "problems": 2954,
      "37": 2955,
      "llc": 2956,
      "users": 2957,
      "improvement": 2958,
      "still": 2959,
      "final": 2960,
      "planning": 2961,
      "##es": 2962,
      "premiums": 2963,
      "twelve": 2964,
      "awards": 2965,
      "address": 2966,
      "temporary": 2967,
      "governance": 2968,
      "200": 2969,
      "ensure": 2970,
      "decisions": 2971,
      "hand": 2972,
      "recovery": 2973,
      "occur": 2974,
      "venture": 2975,
      "reasonable": 2976,
      "employment": 2977,
      "selected": 2978,
      "incentive": 2979,
      "38": 2980,
      "largest": 2981,
      "applied": 2982,
      "allow": 2983,
      "competitors": 2984,
      "rental": 2985,
      "##2": 2986,
      "approved": 2987,
      "fact": 2988,
      "measured": 2989,
      "regional": 2990,
      "create": 2991,
      "relatively": 2992,
      "orders": 2993,
      "operational": 2994,
      "expectations": 2995,
      "##b": 2996,
      "transfer": 2997,
      "complex": 2998,
      "indicated": 2999,
      "engineering": 3000,
      "ebitda": 3001,
      "mainly": 3002,
      "purpose": 3003,
      "larger": 3004,
      "taken": 3005,
      "completion": 3006,
      "problem": 3007,
      "via": 3008,
      "shown": 3009,
      "performed": 3010,
      "adopted": 3011,
      "scale": 3012,
      "determining": 3013,
      "commitment": 3014,
      "judgment": 3015,
      "##h": 3016,
      "commodity": 3017,
      "chain": 3018,
      "partnership": 3019,
      "response": 3020,
      "self": 3021,
      "status": 3022,
      "designed": 3023,
      "75": 3024,
      "limit": 3025,
      "throughout": 3026,
      "holding": 3027,
      "together": 3028,
      "his": 3029,
      "classified": 3030,
      "court": 3031,
      "space": 3032,
      "savings": 3033,
      "obtained": 3034,
      "mobile": 3035,
      "calculated": 3036,
      "course": 3037,
      "iii": 3038,
      "consists": 3039,
      "offers": 3040,
      "identify": 3041,
      "six": 3042,
      "commission": 3043,
      "decreases": 3044,
      "degree": 3045,
      "he": 3046,
      "initiatives": 3047,
      "testing": 3048,
      "borrowing": 3049,
      "amortized": 3050,
      "spending": 3051,
      "variety": 3052,
      "accepted": 3053,
      "warrants": 3054,
      "search": 3055,
      "44": 3056,
      "digital": 3057,
      "42": 3058,
      "patent": 3059,
      "basic": 3060,
      "category": 3061,
      "termination": 3062,
      "criteria": 3063,
      "post": 3064,
      "hedge": 3065,
      "incur": 3066,
      "leading": 3067,
      "transport": 3068,
      "41": 3069,
      "enter": 3070,
      "indebtedness": 3071,
      "restricted": 3072,
      "re": 3073,
      "book": 3074,
      "filed": 3075,
      "involved": 3076,
      "principally": 3077,
      "written": 3078,
      "half": 3079,
      "anticipate": 3080,
      "earning": 3081,
      "2018": 3082,
      "improvements": 3083,
      "retirement": 3084,
      "conversion": 3085,
      "page": 3086,
      "participants": 3087,
      "projected": 3088,
      "south": 3089,
      "traditional": 3090,
      "department": 3091,
      "wide": 3092,
      "here": 3093,
      "web": 3094,
      "leverage": 3095,
      "phase": 3096,
      "providers": 3097,
      "integration": 3098,
      "parts": 3099,
      "consulting": 3100,
      "lack": 3101,
      "43": 3102,
      "proposed": 3103,
      "consist": 3104,
      "maximum": 3105,
      "organizational": 3106,
      "adequate": 3107,
      "assumed": 3108,
      "history": 3109,
      "framework": 3110,
      "raw": 3111,
      "allows": 3112,
      "claim": 3113,
      "user": 3114,
      "air": 3115,
      "function": 3116,
      "reductions": 3117,
      "every": 3118,
      "figure": 3119,
      "storage": 3120,
      "##u": 3121,
      "uncertainty": 3122,
      "hotel": 3123,
      "practice": 3124,
      "rating": 3125,
      "##f": 3126,
      "name": 3127,
      "original": 3128,
      "central": 3129,
      "having": 3130,
      "added": 3131,
      "communication": 3132,
      "conducted": 3133,
      "step": 3134,
      "things": 3135,
      "times": 3136,
      "impaired": 3137,
      "lending": 3138,
      "bonds": 3139,
      "individuals": 3140,
      "especially": 3141,
      "contingent": 3142,
      "closing": 3143,
      "perform": 3144,
      "80": 3145,
      "qualitative": 3146,
      "##x": 3147,
      "respondents": 3148,
      "intellectual": 3149,
      "back": 3150,
      "negatively": 3151,
      "location": 3152,
      "monthly": 3153,
      "privacy": 3154,
      "##on": 3155,
      "remain": 3156,
      "procedures": 3157,
      "networks": 3158,
      "active": 3159,
      "grant": 3160,
      "inflation": 3161,
      "locations": 3162,
      "70": 3163,
      "client": 3164,
      "technological": 3165,
      "categories": 3166,
      "guarantee": 3167,
      "47": 3168,
      "beyond": 3169,
      "job": 3170,
      "manufacturers": 3171,
      "derived": 3172,
      "political": 3173,
      "top": 3174,
      "stage": 3175,
      "face": 3176,
      "holders": 3177,
      "unrealized": 3178,
      "49": 3179,
      "normal": 3180,
      "monitoring": 3181,
      "capitalized": 3182,
      "determination": 3183,
      "indicate": 3184,
      "52": 3185,
      "granted": 3186,
      "target": 3187,
      "brands": 3188,
      "arrangement": 3189,
      "advantage": 3190,
      "american": 3191,
      "managed": 3192,
      "around": 3193,
      "understanding": 3194,
      "55": 3195,
      "cumulative": 3196,
      "needed": 3197,
      "reasonably": 3198,
      "resource": 3199,
      "start": 3200,
      "elements": 3201,
      "agreed": 3202,
      "along": 3203,
      "president": 3204,
      "committee": 3205,
      "get": 3206,
      "respective": 3207,
      "platform": 3208,
      "satisfaction": 3209,
      "acquire": 3210,
      "rent": 3211,
      "sets": 3212,
      "focused": 3213,
      "officer": 3214,
      "summary": 3215,
      "1998": 3216,
      "healthcare": 3217,
      "disposal": 3218,
      "integrated": 3219,
      "charged": 3220,
      "distributions": 3221,
      "sec": 3222,
      "yet": 3223,
      "apply": 3224,
      "subordinated": 3225,
      "tel": 3226,
      "restrictions": 3227,
      "drilling": 3228,
      "code": 3229,
      "travel": 3230,
      "51": 3231,
      "vary": 3232,
      "allocation": 3233,
      "profits": 3234,
      "tools": 3235,
      "derivatives": 3236,
      "allocated": 3237,
      "population": 3238,
      "reinsurance": 3239,
      "seek": 3240,
      "300": 3241,
      "depend": 3242,
      "utility": 3243,
      "drug": 3244,
      "comparison": 3245,
      "assess": 3246,
      "productivity": 3247,
      "produce": 3248,
      "depending": 3249,
      "housing": 3250,
      "holdings": 3251,
      "indicators": 3252,
      "effectively": 3253,
      "wholesale": 3254,
      "expand": 3255,
      "specified": 3256,
      "conduct": 3257,
      "force": 3258,
      "age": 3259,
      "allowances": 3260,
      "institutional": 3261,
      "patients": 3262,
      "agricultural": 3263,
      "quantitative": 3264,
      "member": 3265,
      "represented": 3266,
      "context": 3267,
      "separate": 3268,
      "preparation": 3269,
      "responsible": 3270,
      "california": 3271,
      "implemented": 3272,
      "survey": 3273,
      "communications": 3274,
      "hedging": 3275,
      "former": 3276,
      "waste": 3277,
      "behavior": 3278,
      "findings": 3279,
      "historically": 3280,
      "call": 3281,
      "logistics": 3282,
      "electronic": 3283,
      "establish": 3284,
      "53": 3285,
      "www": 3286,
      "65": 3287,
      "objective": 3288,
      "manager": 3289,
      "sites": 3290,
      "began": 3291,
      "cross": 3292,
      "electricity": 3293,
      "presents": 3294,
      "objectives": 3295,
      "importance": 3296,
      "largely": 3297,
      "maturities": 3298,
      "occurred": 3299,
      "totaled": 3300,
      "changing": 3301,
      "##3": 3302,
      "lives": 3303,
      "worldwide": 3304,
      "investor": 3305,
      "uncertain": 3306,
      "swap": 3307,
      "mail": 3308,
      "specifically": 3309,
      "whole": 3310,
      "consumption": 3311,
      "ratios": 3312,
      "##5": 3313,
      "responsibility": 3314,
      "know": 3315,
      "comprised": 3316,
      "efficient": 3317,
      "reducing": 3318,
      "canada": 3319,
      "details": 3320,
      "division": 3321,
      "authorities": 3322,
      "caused": 3323,
      "square": 3324,
      "solution": 3325,
      "contains": 3326,
      "multi": 3327,
      "ratings": 3328,
      "card": 3329,
      "##v": 3330,
      "overview": 3331,
      "recently": 3332,
      "registration": 3333,
      "opportunity": 3334,
      "taking": 3335,
      "attention": 3336,
      "libor": 3337,
      "asc": 3338,
      "involve": 3339,
      "successfully": 3340,
      "manner": 3341,
      "conjunction": 3342,
      "qualified": 3343,
      "always": 3344,
      "regions": 3345,
      "comply": 3346,
      "chief": 3347,
      "##in": 3348,
      "inventories": 3349,
      "going": 3350,
      "info": 3351,
      "few": 3352,
      "performing": 3353,
      "close": 3354,
      "theory": 3355,
      "credits": 3356,
      "centers": 3357,
      "funded": 3358,
      "contributed": 3359,
      "bankruptcy": 3360,
      "transition": 3361,
      "carried": 3362,
      "capabilities": 3363,
      "limitations": 3364,
      "letters": 3365,
      "offerings": 3366,
      "totaling": 3367,
      "150": 3368,
      "sharing": 3369,
      "incentives": 3370,
      "controls": 3371,
      "request": 3372,
      "participation": 3373,
      "probability": 3374,
      "sustainable": 3375,
      "furthermore": 3376,
      "##4": 3377,
      "created": 3378,
      "equivalent": 3379,
      "administration": 3380,
      "guarantees": 3381,
      "contained": 3382,
      "diluted": 3383,
      "towards": 3384,
      "makes": 3385,
      "patents": 3386,
      "supplier": 3387,
      "hold": 3388,
      "growing": 3389,
      "sectors": 3390,
      "54": 3391,
      "corresponding": 3392,
      "asia": 3393,
      "stated": 3394,
      "##en": 3395,
      "intended": 3396,
      "contribution": 3397,
      "daily": 3398,
      "raise": 3399,
      "invested": 3400,
      "reference": 3401,
      "advanced": 3402,
      "video": 3403,
      "selection": 3404,
      "innovative": 3405,
      "invest": 3406,
      "refer": 3407,
      "students": 3408,
      "entire": 3409,
      "depends": 3410,
      "computer": 3411,
      "closed": 3412,
      "choice": 3413,
      "transmission": 3414,
      "evaluating": 3415,
      "vehicles": 3416,
      "buy": 3417,
      "offered": 3418,
      "affiliates": 3419,
      "reasons": 3420,
      "amendment": 3421,
      "build": 3422,
      "questions": 3423,
      "56": 3424,
      "currencies": 3425,
      "announced": 3426,
      "just": 3427,
      "devices": 3428,
      "follow": 3429,
      "interim": 3430,
      "concept": 3431,
      "functions": 3432,
      "commissions": 3433,
      "challenges": 3434,
      "effort": 3435,
      "mr": 3436,
      "enhance": 3437,
      "vehicle": 3438,
      "ending": 3439,
      "notice": 3440,
      "250": 3441,
      "provider": 3442,
      "extended": 3443,
      "unsecured": 3444,
      "dates": 3445,
      "communities": 3446,
      "give": 3447,
      "licensing": 3448,
      "##al": 3449,
      "finally": 3450,
      "offices": 3451,
      "consisted": 3452,
      "produced": 3453,
      "rule": 3454,
      "list": 3455,
      "plants": 3456,
      "backed": 3457,
      "licenses": 3458,
      "1997": 3459,
      "officers": 3460,
      "moreover": 3461,
      "57": 3462,
      "royalty": 3463,
      "proprietary": 3464,
      "400": 3465,
      "district": 3466,
      "quarters": 3467,
      "outcome": 3468,
      "58": 3469,
      "aspects": 3470,
      "la": 3471,
      "advances": 3472,
      "crisis": 3473,
      "sensitive": 3474,
      "learning": 3475,
      "coal": 3476,
      "already": 3477,
      "managing": 3478,
      "features": 3479,
      "warranty": 3480,
      "probable": 3481,
      "exceed": 3482,
      "pro": 3483,
      "steel": 3484,
      "empirical": 3485,
      "spread": 3486,
      "123": 3487,
      "achieved": 3488,
      "versus": 3489,
      "etc": 3490,
      "highest": 3491,
      "inherent": 3492,
      "intend": 3493,
      "consolidation": 3494,
      "listed": 3495,
      "cover": 3496,
      "authority": 3497,
      "predict": 3498,
      "noted": 3499,
      "developments": 3500,
      "light": 3501,
      "ultimate": 3502,
      "legislation": 3503,
      "fda": 3504,
      "declined": 3505,
      "##z": 3506,
      "affecting": 3507,
      "choose": 3508,
      "ltd": 3509,
      "sensitivity": 3510,
      "salaries": 3511,
      "elsewhere": 3512,
      "distributors": 3513,
      "great": 3514,
      "led": 3515,
      "exploration": 3516,
      "contain": 3517,
      "collected": 3518,
      "emerging": 3519,
      "borrowers": 3520,
      "contributions": 3521,
      "near": 3522,
      "tourism": 3523,
      "covered": 3524,
      "continues": 3525,
      "01": 3526,
      "association": 3527,
      "export": 3528,
      "effectiveness": 3529,
      "exposed": 3530,
      "manufacture": 3531,
      "house": 3532,
      "university": 3533,
      "lenders": 3534,
      "59": 3535,
      "utilization": 3536,
      "press": 3537,
      "carry": 3538,
      "agent": 3539,
      "acceptance": 3540,
      "patient": 3541,
      "planned": 3542,
      "implement": 3543,
      "physical": 3544,
      "underwriting": 3545,
      "skills": 3546,
      "protect": 3547,
      "school": 3548,
      "servicing": 3549,
      "tests": 3550,
      "york": 3551,
      "compete": 3552,
      "mean": 3553,
      "once": 3554,
      "repayment": 3555,
      "expects": 3556,
      "channel": 3557,
      "declines": 3558,
      "turn": 3559,
      "phone": 3560,
      "texas": 3561,
      "owners": 3562,
      "goals": 3563,
      "61": 3564,
      "weather": 3565,
      "director": 3566,
      "retain": 3567,
      "05": 3568,
      "representing": 3569,
      "trend": 3570,
      "unless": 3571,
      "delivered": 3572,
      "uk": 3573,
      "1995": 3574,
      "meeting": 3575,
      "creation": 3576,
      "62": 3577,
      "scope": 3578,
      "culture": 3579,
      "smaller": 3580,
      "annually": 3581,
      "statutory": 3582,
      "corporations": 3583,
      "person": 3584,
      "detailed": 3585,
      "question": 3586,
      "limits": 3587,
      "unique": 3588,
      "denominated": 3589,
      "grow": 3590,
      "treasury": 3591,
      "reflecting": 3592,
      "accrual": 3593,
      "##an": 3594,
      "serve": 3595,
      "presentation": 3596,
      "wells": 3597,
      "put": 3598,
      "zero": 3599,
      "despite": 3600,
      "improving": 3601,
      "presence": 3602,
      "accumulated": 3603,
      "situation": 3604,
      "thousand": 3605,
      "prepared": 3606,
      "proceedings": 3607,
      "purchasing": 3608,
      "ten": 3609,
      "discounted": 3610,
      "scheduled": 3611,
      "installation": 3612,
      "concern": 3613,
      "offs": 3614,
      "car": 3615,
      "pressure": 3616,
      "collaboration": 3617,
      "swaps": 3618,
      "run": 3619,
      "utilize": 3620,
      "timely": 3621,
      "fax": 3622,
      "monitor": 3623,
      "outcomes": 3624,
      "64": 3625,
      "sustainability": 3626,
      "63": 3627,
      "deemed": 3628,
      "doubtful": 3629,
      "yields": 3630,
      "met": 3631,
      "ventures": 3632,
      "##us": 3633,
      "today": 3634,
      "relation": 3635,
      "##6": 3636,
      "enable": 3637,
      "hypothesis": 3638,
      "advance": 3639,
      "impacts": 3640,
      "95": 3641,
      "becomes": 3642,
      "trial": 3643,
      "66": 3644,
      "supplies": 3645,
      "reason": 3646,
      "registered": 3647,
      "##ers": 3648,
      "canadian": 3649,
      "email": 3650,
      "potentially": 3651,
      "##ia": 3652,
      "agents": 3653,
      "methodology": 3654,
      "85": 3655,
      "pipeline": 3656,
      "aircraft": 3657,
      "perceived": 3658,
      "jurisdictions": 3659,
      "exclusive": 3660,
      "usage": 3661,
      "packaging": 3662,
      "goal": 3663,
      "trials": 3664,
      "introduction": 3665,
      "medium": 3666,
      "relations": 3667,
      "called": 3668,
      "bad": 3669,
      "1996": 3670,
      "shareholder": 3671,
      "numerous": 3672,
      "institution": 3673,
      "later": 3674,
      "farmers": 3675,
      "assumption": 3676,
      "utilized": 3677,
      "please": 3678,
      "inputs": 3679,
      "interpretation": 3680,
      "regulated": 3681,
      "hours": 3682,
      "67": 3683,
      "eu": 3684,
      "##is": 3685,
      "leased": 3686,
      "society": 3687,
      "italy": 3688,
      "go": 3689,
      "award": 3690,
      "update": 3691,
      "release": 3692,
      "calculation": 3693,
      "involves": 3694,
      "142": 3695,
      "became": 3696,
      "instrument": 3697,
      "800": 3698,
      "requirement": 3699,
      "understand": 3700,
      "restaurant": 3701,
      "earlier": 3702,
      "considering": 3703,
      "iv": 3704,
      "clear": 3705,
      "reviews": 3706,
      "generating": 3707,
      "owner": 3708,
      "satisfy": 3709,
      "wholly": 3710,
      "progress": 3711,
      "japan": 3712,
      "exists": 3713,
      "though": 3714,
      "article": 3715,
      "indicates": 3716,
      "add": 3717,
      "relates": 3718,
      "regression": 3719,
      "forms": 3720,
      "guidelines": 3721,
      "little": 3722,
      "works": 3723,
      "##rs": 3724,
      "##8": 3725,
      "expertise": 3726,
      "arising": 3727,
      "constant": 3728,
      "seen": 3729,
      "controlling": 3730,
      "optimal": 3731,
      "green": 3732,
      "ways": 3733,
      "geographic": 3734,
      "budget": 3735,
      "hence": 3736,
      "commerce": 3737,
      "partnerships": 3738,
      "600": 3739,
      "operated": 3740,
      "unfavorable": 3741,
      "candidates": 3742,
      "di": 3743,
      "##7": 3744,
      "concerning": 3745,
      "broad": 3746,
      "east": 3747,
      "reform": 3748,
      "opinion": 3749,
      "exit": 3750,
      "deliver": 3751,
      "summarizes": 3752,
      "sub": 3753,
      "consisting": 3754,
      "cycle": 3755,
      "mining": 3756,
      "rely": 3757,
      "instead": 3758,
      "maintaining": 3759,
      "reliability": 3760,
      "71": 3761,
      "bond": 3762,
      "euro": 3763,
      "authorized": 3764,
      "redemption": 3765,
      "mexico": 3766,
      "marketable": 3767,
      "srl": 3768,
      "changed": 3769,
      "placed": 3770,
      "exceeds": 3771,
      "want": 3772,
      "definition": 3773,
      "68": 3774,
      "indirect": 3775,
      "wireless": 3776,
      "en": 3777,
      "prime": 3778,
      "72": 3779,
      "road": 3780,
      "structures": 3781,
      "techniques": 3782,
      "secure": 3783,
      "documents": 3784,
      "guaranteed": 3785,
      "usually": 3786,
      "certificates": 3787,
      "vice": 3788,
      "english": 3789,
      "exist": 3790,
      "governmental": 3791,
      "modern": 3792,
      "hardware": 3793,
      "traded": 3794,
      "urban": 3795,
      "acceptable": 3796,
      "prevent": 3797,
      "reviewed": 3798,
      "perspective": 3799,
      "evaluated": 3800,
      "women": 3801,
      "why": 3802,
      "my": 3803,
      "channels": 3804,
      "##able": 3805,
      "69": 3806,
      "rural": 3807,
      "crude": 3808,
      "recoverable": 3809,
      "modified": 3810,
      "restaurants": 3811,
      "immediately": 3812,
      "whose": 3813,
      "99": 3814,
      "referred": 3815,
      "accompanying": 3816,
      "relate": 3817,
      "allowed": 3818,
      "black": 3819,
      "come": 3820,
      "functional": 3821,
      "severance": 3822,
      "correlation": 3823,
      "contribute": 3824,
      "climate": 3825,
      "cooperation": 3826,
      "words": 3827,
      "damage": 3828,
      "stakeholders": 3829,
      "extend": 3830,
      "engage": 3831,
      "late": 3832,
      "ultimately": 3833,
      "03": 3834,
      "09": 3835,
      "##co": 3836,
      "hotels": 3837,
      "fail": 3838,
      "committed": 3839,
      "pharmaceutical": 3840,
      "poor": 3841,
      "regard": 3842,
      "contingencies": 3843,
      "assume": 3844,
      "element": 3845,
      "specialty": 3846,
      "west": 3847,
      "governments": 3848,
      "occupancy": 3849,
      "assistance": 3850,
      "output": 3851,
      "select": 3852,
      "recurring": 3853,
      "india": 3854,
      "insured": 3855,
      "73": 3856,
      "engaged": 3857,
      "likelihood": 3858,
      "suggest": 3859,
      "st": 3860,
      "emissions": 3861,
      "copyright": 3862,
      "title": 3863,
      "union": 3864,
      "file": 3865,
      "minority": 3866,
      "reimbursement": 3867,
      "delay": 3868,
      "penalties": 3869,
      "utilities": 3870,
      "realize": 3871,
      "repair": 3872,
      "seven": 3873,
      "remains": 3874,
      "terminated": 3875,
      "promotion": 3876,
      "consequently": 3877,
      "reputation": 3878,
      "restated": 3879,
      "02": 3880,
      "incremental": 3881,
      "shift": 3882,
      "patterns": 3883,
      "157": 3884,
      "fin": 3885,
      "##ic": 3886,
      "filing": 3887,
      "profile": 3888,
      "suggests": 3889,
      "##as": 3890,
      "concerns": 3891,
      "buildings": 3892,
      "discounts": 3893,
      "opening": 3894,
      "gap": 3895,
      "germany": 3896,
      "duration": 3897,
      "asu": 3898,
      "economies": 3899,
      "##w": 3900,
      "extensive": 3901,
      "chinese": 3902,
      "observed": 3903,
      "expanded": 3904,
      "revised": 3905,
      "strength": 3906,
      "74": 3907,
      "side": 3908,
      "permitted": 3909,
      "77": 3910,
      "shopping": 3911,
      "automotive": 3912,
      "france": 3913,
      "expiration": 3914,
      "entry": 3915,
      "professionals": 3916,
      "##9": 3917,
      "matter": 3918,
      "map": 3919,
      "##ra": 3920,
      "publicly": 3921,
      "almost": 3922,
      "sheets": 3923,
      "principle": 3924,
      "statistics": 3925,
      "introduced": 3926,
      "jobs": 3927,
      "topic": 3928,
      "76": 3929,
      "delays": 3930,
      "producing": 3931,
      "##te": 3932,
      "manufacturer": 3933,
      "organic": 3934,
      "creating": 3935,
      "overhead": 3936,
      "tool": 3937,
      "possibility": 3938,
      "parent": 3939,
      "done": 3940,
      "slightly": 3941,
      "periodic": 3942,
      "tend": 3943,
      "mechanism": 3944,
      "78": 3945,
      "metal": 3946,
      "learn": 3947,
      "attract": 3948,
      "distributed": 3949,
      "africa": 3950,
      "sum": 3951,
      "far": 3952,
      "hospital": 3953,
      "takes": 3954,
      "inability": 3955,
      "vendors": 3956,
      "08": 3957,
      "replacement": 3958,
      "debentures": 3959,
      "play": 3960,
      "floating": 3961,
      "extension": 3962,
      "retained": 3963,
      "room": 3964,
      "81": 3965,
      "flexibility": 3966,
      "resolution": 3967,
      "ceo": 3968,
      "latest": 3969,
      "itself": 3970,
      "ordinary": 3971,
      "letter": 3972,
      "description": 3973,
      "##le": 3974,
      "mentioned": 3975,
      "length": 3976,
      "russia": 3977,
      "stable": 3978,
      "reliable": 3979,
      "repay": 3980,
      "estimating": 3981,
      "rise": 3982,
      "remained": 3983,
      "assessing": 3984,
      "warrant": 3985,
      "grade": 3986,
      "branch": 3987,
      "old": 3988,
      "consent": 3989,
      "payroll": 3990,
      "device": 3991,
      "exposures": 3992,
      "secondary": 3993,
      "occurs": 3994,
      "coefficient": 3995,
      "120": 3996,
      "grants": 3997,
      "125": 3998,
      "drive": 3999,
      "concluded": 4000,
      "144": 4001,
      "positively": 4002,
      "damages": 4003,
      "essential": 4004,
      "thereby": 4005,
      "shall": 4006,
      "proportion": 4007,
      "divided": 4008,
      "procurement": 4009,
      "household": 4010,
      "reach": 4011,
      "traffic": 4012,
      "shipping": 4013,
      "interaction": 4014,
      "reserved": 4015,
      "similarly": 4016,
      "panel": 4017,
      "tier": 4018,
      "mid": 4019,
      "portfolios": 4020,
      "merchandise": 4021,
      "civil": 4022,
      "consequences": 4023,
      "too": 4024,
      "intangibles": 4025,
      "arise": 4026,
      "employed": 4027,
      "supported": 4028,
      "eligible": 4029,
      "medicare": 4030,
      "promote": 4031,
      "calendar": 4032,
      "necessarily": 4033,
      "classification": 4034,
      "mutual": 4035,
      "obtaining": 4036,
      "children": 4037,
      "setting": 4038,
      "scientific": 4039,
      "safe": 4040,
      "82": 4041,
      "warehouse": 4042,
      "fleet": 4043,
      "pronouncements": 4044,
      "entitled": 4045,
      "periodically": 4046,
      "link": 4047,
      "700": 4048,
      "pending": 4049,
      "06": 4050,
      "tangible": 4051,
      "88": 4052,
      "participate": 4053,
      "86": 4054,
      "91": 4055,
      "enforcement": 4056,
      "prepayment": 4057,
      "assigned": 4058,
      "royalties": 4059,
      "estimation": 4060,
      "cultural": 4061,
      "83": 4062,
      "placement": 4063,
      "straight": 4064,
      "incorporated": 4065,
      "nor": 4066,
      "84": 4067,
      "87": 4068,
      "regular": 4069,
      "expressed": 4070,
      "97": 4071,
      "measurements": 4072,
      "implied": 4073,
      "big": 4074,
      "county": 4075,
      "served": 4076,
      "translation": 4077,
      "researchers": 4078,
      "79": 4079,
      "borrower": 4080,
      "98": 4081,
      "accessories": 4082,
      "leadership": 4083,
      "operators": 4084,
      "increasingly": 4085,
      "published": 4086,
      "keep": 4087,
      "projections": 4088,
      "04": 4089,
      "homes": 4090,
      "facts": 4091,
      "unconsolidated": 4092,
      "proved": 4093,
      "##na": 4094,
      "carryforwards": 4095,
      "handling": 4096,
      "week": 4097,
      "toward": 4098,
      "freight": 4099,
      "retailers": 4100,
      "franchise": 4101,
      "monetary": 4102,
      "requiring": 4103,
      "expenditure": 4104,
      "160": 4105,
      "examine": 4106,
      "mechanisms": 4107,
      "image": 4108,
      "leasing": 4109,
      "adjust": 4110,
      "94": 4111,
      "variance": 4112,
      "pool": 4113,
      "built": 4114,
      "89": 4115,
      "mitigate": 4116,
      "continuous": 4117,
      "tables": 4118,
      "frequently": 4119,
      "check": 4120,
      "task": 4121,
      "middle": 4122,
      "frequency": 4123,
      "download": 4124,
      "indicator": 4125,
      "statistical": 4126,
      "1994": 4127,
      "inception": 4128,
      "analyze": 4129,
      "involving": 4130,
      "russian": 4131,
      "transferred": 4132,
      "assuming": 4133,
      "again": 4134,
      "rapid": 4135,
      "simple": 4136,
      "adopt": 4137,
      "subscription": 4138,
      "considers": 4139,
      "telephone": 4140,
      "concentration": 4141,
      "records": 4142,
      "machines": 4143,
      "96": 4144,
      "seeking": 4145,
      "hospitals": 4146,
      "subsequently": 4147,
      "##os": 4148,
      "##man": 4149,
      "shipments": 4150,
      "capitalization": 4151,
      "liquid": 4152,
      "significance": 4153,
      "her": 4154,
      "noninterest": 4155,
      "separately": 4156,
      "input": 4157,
      "auction": 4158,
      "followed": 4159,
      "subjective": 4160,
      "##re": 4161,
      "operates": 4162,
      "herein": 4163,
      "detail": 4164,
      "profitable": 4165,
      "headquarters": 4166,
      "##or": 4167,
      "reached": 4168,
      "existence": 4169,
      "feet": 4170,
      "101": 4171,
      "controlled": 4172,
      "hedges": 4173,
      "advantages": 4174,
      "accept": 4175,
      "impairments": 4176,
      "dynamic": 4177,
      "accruals": 4178,
      "park": 4179,
      "smes": 4180,
      "catalog": 4181,
      "formal": 4182,
      "workforce": 4183,
      "postretirement": 4184,
      "designated": 4185,
      "equilibrium": 4186,
      "approaches": 4187,
      "living": 4188,
      "collect": 4189,
      "gold": 4190,
      "look": 4191,
      "109": 4192,
      "133": 4193,
      "analyses": 4194,
      "##ne": 4195,
      "93": 4196,
      "amp": 4197,
      "producers": 4198,
      "fall": 4199,
      "supporting": 4200,
      "92": 4201,
      "unpaid": 4202,
      "implementing": 4203,
      "bear": 4204,
      "australia": 4205,
      "move": 4206,
      "whereas": 4207,
      "paying": 4208,
      "adequacy": 4209,
      "initially": 4210,
      "identification": 4211,
      "renewal": 4212,
      "settled": 4213,
      "realization": 4214,
      "thereafter": 4215,
      "issuer": 4216,
      "difficulties": 4217,
      "speed": 4218,
      "backlog": 4219,
      "constraints": 4220,
      "receipt": 4221,
      "enhanced": 4222,
      "san": 4223,
      "earn": 4224,
      "lesser": 4225,
      "calculate": 4226,
      "tested": 4227,
      "republic": 4228,
      "finding": 4229,
      "harm": 4230,
      "110": 4231,
      "persons": 4232,
      "csr": 4233,
      "households": 4234,
      "prospects": 4235,
      "combinations": 4236,
      "schedule": 4237,
      "vendor": 4238,
      "chemical": 4239,
      "street": 4240,
      "awareness": 4241,
      "avoid": 4242,
      "vesting": 4243,
      "licensed": 4244,
      "preferences": 4245,
      "pursue": 4246,
      "fdic": 4247,
      "machine": 4248,
      "telecommunications": 4249,
      "measuring": 4250,
      "themselves": 4251,
      "assessments": 4252,
      "execution": 4253,
      "fluctuate": 4254,
      "ranging": 4255,
      "errors": 4256,
      "permits": 4257,
      "science": 4258,
      "television": 4259,
      "350": 4260,
      "headcount": 4261,
      "mature": 4262,
      "composition": 4263,
      "influenced": 4264,
      "shared": 4265,
      "career": 4266,
      "municipal": 4267,
      "instance": 4268,
      "actuarial": 4269,
      "western": 4270,
      "links": 4271,
      "theoretical": 4272,
      "141": 4273,
      "07": 4274,
      "demands": 4275,
      "absence": 4276,
      "meaning": 4277,
      "attributed": 4278,
      "facilitate": 4279,
      "priority": 4280,
      "permit": 4281,
      "expire": 4282,
      "##ta": 4283,
      "900": 4284,
      "attempt": 4285,
      "mark": 4286,
      "furniture": 4287,
      "platforms": 4288,
      "buyer": 4289,
      "eight": 4290,
      "voting": 4291,
      "doing": 4292,
      "behalf": 4293,
      "reg": 4294,
      "structured": 4295,
      "authors": 4296,
      "document": 4297,
      "showed": 4298,
      "applying": 4299,
      "confidence": 4300,
      "distance": 4301,
      "eitf": 4302,
      "targeted": 4303,
      "loyalty": 4304,
      "establishing": 4305,
      "mortgages": 4306,
      "targets": 4307,
      "recover": 4308,
      "student": 4309,
      "structural": 4310,
      "floor": 4311,
      "agriculture": 4312,
      "nasdaq": 4313,
      "nine": 4314,
      "investigation": 4315,
      "converted": 4316,
      "kingdom": 4317,
      "forecast": 4318,
      "establishment": 4319,
      "dimensions": 4320,
      "pacific": 4321,
      "anti": 4322,
      "maintained": 4323,
      "indefinite": 4324,
      "##ar": 4325,
      "contrast": 4326,
      "prospective": 4327,
      "leads": 4328,
      "actually": 4329,
      "sg": 4330,
      "fhlb": 4331,
      "cities": 4332,
      "visit": 4333,
      "##ness": 4334,
      "game": 4335,
      "florida": 4336,
      "welcome": 4337,
      "treated": 4338,
      "worth": 4339,
      "database": 4340,
      "body": 4341,
      "enough": 4342,
      "amendments": 4343,
      "##ity": 4344,
      "retention": 4345,
      "defense": 4346,
      "disposition": 4347,
      "108": 4348,
      "error": 4349,
      "respond": 4350,
      "challenge": 4351,
      "115": 4352,
      "bring": 4353,
      "actively": 4354,
      "specialized": 4355,
      "declared": 4356,
      "tenant": 4357,
      "liquidation": 4358,
      "1990": 4359,
      "104": 4360,
      "menu": 4361,
      "105": 4362,
      "steps": 4363,
      "reit": 4364,
      "dealer": 4365,
      "station": 4366,
      "feature": 4367,
      "affects": 4368,
      "shop": 4369,
      "residual": 4370,
      "##the": 4371,
      "launch": 4372,
      "sign": 4373,
      "aim": 4374,
      "advisory": 4375,
      "agree": 4376,
      "percentages": 4377,
      "farm": 4378,
      "1993": 4379,
      "usa": 4380,
      "permanent": 4381,
      "stocks": 4382,
      "direction": 4383,
      "beneficial": 4384,
      "managerial": 4385,
      "159": 4386,
      "offsetting": 4387,
      "membership": 4388,
      "closely": 4389,
      "expanding": 4390,
      "repurchases": 4391,
      "cable": 4392,
      "stages": 4393,
      "opened": 4394,
      "assist": 4395,
      "weight": 4396,
      "certification": 4397,
      "stability": 4398,
      "valued": 4399,
      "closure": 4400,
      "compare": 4401,
      "welfare": 4402,
      "manufactured": 4403,
      "quantities": 4404,
      "define": 4405,
      "reorganization": 4406,
      "regularly": 4407,
      "turnover": 4408,
      "formed": 4409,
      "wind": 4410,
      "recoveries": 4411,
      "140": 4412,
      "comparing": 4413,
      "newly": 4414,
      "complexity": 4415,
      "lender": 4416,
      "language": 4417,
      "settlements": 4418,
      "electrical": 4419,
      "true": 4420,
      "limitation": 4421,
      "signed": 4422,
      "carbon": 4423,
      "starting": 4424,
      "quickly": 4425,
      "securitization": 4426,
      "excluded": 4427,
      "foreseeable": 4428,
      "weak": 4429,
      "distributor": 4430,
      "flat": 4431,
      "noncontrolling": 4432,
      "exceeded": 4433,
      "quoted": 4434,
      "promotional": 4435,
      "examination": 4436,
      "attractive": 4437,
      "deal": 4438,
      "inclusion": 4439,
      "dedicated": 4440,
      "smart": 4441,
      "laboratory": 4442,
      "experts": 4443,
      "milestone": 4444,
      "indonesia": 4445,
      "innovations": 4446,
      "suitable": 4447,
      "initiated": 4448,
      "##el": 4449,
      "certificate": 4450,
      "begin": 4451,
      "gdp": 4452,
      "ipo": 4453,
      "refers": 4454,
      "outsourcing": 4455,
      "achieving": 4456,
      "sports": 4457,
      "mission": 4458,
      "easy": 4459,
      "procedure": 4460,
      "entertainment": 4461,
      "1992": 4462,
      "parameters": 4463,
      "107": 4464,
      "2019": 4465,
      "collections": 4466,
      "clearly": 4467,
      "buyers": 4468,
      "mostly": 4469,
      "carriers": 4470,
      "statistically": 4471,
      "attributes": 4472,
      "##to": 4473,
      "renewable": 4474,
      "surplus": 4475,
      "commercialization": 4476,
      "reverse": 4477,
      "consultants": 4478,
      "voluntary": 4479,
      "acquiring": 4480,
      "involvement": 4481,
      "salary": 4482,
      "implications": 4483,
      "formation": 4484,
      "enacted": 4485,
      "##et": 4486,
      "disclosed": 4487,
      "pressures": 4488,
      "equation": 4489,
      "130": 4490,
      "immediate": 4491,
      "leader": 4492,
      "sense": 4493,
      "occurrence": 4494,
      "buying": 4495,
      "outlook": 4496,
      "pass": 4497,
      "capability": 4498,
      "establishes": 4499,
      "affiliate": 4500,
      "remediation": 4501,
      "governing": 4502,
      "##j": 4503,
      "explore": 4504,
      "art": 4505,
      "started": 4506,
      "vat": 4507,
      "intention": 4508,
      "careers": 4509,
      "master": 4510,
      "vision": 4511,
      "updated": 4512,
      "undiscounted": 4513,
      "prepaid": 4514,
      "750": 4515,
      "initiative": 4516,
      "solar": 4517,
      "102": 4518,
      "qualify": 4519,
      "##®": 4520,
      "180": 4521,
      "##la": 4522,
      "score": 4523,
      "questionnaire": 4524,
      "embedded": 4525,
      "forecasts": 4526,
      "marketplace": 4527,
      "sustained": 4528,
      "clean": 4529,
      "alternatives": 4530,
      "rated": 4531,
      "stations": 4532,
      "regulators": 4533,
      "borrowed": 4534,
      "vs": 4535,
      "gives": 4536,
      "fewer": 4537,
      "drivers": 4538,
      "educational": 4539,
      "wages": 4540,
      "terminate": 4541,
      "movements": 4542,
      "auto": 4543,
      "linked": 4544,
      "brazil": 4545,
      "minimize": 4546,
      "approvals": 4547,
      "version": 4548,
      "took": 4549,
      "hypothetical": 4550,
      "none": 4551,
      "accident": 4552,
      "fire": 4553,
      "threshold": 4554,
      "marine": 4555,
      "wage": 4556,
      "entrepreneurs": 4557,
      "106": 4558,
      "analyzed": 4559,
      "absolute": 4560,
      "widely": 4561,
      "partial": 4562,
      "bid": 4563,
      "unrecognized": 4564,
      "shipment": 4565,
      "register": 4566,
      "146": 4567,
      "competitiveness": 4568,
      "disease": 4569,
      "idea": 4570,
      "discover": 4571,
      "oriented": 4572,
      "declining": 4573,
      "rapidly": 4574,
      "situations": 4575,
      "practical": 4576,
      "broker": 4577,
      "giving": 4578,
      "1991": 4579,
      "articles": 4580,
      "websites": 4581,
      "iso": 4582,
      "counterparties": 4583,
      "whenever": 4584,
      "seasonal": 4585,
      "weeks": 4586,
      "extinguishment": 4587,
      "aware": 4588,
      "accelerated": 4589,
      "raised": 4590,
      "dealers": 4591,
      "characterized": 4592,
      "assessed": 4593,
      "nuclear": 4594,
      "quantity": 4595,
      "recoverability": 4596,
      "latter": 4597,
      "finished": 4598,
      "103": 4599,
      "fields": 4600,
      "121": 4601,
      "numbers": 4602,
      "audited": 4603,
      "meaningful": 4604,
      "moving": 4605,
      "season": 4606,
      "offshore": 4607,
      "experiences": 4608,
      "stockholder": 4609,
      "radio": 4610,
      "explain": 4611,
      "utilizing": 4612,
      "##ie": 4613,
      "allowing": 4614,
      "fundamental": 4615,
      "explained": 4616,
      "identifying": 4617,
      "cars": 4618,
      "supervision": 4619,
      "appear": 4620,
      "forecasted": 4621,
      "assure": 4622,
      "alone": 4623,
      "interested": 4624,
      "refinancing": 4625,
      "electronics": 4626,
      "classes": 4627,
      "indeed": 4628,
      "143": 4629,
      "495": 4630,
      "white": 4631,
      "kind": 4632,
      "released": 4633,
      "participating": 4634,
      "receiving": 4635,
      "reduces": 4636,
      "said": 4637,
      "##da": 4638,
      "drugs": 4639,
      "rising": 4640,
      "advice": 4641,
      "perception": 4642,
      "regardless": 4643,
      "she": 4644,
      "teams": 4645,
      "wealth": 4646,
      "##net": 4647,
      "brokerage": 4648,
      "flexible": 4649,
      "ones": 4650,
      "stand": 4651,
      "notional": 4652,
      "block": 4653,
      "young": 4654,
      "semiconductor": 4655,
      "foundation": 4656,
      "log": 4657,
      "construct": 4658,
      "never": 4659,
      "cards": 4660,
      "borrow": 4661,
      "japanese": 4662,
      "live": 4663,
      "fas": 4664,
      "financed": 4665,
      "replace": 4666,
      "conventional": 4667,
      "load": 4668,
      "nonperforming": 4669,
      "front": 4670,
      "click": 4671,
      "determines": 4672,
      "whereby": 4673,
      "cell": 4674,
      "approximate": 4675,
      "ideas": 4676,
      "elected": 4677,
      "promotions": 4678,
      "ab": 4679,
      "gaming": 4680,
      "namely": 4681,
      "lowest": 4682,
      "head": 4683,
      "enables": 4684,
      "official": 4685,
      "stronger": 4686,
      "repaid": 4687,
      "cloud": 4688,
      "representative": 4689,
      "remainder": 4690,
      "representatives": 4691,
      "##ts": 4692,
      "##ro": 4693,
      "departments": 4694,
      "capture": 4695,
      "military": 4696,
      "collaborative": 4697,
      "newsletter": 4698,
      "repayments": 4699,
      "111": 4700,
      "internally": 4701,
      "send": 4702,
      "prevailing": 4703,
      "suggested": 4704,
      "additions": 4705,
      "focuses": 4706,
      "contributing": 4707,
      "superior": 4708,
      "entering": 4709,
      "cancer": 4710,
      "exempt": 4711,
      "easily": 4712,
      "fit": 4713,
      "responses": 4714,
      "satisfied": 4715,
      "assembly": 4716,
      "cap": 4717,
      "column": 4718,
      "failed": 4719,
      "tenants": 4720,
      "applies": 4721,
      "certified": 4722,
      "chapter": 4723,
      "facebook": 4724,
      "transfers": 4725,
      "barriers": 4726,
      "imposed": 4727,
      "tv": 4728,
      "forma": 4729,
      "fraud": 4730,
      "believed": 4731,
      "behaviour": 4732,
      "148": 4733,
      "london": 4734,
      "114": 4735,
      "transparency": 4736,
      "references": 4737,
      "pattern": 4738,
      "identifiable": 4739,
      "becoming": 4740,
      "##ment": 4741,
      "british": 4742,
      "http": 4743,
      "collateralized": 4744,
      "tons": 4745,
      "achievement": 4746,
      "seller": 4747,
      "installed": 4748,
      "fast": 4749,
      "##ka": 4750,
      "heating": 4751,
      "112": 4752,
      "##ma": 4753,
      "efficiencies": 4754,
      "territory": 4755,
      "origination": 4756,
      "sections": 4757,
      "coefficients": 4758,
      "implies": 4759,
      "scenario": 4760,
      "annum": 4761,
      "feedback": 4762,
      "asked": 4763,
      "examples": 4764,
      "expensed": 4765,
      "reconciliation": 4766,
      "discussions": 4767,
      "seems": 4768,
      "gallery": 4769,
      "##no": 4770,
      "ground": 4771,
      "exception": 4772,
      "##ng": 4773,
      "releases": 4774,
      "vessels": 4775,
      "connected": 4776,
      "assured": 4777,
      "ip": 4778,
      "obligated": 4779,
      "fresh": 4780,
      "tasks": 4781,
      "cooperative": 4782,
      "academic": 4783,
      "variation": 4784,
      "eliminate": 4785,
      "repurchased": 4786,
      "marginal": 4787,
      "covering": 4788,
      "obsolete": 4789,
      "gathering": 4790,
      "trademarks": 4791,
      "##ce": 4792,
      "175": 4793,
      "organized": 4794,
      "recovered": 4795,
      "environments": 4796,
      "branches": 4797,
      "employers": 4798,
      "acts": 4799,
      "discretion": 4800,
      "collectively": 4801,
      "distribute": 4802,
      "sometimes": 4803,
      "specifications": 4804,
      "chosen": 4805,
      "track": 4806,
      "expensive": 4807,
      "labour": 4808,
      "113": 4809,
      "collective": 4810,
      "154": 4811,
      "holder": 4812,
      "import": 4813,
      "leaders": 4814,
      "simulation": 4815,
      "examined": 4816,
      "aimed": 4817,
      "jurisdiction": 4818,
      "addresses": 4819,
      "lost": 4820,
      "express": 4821,
      "intent": 4822,
      "conclusion": 4823,
      "varying": 4824,
      "contractors": 4825,
      "film": 4826,
      "lien": 4827,
      "operator": 4828,
      "deficit": 4829,
      "variations": 4830,
      "simply": 4831,
      "wood": 4832,
      "schools": 4833,
      "alliance": 4834,
      "curve": 4835,
      "machinery": 4836,
      "interviews": 4837,
      "readily": 4838,
      "decreasing": 4839,
      "computed": 4840,
      "restrict": 4841,
      "##ton": 4842,
      "##ge": 4843,
      "introduce": 4844,
      "emphasis": 4845,
      "145": 4846,
      "comparative": 4847,
      "investigate": 4848,
      "forest": 4849,
      "documentation": 4850,
      "ready": 4851,
      "terminal": 4852,
      "actors": 4853,
      "box": 4854,
      "spain": 4855,
      "131": 4856,
      "valuations": 4857,
      "games": 4858,
      "determinable": 4859,
      "display": 4860,
      "hedged": 4861,
      "match": 4862,
      "focusing": 4863,
      "discuss": 4864,
      "counterparty": 4865,
      "135": 4866,
      "universities": 4867,
      "recording": 4868,
      "executed": 4869,
      "solid": 4870,
      "northern": 4871,
      "##00": 4872,
      "diverse": 4873,
      "chairman": 4874,
      "guide": 4875,
      "exchanges": 4876,
      "mandatory": 4877,
      "executives": 4878,
      "mine": 4879,
      "helps": 4880,
      "impose": 4881,
      "excludes": 4882,
      "reliance": 4883,
      "brought": 4884,
      "bases": 4885,
      "le": 4886,
      "integrate": 4887,
      "comes": 4888,
      "116": 4889,
      "citizens": 4890,
      "spreads": 4891,
      "owns": 4892,
      "lot": 4893,
      "reversal": 4894,
      "label": 4895,
      "club": 4896,
      "appears": 4897,
      "##ch": 4898,
      "organisation": 4899,
      "intends": 4900,
      "##q": 4901,
      "programming": 4902,
      "movement": 4903,
      "negotiated": 4904,
      "accurate": 4905,
      "satellite": 4906,
      "stay": 4907,
      "amounted": 4908,
      "employer": 4909,
      "package": 4910,
      "cookie": 4911,
      "##de": 4912,
      "billing": 4913,
      "maximize": 4914,
      "considerable": 4915,
      "delaware": 4916,
      "118": 4917,
      "print": 4918,
      "holds": 4919,
      "message": 4920,
      "nearly": 4921,
      "port": 4922,
      "encourage": 4923,
      "french": 4924,
      "diversity": 4925,
      "inter": 4926,
      "southern": 4927,
      "quite": 4928,
      "##ri": 4929,
      "spa": 4930,
      "##total": 4931,
      "insurers": 4932,
      "semi": 4933,
      "##ion": 4934,
      "costly": 4935,
      "bonus": 4936,
      "##ation": 4937,
      "2020": 4938,
      "strongly": 4939,
      "affiliated": 4940,
      "diversification": 4941,
      "deductible": 4942,
      "117": 4943,
      "identity": 4944,
      "summarized": 4945,
      "124": 4946,
      "158": 4947,
      "heat": 4948,
      "450": 4949,
      "calls": 4950,
      "surface": 4951,
      "225": 4952,
      "filings": 4953,
      "separation": 4954,
      "institute": 4955,
      "originally": 4956,
      "summer": 4957,
      "typical": 4958,
      "downturn": 4959,
      "scenarios": 4960,
      "volatile": 4961,
      "considerations": 4962,
      "casualty": 4963,
      "observations": 4964,
      "discovery": 4965,
      "river": 4966,
      "proper": 4967,
      "par": 4968,
      "driving": 4969,
      "engine": 4970,
      "italian": 4971,
      "lose": 4972,
      "subscribers": 4973,
      "automation": 4974,
      "##nt": 4975,
      "anticipates": 4976,
      "scheme": 4977,
      "hard": 4978,
      "132": 4979,
      "medicaid": 4980,
      "entrepreneurial": 4981,
      "128": 4982,
      "indicative": 4983,
      "views": 4984,
      "149": 4985,
      "151": 4986,
      "119": 4987,
      "commenced": 4988,
      "names": 4989,
      "german": 4990,
      "recommendations": 4991,
      "realizable": 4992,
      "staffing": 4993,
      "willing": 4994,
      "spent": 4995,
      "domain": 4996,
      "let": 4997,
      "login": 4998,
      "petroleum": 4999,
      "rooms": 5000,
      "coordination": 5001,
      "thereto": 5002,
      "161": 5003,
      "122": 5004,
      "155": 5005,
      "border": 5006,
      "engagement": 5007,
      "aid": 5008,
      "thanks": 5009,
      "analysts": 5010,
      "legislative": 5011,
      "proxy": 5012,
      "washington": 5013,
      "instances": 5014,
      "chemicals": 5015,
      "exports": 5016,
      "trusts": 5017,
      "mass": 5018,
      "promissory": 5019,
      "causes": 5020,
      "difficulty": 5021,
      "supports": 5022,
      "informed": 5023,
      "emergency": 5024,
      "poland": 5025,
      "launched": 5026,
      "customary": 5027,
      "downs": 5028,
      "hazardous": 5029,
      "moscow": 5030,
      "severe": 5031,
      "pollution": 5032,
      "breach": 5033,
      "conflict": 5034,
      "constitute": 5035,
      "covenant": 5036,
      "conformity": 5037,
      "transformation": 5038,
      "accuracy": 5039,
      "epa": 5040,
      "modification": 5041,
      "issuances": 5042,
      "residents": 5043,
      "away": 5044,
      "competing": 5045,
      "scholes": 5046,
      "1a": 5047,
      "malaysia": 5048,
      "productive": 5049,
      "concrete": 5050,
      "170": 5051,
      "commodities": 5052,
      "127": 5053,
      "depth": 5054,
      "##io": 5055,
      "preference": 5056,
      "126": 5057,
      "eliminated": 5058,
      "drawn": 5059,
      "##table": 5060,
      "valuable": 5061,
      "orientation": 5062,
      "deterioration": 5063,
      "sole": 5064,
      "maintains": 5065,
      "processed": 5066,
      "awarded": 5067,
      "reclassified": 5068,
      "concepts": 5069,
      "153": 5070,
      "slow": 5071,
      "sweden": 5072,
      "heavy": 5073,
      "custom": 5074,
      "validity": 5075,
      "automobile": 5076,
      "illinois": 5077,
      "charter": 5078,
      "360": 5079,
      "receives": 5080,
      "##va": 5081,
      "rest": 5082,
      "islamic": 5083,
      "cent": 5084,
      "factory": 5085,
      "style": 5086,
      "sea": 5087,
      "129": 5088,
      "creditors": 5089,
      "se": 5090,
      "futures": 5091,
      "##we": 5092,
      "submitted": 5093,
      "creative": 5094,
      "village": 5095,
      "evaluates": 5096,
      "carrier": 5097,
      "election": 5098,
      "suffer": 5099,
      "branded": 5100,
      "printing": 5101,
      "solely": 5102,
      "interesting": 5103,
      "220": 5104,
      "functionality": 5105,
      "micro": 5106,
      "preceding": 5107,
      "138": 5108,
      "dated": 5109,
      "calculating": 5110,
      "dynamics": 5111,
      "insufficient": 5112,
      "left": 5113,
      "inherently": 5114,
      "exercised": 5115,
      "requests": 5116,
      "whom": 5117,
      "strengthening": 5118,
      "think": 5119,
      "host": 5120,
      "strengthen": 5121,
      "formula": 5122,
      "shipped": 5123,
      "123r": 5124,
      "raising": 5125,
      "discretionary": 5126,
      "exclude": 5127,
      "fashion": 5128,
      "entrepreneurship": 5129,
      "mode": 5130,
      "replaced": 5131,
      "settings": 5132,
      "calculations": 5133,
      "magnitude": 5134,
      "decided": 5135,
      "motivation": 5136,
      "informal": 5137,
      "ict": 5138,
      "perceptions": 5139,
      "voice": 5140,
      "recognizes": 5141,
      "gt": 5142,
      "assumes": 5143,
      "del": 5144,
      "describe": 5145,
      "older": 5146,
      "adding": 5147,
      "skilled": 5148,
      "destination": 5149,
      "ask": 5150,
      "conservation": 5151,
      "expert": 5152,
      "linear": 5153,
      "issuers": 5154,
      "rail": 5155,
      "studied": 5156,
      "165": 5157,
      "concentrated": 5158,
      "eastern": 5159,
      "appreciation": 5160,
      "argue": 5161,
      "undertake": 5162,
      "commonly": 5163,
      "observable": 5164,
      "prepayments": 5165,
      "demonstrate": 5166,
      "serious": 5167,
      "ferc": 5168,
      "indenture": 5169,
      "conducting": 5170,
      "tech": 5171,
      "derive": 5172,
      "correct": 5173,
      "136": 5174,
      "answer": 5175,
      "intensive": 5176,
      "organisations": 5177,
      "junior": 5178,
      "concerned": 5179,
      "mineral": 5180,
      "double": 5181,
      "listing": 5182,
      "coupled": 5183,
      "mergers": 5184,
      "cutting": 5185,
      "##ine": 5186,
      "el": 5187,
      "diversified": 5188,
      "relief": 5189,
      "intervention": 5190,
      "prove": 5191,
      "##um": 5192,
      "minimal": 5193,
      "bill": 5194,
      "province": 5195,
      "serves": 5196,
      "originated": 5197,
      "inspection": 5198,
      "aspect": 5199,
      "men": 5200,
      "ensuring": 5201,
      "sponsored": 5202,
      "choices": 5203,
      "fdi": 5204,
      "priced": 5205,
      "mixed": 5206,
      "134": 5207,
      "##ur": 5208,
      "elimination": 5209,
      "##ble": 5210,
      "aluminum": 5211,
      "sells": 5212,
      "boards": 5213,
      "audits": 5214,
      "aims": 5215,
      "sellers": 5216,
      "grew": 5217,
      "issuing": 5218,
      "founded": 5219,
      "feel": 5220,
      "signal": 5221,
      "generic": 5222,
      "##th": 5223,
      "continually": 5224,
      "infringement": 5225,
      "162": 5226,
      "passed": 5227,
      "137": 5228,
      "trademark": 5229,
      "correlated": 5230,
      "properly": 5231,
      "shelf": 5232,
      "revealed": 5233,
      "fsp": 5234,
      "complaint": 5235,
      "individually": 5236,
      "##ti": 5237,
      "##ry": 5238,
      "broader": 5239,
      "truck": 5240,
      "korea": 5241,
      "winter": 5242,
      "spend": 5243,
      "leasehold": 5244,
      "1989": 5245,
      "##ns": 5246,
      "animal": 5247,
      "split": 5248,
      "robust": 5249,
      "centre": 5250,
      "saving": 5251,
      "islands": 5252,
      "139": 5253,
      "cleaning": 5254,
      "samples": 5255,
      "unused": 5256,
      "neither": 5257,
      "km": 5258,
      "190": 5259,
      "hong": 5260,
      "singapore": 5261,
      "decide": 5262,
      "severity": 5263,
      "attitude": 5264,
      "expectation": 5265,
      "plastic": 5266,
      "intercompany": 5267,
      "proposals": 5268,
      "physicians": 5269,
      "council": 5270,
      "mechanical": 5271,
      "music": 5272,
      "156": 5273,
      "147": 5274,
      "varies": 5275,
      "maturing": 5276,
      "computing": 5277,
      "duty": 5278,
      "##tion": 5279,
      "ever": 5280,
      "premises": 5281,
      "lt": 5282,
      "google": 5283,
      "supplemental": 5284,
      "latin": 5285,
      "draw": 5286,
      "unemployment": 5287,
      "ppl": 5288,
      "subjects": 5289,
      "defaults": 5290,
      "indirectly": 5291,
      "completely": 5292,
      "behind": 5293,
      "broadband": 5294,
      "conference": 5295,
      "technique": 5296,
      "dummy": 5297,
      "##se": 5298,
      "##at": 5299,
      "conclude": 5300,
      "chains": 5301,
      "specialists": 5302,
      "blog": 5303,
      "240": 5304,
      "ex": 5305,
      "milestones": 5306,
      "netherlands": 5307,
      "fi": 5308,
      "adequately": 5309,
      "makers": 5310,
      "proposition": 5311,
      "designs": 5312,
      "driver": 5313,
      "metrics": 5314,
      "disclose": 5315,
      "nevertheless": 5316,
      "path": 5317,
      "jersey": 5318,
      "faster": 5319,
      "elect": 5320,
      "popular": 5321,
      "convert": 5322,
      "intensity": 5323,
      "remote": 5324,
      "375": 5325,
      "refinance": 5326,
      "taxation": 5327,
      "asbestos": 5328,
      "pound": 5329,
      "airport": 5330,
      "privately": 5331,
      "undertaken": 5332,
      "glass": 5333,
      "merchant": 5334,
      "revisions": 5335,
      "say": 5336,
      "accurately": 5337,
      "library": 5338,
      "210": 5339,
      "random": 5340,
      "universal": 5341,
      "hierarchy": 5342,
      "repairs": 5343,
      "pennsylvania": 5344,
      "ru": 5345,
      "##ter": 5346,
      "nonaccrual": 5347,
      "stress": 5348,
      "serving": 5349,
      "indicating": 5350,
      "kong": 5351,
      "employ": 5352,
      "168": 5353,
      "spare": 5354,
      "associations": 5355,
      "benchmark": 5356,
      "modifications": 5357,
      "reportable": 5358,
      "server": 5359,
      "allocate": 5360,
      "financings": 5361,
      "me": 5362,
      "##ca": 5363,
      "##ies": 5364,
      "challenging": 5365,
      "billed": 5366,
      "lawsuits": 5367,
      "1988": 5368,
      "red": 5369,
      "creates": 5370,
      "1986": 5371,
      "vacancies": 5372,
      "diesel": 5373,
      "economics": 5374,
      "recruitment": 5375,
      "navigation": 5376,
      "gender": 5377,
      "meetings": 5378,
      "places": 5379,
      "valley": 5380,
      "predecessor": 5381,
      "courts": 5382,
      "producer": 5383,
      "somewhat": 5384,
      "courses": 5385,
      "covers": 5386,
      "fiber": 5387,
      "##ps": 5388,
      "background": 5389,
      "variability": 5390,
      "responsibilities": 5391,
      "addressed": 5392,
      "bulk": 5393,
      "parking": 5394,
      "stop": 5395,
      "##son": 5396,
      "occurring": 5397,
      "ministry": 5398,
      "pages": 5399,
      "analyzing": 5400,
      "redeem": 5401,
      "152": 5402,
      "forced": 5403,
      "enhancing": 5404,
      "mdash": 5405,
      "recycling": 5406,
      "roles": 5407,
      "gulf": 5408,
      "insights": 5409,
      "disposed": 5410,
      "text": 5411,
      "166": 5412,
      "prevention": 5413,
      "requested": 5414,
      "emission": 5415,
      "surrounding": 5416,
      "hypotheses": 5417,
      "ffo": 5418,
      "evaluations": 5419,
      "complementary": 5420,
      "sound": 5421,
      "##land": 5422,
      "vertical": 5423,
      "crucial": 5424,
      "interactions": 5425,
      "automatic": 5426,
      "comparisons": 5427,
      "##it": 5428,
      "miles": 5429,
      "cycles": 5430,
      "failures": 5431,
      "indian": 5432,
      "authorization": 5433,
      "contracted": 5434,
      "players": 5435,
      "163": 5436,
      "230": 5437,
      "pipelines": 5438,
      "404": 5439,
      "extraordinary": 5440,
      "delayed": 5441,
      "167": 5442,
      "asian": 5443,
      "unamortized": 5444,
      "faced": 5445,
      "enhancements": 5446,
      "subscriber": 5447,
      "motion": 5448,
      "oem": 5449,
      "ad": 5450,
      "portions": 5451,
      "##ted": 5452,
      "try": 5453,
      "cargo": 5454,
      "##ni": 5455,
      "metals": 5456,
      "protected": 5457,
      "argued": 5458,
      "deliveries": 5459,
      "congress": 5460,
      "hiring": 5461,
      "##line": 5462,
      "containing": 5463,
      "un": 5464,
      "quick": 5465,
      "275": 5466,
      "indemnification": 5467,
      "bridge": 5468,
      "continuously": 5469,
      "refund": 5470,
      "execute": 5471,
      "dependence": 5472,
      "##go": 5473,
      "internationally": 5474,
      "efficiently": 5475,
      "indication": 5476,
      "join": 5477,
      "specification": 5478,
      "beliefs": 5479,
      "qualifying": 5480,
      "recourse": 5481,
      "negotiations": 5482,
      "australian": 5483,
      "310": 5484,
      "cluster": 5485,
      "debts": 5486,
      "circuit": 5487,
      "irs": 5488,
      "brokers": 5489,
      "limiting": 5490,
      "185": 5491,
      "dimension": 5492,
      "sized": 5493,
      "exceptions": 5494,
      "demonstrated": 5495,
      "proposal": 5496,
      "diseases": 5497,
      "willingness": 5498,
      "excellent": 5499,
      "foreclosure": 5500,
      "spot": 5501,
      "van": 5502,
      "seem": 5503,
      "forces": 5504,
      "vote": 5505,
      "nigeria": 5506,
      "americas": 5507,
      "surveys": 5508,
      "tobacco": 5509,
      "ohio": 5510,
      "allocations": 5511,
      "optimization": 5512,
      "modeling": 5513,
      "expires": 5514,
      "figures": 5515,
      "coast": 5516,
      "desired": 5517,
      "##ian": 5518,
      "incorporate": 5519,
      "legacy": 5520,
      "adopting": 5521,
      "deviation": 5522,
      "205": 5523,
      "hire": 5524,
      "ship": 5525,
      "bias": 5526,
      "rents": 5527,
      "redeemable": 5528,
      "families": 5529,
      "repricing": 5530,
      "candidate": 5531,
      "740": 5532,
      "matrix": 5533,
      "named": 5534,
      "defines": 5535,
      "lighting": 5536,
      "bodies": 5537,
      "peer": 5538,
      "motor": 5539,
      "scores": 5540,
      "systematic": 5541,
      "tender": 5542,
      "convenience": 5543,
      "auditors": 5544,
      "dry": 5545,
      "leave": 5546,
      "feed": 5547,
      "penalty": 5548,
      "recommended": 5549,
      "disruption": 5550,
      "predicted": 5551,
      "indices": 5552,
      "fig": 5553,
      "virginia": 5554,
      "peak": 5555,
      "publications": 5556,
      "partly": 5557,
      "everything": 5558,
      "contracting": 5559,
      "apparent": 5560,
      "soon": 5561,
      "abroad": 5562,
      "carolina": 5563,
      "consequence": 5564,
      "cut": 5565,
      "fish": 5566,
      "foods": 5567,
      "renewed": 5568,
      "jordan": 5569,
      "extremely": 5570,
      "blood": 5571,
      "var": 5572,
      "influences": 5573,
      "worker": 5574,
      "172": 5575,
      "196": 5576,
      "unanticipated": 5577,
      "retailer": 5578,
      "milk": 5579,
      "century": 5580,
      "upgrade": 5581,
      "preparing": 5582,
      "clearing": 5583,
      "describes": 5584,
      "uncollectible": 5585,
      "corp": 5586,
      "260": 5587,
      "virtual": 5588,
      "164": 5589,
      "entirely": 5590,
      "economically": 5591,
      "liable": 5592,
      "sampling": 5593,
      "apparel": 5594,
      "coming": 5595,
      "##ve": 5596,
      "returned": 5597,
      "215": 5598,
      "valid": 5599,
      "determinants": 5600,
      "##ization": 5601,
      "##ting": 5602,
      "depletion": 5603,
      "171": 5604,
      "contractor": 5605,
      "pretax": 5606,
      "therapy": 5607,
      "specialist": 5608,
      "##ate": 5609,
      "corruption": 5610,
      "cancellation": 5611,
      "appeal": 5612,
      "thereof": 5613,
      "consolidate": 5614,
      "divisions": 5615,
      "star": 5616,
      "conflicts": 5617,
      "identical": 5618,
      "confirmed": 5619,
      "320": 5620,
      "195": 5621,
      "announcement": 5622,
      "viewed": 5623,
      "181": 5624,
      "550": 5625,
      "promoting": 5626,
      "removal": 5627,
      "##do": 5628,
      "owed": 5629,
      "sustain": 5630,
      "intelligence": 5631,
      "deals": 5632,
      "##ive": 5633,
      "perhaps": 5634,
      "holiday": 5635,
      "healthy": 5636,
      "proven": 5637,
      "evolution": 5638,
      "201": 5639,
      "passenger": 5640,
      "203": 5641,
      "169": 5642,
      "zone": 5643,
      "friendly": 5644,
      "extreme": 5645,
      "counter": 5646,
      "achievements": 5647,
      "##ized": 5648,
      "vessel": 5649,
      "##our": 5650,
      "normally": 5651,
      "173": 5652,
      "001": 5653,
      "don": 5654,
      "interpretations": 5655,
      "observe": 5656,
      "settle": 5657,
      "coffee": 5658,
      "il": 5659,
      "seeks": 5660,
      "rendered": 5661,
      "advisors": 5662,
      "con": 5663,
      "preliminary": 5664,
      "engineers": 5665,
      "inside": 5666,
      "820": 5667,
      "format": 5668,
      "perfect": 5669,
      "wine": 5670,
      "prepare": 5671,
      "shorter": 5672,
      "emergence": 5673,
      "african": 5674,
      "methodologies": 5675,
      "disputes": 5676,
      "unexpected": 5677,
      "poverty": 5678,
      "highlights": 5679,
      "extra": 5680,
      "##am": 5681,
      "duties": 5682,
      "automated": 5683,
      "worked": 5684,
      "reforms": 5685,
      "macroeconomic": 5686,
      "constantly": 5687,
      "directed": 5688,
      "annuity": 5689,
      "facing": 5690,
      "heart": 5691,
      "liens": 5692,
      "##li": 5693,
      "independence": 5694,
      "came": 5695,
      "650": 5696,
      "grid": 5697,
      "injury": 5698,
      "foot": 5699,
      "186": 5700,
      "pace": 5701,
      "crop": 5702,
      "demographic": 5703,
      "matching": 5704,
      "capable": 5705,
      "apartment": 5706,
      "280": 5707,
      "object": 5708,
      "copper": 5709,
      "favor": 5710,
      "expired": 5711,
      "explanation": 5712,
      "174": 5713,
      "pdf": 5714,
      "lawsuit": 5715,
      "176": 5716,
      "enabled": 5717,
      "270": 5718,
      "179": 5719,
      "bargaining": 5720,
      "183": 5721,
      "attempts": 5722,
      "criminal": 5723,
      "basin": 5724,
      "trades": 5725,
      "modify": 5726,
      "commercially": 5727,
      "papers": 5728,
      "count": 5729,
      "182": 5730,
      "333": 5731,
      "enabling": 5732,
      "188": 5733,
      "178": 5734,
      "199": 5735,
      "constructed": 5736,
      "disaster": 5737,
      "analytical": 5738,
      "networking": 5739,
      "diagnostic": 5740,
      "trucks": 5741,
      "color": 5742,
      "foregoing": 5743,
      "oversight": 5744,
      "deductions": 5745,
      "save": 5746,
      "212": 5747,
      "attitudes": 5748,
      "resort": 5749,
      "rebates": 5750,
      "ago": 5751,
      "sought": 5752,
      "regressions": 5753,
      "accrue": 5754,
      "competence": 5755,
      "interactive": 5756,
      "binding": 5757,
      "sourcing": 5758,
      "thermal": 5759,
      "beverage": 5760,
      "produces": 5761,
      "heavily": 5762,
      "simultaneously": 5763,
      "benefited": 5764,
      "physician": 5765,
      "essentially": 5766,
      "conditional": 5767,
      "twenty": 5768,
      "184": 5769,
      "taxing": 5770,
      "382": 5771,
      "securing": 5772,
      "187": 5773,
      "deployment": 5774,
      "conclusions": 5775,
      "twitter": 5776,
      "island": 5777,
      "redeemed": 5778,
      "pharmacy": 5779,
      "recognizing": 5780,
      "solve": 5781,
      "alliances": 5782,
      "mobility": 5783,
      "spectrum": 5784,
      "temperature": 5785,
      "dispute": 5786,
      "206": 5787,
      "round": 5788,
      "stream": 5789,
      "interview": 5790,
      "catastrophe": 5791,
      "possibly": 5792,
      "325": 5793,
      "compares": 5794,
      "192": 5795,
      "receipts": 5796,
      "##lo": 5797,
      "##il": 5798,
      "sa": 5799,
      "appendix": 5800,
      "warranties": 5801,
      "route": 5802,
      "hybrid": 5803,
      "upgrades": 5804,
      "feasibility": 5805,
      "177": 5806,
      "am": 5807,
      "disruptions": 5808,
      "monitors": 5809,
      "impacting": 5810,
      "entitys": 5811,
      "window": 5812,
      "tourist": 5813,
      "geographical": 5814,
      "consecutive": 5815,
      "605": 5816,
      "commencing": 5817,
      "acres": 5818,
      "photo": 5819,
      "integrity": 5820,
      "moodys": 5821,
      "submit": 5822,
      "222": 5823,
      "books": 5824,
      "connect": 5825,
      "carefully": 5826,
      "##ll": 5827,
      "associates": 5828,
      "participant": 5829,
      "vi": 5830,
      "enhancement": 5831,
      "meets": 5832,
      "dr": 5833,
      "standby": 5834,
      "decades": 5835,
      "consistently": 5836,
      "ratably": 5837,
      "renew": 5838,
      "207": 5839,
      "broadcast": 5840,
      "189": 5841,
      "precision": 5842,
      "imaging": 5843,
      "bonuses": 5844,
      "tariff": 5845,
      "nations": 5846,
      "frequent": 5847,
      "desire": 5848,
      "reception": 5849,
      "193": 5850,
      "distinct": 5851,
      "ethical": 5852,
      "regime": 5853,
      "th": 5854,
      "programme": 5855,
      "202": 5856,
      "delivering": 5857,
      "rigs": 5858,
      "insignificant": 5859,
      "hour": 5860,
      "drop": 5861,
      "204": 5862,
      "accelerate": 5863,
      "hot": 5864,
      "rm": 5865,
      "plays": 5866,
      "208": 5867,
      "certainty": 5868,
      "presently": 5869,
      "adapt": 5870,
      "211": 5871,
      "accretion": 5872,
      "mortality": 5873,
      "216": 5874,
      "1985": 5875,
      "marketed": 5876,
      "##cs": 5877,
      "198": 5878,
      "yen": 5879,
      "##tm": 5880,
      "college": 5881,
      "pays": 5882,
      "##ga": 5883,
      "unknown": 5884,
      "counsel": 5885,
      "aerospace": 5886,
      "running": 5887,
      "soft": 5888,
      "dispositions": 5889,
      "taiwan": 5890,
      "197": 5891,
      "apb": 5892,
      "prc": 5893,
      "unitholders": 5894,
      "objects": 5895,
      "1987": 5896,
      "restrictive": 5897,
      "man": 5898,
      "war": 5899,
      "191": 5900,
      "formerly": 5901,
      "194": 5902,
      "235": 5903,
      "acceleration": 5904,
      "suite": 5905,
      "median": 5906,
      "365": 5907,
      "farms": 5908,
      "architecture": 5909,
      "password": 5910,
      "threat": 5911,
      "warning": 5912,
      "##st": 5913,
      "718": 5914,
      "moderate": 5915,
      "dilution": 5916,
      "weakness": 5917,
      "401": 5918,
      "talent": 5919,
      "violations": 5920,
      "##ls": 5921,
      "es": 5922,
      "strict": 5923,
      "unlikely": 5924,
      "229": 5925,
      "equally": 5926,
      "cells": 5927,
      "sab": 5928,
      "evolving": 5929,
      "connections": 5930,
      "pcs": 5931,
      "female": 5932,
      "hosting": 5933,
      "nevada": 5934,
      "245": 5935,
      "violation": 5936,
      "automatically": 5937,
      "unrelated": 5938,
      "rich": 5939,
      "214": 5940,
      "resale": 5941,
      "schemes": 5942,
      "##bs": 5943,
      "stakeholder": 5944,
      "seasonality": 5945,
      "refined": 5946,
      "gift": 5947,
      "teaching": 5948,
      "fulfill": 5949,
      "frank": 5950,
      "ford": 5951,
      "ranges": 5952,
      "concentrations": 5953,
      "cease": 5954,
      "minutes": 5955,
      "windows": 5956,
      "221": 5957,
      "blue": 5958,
      "campaign": 5959,
      "comments": 5960,
      "spin": 5961,
      "analytics": 5962,
      "causing": 5963,
      "##ley": 5964,
      "imports": 5965,
      "prescription": 5966,
      "bulletin": 5967,
      "shocks": 5968,
      "assurances": 5969,
      "browser": 5970,
      "290": 5971,
      "255": 5972,
      "##ki": 5973,
      "georgia": 5974,
      "farming": 5975,
      "supervisory": 5976,
      "author": 5977,
      "treat": 5978,
      "##less": 5979,
      "container": 5980,
      "abnormal": 5981,
      "209": 5982,
      "bears": 5983,
      "escrow": 5984,
      "812": 5985,
      "resolved": 5986,
      "217": 5987,
      "dairy": 5988,
      "223": 5989,
      "##ling": 5990,
      "shock": 5991,
      "232": 5992,
      "219": 5993,
      "municipalities": 5994,
      "incorporation": 5995,
      "303": 5996,
      "sure": 5997,
      "233": 5998,
      "investigations": 5999,
      "218": 6000,
      "accruing": 6001,
      "descriptive": 6002,
      "developers": 6003,
      "php": 6004,
      "wall": 6005,
      "independently": 6006,
      "213": 6007,
      "##ville": 6008,
      "substances": 6009,
      "origin": 6010,
      "aviation": 6011,
      "attribute": 6012,
      "farmer": 6013,
      "recession": 6014,
      "frame": 6015,
      "updates": 6016,
      "supplement": 6017,
      "accountability": 6018,
      "medicine": 6019,
      "deduction": 6020,
      "grown": 6021,
      "227": 6022,
      "casino": 6023,
      "exercises": 6024,
      "houses": 6025,
      "meat": 6026,
      "attacks": 6027,
      "doors": 6028,
      "easier": 6029,
      "231": 6030,
      "##ler": 6031,
      "625": 6032,
      "announcements": 6033,
      "annualized": 6034,
      "parameter": 6035,
      "enrollment": 6036,
      "cold": 6037,
      "something": 6038,
      "reality": 6039,
      "laser": 6040,
      "sent": 6041,
      "codification": 6042,
      "330": 6043,
      "removed": 6044,
      "optimize": 6045,
      "enjoy": 6046,
      "guaranty": 6047,
      "phenomenon": 6048,
      "downward": 6049,
      "228": 6050,
      "utilizes": 6051,
      "pools": 6052,
      "237": 6053,
      "dealing": 6054,
      "contractually": 6055,
      "deliverables": 6056,
      "id": 6057,
      "265": 6058,
      "paris": 6059,
      "##ke": 6060,
      "restructured": 6061,
      "proof": 6062,
      "510": 6063,
      "md": 6064,
      "mw": 6065,
      "publishing": 6066,
      "##ol": 6067,
      "ingredients": 6068,
      "doubt": 6069,
      "##ms": 6070,
      "observation": 6071,
      "exclusively": 6072,
      "224": 6073,
      "##age": 6074,
      "358": 6075,
      "argument": 6076,
      "affordable": 6077,
      "efficacy": 6078,
      "story": 6079,
      "fill": 6080,
      "keeping": 6081,
      "spring": 6082,
      "234": 6083,
      "unlike": 6084,
      "collectibility": 6085,
      "child": 6086,
      "unaudited": 6087,
      "contributes": 6088,
      "mbs": 6089,
      "besides": 6090,
      "pursuing": 6091,
      "plaintiffs": 6092,
      "appraisal": 6093,
      "representation": 6094,
      "consensus": 6095,
      "248": 6096,
      "adjustable": 6097,
      "mm": 6098,
      "develops": 6099,
      "dental": 6100,
      "inadequate": 6101,
      "inflows": 6102,
      "belgium": 6103,
      "explanatory": 6104,
      "243": 6105,
      "ideal": 6106,
      "exhibition": 6107,
      "shape": 6108,
      "ireland": 6109,
      "deep": 6110,
      "aforementioned": 6111,
      "usd": 6112,
      "340": 6113,
      "behaviors": 6114,
      "customs": 6115,
      "252": 6116,
      "226": 6117,
      "penetration": 6118,
      "addressing": 6119,
      "241": 6120,
      "affairs": 6121,
      "insight": 6122,
      "revolver": 6123,
      "##me": 6124,
      "subscribe": 6125,
      "switching": 6126,
      "propose": 6127,
      "242": 6128,
      "249": 6129,
      "##ds": 6130,
      "density": 6131,
      "installment": 6132,
      "256": 6133,
      "prescribed": 6134,
      "##sa": 6135,
      "workshop": 6136,
      "mind": 6137,
      "##ex": 6138,
      "prefer": 6139,
      "850": 6140,
      "auditor": 6141,
      "moved": 6142,
      "246": 6143,
      "restatement": 6144,
      "238": 6145,
      "##ism": 6146,
      "##ey": 6147,
      "collectability": 6148,
      "globally": 6149,
      "subsidies": 6150,
      "244": 6151,
      "translated": 6152,
      "sizes": 6153,
      "875": 6154,
      "gained": 6155,
      "schedules": 6156,
      "defendants": 6157,
      "substitute": 6158,
      "miscellaneous": 6159,
      "285": 6160,
      "247": 6161,
      "memory": 6162,
      "236": 6163,
      "251": 6164,
      "contingency": 6165,
      "migration": 6166,
      "fuels": 6167,
      "registrants": 6168,
      "thinking": 6169,
      "preclinical": 6170,
      "train": 6171,
      "dominant": 6172,
      "pilot": 6173,
      "hr": 6174,
      "ethics": 6175,
      "silver": 6176,
      "conversely": 6177,
      "purchasers": 6178,
      "253": 6179,
      "258": 6180,
      "watch": 6181,
      "finland": 6182,
      "lae": 6183,
      "greatest": 6184,
      "380": 6185,
      "pharmaceuticals": 6186,
      "town": 6187,
      "manages": 6188,
      "364": 6189,
      "composite": 6190,
      "favorably": 6191,
      "investigated": 6192,
      "belief": 6193,
      "fruit": 6194,
      "player": 6195,
      "relocation": 6196,
      "254": 6197,
      "intermediate": 6198,
      "introducing": 6199,
      "tracking": 6200,
      "federation": 6201,
      "263": 6202,
      "reimbursements": 6203,
      "airlines": 6204,
      "death": 6205,
      "withdrawal": 6206,
      "oxley": 6207,
      "integrating": 6208,
      "262": 6209,
      "generates": 6210,
      "behavioral": 6211,
      "exhibit": 6212,
      "temporarily": 6213,
      "305": 6214,
      "tariffs": 6215,
      "files": 6216,
      "nyse": 6217,
      "420": 6218,
      "containers": 6219,
      "bar": 6220,
      "horizon": 6221,
      "revision": 6222,
      "unchanged": 6223,
      "des": 6224,
      "england": 6225,
      "energys": 6226,
      "##ck": 6227,
      "257": 6228,
      "differs": 6229,
      "##ko": 6230,
      "posted": 6231,
      "sarbanes": 6232,
      "soil": 6233,
      "bottom": 6234,
      "saint": 6235,
      "defer": 6236,
      "picture": 6237,
      "arbitration": 6238,
      "theories": 6239,
      "oral": 6240,
      "264": 6241,
      "fines": 6242,
      "phases": 6243,
      "intense": 6244,
      "##ist": 6245,
      "286": 6246,
      "jointly": 6247,
      "meters": 6248,
      "ton": 6249,
      "239": 6250,
      "295": 6251,
      "flight": 6252,
      "equipped": 6253,
      "remove": 6254,
      "relevance": 6255,
      "excellence": 6256,
      "burden": 6257,
      "skill": 6258,
      "sp": 6259,
      "bus": 6260,
      "mill": 6261,
      "rewards": 6262,
      "315": 6263,
      "optical": 6264,
      "fulfillment": 6265,
      "##ner": 6266,
      "301": 6267,
      "hydraulic": 6268,
      "obsolescence": 6269,
      "speculative": 6270,
      "pledged": 6271,
      "370": 6272,
      "##ability": 6273,
      "supplied": 6274,
      "499": 6275,
      "alleged": 6276,
      "certifications": 6277,
      "journal": 6278,
      "indications": 6279,
      "rig": 6280,
      "fails": 6281,
      "gmbh": 6282,
      "outflows": 6283,
      "267": 6284,
      "tourists": 6285,
      "airline": 6286,
      "ease": 6287,
      "261": 6288,
      "343": 6289,
      "selecting": 6290,
      "reviewing": 6291,
      "scholars": 6292,
      "turkey": 6293,
      "consistency": 6294,
      "satisfactory": 6295,
      "268": 6296,
      "304": 6297,
      "sufficiently": 6298,
      "1990s": 6299,
      "335": 6300,
      "luxury": 6301,
      "answers": 6302,
      "272": 6303,
      "beneficiary": 6304,
      "norms": 6305,
      "colorado": 6306,
      "du": 6307,
      "originations": 6308,
      "him": 6309,
      "425": 6310,
      "266": 6311,
      "ecological": 6312,
      "pc": 6313,
      "259": 6314,
      "completing": 6315,
      "billings": 6316,
      "packages": 6317,
      "274": 6318,
      "portal": 6319,
      "delinquent": 6320,
      "supplementary": 6321,
      "parallel": 6322,
      "edge": 6323,
      "begins": 6324,
      "powerful": 6325,
      "vested": 6326,
      "confirm": 6327,
      "aging": 6328,
      "socio": 6329,
      "sublease": 6330,
      "showing": 6331,
      "kinds": 6332,
      "treatments": 6333,
      "##10": 6334,
      "los": 6335,
      "thought": 6336,
      "composed": 6337,
      "reinvestment": 6338,
      "1980": 6339,
      "interior": 6340,
      "sophisticated": 6341,
      "fine": 6342,
      "functioning": 6343,
      "handle": 6344,
      "overseas": 6345,
      "302": 6346,
      "checking": 6347,
      "wire": 6348,
      "##ty": 6349,
      "##ba": 6350,
      "upper": 6351,
      "definitions": 6352,
      "threats": 6353,
      "ukraine": 6354,
      "codes": 6355,
      "insurer": 6356,
      "fr": 6357,
      "absorb": 6358,
      "justice": 6359,
      "mac": 6360,
      "choosing": 6361,
      "sciences": 6362,
      "organisational": 6363,
      "tends": 6364,
      "conceptual": 6365,
      "getting": 6366,
      "287": 6367,
      "computers": 6368,
      "resolve": 6369,
      "statutes": 6370,
      "proceeding": 6371,
      "269": 6372,
      "273": 6373,
      "1934": 6374,
      "1984": 6375,
      "sport": 6376,
      "writing": 6377,
      "contamination": 6378,
      "commercialize": 6379,
      "fifth": 6380,
      "greatly": 6381,
      "##tech": 6382,
      "sprint": 6383,
      "powers": 6384,
      "maryland": 6385,
      "columns": 6386,
      "345": 6387,
      "win": 6388,
      "czech": 6389,
      "stored": 6390,
      "degrees": 6391,
      "shops": 6392,
      "opinions": 6393,
      "directions": 6394,
      "modules": 6395,
      "workplace": 6396,
      "ecosystem": 6397,
      "intentions": 6398,
      "negotiate": 6399,
      "opposed": 6400,
      "288": 6401,
      "410": 6402,
      "##que": 6403,
      "relies": 6404,
      "falls": 6405,
      "480": 6406,
      "authoritative": 6407,
      "281": 6408,
      "erp": 6409,
      "312": 6410,
      "fairly": 6411,
      "277": 6412,
      "##ee": 6413,
      "276": 6414,
      "##ec": 6415,
      "engines": 6416,
      "survival": 6417,
      "299": 6418,
      "lag": 6419,
      "forfeitures": 6420,
      "combine": 6421,
      "nm": 6422,
      "440": 6423,
      "helped": 6424,
      "audio": 6425,
      "terrorist": 6426,
      "##ite": 6427,
      "examining": 6428,
      "279": 6429,
      "transit": 6430,
      "revise": 6431,
      "271": 6432,
      "278": 6433,
      "311": 6434,
      "iron": 6435,
      "detection": 6436,
      "296": 6437,
      "ca": 6438,
      "interface": 6439,
      "standardized": 6440,
      "thailand": 6441,
      "philosophy": 6442,
      "##ent": 6443,
      "dodd": 6444,
      "351": 6445,
      "arizona": 6446,
      "383": 6447,
      "qualification": 6448,
      "assignment": 6449,
      "appointed": 6450,
      "cds": 6451,
      "capita": 6452,
      "vest": 6453,
      "timber": 6454,
      "ore": 6455,
      "clarifies": 6456,
      "die": 6457,
      "successor": 6458,
      "316": 6459,
      "entrepreneur": 6460,
      "interventions": 6461,
      "visitors": 6462,
      "arises": 6463,
      "exceeding": 6464,
      "##hi": 6465,
      "oecd": 6466,
      "355": 6467,
      "390": 6468,
      "feasible": 6469,
      "refinery": 6470,
      "282": 6471,
      "surgical": 6472,
      "284": 6473,
      "probably": 6474,
      "zealand": 6475,
      "minus": 6476,
      "questionnaires": 6477,
      "##ure": 6478,
      "rose": 6479,
      "470": 6480,
      "overcome": 6481,
      "routine": 6482,
      "accessibility": 6483,
      "disasters": 6484,
      "##ze": 6485,
      "consultant": 6486,
      "massachusetts": 6487,
      "formulation": 6488,
      "manual": 6489,
      "815": 6490,
      "org": 6491,
      "traders": 6492,
      "283": 6493,
      "292": 6494,
      "requisite": 6495,
      "licensees": 6496,
      "grand": 6497,
      "505": 6498,
      "sitemap": 6499,
      "profiles": 6500,
      "unearned": 6501,
      "laboratories": 6502,
      "balanced": 6503,
      "##berg": 6504,
      "apartments": 6505,
      "nursing": 6506,
      "pipe": 6507,
      "289": 6508,
      "campaigns": 6509,
      "protocol": 6510,
      "rms": 6511,
      "308": 6512,
      "excessive": 6513,
      "sovereign": 6514,
      "enforce": 6515,
      "prohibited": 6516,
      "kg": 6517,
      "contrary": 6518,
      "322": 6519,
      "wish": 6520,
      "installations": 6521,
      "prospectively": 6522,
      "collecting": 6523,
      "renovation": 6524,
      "garden": 6525,
      "294": 6526,
      "experiencing": 6527,
      "customized": 6528,
      "helping": 6529,
      "brazilian": 6530,
      "graph": 6531,
      "franchisees": 6532,
      "interpreted": 6533,
      "matures": 6534,
      "shifts": 6535,
      "291": 6536,
      "alpha": 6537,
      "metric": 6538,
      "metropolitan": 6539,
      "342": 6540,
      "##wood": 6541,
      "expose": 6542,
      "las": 6543,
      "810": 6544,
      "352": 6545,
      "307": 6546,
      "marked": 6547,
      "ifrs": 6548,
      "priorities": 6549,
      "therapeutic": 6550,
      "images": 6551,
      "acting": 6552,
      "unallocated": 6553,
      "297": 6554,
      "332": 6555,
      "harbor": 6556,
      "475": 6557,
      "313": 6558,
      "stringent": 6559,
      "##way": 6560,
      "298": 6561,
      "varied": 6562,
      "integral": 6563,
      "bull": 6564,
      "freedom": 6565,
      "314": 6566,
      "347": 6567,
      "restoration": 6568,
      "vulnerable": 6569,
      "3d": 6570,
      "expressions": 6571,
      "extending": 6572,
      "vital": 6573,
      "spanish": 6574,
      "sun": 6575,
      "950": 6576,
      "really": 6577,
      "species": 6578,
      "323": 6579,
      "wider": 6580,
      "resistance": 6581,
      "touch": 6582,
      "euros": 6583,
      "retaining": 6584,
      "existed": 6585,
      "##ors": 6586,
      "railway": 6587,
      "##one": 6588,
      "306": 6589,
      "weaknesses": 6590,
      "460": 6591,
      "parents": 6592,
      "modest": 6593,
      "divestiture": 6594,
      "magazine": 6595,
      "equals": 6596,
      "317": 6597,
      "persuasive": 6598,
      "lots": 6599,
      "switzerland": 6600,
      "309": 6601,
      "coupon": 6602,
      "terrorism": 6603,
      "334": 6604,
      "rank": 6605,
      "golf": 6606,
      "slight": 6607,
      "panels": 6608,
      "293": 6609,
      "monitored": 6610,
      "array": 6611,
      "columbia": 6612,
      "unusual": 6613,
      "terminals": 6614,
      "trigger": 6615,
      "recruiting": 6616,
      "influencing": 6617,
      "word": 6618,
      "signs": 6619,
      "budgets": 6620,
      "##za": 6621,
      "reaching": 6622,
      "territories": 6623,
      "430": 6624,
      "understood": 6625,
      "2021": 6626,
      "tied": 6627,
      "327": 6628,
      "lake": 6629,
      "385": 6630,
      "363": 6631,
      "324": 6632,
      "ag": 6633,
      "occupied": 6634,
      "##wa": 6635,
      "brokered": 6636,
      "logic": 6637,
      "outdoor": 6638,
      "fcc": 6639,
      "committees": 6640,
      "326": 6641,
      "318": 6642,
      "pertaining": 6643,
      "visits": 6644,
      "baseline": 6645,
      "jsc": 6646,
      "805": 6647,
      "vie": 6648,
      "immaterial": 6649,
      "dividing": 6650,
      "predominantly": 6651,
      "ceded": 6652,
      "suit": 6653,
      "sme": 6654,
      "lists": 6655,
      "depreciated": 6656,
      "331": 6657,
      "372": 6658,
      "nation": 6659,
      "perpetual": 6660,
      "static": 6661,
      "officials": 6662,
      "321": 6663,
      "525": 6664,
      "fluctuation": 6665,
      "cancelable": 6666,
      "constraint": 6667,
      "engaging": 6668,
      "ms": 6669,
      "manufactures": 6670,
      "auditing": 6671,
      "tour": 6672,
      "app": 6673,
      "fraction": 6674,
      "browsing": 6675,
      "337": 6676,
      "uniform": 6677,
      "discrete": 6678,
      "regulate": 6679,
      "adjusting": 6680,
      "switch": 6681,
      "pa": 6682,
      "gradually": 6683,
      "349": 6684,
      "338": 6685,
      "judicial": 6686,
      "bureau": 6687,
      "##les": 6688,
      "negotiation": 6689,
      "ngl": 6690,
      "reveal": 6691,
      "crops": 6692,
      "reversed": 6693,
      "wisconsin": 6694,
      "336": 6695,
      "constructs": 6696,
      "##di": 6697,
      "weekly": 6698,
      "ethanol": 6699,
      "risky": 6700,
      "##he": 6701,
      "319": 6702,
      "generations": 6703,
      "##е": 6704,
      "344": 6705,
      "520": 6706,
      "forwards": 6707,
      "multinational": 6708,
      "delinquency": 6709,
      "impair": 6710,
      "paragraph": 6711,
      "deferral": 6712,
      "guarantors": 6713,
      "differently": 6714,
      "348": 6715,
      "les": 6716,
      "historic": 6717,
      "weaker": 6718,
      "statute": 6719,
      "consultation": 6720,
      "outlined": 6721,
      "##ally": 6722,
      "monday": 6723,
      "break": 6724,
      "virtually": 6725,
      "friday": 6726,
      "strictly": 6727,
      "preserve": 6728,
      "legally": 6729,
      "aggregated": 6730,
      "screening": 6731,
      "371": 6732,
      "forfeiture": 6733,
      "eventually": 6734,
      "characteristic": 6735,
      "nominal": 6736,
      "329": 6737,
      "consuming": 6738,
      "bringing": 6739,
      "339": 6740,
      "aggressive": 6741,
      "compounds": 6742,
      "interruption": 6743,
      "collaborations": 6744,
      "advisor": 6745,
      "1933": 6746,
      "415": 6747,
      "353": 6748,
      "door": 6749,
      "540": 6750,
      "battery": 6751,
      "extensions": 6752,
      "goes": 6753,
      "rentals": 6754,
      "designing": 6755,
      "hazard": 6756,
      "ceiling": 6757,
      "publication": 6758,
      "sop": 6759,
      "vast": 6760,
      "gasoline": 6761,
      "inform": 6762,
      "hospitality": 6763,
      "expands": 6764,
      "connectivity": 6765,
      "performs": 6766,
      "346": 6767,
      "##nd": 6768,
      "criterion": 6769,
      "##om": 6770,
      "411": 6771,
      "explicit": 6772,
      "328": 6773,
      "403": 6774,
      "align": 6775,
      "comparability": 6776,
      "354": 6777,
      "conform": 6778,
      "illustrates": 6779,
      "readers": 6780,
      "refining": 6781,
      "inclusive": 6782,
      "communicate": 6783,
      "moral": 6784,
      "horizontal": 6785,
      "standing": 6786,
      "##izing": 6787,
      "tower": 6788,
      "smith": 6789,
      "##mi": 6790,
      "ameren": 6791,
      "installments": 6792,
      "telecom": 6793,
      "puerto": 6794,
      "recall": 6795,
      "intrinsic": 6796,
      "sterling": 6797,
      "405": 6798,
      "rice": 6799,
      "experiment": 6800,
      "sanctions": 6801,
      "forum": 6802,
      "clothing": 6803,
      "pepco": 6804,
      "messages": 6805,
      "pl": 6806,
      "programmes": 6807,
      "exploratory": 6808,
      "practitioners": 6809,
      "eco": 6810,
      "359": 6811,
      "administered": 6812,
      "appeals": 6813,
      "competencies": 6814,
      "perspectives": 6815,
      "viable": 6816,
      "##id": 6817,
      "357": 6818,
      "suggesting": 6819,
      "argentina": 6820,
      "capitalize": 6821,
      "560": 6822,
      "classify": 6823,
      "throughput": 6824,
      "duke": 6825,
      "reward": 6826,
      "dual": 6827,
      "researcher": 6828,
      "upfront": 6829,
      "395": 6830,
      "slowdown": 6831,
      "501": 6832,
      "seismic": 6833,
      "1983": 6834,
      "microsoft": 6835,
      "356": 6836,
      "accessible": 6837,
      "530": 6838,
      "enters": 6839,
      "341": 6840,
      "cf": 6841,
      "369": 6842,
      "368": 6843,
      "366": 6844,
      "hurricane": 6845,
      "pumps": 6846,
      "discusses": 6847,
      "575": 6848,
      "361": 6849,
      "spatial": 6850,
      "##ja": 6851,
      "loading": 6852,
      "avenue": 6853,
      "mountain": 6854,
      "adapted": 6855,
      "injection": 6856,
      "declare": 6857,
      "precise": 6858,
      "chicago": 6859,
      "symbol": 6860,
      "constrained": 6861,
      "minor": 6862,
      "takeover": 6863,
      "381": 6864,
      "378": 6865,
      "indiana": 6866,
      "490": 6867,
      "phones": 6868,
      "widespread": 6869,
      "decade": 6870,
      "targeting": 6871,
      "384": 6872,
      "synthetic": 6873,
      "rehabilitation": 6874,
      "huge": 6875,
      "412": 6876,
      "362": 6877,
      "391": 6878,
      "suspension": 6879,
      "municipality": 6880,
      "novel": 6881,
      "dec": 6882,
      "directive": 6883,
      "reaction": 6884,
      "motivated": 6885,
      "pure": 6886,
      "films": 6887,
      "greenhouse": 6888,
      "happy": 6889,
      "corn": 6890,
      "retired": 6891,
      "050": 6892,
      "centralized": 6893,
      "cms": 6894,
      "roll": 6895,
      "auctions": 6896,
      "comfort": 6897,
      "373": 6898,
      "oklahoma": 6899,
      "discharge": 6900,
      "377": 6901,
      "388": 6902,
      "harmed": 6903,
      "payables": 6904,
      "dispose": 6905,
      "beach": 6906,
      "vsoe": 6907,
      "406": 6908,
      "purchaser": 6909,
      "explains": 6910,
      "ups": 6911,
      "ceased": 6912,
      "da": 6913,
      "friends": 6914,
      "374": 6915,
      "640": 6916,
      "386": 6917,
      "reading": 6918,
      "402": 6919,
      "444": 6920,
      "387": 6921,
      "399": 6922,
      "developer": 6923,
      "topics": 6924,
      "435": 6925,
      "660": 6926,
      "##gen": 6927,
      "everyone": 6928,
      "teachers": 6929,
      "spaces": 6930,
      "closer": 6931,
      "rata": 6932,
      "improves": 6933,
      "debit": 6934,
      "376": 6935,
      "representations": 6936,
      "##isation": 6937,
      "423": 6938,
      "impossible": 6939,
      "367": 6940,
      "##ier": 6941,
      "506": 6942,
      "417": 6943,
      "437": 6944,
      "variances": 6945,
      "quote": 6946,
      "##gs": 6947,
      "resellers": 6948,
      "455": 6949,
      "cart": 6950,
      "amends": 6951,
      "max": 6952,
      "rational": 6953,
      "basel": 6954,
      "379": 6955,
      "ocean": 6956,
      "intermediaries": 6957,
      "unions": 6958,
      "408": 6959,
      "complaints": 6960,
      "trained": 6961,
      "##fs": 6962,
      "##pa": 6963,
      "begun": 6964,
      "norway": 6965,
      "hall": 6966,
      "petition": 6967,
      "male": 6968,
      "667": 6969,
      "combining": 6970,
      "evident": 6971,
      "anniversary": 6972,
      "cyclical": 6973,
      "cognitive": 6974,
      "620": 6975,
      "john": 6976,
      "biotechnology": 6977,
      "nutrition": 6978,
      "desirable": 6979,
      "videos": 6980,
      "394": 6981,
      "saw": 6982,
      "555": 6983,
      "397": 6984,
      "complement": 6985,
      "393": 6986,
      "identifies": 6987,
      "422": 6988,
      "differential": 6989,
      "surveillance": 6990,
      "##tor": 6991,
      "waiver": 6992,
      "michigan": 6993,
      "expiring": 6994,
      "traditionally": 6995,
      "lock": 6996,
      "disability": 6997,
      "bidding": 6998,
      "copy": 6999,
      "392": 7000,
      "relied": 7001,
      "comprise": 7002,
      "##ina": 7003,
      "580": 7004,
      "##ize": 7005,
      "audience": 7006,
      "peoples": 7007,
      "polish": 7008,
      "426": 7009,
      "rico": 7010,
      "ranking": 7011,
      "macro": 7012,
      "432": 7013,
      "389": 7014,
      "bancorp": 7015,
      "sponsor": 7016,
      "roa": 7017,
      "##20": 7018,
      "398": 7019,
      "418": 7020,
      "424": 7021,
      "denmark": 7022,
      "attracting": 7023,
      "##rt": 7024,
      "instability": 7025,
      "ancillary": 7026,
      "character": 7027,
      "distinguish": 7028,
      "vacation": 7029,
      "possibilities": 7030,
      "blocks": 7031,
      "transparent": 7032,
      "introductions": 7033,
      "454": 7034,
      "##ac": 7035,
      "exchanged": 7036,
      "subsidy": 7037,
      "396": 7038,
      "416": 7039,
      "visual": 7040,
      "438": 7041,
      "unauthorized": 7042,
      "adaptation": 7043,
      "imported": 7044,
      "414": 7045,
      "systemic": 7046,
      "##ant": 7047,
      "defects": 7048,
      "explicitly": 7049,
      "413": 7050,
      "archive": 7051,
      "504": 7052,
      "forecasting": 7053,
      "libraries": 7054,
      "solving": 7055,
      "protecting": 7056,
      "##est": 7057,
      "##ron": 7058,
      "screen": 7059,
      "undelivered": 7060,
      "displays": 7061,
      "ourselves": 7062,
      "clearance": 7063,
      "suspended": 7064,
      "ours": 7065,
      "strengths": 7066,
      "finds": 7067,
      "multiplied": 7068,
      "825": 7069,
      "dc": 7070,
      "defend": 7071,
      "obvious": 7072,
      "407": 7073,
      "imply": 7074,
      "module": 7075,
      "trustee": 7076,
      "occupational": 7077,
      "swedish": 7078,
      "checks": 7079,
      "9001": 7080,
      "421": 7081,
      "##ir": 7082,
      "mitigation": 7083,
      "434": 7084,
      "configuration": 7085,
      "starts": 7086,
      "433": 7087,
      "counties": 7088,
      "competitor": 7089,
      "withholding": 7090,
      "448": 7091,
      "highlighted": 7092,
      "##ide": 7093,
      "heritage": 7094,
      "unfunded": 7095,
      "chance": 7096,
      "joined": 7097,
      "##tic": 7098,
      "443": 7099,
      "creditworthiness": 7100,
      "465": 7101,
      "heterogeneity": 7102,
      "409": 7103,
      "bills": 7104,
      "neutral": 7105,
      "shortages": 7106,
      "502": 7107,
      "emerged": 7108,
      "442": 7109,
      "449": 7110,
      "590": 7111,
      "456": 7112,
      "429": 7113,
      "pm": 7114,
      "aa": 7115,
      "419": 7116,
      "##ised": 7117,
      "ce": 7118,
      "missouri": 7119,
      "browse": 7120,
      "appearing": 7121,
      "clusters": 7122,
      "451": 7123,
      "deficiency": 7124,
      "atm": 7125,
      "1st": 7126,
      "highlight": 7127,
      "appropriately": 7128,
      "570": 7129,
      "submission": 7130,
      "##other": 7131,
      "441": 7132,
      "445": 7133,
      "leveraged": 7134,
      "merchants": 7135,
      "tank": 7136,
      "depository": 7137,
      "720": 7138,
      "439": 7139,
      "tranche": 7140,
      "473": 7141,
      "plc": 7142,
      "428": 7143,
      "digit": 7144,
      "ensures": 7145,
      "louisiana": 7146,
      "roads": 7147,
      "likewise": 7148,
      "reveals": 7149,
      "atlantic": 7150,
      "860": 7151,
      "layer": 7152,
      "515": 7153,
      "caps": 7154,
      "675": 7155,
      "string": 7156,
      "855": 7157,
      "adults": 7158,
      "regulator": 7159,
      "468": 7160,
      "unobservable": 7161,
      "null": 7162,
      "reinsurers": 7163,
      "##ci": 7164,
      "convenient": 7165,
      "##ny": 7166,
      "446": 7167,
      "oy": 7168,
      "encouraged": 7169,
      "liquids": 7170,
      "plug": 7171,
      "endeddecember": 7172,
      "431": 7173,
      "458": 7174,
      "incurring": 7175,
      "accommodate": 7176,
      "##ow": 7177,
      "abstract": 7178,
      "cooling": 7179,
      "constitutes": 7180,
      "holidays": 7181,
      "rolling": 7182,
      "prudent": 7183,
      "##ous": 7184,
      "485": 7185,
      "regarded": 7186,
      "7a": 7187,
      "policyholders": 7188,
      "427": 7189,
      "analyzes": 7190,
      "ed": 7191,
      "verification": 7192,
      "branding": 7193,
      "##а": 7194,
      "464": 7195,
      "496": 7196,
      "false": 7197,
      "478": 7198,
      "oems": 7199,
      "commencement": 7200,
      "signals": 7201,
      "##ad": 7202,
      "subscriptions": 7203,
      "opposite": 7204,
      "725": 7205,
      "010": 7206,
      "466": 7207,
      "reimbursed": 7208,
      "appointment": 7209,
      "proceed": 7210,
      "bbb": 7211,
      "fired": 7212,
      "debate": 7213,
      "surgery": 7214,
      "610": 7215,
      "apart": 7216,
      "positioned": 7217,
      "545": 7218,
      "483": 7219,
      "775": 7220,
      "brings": 7221,
      "508": 7222,
      "##lin": 7223,
      "##м": 7224,
      "narrow": 7225,
      "rmb": 7226,
      "bermuda": 7227,
      "pounds": 7228,
      "continuation": 7229,
      "##ff": 7230,
      "488": 7231,
      "730": 7232,
      "436": 7233,
      "447": 7234,
      "insolvency": 7235,
      "declaration": 7236,
      "vector": 7237,
      "flash": 7238,
      "maximizing": 7239,
      "630": 7240,
      "##mo": 7241,
      "503": 7242,
      "680": 7243,
      "campus": 7244,
      "morgan": 7245,
      "underwriters": 7246,
      "mexican": 7247,
      "districts": 7248,
      "securitized": 7249,
      "606": 7250,
      "1982": 7251,
      "austria": 7252,
      "prediction": 7253,
      "matched": 7254,
      "ties": 7255,
      "discipline": 7256,
      "##ning": 7257,
      "documented": 7258,
      "020": 7259,
      "467": 7260,
      "crm": 7261,
      "737": 7262,
      "462": 7263,
      "ticket": 7264,
      "incumbent": 7265,
      "positioning": 7266,
      "compensate": 7267,
      "463": 7268,
      "proportional": 7269,
      "considerably": 7270,
      "cautionary": 7271,
      "confidentiality": 7272,
      "457": 7273,
      "##ek": 7274,
      "ahead": 7275,
      "471": 7276,
      "512": 7277,
      "452": 7278,
      "##nce": 7279,
      "eliminating": 7280,
      "proximity": 7281,
      "ve": 7282,
      "moment": 7283,
      "leisure": 7284,
      "492": 7285,
      "accommodation": 7286,
      "##и": 7287,
      "divestitures": 7288,
      "advertisers": 7289,
      "469": 7290,
      "respondent": 7291,
      "493": 7292,
      "bay": 7293,
      "070": 7294,
      "519": 7295,
      "slower": 7296,
      "leaving": 7297,
      "535": 7298,
      "489": 7299,
      "bp": 7300,
      "999": 7301,
      "459": 7302,
      "514": 7303,
      "##zione": 7304,
      "classic": 7305,
      "780": 7306,
      "diagnostics": 7307,
      "sugar": 7308,
      "453": 7309,
      "472": 7310,
      "516": 7311,
      "481": 7312,
      "silicon": 7313,
      "kitchen": 7314,
      "interstate": 7315,
      "exemption": 7316,
      "##and": 7317,
      "474": 7318,
      "shoes": 7319,
      "517": 7320,
      "differentiation": 7321,
      "shale": 7322,
      "eps": 7323,
      "prohibit": 7324,
      "granting": 7325,
      "tendency": 7326,
      "differing": 7327,
      "refunds": 7328,
      "permanently": 7329,
      "476": 7330,
      "conditioning": 7331,
      "666": 7332,
      "##ss": 7333,
      "exercisable": 7334,
      "grain": 7335,
      "hope": 7336,
      "dilutive": 7337,
      "financially": 7338,
      "oreo": 7339,
      "middot": 7340,
      "lp": 7341,
      "incorporating": 7342,
      "pet": 7343,
      "511": 7344,
      "extends": 7345,
      "715": 7346,
      "985": 7347,
      "ends": 7348,
      "482": 7349,
      "509": 7350,
      "recommendation": 7351,
      "chart": 7352,
      "emphasize": 7353,
      "461": 7354,
      "creek": 7355,
      "examines": 7356,
      "reset": 7357,
      "exclusion": 7358,
      "ice": 7359,
      "credited": 7360,
      "renewals": 7361,
      "690": 7362,
      "houston": 7363,
      "thirty": 7364,
      "040": 7365,
      "carries": 7366,
      "479": 7367,
      "487": 7368,
      "##out": 7369,
      "498": 7370,
      "840": 7371,
      "##ura": 7372,
      "born": 7373,
      "rejected": 7374,
      "examinations": 7375,
      "494": 7376,
      "507": 7377,
      "israel": 7378,
      "predictions": 7379,
      "comprising": 7380,
      "secondly": 7381,
      "arm": 7382,
      "livestock": 7383,
      "526": 7384,
      "lee": 7385,
      "524": 7386,
      "tissue": 7387,
      "486": 7388,
      "585": 7389,
      "##der": 7390,
      "497": 7391,
      "571": 7392,
      "floors": 7393,
      "747": 7394,
      "emerge": 7395,
      "landscape": 7396,
      "##ya": 7397,
      "lab": 7398,
      "deteriorate": 7399,
      "drives": 7400,
      "522": 7401,
      "alter": 7402,
      "mae": 7403,
      "propane": 7404,
      "pakistan": 7405,
      "484": 7406,
      "correlations": 7407,
      "tailored": 7408,
      "assesses": 7409,
      "strive": 7410,
      "era": 7411,
      "notion": 7412,
      "acquirer": 7413,
      "notification": 7414,
      "670": 7415,
      "exploitation": 7416,
      "titles": 7417,
      "521": 7418,
      "011": 7419,
      "approve": 7420,
      "760": 7421,
      "602": 7422,
      "ndash": 7423,
      "518": 7424,
      "scrap": 7425,
      "601": 7426,
      "1000": 7427,
      "531": 7428,
      "hub": 7429,
      "556": 7430,
      "filter": 7431,
      "##com": 7432,
      "leveraging": 7433,
      "carryforward": 7434,
      "491": 7435,
      "destinations": 7436,
      "##ha": 7437,
      "532": 7438,
      "538": 7439,
      "regards": 7440,
      "booking": 7441,
      "concludes": 7442,
      "crises": 7443,
      "brief": 7444,
      "drill": 7445,
      "##ance": 7446,
      "outsourced": 7447,
      "ars": 7448,
      "615": 7449,
      "##ix": 7450,
      "477": 7451,
      "alliant": 7452,
      "tree": 7453,
      "513": 7454,
      "563": 7455,
      "leaseback": 7456,
      "hired": 7457,
      "710": 7458,
      "accidents": 7459,
      "830": 7460,
      "##per": 7461,
      "529": 7462,
      "concessions": 7463,
      "weights": 7464,
      "socially": 7465,
      "facilitating": 7466,
      "trying": 7467,
      "foreclosed": 7468,
      "barrel": 7469,
      "falling": 7470,
      "ghg": 7471,
      "770": 7472,
      "533": 7473,
      "deficiencies": 7474,
      "603": 7475,
      "##rd": 7476,
      "anticipation": 7477,
      "accountants": 7478,
      "565": 7479,
      "595": 7480,
      "surety": 7481,
      "agenda": 7482,
      "powered": 7483,
      "played": 7484,
      "##tt": 7485,
      "566": 7486,
      "payors": 7487,
      "541": 7488,
      "environmentally": 7489,
      "ruling": 7490,
      "troubled": 7491,
      "##field": 7492,
      "specify": 7493,
      "participated": 7494,
      "777": 7495,
      "reits": 7496,
      "emea": 7497,
      "554": 7498,
      "558": 7499,
      "exploring": 7500,
      "552": 7501,
      "645": 7502,
      "567": 7503,
      "beneficiaries": 7504,
      "030": 7505,
      "534": 7506,
      "572": 7507,
      "diligence": 7508,
      "compute": 7509,
      "highway": 7510,
      "subcontractors": 7511,
      "ordered": 7512,
      "contexts": 7513,
      "542": 7514,
      "557": 7515,
      "588": 7516,
      "secretary": 7517,
      "psychological": 7518,
      "990": 7519,
      "underground": 7520,
      "543": 7521,
      "minerals": 7522,
      "583": 7523,
      "precisely": 7524,
      "petersburg": 7525,
      "synergies": 7526,
      "guests": 7527,
      "528": 7528,
      "638": 7529,
      "527": 7530,
      "536": 7531,
      "635": 7532,
      "980": 7533,
      "544": 7534,
      "582": 7535,
      "tm": 7536,
      "gave": 7537,
      "faces": 7538,
      "790": 7539,
      "pp": 7540,
      "notified": 7541,
      "577": 7542,
      "548": 7543,
      "substance": 7544,
      "poors": 7545,
      "defining": 7546,
      "604": 7547,
      "categorized": 7548,
      "harvest": 7549,
      "analysed": 7550,
      "na": 7551,
      "665": 7552,
      "767": 7553,
      "564": 7554,
      "weakening": 7555,
      "reservation": 7556,
      "573": 7557,
      "035": 7558,
      "circulation": 7559,
      "523": 7560,
      "880": 7561,
      "verify": 7562,
      "568": 7563,
      "bids": 7564,
      "##30": 7565,
      "562": 7566,
      "finite": 7567,
      "personalized": 7568,
      "003": 7569,
      "551": 7570,
      "eur": 7571,
      "537": 7572,
      "553": 7573,
      "547": 7574,
      "undeveloped": 7575,
      "576": 7576,
      "permitting": 7577,
      "cyber": 7578,
      "fiduciary": 7579,
      "streams": 7580,
      "boundaries": 7581,
      "unsuccessful": 7582,
      "arguments": 7583,
      "breaches": 7584,
      "ngls": 7585,
      "relational": 7586,
      "compression": 7587,
      "574": 7588,
      "amortize": 7589,
      "claimed": 7590,
      "925": 7591,
      "578": 7592,
      "619": 7593,
      "787": 7594,
      "consumed": 7595,
      "importantly": 7596,
      "831": 7597,
      "569": 7598,
      "hearing": 7599,
      "bio": 7600,
      "lean": 7601,
      "experimental": 7602,
      "sensors": 7603,
      "shanghai": 7604,
      "##50": 7605,
      "960": 7606,
      "vies": 7607,
      "##si": 7608,
      "guarantor": 7609,
      "seed": 7610,
      "asserted": 7611,
      "##point": 7612,
      "animals": 7613,
      "otc": 7614,
      "detect": 7615,
      "interact": 7616,
      "596": 7617,
      "ge": 7618,
      "cancelled": 7619,
      "549": 7620,
      "acute": 7621,
      "714": 7622,
      "commence": 7623,
      "inquiries": 7624,
      "stainless": 7625,
      "payout": 7626,
      "559": 7627,
      "steady": 7628,
      "susceptible": 7629,
      "bound": 7630,
      "midstream": 7631,
      "611": 7632,
      "barrels": 7633,
      "shifting": 7634,
      "aged": 7635,
      "broadly": 7636,
      "beta": 7637,
      "controller": 7638,
      "swiss": 7639,
      "608": 7640,
      "beauty": 7641,
      "reclassification": 7642,
      "install": 7643,
      "612": 7644,
      "appliances": 7645,
      "##ating": 7646,
      "interval": 7647,
      "refundable": 7648,
      "fabrication": 7649,
      "703": 7650,
      "599": 7651,
      "##ys": 7652,
      "546": 7653,
      "lowered": 7654,
      "561": 7655,
      "539": 7656,
      "607": 7657,
      "648": 7658,
      "584": 7659,
      "raises": 7660,
      "emotional": 7661,
      "617": 7662,
      "thresholds": 7663,
      "591": 7664,
      "745": 7665,
      "##ated": 7666,
      "caption": 7667,
      "conservative": 7668,
      "888": 7669,
      "textile": 7670,
      "705": 7671,
      "587": 7672,
      "609": 7673,
      "shortage": 7674,
      "waiting": 7675,
      "616": 7676,
      "581": 7677,
      "payoff": 7678,
      "versions": 7679,
      "visibility": 7680,
      "002": 7681,
      "quotes": 7682,
      "homebuilding": 7683,
      "collaborators": 7684,
      "634": 7685,
      "creativity": 7686,
      "626": 7687,
      "688": 7688,
      "pledge": 7689,
      "went": 7690,
      "##ise": 7691,
      "restriction": 7692,
      "662": 7693,
      "676": 7694,
      "minnesota": 7695,
      "missing": 7696,
      "welding": 7697,
      "downloads": 7698,
      "642": 7699,
      "databases": 7700,
      "taste": 7701,
      "reinvested": 7702,
      "recommend": 7703,
      "acreage": 7704,
      "655": 7705,
      "contemplated": 7706,
      "579": 7707,
      "051": 7708,
      "acid": 7709,
      "##are": 7710,
      "vegetables": 7711,
      "920": 7712,
      "johnson": 7713,
      "incorporates": 7714,
      "618": 7715,
      "super": 7716,
      "viability": 7717,
      "911": 7718,
      "protein": 7719,
      "755": 7720,
      "613": 7721,
      "031": 7722,
      "622": 7723,
      "illustrated": 7724,
      "openings": 7725,
      "685": 7726,
      "substantive": 7727,
      "treaty": 7728,
      "592": 7729,
      "exporting": 7730,
      "663": 7731,
      "##ap": 7732,
      "prompt": 7733,
      "plastics": 7734,
      "logistic": 7735,
      "originate": 7736,
      "1981": 7737,
      "##ot": 7738,
      "extraction": 7739,
      "joining": 7740,
      "mini": 7741,
      "597": 7742,
      "1980s": 7743,
      "compound": 7744,
      "586": 7745,
      "005": 7746,
      "679": 7747,
      "residence": 7748,
      "628": 7749,
      "encounter": 7750,
      "641": 7751,
      "brown": 7752,
      "695": 7753,
      "confidential": 7754,
      "594": 7755,
      "636": 7756,
      "shell": 7757,
      "704": 7758,
      "mills": 7759,
      "624": 7760,
      "assisted": 7761,
      "discovered": 7762,
      "004": 7763,
      "653": 7764,
      "rare": 7765,
      "##ah": 7766,
      "ranked": 7767,
      "aaa": 7768,
      "632": 7769,
      "621": 7770,
      "definitive": 7771,
      "youth": 7772,
      "589": 7773,
      "retrospective": 7774,
      "713": 7775,
      "scales": 7776,
      "fifty": 7777,
      "invoice": 7778,
      "gaps": 7779,
      "expression": 7780,
      "strike": 7781,
      "biological": 7782,
      "southeast": 7783,
      "785": 7784,
      "614": 7785,
      "helpful": 7786,
      "routes": 7787,
      "abandonment": 7788,
      "concentrate": 7789,
      "kansas": 7790,
      "623": 7791,
      "passengers": 7792,
      "drawing": 7793,
      "643": 7794,
      "indexed": 7795,
      "637": 7796,
      "702": 7797,
      "##cy": 7798,
      "boston": 7799,
      "discontinue": 7800,
      "802": 7801,
      "succeed": 7802,
      "910": 7803,
      "045": 7804,
      "890": 7805,
      "multifamily": 7806,
      "initiate": 7807,
      "passive": 7808,
      "080": 7809,
      "mall": 7810,
      "co2": 7811,
      "trip": 7812,
      "682": 7813,
      "dataset": 7814,
      "727": 7815,
      "870": 7816,
      "skin": 7817,
      "647": 7818,
      "025": 7819,
      "barrier": 7820,
      "instructions": 7821,
      "658": 7822,
      "yielding": 7823,
      "639": 7824,
      "##tive": 7825,
      "701": 7826,
      "678": 7827,
      "valves": 7828,
      "absent": 7829,
      "902": 7830,
      "598": 7831,
      "corrective": 7832,
      "##ford": 7833,
      "633": 7834,
      "631": 7835,
      "entirety": 7836,
      "idaho": 7837,
      "merit": 7838,
      "651": 7839,
      "medicines": 7840,
      "hurricanes": 7841,
      "644": 7842,
      "728": 7843,
      "illegal": 7844,
      "youtube": 7845,
      "765": 7846,
      "rue": 7847,
      "668": 7848,
      "930": 7849,
      "demonstrates": 7850,
      "footwear": 7851,
      "seriously": 7852,
      "pump": 7853,
      "852": 7854,
      "possess": 7855,
      "securitizations": 7856,
      "646": 7857,
      "995": 7858,
      "triggered": 7859,
      "proportionate": 7860,
      "bookings": 7861,
      "656": 7862,
      "762": 7863,
      "perceive": 7864,
      "673": 7865,
      "illustrate": 7866,
      "629": 7867,
      "833": 7868,
      "975": 7869,
      "restructure": 7870,
      "##ino": 7871,
      "dutch": 7872,
      "adjacent": 7873,
      "convention": 7874,
      "notices": 7875,
      "frozen": 7876,
      "steam": 7877,
      "modernization": 7878,
      "downstream": 7879,
      "session": 7880,
      "exactly": 7881,
      "671": 7882,
      "fluid": 7883,
      "servers": 7884,
      "indemnify": 7885,
      "712": 7886,
      "motors": 7887,
      "721": 7888,
      "731": 7889,
      "795": 7890,
      "alternate": 7891,
      "627": 7892,
      "757": 7893,
      "milan": 7894,
      "717": 7895,
      "744": 7896,
      "649": 7897,
      "##hs": 7898,
      "689": 7899,
      "aftermarket": 7900,
      "652": 7901,
      "672": 7902,
      "661": 7903,
      "labels": 7904,
      "explaining": 7905,
      "explored": 7906,
      "faq": 7907,
      "tradition": 7908,
      "accumulation": 7909,
      "711": 7910,
      "cited": 7911,
      "exploit": 7912,
      "stockholm": 7913,
      "##bank": 7914,
      "707": 7915,
      "669": 7916,
      "##operating": 7917,
      "fargo": 7918,
      "724": 7919,
      "735": 7920,
      "upward": 7921,
      "749": 7922,
      "681": 7923,
      "suggestions": 7924,
      "593": 7925,
      "empirically": 7926,
      "printed": 7927,
      "pv": 7928,
      "691": 7929,
      "708": 7930,
      "notably": 7931,
      "equations": 7932,
      "diffusion": 7933,
      "stone": 7934,
      "argues": 7935,
      "equities": 7936,
      "kept": 7937,
      "684": 7938,
      "faith": 7939,
      "globalization": 7940,
      "846": 7941,
      "bags": 7942,
      "664": 7943,
      "##be": 7944,
      "692": 7945,
      "speak": 7946,
      "055": 7947,
      "capacities": 7948,
      "insulation": 7949,
      "835": 7950,
      "677": 7951,
      "696": 7952,
      "skip": 7953,
      "reflective": 7954,
      "opt": 7955,
      "outlet": 7956,
      "743": 7957,
      "remedies": 7958,
      "modes": 7959,
      "732": 7960,
      "075": 7961,
      "722": 7962,
      "729": 7963,
      "940": 7964,
      "965": 7965,
      "659": 7966,
      "796": 7967,
      "evidenced": 7968,
      "654": 7969,
      "undue": 7970,
      "683": 7971,
      "supreme": 7972,
      "843": 7973,
      "closures": 7974,
      "winning": 7975,
      "706": 7976,
      "populations": 7977,
      "scientists": 7978,
      "699": 7979,
      "provincial": 7980,
      "bangladesh": 7981,
      "alternatively": 7982,
      "687": 7983,
      "734": 7984,
      "697": 7985,
      "deployed": 7986,
      "advertisements": 7987,
      "consummated": 7988,
      "indemnity": 7989,
      "secrets": 7990,
      "081": 7991,
      "863": 7992,
      "674": 7993,
      "698": 7994,
      "857": 7995,
      "716": 7996,
      "locally": 7997,
      "eliminates": 7998,
      "challenged": 7999,
      "jones": 8000,
      "784": 8001,
      "751": 8002,
      "877": 8003,
      "analyst": 8004,
      "boxes": 8005,
      "saturday": 8006,
      "unpredictable": 8007,
      "726": 8008,
      "promoted": 8009,
      "averaged": 8010,
      "spirit": 8011,
      "866": 8012,
      "biggest": 8013,
      "necessity": 8014,
      "752": 8015,
      "753": 8016,
      "clauses": 8017,
      "861": 8018,
      "776": 8019,
      "placements": 8020,
      "predictable": 8021,
      "801": 8022,
      "945": 8023,
      "##ary": 8024,
      "engineered": 8025,
      "deliverable": 8026,
      "781": 8027,
      "earth": 8028,
      "selective": 8029,
      "heading": 8030,
      "amend": 8031,
      "926": 8032,
      "778": 8033,
      "remuneration": 8034,
      "tep": 8035,
      "prominent": 8036,
      "royal": 8037,
      "mines": 8038,
      "certainly": 8039,
      "governed": 8040,
      "693": 8041,
      "733": 8042,
      "unvested": 8043,
      "demanding": 8044,
      "686": 8045,
      "tanks": 8046,
      "ghana": 8047,
      "754": 8048,
      "accompanied": 8049,
      "privatization": 8050,
      "upgrading": 8051,
      "748": 8052,
      "delta": 8053,
      "telecommunication": 8054,
      "annuities": 8055,
      "657": 8056,
      "915": 8057,
      "758": 8058,
      "react": 8059,
      "unforeseen": 8060,
      "928": 8061,
      "746": 8062,
      "adult": 8063,
      "rmbs": 8064,
      "nationwide": 8065,
      "fitness": 8066,
      "footprint": 8067,
      "##den": 8068,
      "comprises": 8069,
      "king": 8070,
      "drilled": 8071,
      "credibility": 8072,
      "971": 8073,
      "694": 8074,
      "warehousing": 8075,
      "martin": 8076,
      "asymmetry": 8077,
      "pointed": 8078,
      "studio": 8079,
      "774": 8080,
      "exact": 8081,
      "719": 8082,
      "813": 8083,
      "marketers": 8084,
      "##ut": 8085,
      "ceos": 8086,
      "guest": 8087,
      "723": 8088,
      "816": 8089,
      "##pe": 8090,
      "cellular": 8091,
      "##ini": 8092,
      "connecticut": 8093,
      "policyholder": 8094,
      "foster": 8095,
      "robustness": 8096,
      "mitigated": 8097,
      "916": 8098,
      "856": 8099,
      "tickets": 8100,
      "768": 8101,
      "prepay": 8102,
      "895": 8103,
      "921": 8104,
      "rubber": 8105,
      "alignment": 8106,
      "741": 8107,
      "761": 8108,
      "apple": 8109,
      "prospect": 8110,
      "049": 8111,
      "970": 8112,
      "##rate": 8113,
      "905": 8114,
      "##mm": 8115,
      "rock": 8116,
      "771": 8117,
      "autonomy": 8118,
      "overnight": 8119,
      "842": 8120,
      "assortment": 8121,
      "clinic": 8122,
      "stories": 8123,
      "792": 8124,
      "845": 8125,
      "808": 8126,
      "fell": 8127,
      "##ard": 8128,
      "wastes": 8129,
      "creditor": 8130,
      "interbank": 8131,
      "811": 8132,
      "preservation": 8133,
      "709": 8134,
      "founder": 8135,
      "secret": 8136,
      "988": 8137,
      "783": 8138,
      "791": 8139,
      "fishing": 8140,
      "delinquencies": 8141,
      "742": 8142,
      "och": 8143,
      "preventing": 8144,
      "love": 8145,
      "mental": 8146,
      "756": 8147,
      "merged": 8148,
      "landfill": 8149,
      "060": 8150,
      "outlets": 8151,
      "pensions": 8152,
      "negotiating": 8153,
      "lowering": 8154,
      "meanwhile": 8155,
      "kentucky": 8156,
      "encouraging": 8157,
      "fertilizer": 8158,
      "763": 8159,
      "lies": 8160,
      "won": 8161,
      "linkedin": 8162,
      "fixtures": 8163,
      "799": 8164,
      "hill": 8165,
      "insider": 8166,
      "738": 8167,
      "948": 8168,
      "ha": 8169,
      "vol": 8170,
      "788": 8171,
      "absorption": 8172,
      "conducts": 8173,
      "772": 8174,
      "protective": 8175,
      "professionalism": 8176,
      "764": 8177,
      "956": 8178,
      "739": 8179,
      "cooperatives": 8180,
      "sba": 8181,
      "competent": 8182,
      "noise": 8183,
      "maker": 8184,
      "804": 8185,
      "##bility": 8186,
      "759": 8187,
      "distress": 8188,
      "964": 8189,
      "972": 8190,
      "943": 8191,
      "forming": 8192,
      "romania": 8193,
      "039": 8194,
      "unbilled": 8195,
      "firstly": 8196,
      "tail": 8197,
      "incident": 8198,
      "catalogs": 8199,
      "op": 8200,
      "multiples": 8201,
      "visa": 8202,
      "incorrect": 8203,
      "961": 8204,
      "932": 8205,
      "imposition": 8206,
      "kenya": 8207,
      "possession": 8208,
      "769": 8209,
      "885": 8210,
      "937": 8211,
      "807": 8212,
      "806": 8213,
      "shortfall": 8214,
      "ranged": 8215,
      "933": 8216,
      "philippines": 8217,
      "maritime": 8218,
      "789": 8219,
      "bilateral": 8220,
      "ads": 8221,
      "eligibility": 8222,
      "858": 8223,
      "736": 8224,
      "015": 8225,
      "debtors": 8226,
      "779": 8227,
      "santa": 8228,
      "865": 8229,
      "vietnam": 8230,
      "ibnr": 8231,
      "978": 8232,
      "838": 8233,
      "lifestyle": 8234,
      "roe": 8235,
      "818": 8236,
      "918": 8237,
      "##ists": 8238,
      "809": 8239,
      "935": 8240,
      "007": 8241,
      "906": 8242,
      "clubs": 8243,
      "captured": 8244,
      "851": 8245,
      "studying": 8246,
      "782": 8247,
      "inquiry": 8248,
      "abilities": 8249,
      "commit": 8250,
      "wafer": 8251,
      "generators": 8252,
      "resident": 8253,
      "##ft": 8254,
      "797": 8255,
      "batteries": 8256,
      "006": 8257,
      "poultry": 8258,
      "773": 8259,
      "090": 8260,
      "824": 8261,
      "041": 8262,
      "quantify": 8263,
      "thing": 8264,
      "949": 8265,
      "contemporary": 8266,
      "hungary": 8267,
      "centres": 8268,
      "qualifications": 8269,
      "police": 8270,
      "correction": 8271,
      "942": 8272,
      "853": 8273,
      "complicated": 8274,
      "associate": 8275,
      "midwest": 8276,
      "##by": 8277,
      "abandoned": 8278,
      "786": 8279,
      "worse": 8280,
      "implicit": 8281,
      "962": 8282,
      "zones": 8283,
      "864": 8284,
      "##ell": 8285,
      "968": 8286,
      "greece": 8287,
      "tenure": 8288,
      "sep": 8289,
      "##ik": 8290,
      "redevelopment": 8291,
      "901": 8292,
      "charging": 8293,
      "felt": 8294,
      "portugal": 8295,
      "016": 8296,
      "night": 8297,
      "803": 8298,
      "venezuela": 8299,
      "828": 8300,
      "844": 8301,
      "fannie": 8302,
      "voltage": 8303,
      "946": 8304,
      "ports": 8305,
      "766": 8306,
      "accessing": 8307,
      "798": 8308,
      "sponsors": 8309,
      "wastewater": 8310,
      "886": 8311,
      "867": 8312,
      "italia": 8313,
      "936": 8314,
      "lieu": 8315,
      "##house": 8316,
      "986": 8317,
      "793": 8318,
      "847": 8319,
      "motivate": 8320,
      "826": 8321,
      "intermediary": 8322,
      "022": 8323,
      "821": 8324,
      "832": 8325,
      "chile": 8326,
      "887": 8327,
      "upstream": 8328,
      "868": 8329,
      "059": 8330,
      "878": 8331,
      "834": 8332,
      "931": 8333,
      "##un": 8334,
      "##interest": 8335,
      "owning": 8336,
      "976": 8337,
      "hazards": 8338,
      "dramatically": 8339,
      "1978": 8340,
      "922": 8341,
      "008": 8342,
      "914": 8343,
      "##ria": 8344,
      "##fi": 8345,
      "014": 8346,
      "wrote": 8347,
      "794": 8348,
      "saudi": 8349,
      "gathered": 8350,
      "computation": 8351,
      "881": 8352,
      "862": 8353,
      "917": 8354,
      "stands": 8355,
      "##res": 8356,
      "908": 8357,
      "018": 8358,
      "careful": 8359,
      "crime": 8360,
      "##ware": 8361,
      "823": 8362,
      "cancel": 8363,
      "955": 8364,
      "963": 8365,
      "814": 8366,
      "reimburse": 8367,
      "876": 8368,
      "817": 8369,
      "954": 8370,
      "seat": 8371,
      "889": 8372,
      "wants": 8373,
      "corresponds": 8374,
      "##ux": 8375,
      "merchandising": 8376,
      "comfortable": 8377,
      "836": 8378,
      "044": 8379,
      "hourly": 8380,
      "##ks": 8381,
      "decommissioning": 8382,
      "012": 8383,
      "848": 8384,
      "944": 8385,
      "974": 8386,
      "924": 8387,
      "907": 8388,
      "927": 8389,
      "amongst": 8390,
      "depositors": 8391,
      "surrender": 8392,
      "accredited": 8393,
      "race": 8394,
      "883": 8395,
      "strengthened": 8396,
      "damaged": 8397,
      "wholesalers": 8398,
      "947": 8399,
      "trips": 8400,
      "runs": 8401,
      "flood": 8402,
      "exogenous": 8403,
      "ordering": 8404,
      "irrigation": 8405,
      "052": 8406,
      "wave": 8407,
      "837": 8408,
      "874": 8409,
      "inaccurate": 8410,
      "enhances": 8411,
      "quot": 8412,
      "882": 8413,
      "##ea": 8414,
      "048": 8415,
      "013": 8416,
      "859": 8417,
      "839": 8418,
      "959": 8419,
      "903": 8420,
      "ships": 8421,
      "941": 8422,
      "appraisals": 8423,
      "841": 8424,
      "eye": 8425,
      "mandated": 8426,
      "019": 8427,
      "comed": 8428,
      "913": 8429,
      "973": 8430,
      "871": 8431,
      "patented": 8432,
      "997": 8433,
      "ec": 8434,
      "arrears": 8435,
      "distinction": 8436,
      "028": 8437,
      "929": 8438,
      "emphasized": 8439,
      "957": 8440,
      "sponsorship": 8441,
      "026": 8442,
      "clause": 8443,
      "validation": 8444,
      "##ping": 8445,
      "##port": 8446,
      "884": 8447,
      "998": 8448,
      "m2": 8449,
      "usual": 8450,
      "##hip": 8451,
      "829": 8452,
      "912": 8453,
      "909": 8454,
      "958": 8455,
      "822": 8456,
      "923": 8457,
      "##ding": 8458,
      "872": 8459,
      "879": 8460,
      "##era": 8461,
      "compatible": 8462,
      "decree": 8463,
      "enactment": 8464,
      "permission": 8465,
      "095": 8466,
      "873": 8467,
      "938": 8468,
      "edition": 8469,
      "visiting": 8470,
      "replacing": 8471,
      "catastrophic": 8472,
      "broadcasting": 8473,
      "046": 8474,
      "mile": 8475,
      "827": 8476,
      "pain": 8477,
      "854": 8478,
      "951": 8479,
      "fix": 8480,
      "952": 8481,
      "892": 8482,
      "898": 8483,
      "responding": 8484,
      "chip": 8485,
      "storm": 8486,
      "1979": 8487,
      "roof": 8488,
      "033": 8489,
      "atmosphere": 8490,
      "##vo": 8491,
      "salt": 8492,
      "021": 8493,
      "designation": 8494,
      "meant": 8495,
      "provinces": 8496,
      "chose": 8497,
      "resorts": 8498,
      "967": 8499,
      "032": 8500,
      "nothing": 8501,
      "finalized": 8502,
      "hands": 8503,
      "projection": 8504,
      "concession": 8505,
      "probabilities": 8506,
      "904": 8507,
      "lg": 8508,
      "987": 8509,
      "953": 8510,
      "894": 8511,
      "prolonged": 8512,
      "analyse": 8513,
      "beverages": 8514,
      "036": 8515,
      "propensity": 8516,
      "routinely": 8517,
      "placing": 8518,
      "ineffective": 8519,
      "891": 8520,
      "819": 8521,
      "##nes": 8522,
      "strategically": 8523,
      "869": 8524,
      "internationalization": 8525,
      "981": 8526,
      "##40": 8527,
      "977": 8528,
      "unified": 8529,
      "ace": 8530,
      "engineer": 8531,
      "ma": 8532,
      "983": 8533,
      "warehouses": 8534,
      "994": 8535,
      "919": 8536,
      "encountered": 8537,
      "##ham": 8538,
      "differentiated": 8539,
      "restructurings": 8540,
      "consult": 8541,
      "849": 8542,
      "vulnerability": 8543,
      "jan": 8544,
      "899": 8545,
      "897": 8546,
      "frameworks": 8547,
      "algorithm": 8548,
      "992": 8549,
      "934": 8550,
      "966": 8551,
      "reclamation": 8552,
      "stimulate": 8553,
      "023": 8554,
      "pi": 8555,
      "attorneys": 8556,
      "017": 8557,
      "dominated": 8558,
      "intra": 8559,
      "intelligent": 8560,
      "083": 8561,
      "ts": 8562,
      "debtor": 8563,
      "powder": 8564,
      "065": 8565,
      "disposable": 8566,
      "##12": 8567,
      "##mann": 8568,
      "063": 8569,
      "complying": 8570,
      "rebate": 8571,
      "fossil": 8572,
      "academy": 8573,
      "896": 8574,
      "##so": 8575,
      "treating": 8576,
      "072": 8577,
      "adds": 8578,
      "991": 8579,
      "interpret": 8580,
      "merits": 8581,
      "outputs": 8582,
      "abuse": 8583,
      "establishments": 8584,
      "ceding": 8585,
      "basket": 8586,
      "092": 8587,
      "##tec": 8588,
      "mention": 8589,
      "plaintiff": 8590,
      "korean": 8591,
      "979": 8592,
      "893": 8593,
      "taxed": 8594,
      "sharp": 8595,
      "982": 8596,
      "nonetheless": 8597,
      "029": 8598,
      "nols": 8599,
      "aggregating": 8600,
      "yes": 8601,
      "009": 8602,
      "titled": 8603,
      "##tar": 8604,
      "liquidated": 8605,
      "091": 8606,
      "989": 8607,
      "085": 8608,
      "separated": 8609,
      "042": 8610,
      "pictures": 8611,
      "voluntarily": 8612,
      "984": 8613,
      "sort": 8614,
      "##sky": 8615,
      "047": 8616,
      "969": 8617,
      "convergence": 8618,
      "defendant": 8619,
      "076": 8620,
      "therein": 8621,
      "ll": 8622,
      "departure": 8623,
      "077": 8624,
      "downgrade": 8625,
      "attack": 8626,
      "thomas": 8627,
      "062": 8628,
      "parks": 8629,
      "displayed": 8630,
      "034": 8631,
      "bed": 8632,
      "labeling": 8633,
      "reseller": 8634,
      "graduates": 8635,
      "publicity": 8636,
      "eleven": 8637,
      "faculty": 8638,
      "##link": 8639,
      "024": 8640,
      "993": 8641,
      "redemptions": 8642,
      "elderly": 8643,
      "098": 8644,
      "calling": 8645,
      "colleges": 8646,
      "053": 8647,
      "intervals": 8648,
      "presenting": 8649,
      "formally": 8650,
      "marks": 8651,
      "doctors": 8652,
      "endogenous": 8653,
      "054": 8654,
      "##vi": 8655,
      "996": 8656,
      "##ova": 8657,
      "breakdown": 8658,
      "diamond": 8659,
      "038": 8660,
      "discrimination": 8661,
      "inconsistent": 8662,
      "027": 8663,
      "##ries": 8664,
      "modular": 8665,
      "sectional": 8666,
      "##ire": 8667,
      "attached": 8668,
      "employs": 8669,
      "rolled": 8670,
      "quota": 8671,
      "tennessee": 8672,
      "nutritional": 8673,
      "catering": 8674,
      "939": 8675,
      "interruptions": 8676,
      "reimbursable": 8677,
      "037": 8678,
      "082": 8679,
      "043": 8680,
      "##gi": 8681,
      "cement": 8682,
      "sl": 8683,
      "089": 8684,
      "mcf": 8685,
      "##ring": 8686,
      "071": 8687,
      "##11": 8688,
      "bi": 8689,
      "informational": 8690,
      "mar": 8691,
      "061": 8692,
      "allocating": 8693,
      "kit": 8694,
      "incurrence": 8695,
      "oregon": 8696,
      "##em": 8697,
      "alcohol": 8698,
      "engagements": 8699,
      "pt": 8700,
      "##tes": 8701,
      "investigating": 8702,
      "familiar": 8703,
      "excise": 8704,
      "chronic": 8705,
      "056": 8706,
      "lagged": 8707,
      "##ities": 8708,
      "078": 8709,
      "relying": 8710,
      "##mer": 8711,
      "##for": 8712,
      "074": 8713,
      "079": 8714,
      "themes": 8715,
      "employing": 8716,
      "mutually": 8717,
      "hsbc": 8718,
      "088": 8719,
      "unaffiliated": 8720,
      "084": 8721,
      "arms": 8722,
      "continuity": 8723,
      "premier": 8724,
      "francisco": 8725,
      "на": 8726,
      "wto": 8727,
      "ultra": 8728,
      "comment": 8729,
      "consummation": 8730,
      "turns": 8731,
      "antitrust": 8732,
      "newspaper": 8733,
      "workshops": 8734,
      "factories": 8735,
      "hygiene": 8736,
      "theme": 8737,
      "oils": 8738,
      "pooling": 8739,
      "solvency": 8740,
      "grocery": 8741,
      "diversion": 8742,
      "suppose": 8743,
      "incidence": 8744,
      "roughly": 8745,
      "069": 8746,
      "058": 8747,
      "palm": 8748,
      "##group": 8749,
      "##jo": 8750,
      "monopoly": 8751,
      "li": 8752,
      "mi": 8753,
      "##sk": 8754,
      "converting": 8755,
      "induce": 8756,
      "057": 8757,
      "photos": 8758,
      "speeds": 8759,
      "meter": 8760,
      "094": 8761,
      "sc": 8762,
      "compliant": 8763,
      "repeated": 8764,
      "plaza": 8765,
      "##kin": 8766,
      "ante": 8767,
      "lifetime": 8768,
      "067": 8769,
      "domains": 8770,
      "cancellations": 8771,
      "086": 8772,
      "gaining": 8773,
      "##led": 8774,
      "coatings": 8775,
      "##vs": 8776,
      "merge": 8777,
      "stem": 8778,
      "hair": 8779,
      "073": 8780,
      "analog": 8781,
      "talk": 8782,
      "trailers": 8783,
      "diversify": 8784,
      "ibm": 8785,
      "passion": 8786,
      "approximates": 8787,
      "lands": 8788,
      "christmas": 8789,
      "clarify": 8790,
      "oncology": 8791,
      "093": 8792,
      "root": 8793,
      "coordinated": 8794,
      "yourself": 8795,
      "068": 8796,
      "##ay": 8797,
      "##ov": 8798,
      "064": 8799,
      "notwithstanding": 8800,
      "imposes": 8801,
      "retire": 8802,
      "causal": 8803,
      "coastal": 8804,
      "deploy": 8805,
      "transactional": 8806,
      "1976": 8807,
      "nda": 8808,
      "appeared": 8809,
      "##bo": 8810,
      "david": 8811,
      "099": 8812,
      "inspections": 8813,
      "##tone": 8814,
      "pooled": 8815,
      "nationally": 8816,
[...]
