[PAD]
[UNK]
[CLS]
[SEP]
[MASK]
!
"
#
$
%
&
'
(
)
*
+
,
-
.
/
0
1
2
3
4
5
6
7
8
9
:
;
<
=
>
?
@
[
\
]
^
_
`
a
b
c
d
e
f
g
h
i
j
k
l
m
n
o
p
q
r
s
t
u
v
w
x
y
z
{
|
~
¡
£
©
«
¬
®
°
±
´
·
»
½
ø
λ
٭
‑
–
—
‘
’
“
”
•
…
€
↑
↓
−
∫
■
□
▪
▲
►
▼
◆
☀
☆
￭
##o
##n
##y
##0
##r
##v
##e
##s
##d
##i
##f
##c
##a
##t
##l
##m
##u
##z
##b
##h
##p
##g
##w
##k
##q
##x
##5
##2
##6
##j
##8
##1
##4
##3
##9
##7
##´
##®
##°
##½
##¬
##ø
##−
##±
##☆
##€
th
##er
##in
the
##on
##at
##or
##es
##en
##nd
##ing
##ed
##ar
##an
to
##al
in
##it
##om
##ion
##ic
and
of
##st
##le
##ou
##et
##re
##ent
##ll
##is
##id
##as
##ro
##el
##ers
##ec
com
on
##am
for
##ve
##ut
that
st
it
##ill
##ig
##ad
##ation
wh
re
##ac
##ow
##ly
##ur
##ay
##ot
pro
##ab
con
is
##ew
be
##ver
##ith
##ir
as
ch
##ri
with
##ter
we
##ch
an
##ork
##able
sa
##ld
sh
##ast
##im
##ct
##un
##ess
said
de
at
##us
##th
##ul
su
##ag
##and
ex
##ment
##os
sp
##ate
net
or
##ies
##ol
##ear
ad
cable
ser
##ce
##ts
##ive
will
##il
fr
pr
new
##pp
##work
al
network
##igh
##est
##ust
##ere
##oc
comp
##iv
##ice
se
has
##eo
##ich
##cc
its
ha
was
are
he
##art
mo
20
##ak
##gr
pl
##ore
##ity
##ations
from
tv
cont
inc
##ud
##ann
di
##um
##all
##ia
ab
te
by
##per
mar
en
comm
##ain
have
##oo
##cast
##ould
##out
bro
##ff
##illion
serv
##annel
##em
tr
##ort
##ect
not
year
dis
##our
le
##age
co
##ime
##ial
##so
##se
li
##ant
##ue
##ard
##rou
more
but
am
broad
progr
##bs
##ision
all
off
program
up
this
inter
vi
##ome
which
pres
##ket
##ip
##ition
##ight
show
##du
un
##rib
million
##pt
also
ne
med
##ine
##ans
vid
they
##ors
##gh
compan
about
##end
##ack
##for
##ult
do
video
acc
their
##ge
##ident
channel
out
tele
##oun
market
##op
##ure
##ber
go
part
##ie
media
us
##ry
view
##ated
##00
##ke
oper
##od
res
##iz
app
##ap
cons
president
int
cl
##ner
produ
##ong
ag
##act
##vid
##ications
##form
programm
content
br
time
fo
ind
##if
##ord
##orts
##ally
ar
commun
##lud
##qu
##ven
our
##ile
##ist
one
you
##ey
##vision
la
can
series
add
per
so
over
rec
##ence
fe
man
##her
would
includ
##mp
##og
rep
bas
mon
service
exp
qu
networks
##ree
##ose
##ther
who
been
##very
##ices
##rect
##yst
##ake
sc
comcast
his
##ame
than
##ach
##ite
##ating
tw
##hn
direct
##ustom
me
custom
programming
company
ro
mult
##ub
##ions
##wn
jo
subs
##ely
##ick
what
news
200
pre
##one
##ign
provid
##ital
communications
bus
there
fir
##ek
##ook
other
##iness
work
she
##are
sports
str
broadcast
had
##ace
##ary
some
bu
business
dev
##lo
ht
no
last
##ous
subsc
##ecut
##ple
##ond
dig
fcc
##ory
##ream
high
execut
dec
tec
##air
##man
##day
get
##ost
act
##co
intern
##ide
##ire
operat
201
##ail
##ational
television
##arter
##tain
##ced
first
when
##bc
af
##ays
##av
deal
##band
##iss
##ason
digital
top
##ix
ac
were
week
##ribut
bec
##ance
into
dist
viewers
ver
grou
bet
consum
##ings
##sp
##reat
imp
##own
sen
##ink
000
dem
indust
product
##ind
subscrib
war
##vent
gen
##atch
bo
most
##udi
pri
ass
broadband
##row
##unch
how
##ood
big
reg
like
customers
##ish
##hip
##ystem
##rough
if
now
##ib
two
stream
services
industry
own
group
##int
##ase
sec
##ens
##eric
##ep
##ass
##vert
##ward
years
americ
bl
techn
ph
set
mov
system
ww
##lic
##inal
them
##ates
##ock
##ang
##pport
could
just
car
vice
distribut
including
##ording
month
##ound
10
while
launch
##olog
through
##ount
wor
##mer
advert
advertis
after
according
##ichannel
executive
multichannel
those
##atform
look
##enc
enter
##ues
internet
well
offer
hel
her
##arg
ret
##ra
##tp
##ission
19
fox
##ney
##line
fi
##ivers
http
##fl
www
inv
##uring
##ough
##urn
play
##eople
ann
contin
und
##ade
any
warner
people
esp
based
##itt
##old
platform
ma
##lect
##eral
call
technolog
where
sm
operators
grow
every
star
##use
##ior
sal
season
##bo
compet
such
##ild
pay
##aking
live
down
##tic
##ss
may
national
##xt
think
devel
##ily
##ives
cur
watch
nbc
ceo
develop
back
kn
anal
##ual
##ments
##ities
##ouse
under
##ical
del
marketing
##amp
shows
companies
entertain
state
##hing
ear
##cer
##ently
rel
##ublic
##we
##vi
##oth
event
##ents
subscribers
cr
ca
##ting
access
fu
billion
##ateg
cor
want
sign
disco
need
fil
make
day
world
channels
##els
way
##oci
eff
##ark
york
po
##ise
lead
##com
spec
help
##ier
see
orig
entertainment
##ata
hd
spe
incre
air
##anc
audi
ve
streaming
##tv
senior
going
##ons
real
only
chair
loc
discovery
end
disney
av
att
house
mc
prom
##ning
##ility
##ict
data
home
curr
don
espn
##ell
adv
col
rem
##ause
##ics
fl
prem
next
des
long
12
sch
##ms
trans
ter
three
pos
reven
original
dep
quarter
tal
technology
because
##ft
##ights
cre
four
##ton
da
even
feat
demand
sales
##ph
cent
associ
advertising
offic
report
aff
both
##br
gr
sin
iss
##uch
gu
team
fam
sl
online
lif
##ty
artic
##ular
##cl
##earch
resp
##ected
best
during
lat
eng
##ady
brand
many
article
diff
##ures
directv
##ross
conn
second
##verage
public
##ited
commission
invest
dr
start
##fer
exper
take
revenue
cap
##ief
##ption
op
mob
##ative
##less
par
##up
202
did
deli
##ange
##ames
local
very
##ank
##ether
win
consumers
cour
30
val
##ower
added
##les
these
still
support
num
##fore
##ined
chairman
vp
11
found
my
mem
##mm
lo
avail
##ger
rating
hbo
ke
strateg
##ug
great
award
##ible
systems
##llow
##az
##ners
addition
before
corp
##enn
##pl
beg
deb
##ying
wire
charter
##its
##ocus
again
should
sur
##reen
leg
bel
##vers
##izon
ep
distribution
##ved
##ball
##ific
##ron
much
fin
chief
mod
##jor
ext
##ee
head
##io
##ful
##te
plus
pol
major
game
manag
inst
focus
##ional
15
say
##ving
##atell
association
mobile
announ
director
made
##ress
cox
satell
pers
wom
id
stand
consumer
cost
##led
18
verizon
los
same
##ather
netfl
lot
##other
def
##bers
##loy
satellite
##ash
available
sim
free
run
growth
partners
##als
follow
cbs
audience
really
being
ed
good
analyst
count
##round
does
comed
share
box
premi
##ween
requ
dish
##res
##une
among
bill
differ
your
est
##ian
know
char
build
since
##ml
prim
each
promot
min
##isod
research
doc
##hold
wr
##att
aut
law
hour
between
american
##uct
##ird
deliver
pa
##uc
html
netflix
use
##etime
##ential
providers
reach
cablevision
experi
episod
rul
then
##ris
too
continue
fed
hist
##ages
family
speed
stations
ap
##son
succ
america
jan
##ious
sever
##ets
opport
john
web
##ble
inform
another
mus
across
opportun
##ath
include
success
##ready
around
talk
##ied
already
women
wireless
##gle
general
gener
13
acqu
vers
##lob
hall
##ili
cle
former
##con
##ased
comedy
creat
tim
foot
third
##ama
trad
court
though
##ency
##ef
##ized
##ves
interest
##ale
##way
univers
better
##ality
25
##ys
special
development
targ
glob
point
federal
games
night
allow
elect
##time
put
past
customer
line
several
##par
appro
##ling
carri
telecom
open
lin
nam
scri
soc
##ric
import
statement
init
markets
agree
ca6
form
##lly
##ively
dri
##acom
##ids
som
ins
14
##iels
##agement
studi
regul
key
ll
provide
##akes
goo
platforms
##gest
##view
march
hear
##olut
emp
im
##ah
ent
operator
camp
small
google
el
ratings
movie
##ects
information
##acy
target
##ead
partic
##ually
##ject
against
pur
come
host
prop
oct
interact
mer
##eld
hop
number
##ize
strong
movies
tot
plan
person
different
pack
sub
expand
mich
working
belie
right
commer
##no
mcn
looking
##der
shar
##ivision
june
history
chang
fut
##eng
##ony
##pted
let
pop
rights
##lish
##ued
competit
making
current
##sn
called
rules
##omes
neg
cal
prof
red
disc
broadcasters
larg
power
17
bre
##ences
##ference
prot
five
niels
operations
equ
ob
abc
officer
giv
##ument
total
sell
ev
comple
##sc
tri
keep
##uly
care
wal
story
experience
##ired
music
ask
record
competition
met
future
nielsen
##gress
post
today
move
connect
##hington
strategy
manager
washington
nor
har
pe
pass
##osed
priv
rece
##oice
tur
begin
##vern
base
##pr
decision
important
hold
stock
##sel
##ett
##vel
##cess
sw
16
##pe
##pped
rele
leag
subscriber
months
perform
debut
events
ra
ste
contro
cn
beh
##eter
global
production
hand
sk
lik
50
##ically
happ
clear
six
##ract
##min
city
price
##yn
##omin
deals
##mark
amc
stor
govern
##mun
somet
em
##ials
announced
here
coverage
devices
currently
er
near
##ces
##ately
##ril
##oti
got
return
fact
things
named
##gan
april
##itch
find
life
whether
##ants
hard
##uary
plans
management
place
value
film
kids
black
issues
mid
##aign
david
nick
opt
telecommun
campaign
few
##ees
##stand
chall
negoti
telecommunications
vod
##ends
##ending
##aph
##ps
able
affili
##itions
pot
##ults
sept
launched
##ership
bring
expected
less
turn
usa
vir
press
members
auth
repres
remain
ang
users
via
199
##wh
early
fund
ever
##ember
sit
var
##ike
social
process
far
tit
interactive
ben
##iting
broadcasting
financ
change
24
##ley
present
offering
league
main
old
mtv
##ware
##ks
aug
getting
reality
##alf
##ural
##ugh
standard
fans
increase
cer
comes
##ways
##vious
tradition
homes
mart
sour
committ
face
class
colle
##rans
concer
executives
crit
full
##rew
step
##ote
100
site
turner
dv
appear
amaz
##iod
##ially
told
##anced
conf
##red
doing
##ration
final
conference
ago
retrans
country
ip
hul
##land
multip
along
period
2009
##angu
##ring
potential
sund
mean
##ider
relations
youn
##ool
awards
##thers
quest
angel
##egr
spect
drama
##pan
span
become
##iday
always
showtime
##rum
##uss
household
hallmark
tel
##ines
producer
premiere
government
##aff
prior
hulu
port
roll
ce
cut
ho
##ral
increas
mot
integr
##til
spot
order
2007
comb
meet
products
corpor
buy
##uck
financial
mat
sou
recently
2008
something
july
pict
side
says
##que
21
international
poss
times
##ael
without
adding
defin
mor
center
ca64
arg
40
sing
inno
board
using
fall
land
inf
him
must
wa
##tt
##ins
##ont
sum
bar
screen
dou
spectrum
pan
test
innov
##urs
provider
traditional
tog
document
ty
gain
##pping
issue
together
sat
##ump
phone
opportunity
won
mag
##ern
viewing
green
langu
supp
super
terms
cash
fri
tech
acquis
half
liber
distributors
lar
##ization
apple
fast
##ivo
23
pat
forward
mark
econ
##yle
##ably
michael
days
##graph
econom
##aim
##ush
produced
##ned
later
might
lic
##mission
##aged
owned
given
##ability
click
advertisers
coun
##rem
exam
likely
trying
##elf
hispan
growing
love
employ
##ax
organ
linear
sy
includes
##und
viacom
didn
cnn
language
divers
used
sched
##ino
congress
ide
tivo
recent
list
create
22
lim
##clus
carriage
initi
angeles
done
2010
stud
##thing
creative
nfl
rest
why
##pps
starz
summer
case
give
28
partner
secur
episodes
exist
operating
role
liberty
studios
basic
hours
fac
hit
low
##lier
##ina
##rist
ads
fun
##ott
block
football
##ored
nearly
non
##oud
##rown
##lain
school
agreement
commerc
amazon
others
##ok
rober
programmers
fourth
certain
##ient
enc
##ective
least
medi
believe
taking
##alth
coming
popular
litt
##ety
27
nation
fight
estim
overs
wro
##ba
money
martin
wrote
##ised
read
cred
universal
division
##side
deploy
##atic
partnership
tn
largest
control
##ule
##ged
expect
subscri
design
yet
##ube
community
little
produc
engine
reason
band
##ering
gold
purch
ott
##ention
virt
mom
##ruct
overall
previous
action
analysts
primetime
short
feature
protect
rank
solut
exc
position
premium
came
##ams
led
##anch
quality
states
features
sunday
##au
##med
dro
meas
doesn
building
tom
episode
monday
26
until
never
appl
agency
joined
additional
average
ren
ref
alt
impact
earlier
station
front
having
99
rad
yout
##itor
advanced
career
behind
##ode
##dd
once
nct
address
regional
represent
##nes
##aging
competitive
white
impro
hon
programs
job
decl
asked
project
friday
specific
polic
##ones
within
fees
max
##ted
offers
annual
term
31
bri
compar
hispanic
youtube
##vp
##isco
dead
ability
rob
invol
##ler
##go
##ute
ms
wed
##ave
thurs
benef
thursday
rich
##ik
ris
exclus
##epend
central
lifetime
##ren
##ists
san
sug
took
fx
seem
noted
jour
pu
##duc
##avor
jud
##book
##atory
child
respons
bid
personal
example
uni
independ
soft
biggest
worked
##ging
##ense
signific
committee
tnt
##lant
space
claim
2006
reported
late
sect
##ody
consider
efforts
large
eas
men
sn
thing
clos
college
spanish
champ
feb
higher
discuss
ul
intro
created
break
officials
polit
significant
plann
smart
##sh
##icated
scripps
dvr
##cent
##ars
costs
lineup
performance
multiple
##ness
##tern
capital
ult
categ
date
##by
##ining
##ats
loss
dan
##be
##ever
level
anim
##standing
je
cond
mso
voice
spons
area
particular
hum
page
needs
focused
retransmission
60
lear
model
det
##vin
##reed
stars
particip
subscription
atlant
gl
##ator
tues
sure
tell
relationship
##wood
##ivid
results
possible
tuesday
##ify
carry
talent
##where
ways
comment
##vey
approach
proper
##ocr
package
young
##ests
##ceed
track
emm
2011
democr
radio
hor
push
result
##ators
ado
franch
bund
##load
fios
electron
vent
##ru
targeted
happen
ele
proble
depart
param
cele
christ
seen
propos
35
##ury
affiliate
author
29
bow
opportunities
challeng
##ism
moff
fiber
watching
source
emer
vis
##lymp
##ived
appe
feel
quick
nov
january
cult
den
ant
alm
paramount
ge
nat
transition
software
close
beginning
##ured
telecast
##place
definition
following
facebook
45
scripted
educ
mess
stre
php
investment
unit
##ination
##ivity
device
acquisition
aver
dra
olymp
##atives
commercial
imm
leadership
stories
celebr
match
rate
##head
bey
effort
3d
favor
nomin
##net
##do
##eler
##ilar
telco
altice
continued
##ament
##iron
49
##ides
shares
##nesday
hill
kind
##ten
areas
##action
wanted
wednesday
beyond
##ensive
virtual
eight
makes
##ds
##wide
##iving
held
suggest
twc
documentary
##iant
##isl
connected
title
producers
##omm
republic
2020
legisl
##ecess
require
panel
employees
policy
pred
guide
2021
##ibility
saying
north
almost
cast
##ended
ess
watched
member
began
existing
seek
reports
audiences
introdu
mass
##ither
env
independent
moffett
tbs
##key
##nal
weather
health
art
rok
baseball
households
##ein
##gen
corporate
south
bur
##uing
cover
premier
legal
##inc
##reg
seven
ncta
unique
fur
mal
mad
mix
served
consent
##ified
review
admin
pric
select
neut
away
##fi
##ingly
##iter
##ries
user
flow
journal
businesses
phil
single
administ
cart
ros
ident
roku
ur
separ
cop
2012
environ
food
##jo
theat
isn
##aker
ens
groups
technologies
boxes
rather
enough
##ape
players
bad
mill
featuring
changes
34
hu
ple
##ane
office
weeks
left
account
means
crown
lost
##ogn
2005
signals
started
nba
##ances
attract
credit
hot
##ients
recogn
helped
nickel
name
collect
##oint
afric
##avo
nickelode
continues
studio
search
scen
jeff
cou
pub
##light
complain
198
similar
nickelodeon
increased
successful
private
various
schedul
miss
##rast
doll
generation
compared
cas
cam
##ech
cho
serve
##akers
interview
party
firm
mic
mur
sol
##tc
##lex
convers
seg
however
films
##ga
##icult
##ison
sho
shif
outside
marketplace
##phone
respond
##itter
throughout
smith
merger
exclusive
room
sincl
drive
##graphic
cra
log
rates
effect
security
##ober
##uit
numbers
sites
sinclair
batt
fig
october
question
political
table
chris
soon
mediacom
##iec
##unt
##berg
regulatory
bros
actually
field
street
bank
##ex
##ablish
nove
desp
satur
measure
environment
fair
##mber
staff
##ille
provides
demo
everyone
purchase
geo
thom
whose
establish
paul
version
further
##ows
providing
offerings
true
calif
lower
##ert
toward
rev
repl
##ledge
roberts
november
36
necess
wants
##stein
teams
eu
pick
round
choice
univision
resour
limited
##bps
expl
assets
everywhere
nbcu
diversity
bit
hol
##erg
coll
##ards
commerce
##abs
##umb
##ifi
strategic
install
optim
ahead
sony
yes
##str
stat
summ
##izing
bright
negotiations
cir
despite
##na
##sis
##ci
##body
##stream
multi
download
llc
august
ow
##aries
agreed
known
innovation
applications
mand
##igation
retail
##ength
pull
emmy
supported
mike
stri
sci
analog
leading
ey
chic
unl
related
hope
privacy
children
west
pract
enab
announce
previously
##ago
whole
winning
survey
entire
saturday
cisco
##though
foundation
licens
domin
sil
##aw
##ki
##olf
pictures
solutions
ultim
##utes
aren
senate
needed
university
holly
idea
70
vol
##ises
whe
##ola
although
creating
fan
##rality
##ered
##cept
bravo
##selves
age
##irl
##ival
nbcun
went
spok
##emic
##aps
included
brands
neutrality
micro
light
pac
rose
investors
walk
brian
las
rock
takes
critical
euro
aim
book
either
##ints
feed
docsis
concern
giant
##ca
##link
##ided
##oost
renew
nbcunivers
gam
##ne
##jects
##itive
sold
september
resources
individ
sense
##let
##ising
##ips
starting
founder
atlanta
core
due
word
everything
respect
electronics
nbcuniversal
bal
gar
matt
wind
##off
comput
try
##duct
productions
tak
wall
##bit
prob
tvs
trav
upgr
prepar
editor
category
chicago
pet
##enge
contribut
regular
##ici
contract
tops
##bruary
quickly
fre
##arily
saw
communities
february
running
##print
challenge
stay
apps
##uction
##olution
double
copy
ach
coo
##ront
venture
80
park
rise
rule
prime
letter
wat
tour
##ico
encour
moment
nab
vote
tool
follows
delivered
image
release
motor
morning
infrast
department
opp
##cos
##ilities
commit
americans
longer
verse
achie
deter
##sl
scale
##airs
profess
infrastruct
500
ech
##ties
##ully
tex
road
joint
versus
proposed
received
franchise
african
gig
jon
mcc
##iring
##rim
##ilt
actor
reached
administration
circ
cross
jim
mvp
##ecially
##ades
trade
viewer
ownership
especially
##coming
latest
jack
vo
veter
often
##idth
common
outstanding
goal
clients
basket
instead
switch
study
huge
spokes
individual
##oming
enh
disp
developed
75
fail
##back
cloud
arch
december
geor
msn
wide
##lement
##ction
picture
sector
hollywood
cy
##iance
const
twitter
bandw
msos
bbc
tenn
viol
millions
##phia
paid
images
bure
pand
##elphia
##aces
united
daily
friends
involved
bandwidth
cord
##gas
##ica
##ication
##ung
goes
expects
offered
cali
steve
mil
##nings
threat
basis
gets
footprint
equip
responsible
publish
##cel
##uff
spr
bob
signal
averaged
basketball
girl
##ham
vide
advant
parent
delivery
##hen
conduct
##oles
highest
moving
thought
certainly
55
ready
##acts
calls
equity
##media
proposal
equipment
insp
##ires
itself
vegas
typ
planning
infrastructure
90
##ror
##ville
##to
heav
followed
hearing
champions
32
drew
ii
asp
##arters
sets
talking
improve
bureau
piec
programmer
charge
appeal
probably
54
##ny
delivering
particularly
europe
saf
spent
enjo
##forn
sharehold
##ford
works
affairs
capac
meeting
friend
organization
microso
californ
course
speeds
initiative
culture
camer
microsoft
trump
usage
desc
walt
squ
vend
##rill
##fc
sudd
##play
essential
pandemic
sam
frank
##ought
receive
##oon
##dle
note
sling
sudden
pen
majority
format
california
vot
##iver
##labs
##eries
##itz
willi
built
2014
ground
dollars
texas
east
webs
spending
lev
vari
matter
designed
conditions
capacity
mbps
rural
##ez
##sw
##gin
##ione
princ
upcoming
understand
allows
increases
james
tier
chance
##agan
##ished
dram
selling
hous
##mas
adults
fee
2016
human
sv
##front
##ka
slow
request
packages
giving
estimated
pricing
##oring
valu
maintain
spots
##erson
serving
2013
anything
extrem
wheeler
princip
cup
range
##uce
stake
discl
streams
phot
worth
questions
boost
mind
sent
viewership
region
developing
license
##field
dom
wond
##ots
cablelabs
##acters
monthly
simp
characters
declined
losses
thomas
##isc
smaller
classic
properties
motorola
ml
##ret
##ium
##ster
progress
svod
kick
living
ment
##right
##xy
pret
energ
consist
2019
pal
##abor
wwe
laws
msnbc
aw
fare
##rey
##acock
applic
remote
4k
dol
lou
ten
remains
fear
invent
conc
subsid
2015
worldwide
travel
infl
upd
activ
themselves
peacock
magaz
initiatives
problem
race
vh
##aced
surp
detail
scheduled
300
ta
##zz
force
amount
joe
2017
leader
grant
competitors
answ
##ulation
##force
became
player
filing
english
kevin
boxing
reflect
videos
##ding
##my
tough
aggress
bigger
greater
believes
combined
44
cents
##arrow
##oss
##encies
paying
filed
minutes
bost
king
pp
##oke
##he
traff
autom
pointed
middle
engineering
##going
taken
dyn
gives
lives
##ma
##wor
##ami
spl
altern
blog
agreements
golf
stage
active
expanded
harm
sources
bowl
challenges
draw
owner
boston
39
sound
##erved
##acter
##owell
planet
economic
counsel
pretty
lay
##get
resident
themed
analys
century
soccer
malone
energy
38
auction
sun
##orn
tourn
projects
provided
demon
launching
extra
character
promoted
election
standards
meaning
##undo
championship
variety
cm
sar
##app
##hib
spend
attem
##elling
latin
increasingly
economy
synd
ber
mail
nine
##eness
##acing
genre
played
##box
seeing
writ
subject
passion
33
dest
fix
ham
vs
thrill
##star
##ented
represents
doub
vh1
analysis
joining
hosted
##scape
excited
introduced
ensure
gave
tun
##cing
##gers
sport
libr
joy
sale
2022
options
authority
veteran
bud
vision
deep
income
recomm
reporting
profit
obama
republican
stop
changing
corporation
sponsors
95
rang
vr
##used
percent
##ously
sop
##rict
upfront
outdo
technical
edge
acquired
##while
eye
rog
##fect
##ky
arr
regard
##rought
##ension
affiliates
battle
advantage
application
fa
##istic
justice
difficult
##self
message
mission
legacy
connection
authent
segment
fem
pione
rsn
##down
##lin
##esh
train
directors
prevent
starring
expanding
titles
confir
traffic
##eline
style
##ounts
stra
else
sky
seems
##rupt
sus
##fully
##bed
willing
telephone
helping
lines
initial
hopes
holdings
estimates
website
domest
##0s
##edi
##ald
##room
2004
attention
persp
promotion
cutting
organiz
mlb
42
option
##val
##eth
earnings
points
presentation
ppv
writers
tre
##hl
##gtv
##ories
stick
proceed
decline
##ostar
owners
complete
echostar
suddenlink
brought
hur
##pa
alliance
advoc
winner
managing
education
figure
wonder
simply
crim
hgtv
lack
##ming
##icket
charg
exch
speech
released
nas
##iers
##iff
##ges
##usion
##ife
advis
additions
schedule
christmas
cartoon
separate
commitment
professional
cand
grew
jul
oh
pil
##af
reb
interf
telem
consult
sett
moves
fuel
hdtv
positive
integrated
judge
predict
enjoy
nav
##lights
##hz
##adelphia
adult
brown
perfect
wouldn
join
debt
golden
drop
summit
demonstr
ongoing
incred
parties
repe
actress
197
airing
keeping
et
mi
sess
##ada
unf
calling
driven
evol
meanwhile
philadelphia
##hood
wasn
marc
doz
twe
supporting
breaking
##prise
partnerships
easy
rosen
measurement
tournament
pitch
##oe
##inary
##ecast
deg
contr
decided
aca
weekend
##ibly
continuing
commissioner
robert
copyright
george
telemundo
52
ban
ct
pair
jobs
gains
concerns
37
fif
##ove
##vant
##sy
##den
##ius
##bur
directly
buying
promote
deployment
determ
fel
hun
jones
swe
##bl
decade
looks
signed
color
transform
required
mater
ded
flex
##ery
##onse
##rop
##olid
grand
talks
trial
solution
suggested
achieve
dynam
contest
scott
capt
guid
johnson
raised
clearly
situ
concerned
younger
olympics
necessary
shareholders
williams
##erv
##erous
##ston
generated
changed
richard
ultimately
div
rst
##eck
produce
fully
leaders
transaction
putting
opening
denver
shift
65
link
##cle
##ene
comments
showc
someone
response
minor
larger
appears
integration
strike
soci
##yal
##atively
sup
compete
critics
landscape
problems
geographic
43
hy
kill
##gate
antic
abs
weekly
returning
campaigns
motion
licensing
prepared
inventory
eb
occ
wild
##elle
prices
mex
speaking
diverse
legislation
magazine
domestic
dark
##ram
##away
##bor
exce
intel
index
express
strength
attend
surv
below
bringing
learn
tennis
##icient
leav
telev
consolid
carol
ranked
biden
immedi
couple
47
ray
##has
##west
2000
implement
playing
ca63
turned
oversee
perspective
##ening
##edia
shot
sees
nothing
becoming
analy
modem
acquisitions
describ
influ
outdoor
sams
tax
##lie
##bar
highly
eventually
lifest
histor
miller
samsung
bay
ill
oxy
##lled
##asl
accom
##apter
flor
completed
##peg
benefit
seeking
louis
dream
fub
jump
anch
sand
adj
lee
winter
creator
trading
emerging
visit
computer
cooper
tools
piece
ball
rod
rap
##aut
##gn
thous
##reens
reve
ath
fell
2018
advance
startup
headqu
benefits
exchange
thousand
sist
##rical
##fol
##ters
##lc
##ana
##lets
##osp
highlights
getty
famil
##iliar
embr
claims
relationships
horror
organizations
oxygen
eric
ton
##erry
town
##pper
plays
##thern
ended
knowledge
48
ufc
wid
##ases
suff
text
##anson
dog
revenues
cases
archit
card
rain
##ov
##ites
trou
leverage
terr
##ification
decisions
innovative
protection
complaint
society
lions
mis
che
##ocol
haven
##tics
instit
woman
behav
funding
female
aust
bern
##haps
convent
proud
trust
agencies
perhaps
seasons
passed
presented
announcement
library
recommend
rated
##ban
##20
##11
##oman
fresh
owns
##itting
subst
complex
argued
risk
champion
mpeg
self
tap
zasl
##rust
##kn
##ida
die
apply
explain
afford
testing
faster
planned
craig
##owski
mvpds
aggressive
miami
zaslav
store
hasn
display
secret
familiar
initially
regulation
protocol
democratic
walking
families
mast
wer
##greg
##inity
##ptv
impress
moved
interested
driving
asking
appeared
favorite
pleased
water
penet
dedicated
64
bought
##leg
stew
spike
franc
alone
teen
truly
brid
latino
2023
insight
##mination
cat
fire
ftc
kent
##set
##orney
isps
##imes
##ushing
spring
club
2003
industries
attorney
purs
obvious
established
respectively
dav
jess
male
penn
##rick
##da
##car
##come
##put
##kin
##75
suit
##ume
engagement
holding
rising
nominations
icon
jun
jenn
mac
sex
outlets
laur
namic
animated
elev
candid
ol
ted
tlc
##dy
touch
##ewh
ord
enth
arm
##ugg
sharing
cnbc
joyce
41
flo
rut
wel
stan
##abilities
island
shut
serious
notice
##ifying
anyone
regulations
elim
democrats
bundle
levels
contracts
lifestyle
cann
um
ones
rein
serves
portfol
civ
fest
ven
##vc
##bre
expans
digit
genach
effective
emphas
targeting
holiday
bon
ces
fame
nom
xf
fort
reform
leave
presence
##ology
finding
circuit
anticip
cell
##ias
##read
spoke
trail
distributor
guy
skill
documentaries
suppl
deployed
honor
science
surpris
answer
catch
pace
##latform
##aby
trut
brings
decades
conversation
split
headquarters
portfolio
400
gard
peter
ut
##por
##60
##isa
enforce
cohen
sohn
branded
moder
allowing
relevant
committed
adoption
heavy
minority
enthus
dall
##ked
##asing
##otv
manu
screens
becomes
mostly
2024
imag
collabor
degree
fant
mention
wi
##eed
##house
##isf
##imate
cod
acting
positions
dave
exciting
details
dynamic
florida
architect
lionsgate
51
cook
ry
wil
##kes
chapter
uns
clar
audio
interesting
dvd
faith
dallas
hund
jay
wife
##bow
sav
suc
appoint
strategies
models
minute
experiences
upgrade
##worcel
rosenworcel
rapid
luc
pc
trem
##apt
alph
compon
outl
arris
prefer
broadcaster
speak
attack
heart
happy
combination
square
dozen
penetration
57
85
alex
ell
gm
ir
ticket
##rig
bell
##cte
enable
##bert
uses
##ifer
##ancy
transl
guys
slight
increasing
robust
participate
dolan
ohio
francisco
ari
evid
myst
piv
son
tune
wit
org
mcsl
promotions
happens
virgin
type
sprint
suprem
genachowski
mcslarrow
rc
roc
scte
##ado
networking
##ground
incl
nex
brit
expensive
highlight
official
ruling
##athan
allowed
carriers
powerful
evolution
pressure
satisf
telecasts
scenes
attempt
straight
56
53
gat
jr
todd
##itrust
##enty
##abits
qual
distribute
maybe
founded
inside
purp
obtain
antitrust
practices
dispute
girls
regarding
dam
iptv
ju
pushing
vict
##inem
##orter
##itely
stuff
trend
arts
meg
##iction
extension
ideas
categories
valuable
conclud
residential
crime
interface
expansion
cu
cit
hom
les
nhl
path
rent
everybody
grad
investig
parents
promotional
begins
debuts
returns
msg
theatrical
alternative
davis
pivot
crow
andro
incent
canoe
quite
retain
playoff
warnermedia
triple
norm
multiplatform
thousands
stewart
android
61
gal
jers
kat
ok
##ores
anth
incor
secure
attribut
issued
takeaway
capabilities
ergen
finale
appeals
reveal
gatew
jersey
grown
vast
##han
subc
##osh
##iled
##enda
recl
monet
meant
##ancing
wrest
writer
subm
raise
wave
specifically
closer
matches
premieres
demographic
failed
fifth
accompl
anchor
xfinity
01
gone
powell
size
##lling
contact
mary
units
##weight
slate
parts
specials
spotlight
dropped
property
interviews
safe
percentage
fal
fit
father
mhz
wifi
yan
##fact
##pts
##esn
tout
print
marvel
door
accounts
starts
focusing
posted
connections
nationwide
scene
pulled
silver
vendors
rainbow
behavior
manufact
evidence
ecos
lg
lind
roles
util
##cy
##ero
watchers
remark
expert
managed
simple
promoting
pai
engineers
deadline
bundles
ecosystem
citing
lond
rh
##ature
##orm
##iment
##ockey
acceler
adds
actors
distributed
helps
##brand
shared
olympic
rogers
bernstein
yanke
london
5g
mel
tas
##rics
##ios
##ena
forced
compens
brok
##izes
delay
donald
featured
investigation
finally
primary
##athanson
generally
stocks
colleag
wait
students
easier
replace
enabled
extremely
session
obs
send
##atically
cablec
allen
recip
acad
publicly
hands
telcos
expectations
addressable
spokesman
marcus
convention
jessica
supreme
cards
fuse
pbs
wict
##ta
##woman
##erve
##areness
disapp
struct
actual
##ensus
annivers
##board
relatively
transpar
reduce
fewer
negotiate
reasons
discussions
ultra
status
balance
awareness
ctam
mexico
immediately
rcn
baker
dub
gather
tack
##lines
##18
refer
above
trends
views
bull
hero
196
legend
carrier
entre
hosts
counter
carte
shoot
optimum
elimin
cinem
fash
length
va
wood
fore
provision
exem
exact
perry
thanks
setting
heard
steven
negotiating
definitely
closely
celebrity
republicans
disclosed
analytics
succeed
tremend
72
lit
mann
##ran
##enced
##stead
##riate
shark
marg
union
monitor
knew
earth
reaching
ipad
closing
learning
petition
carolina
substant
hundred
anniversary
hired
hockey
kagan
tony
##ha
##ona
##leans
##verly
orleans
##ptions
neigh
client
sportsman
activity
assist
blue
##itten
mcd
daugh
debate
county
requires
talked
complet
gaming
enhance
essentially
thrilled
rutledge
eg
ring
##fort
abb
##sequ
closed
fellow
buc
launches
competing
announcing
musical
funct
ventures
garner
typically
felt
material
fubotv
fashion
cab
hou
lets
nich
##rom
##iqu
##gu
##erman
conver
plenty
##ude
countries
##iana
minim
insights
profile
largely
meetings
logo
determine
incorpor
fill
lose
##ded
##ze
##port
##33
whate
##osure
compelling
showing
arri
arbit
canada
direction
couldn
thinking
earned
##well
lob
load
surround
connectivity
##prene
facing
oversight
telling
millenn
##icultural
photo
diego
nexstar
entreprene
houston
whatever
bond
ga
gear
greg
liter
tied
wga
##fo
##99
##ales
##omb
##unk
manage
sens
capit
modern
reasonable
ultimate
momentum
jackson
principal
adjust
ariz
71
cited
lyn
pip
sort
tag
##ai
##27
##reci
##eless
##ches
amend
boy
##ittee
billions
engage
150
approp
discri
remaining
sponsor
##ommittee
enhanced
camera
soph
subcommittee
burn
syn
sides
x1
##pet
##gl
##igan
interests
##ope
indic
phones
avo
crew
primarily
##attan
funds
animation
journalists
incredible
elevated
nomine
aol
du
divid
lab
qvc
rid
sant
##oen
##ei
##ripted
regist
##rah
backed
effici
aired
availability
generate
records
factor
claimed
discussion
adopt
hotel
choices
practice
aimed
situation
sister
##know
ryan
gh
gri
il
ny
pending
rout
##eted
coast
agenda
2002
england
loyal
finished
bills
tried
swim
sometimes
southern
producing
section
choose
solid
destination
festival
din
kar
mun
ori
ral
yah
##rative
##stone
spin
spino
advent
##erem
marri
##itted
capable
extend
mainly
confident
significantly
switched
friendly
cw
##bro
##50
##amed
##illy
operation
intell
accept
engaged
numerous
finance
written
successfully
peer
handle
critic
challenging
legislators
ranging
spinoff
intellig
cities
eth
ken
om
pit
pain
##ray
##ipped
##iracy
##agram
##eover
aggreg
##igned
afterno
instagram
acquire
rolling
medium
requirements
oppos
ralph
66
700
der
hits
##cil
##arc
convert
concept
save
##astic
##ordin
multicultural
acknow
##eller
commissioners
losing
runs
##athy
metrics
sundance
supports
atlantic
massive
healthy
urban
shopping
vendor
rsns
umstead
yahoo
josh
names
forecast
##ota
prohib
##emy
unsc
multim
wars
creators
importance
argu
restrict
tonight
civil
british
compensation
62
bul
ix
##inn
##ened
##itary
##lying
prosp
beverly
chip
##unction
newly
##icht
marketers
clips
indeed
remember
graph
headed
older
considering
electronic
educational
averaging
nomination
words
housew
pilot
fueled
jennifer
yankees
afternoon
67
88
bott
##rent
##fy
##bu
##iseries
item
incumb
appar
brad
twice
columb
peg
fundament
responsibility
condition
##doch
murdoch
voices
sponsorship
foreign
exactly
unscripted
fine
hers
mig
ron
wl
wes
##yer
##ians
##pond
##12
##abit
##abet
beat
check
shap
adapt
##anne
covid
operational
2001
buys
consumption
blood
simul
250
object
maxim
draft
hills
covering
segments
military
meaningful
susp
##paper
showcase
consolidation
capitol
63
hunt
svp
##ield
##bling
##hd
programmatic
mont
explo
quarters
##achel
efficient
miniseries
waiver
animal
fixed
alphabet
treat
van
##night
##rated
##van
##ews
churn
moon
##uman
brother
presidential
newspaper
phoen
flat
oprah
extensive
clean
##conn
evp
debuted
raising
amazing
emerg
photos
hundreds
phoenix
46
86
96
era
fsn
gross
jam
pod
que
##ette
##ading
noting
##ansas
origin
desire
slated
##ronic
complement
##ught
rollout
##ucker
madison
separately
frequ
leaving
obviously
neighbor
jason
lisa
wow
##of
##year
##jected
##arant
andrew
##amond
death
adm
adam
diamond
tru
##ift
##ishing
mergers
factors
magn
improved
elements
nature
nascar
inclusion
colleagues
68
hip
mr
q2
song
##lan
##wise
##xim
##13
onto
whom
rebrand
chef
wealth
exec
spread
haw
temp
##apers
quad
sportsnet
affect
##brid
opin
storyt
harris
priority
230
council
schools
commercials
please
consistent
passionate
training
housewives
lam
mg
nt
nights
##aud
##bell
##hattan
##ara
##iling
scored
buzz
anywhere
understanding
creation
respective
heads
globe
approved
debuting
steps
potentially
himself
predic
recognized
mvpd
published
lawsuit
activities
mach
osc
ride
##frey
##la
thus
##elines
comfort
stad
beaut
plant
broader
doct
corres
associates
investments
winfrey
electric
somewh
hardware
limit
purchased
brief
sanford
pushed
antenn
recognize
360
necessarily
feeds
hammer
described
master
tremendous
59
lu
pages
q1
q3
##outs
##igious
weigh
##ula
##iles
appreci
directed
ifc
phase
background
veh
investor
wins
surprise
epix
edited
difference
obl
storage
turns
turning
greenfield
ranking
nctc
representing
learned
element
mandate
sarah
confirmed
predicted
weren
floor
enforcement
cablecard
correspond
58
gra
lunch
mir
rely
tiers
##pro
##point
##edy
##itude
##ros
##the
##ender
usually
bresn
##loying
airs
##phy
gray
auto
universe
formed
hoping
buyers
happened
burke
mixed
identify
enables
constit
tapped
skills
expertise
disappoint
appropriate
bresnan
74
98
dang
fol
mother
rand
rough
ramp
##iel
##ench
##icon
##aco
exhib
sean
presents
consensus
manhattan
impl
120
guild
surf
knows
driver
keyn
competitor
securities
complaints
safety
harmon
garden
94
aar
blo
fisc
gac
xbox
##eper
##gna
##junction
forum
chronic
##rif
##ivals
tegna
marsh
outlet
communic
district
phys
downstream
guest
drag
winners
kept
police
possibly
singer
counts
secured
easily
anti
nominated
priced
explore
volunt
renewed
oriented
mgm
stadium
81
bio
hus
kenn
ran
##iary
##za
##70
tow
##alu
##omer
##ulate
cool
##ops
score
otherwise
promise
valley
charlie
formerly
portal
21st
attractive
unlike
budget
pioneer
daughter
78
cerem
dere
hen
jose
tab
##kins
##ano
##aly
##reh
comsc
##tered
##essed
teach
marks
upon
unve
operate
resolution
consecut
conserv
reporter
preview
strugg
actions
advertiser
delivers
fla
quarterly
instance
oversees
moments
represented
athle
ntia
comscore
ka
kim
ru
vac
##making
##zak
##burn
##isan
beach
##unes
##antly
produces
expo
streamed
looked
unders
locations
longtime
values
wireline
wrong
entry
metro
mtvn
concert
soul
sidebar
dvrs
journalism
effectively
sweep
fiscal
00
gian
nar
##si
##wire
##ework
##cher
##ulated
alle
coordin
operated
scr
struck
topic
regions
enterprise
reli
transact
approxim
ordered
coup
conversations
encourage
granted
absolut
excell
wrestling
academy
approximately
ak
cow
dsl
file
lop
##ym
##iate
##cm
##uty
##urch
convin
trick
leicht
prec
##elson
greatest
negative
keeps
meta
syfy
journey
considered
horizon
happening
theater
conducted
consulting
overseeing
iconic
slightly
amendment
bottom
giants
89
kid
nice
nca
##mond
##alition
##llo
##ighter
placed
shown
goals
resol
##iley
perman
asset
regime
technological
memor
michelle
holds
controvers
infring
navig
evolving
litigation
completely
avoid
illeg
consecutive
leichtman
bat
bor
ble
bol
ly
lake
vill
##makers
##inent
##alog
##oses
spir
fred
newer
notes
bruce
buff
wright
##attle
peak
patent
tracking
franchises
collection
respondents
windows
heavily
witness
intelligence
keynote
ncaa
84
ba
bry
fer
gary
ion
ram
sle
##va
##ship
##cbs
##mi
##74
##ington
##ared
##imer
brow
uncle
relief
location
deploying
dauman
guarant
puts
approval
storm
email
waiting
natural
responded
matters
publishing
cameras
extreme
syndication
attendees
institute
secretary
orders
truth
architecture
component
concluded
arizona
neighborhood
husband
bir
gap
hart
kansas
mu
pact
rf
tent
vm
zone
##vy
##roit
ship
exceed
viewed
subscribe
pool
leads
estate
writing
regulators
hearst
recorder
meth
connecting
supply
virtually
detroit
messages
syndicated
expressed
wilson
vehic
600
dick
fights
lt
lock
mas
##col
##gets
##16
##isher
amy
unless
indicated
thank
workers
signs
extended
requests
##rises
generating
blackout
1996
argument
larry
##graphy
involve
participation
premiered
window
rulemaking
dramatic
housing
update
cannot
bes
bann
ko
kell
ov
tie
bear
shop
##oop
##sey
showed
newsp
associated
lots
hearings
clearwire
patrick
viacomcbs
snl
daniels
participating
adobe
madness
contributions
arrange
manufactur
structure
surrounding
oscar
bloom
69
fle
g4
q4
russ
sac
sir
##sch
##ipping
##lor
##28
##24
stern
revers
##osing
##ereo
compreh
clim
genres
assess
streamers
espn2
depth
begun
polka
insur
leagues
1999
1990s
cert
tyler
funny
ranks
covered
selected
bankrupt
arena
computers
cmt
demonstrated
repeated
flexibility
embrace
austin
fantas
rapidly
abbott
niche
simulcast
opinion
folks
lopez
newspapers
dar
eagan
freed
gord
tor
trib
wish
##east
##uced
##ker
##10
atsc
##iest
compl
pled
coalition
laugh
##icks
##enson
blu
theme
originals
docu
apart
elected
stronger
stephen
##ucky
hispanics
faced
controls
declines
##ikely
bidding
snow
sponsored
unlikely
authentic
guidance
intellect
gradu
functions
garnered
acknowled
multimedia
comprehensive
06
73
aereo
psy
##fit
##aur
##etv
##lyn
copps
lie
decide
acce
ends
centers
affected
engaging
experts
charles
michigan
powered
controlled
finals
policies
artists
ross
pieces
array
##burg
welcome
imagine
mentioned
purpose
gateway
wlod
western
psych
ast
ft
ice
ign
map
oc
rd
rick
##feller
##lvan
##mart
##pre
##14
##stain
chase
weak
##imited
##thy
brothers
##kefeller
cancel
exposure
newsm
prep
warned
##wards
worst
attach
transc
sixth
alongside
gained
theaters
missing
licenses
extraord
charges
divide
rodrig
recommendations
junior
rockefeller
broken
mcdowell
##arczak
originally
##lvania
09
boss
dur
iger
lew
none
vital
##ij
##29
##erts
input
##lla
ford
shed
##using
sustain
##estri
##iao
lift
accur
topics
depending
heading
believed
sharp
population
evalu
representatives
improving
talented
esser
scheduling
multiyear
unlimited
tenure
##sylvania
hybrid
exception
pennsylvania
suppliers
reclass
literally
henry
bankruptcy
extraordinary
79
aven
cry
gib
kyle
nod
nelson
rom
zucker
##oved
##run
##een
##pass
##15
##inform
##isd
##roll
conced
pra
##anna
resc
##quir
sole
feels
##licated
##certain
remind
##phones
experiment
capability
reduced
likes
emot
priorit
portion
function
fighting
protecting
dropping
##ruption
dollar
figures
revol
eyes
encouraging
jonathan
stickiness
julius
widely
institut
impressions
##iasm
enthusiasm
code
attacks
virginia
normal
substantial
sophom
dinner
intellectual
76
cant
cfo
gosp
jur
wake
##bled
##eration
conven
##aste
20th
places
cancer
recall
basically
##aves
assum
retention
cris
caused
evening
valued
##gerton
finish
stands
receiving
remained
protections
recognition
voting
surpass
advocacy
anthony
task
storytelling
method
##information
gospel
dual
rival
tca
##oy
##nathanson
##more
##inson
##asc
##oted
##uses
tra
disrupt
lever
coach
##uez
broadcom
##kets
god
perce
espan
discover
promises
reaches
traded
carried
rolled
barri
congressional
applied
seemed
cultural
enabling
opposed
tuned
incredibly
guidelines
ebif
accomplish
aaron
wlodarczak
rdk
sophomore
born
dad
dtv
nite
nancy
tay
tail
##eon
##person
##war
##xter
##2way
##enger
##itory
itunes
ash
dexter
##ulf
##ulus
##anda
seattle
##aked
truck
neither
##ountain
britt
customized
internal
##asonic
carl
advice
125
officially
requiring
opened
panasonic
subscriptions
reportedly
humor
tablets
paley
subsidiary
achievement
heroes
arbitration
santa
herself
tru2way
unclear
besides
fantasy
hang
hosp
##nic
##ext
##erc
theory
##ato
##iding
##ela
##aded
deeper
##uster
seat
beta
howard
worry
daytime
write
insert
stores
frontier
honored
denied
publ
upgrades
confirm
occur
crowd
ghost
800
aj
bip
hub
iphone
sought
##sen
##bn
inquir
##ito
##icast
comic
shape
adelphia
##artisan
unpre
uncertain
indec
perm
recess
distin
demos
phen
poll
guess
invested
mobility
performances
exclusively
glass
construct
dramas
doubt
candidates
graphics
incumbent
machine
permanent
bloomberg
aware
bart
baby
cos
kap
makers
mountain
rm
row
##rate
##iro
##23
##era
##rees
weed
seam
context
youth
recording
cause
deport
reporters
slam
comedian
targets
drives
reduc
encod
glenn
introduce
murder
pacqu
jimmy
signaled
colorado
collaboration
playoffs
##connect
absolutely
gordon
espanol
hsn
lor
md
tact
wim
##ipp
##turn
##hal
##iny
ina
##itors
stone
conclus
##ched
##usive
##uls
##ager
commis
diss
##season
intent
brain
india
ourselves
nobody
assem
thinks
crack
promo
regulate
empower
strongly
embed
gotten
falls
challenged
seeks
moffettnathanson
scenar
entirely
encouraged
spokeswoman
spokesperson
sopran
influence
cooperative
lauren
victory
rodriguez
hospital
bipartisan
phenom
bed
gate
narrow
tro
wolf
##nell
##gor
##wyn
##80
##alone
##oma
##ionally
##idence
##eland
##rix
##olis
seach
notably
##ultane
clock
##cedented
##encing
filmm
avod
flag
transm
branding
additionally
standing
simultane
##umental
nonpro
honore
tracks
premiering
identity
africa
silicon
renewal
shareholder
consistently
hurt
laura
stanley
surprised
enthusi
monetize
monitoring
minimum
restrictions
emergency
oblig
harmonic
voluntary
vmvp
newsmax
unprecedented
commisso
seachange
83
hay
hook
lights
mv
nic
nur
nash
rss
##ev
##ien
##ita
##ican
concent
##riet
##ript
exerc
displ
upload
upstream
canad
overl
firms
actively
beth
ending
mcm
standalone
paper
erent
integrate
ca643
argue
barry
screening
dominated
cmts
enjoyed
capture
historic
austral
transparency
assistant
ceremony
ltd
freedom
92
97
cc
gon
german
maker
rush
sd
##over
##tz
##lah
##56
##icut
##iration
##osen
fram
maria
marque
entering
entered
correct
poor
slot
versions
formula
hosting
connecticut
1992
1994
carrying
tablet
individuals
voted
profitable
settled
##burgh
survive
territory
incentive
margins
correspondent
kelly
pacquiao
barg
cto
dtc
gill
labor
mitch
piracy
rub
sid
##rak
##men
##ubs
##ora
##iti
##rel
stakes
prove
chat
##tsburgh
##eop
coax
amid
dod
reserved
broadcasts
##issions
annually
##boy
corner
signature
transmission
associations
campbell
recorded
movement
##aimed
honors
involving
participants
emmys
attracted
murphy
optimistic
european
updated
determined
trouble
affordable
ethnic
exploit
roughly
inaug
08
87
93
900
es
gem
mile
nu
oreg
poc
rip
rivals
sor
tand
tcm
vin
##oper
anderson
##outh
##iller
reel
wein
shock
##iveness
diy
markey
margin
reput
dealing
##angler
payment
deputy
centric
idol
lawyer
acquiring
creates
personality
sells
##veland
behalf
sitcom
farm
moreover
suggesting
picked
summary
sprout
types
proceeds
leaves
illust
candidate
ellis
leslie
manner
entrepreneur
nominee
columbia
podcast
unveiled
crisis
aud
lm
ps
qam
tub
##rating
##bd
##17
##onents
andy
##road
confer
isp
##iva
##umn
##pert
dism
communication
somebody
worse
##olds
realize
defense
runway
##efully
approve
##onym
profits
limits
blocks
specification
celebrate
dominant
##iciary
echo
jackie
aspects
pivotal
linda
eggerton
incorporated
pittsburgh
luncheon
dereg
conservative
transactions
brows
deportes
rssid
bargain
07
bew
cly
dance
gci
hal
hbc
iron
jerry
kel
rat
races
tend
##lim
##zy
##win
reference
##acher
chips
##unte
orange
algor
sem
servers
lean
medical
teleph
##oph
agent
scient
mega
multicast
operates
religious
accessible
latter
extent
##cont
ca65
equally
skin
morgan
proposals
olympus
artist
identified
volunte
##letes
disclose
mentor
drawing
susan
repeat
unfair
contestants
athletes
bridge
dubbed
discrimin
implications
manufacturers
lewis
obligations
algorith
telephony
dim
gsn
kan
na
pt
racing
tamp
yell
##ique
##feld
##king
thri
topped
wholes
##olit
##ilton
france
prison
teens
command
##eman
disag
intention
bra
##ifies
joins
##issa
bold
bigband
##inton
##raid
mayor
speculation
termination
billing
experienced
ruled
cleveland
raw
1998
combat
matth
argues
collective
shifted
explor
watson
updates
pioneers
treas
consultant
sessions
televised
satisfaction
juenger
megabits
efficiency
items
repeatedly
accepted
mvno
olympusat
gre
habits
mut
##oly
##lot
##eno
andre
##leman
##ller
itv
church
sag
sha
sher
shine
spur
complicated
contests
contacts
enorm
amb
monop
flight
transfer
instr
pointing
propriet
discount
evident
processing
tested
facilities
brien
risks
bundled
3dtv
mandates
pulling
threats
inspired
william
eastern
charged
adviser
televise
trutv
lobby
quadr
controversial
acknowledged
oregon
tampa
77
bally
cd
cul
dc
dut
fs
gad
gol
hr
pad
##ault
##gia
##200
##ati
##ari
reilly
proven
asia
chart
orland
marath
brook
interim
recru
distance
boys
anytime
mayer
realized
schw
paris
footage
trip
trials
presenting
cuts
arguing
magic
restaur
personalized
adopted
conversion
staffers
installation
installment
books
residents
doubled
authentication
cellular
unserved
appointed
pcs
gathering
griff
##build
somewhat
sirius
reducing
reputation
yellow
orlando
bi
bing
dir
dating
dup
hack
sitting
tall
zero
##nie
##rants
##iet
##hall
##prises
##19
##oney
reed
##urity
asian
shield
##unately
spark
spangler
##works
contrast
traction
notion
covers
##nerg
feet
royal
##ensed
carey
enterprises
retire
curb
desk
famous
##anks
extending
defined
freeform
yourself
metrop
reception
importantly
negotiation
1995
1997
combining
restruct
blocking
exclud
judiciary
immers
1984
volume
mccar
veterans
typical
automatically
links
explained
fantastic
cooking
preferred
shooting
lynch
beauty
spirit
seamless
sopranos
wholesale
proprietary
cub
eld
gb
gun
lakers
odd
##fest
##ux
##bt
##bing
##83
thron
##ini
##aro
ing
ink
##stit
##eting
##reach
sto
stated
congl
##asts
##annah
disruption
leap
ups
interference
showrun
nev
##weather
hdnet
connects
investing
extens
simpl
##holders
jane
130
entity
calc
equal
recorders
postseason
handful
emb
mainstream
rolls
economics
studies
encore
wedding
departure
350
accounting
cycle
improvement
wonderful
killer
sufficient
pursue
anticipated
utility
rentrak
false
marriage
shapiro
tempor
antenna
bryan
taylor
conclusion
simultaneously
thrones
05
bitt
gay
iow
mist
math
pun
##bles
##25
##orrent
##roc
##igger
chosen
suite
heat
unc
reson
intended
cla
bron
fold
induct
overbuild
vertic
##licensed
anna
##pled
differences
hopefully
subjects
letters
releases
skew
authors
integrating
synerg
faces
facts
lowe
declining
reviews
fairly
statist
aims
gigabit
violence
reflects
aggressively
arguments
fundamental
doctor
rupert
reliable
nashville
framework
bewkes
conglomer
bittorrent
fab
fulf
hud
hugh
kate
krist
kerry
tips
##ole
##ooth
##any
stim
stages
reyn
prol
frag
##graf
died
notable
liability
upside
presch
climate
meets
rovi
roster
formats
personally
subsequ
confidence
hob
motiv
landgraf
oversaw
##ducing
politics
messaging
##iece
hopeful
preparing
sporting
rangers
authenticated
modems
citiz
##iques
tabak
underserved
ovation
transcript
nonprofit
canadian
marquee
reynolds
ax
bound
cp
dun
eat
fro
gi
gang
hp
jaco
mol
muse
pga
wy
##ns
##sewh
##uous
##itable
##owitz
china
##andez
spaces
french
compat
unlicensed
army
lapt
##icker
prize
##ibilities
cars
relative
drug
loved
##ression
define
elsewh
walter
privile
##ettes
performing
harder
portray
ca644
marked
employee
engineer
celebrities
panelists
freew
disputes
valuation
maintaining
minds
kicked
fearnet
subsidies
alternatives
proceeding
hunter
situations
terrestri
savings
components
incentives
revealed
meantime
remarks
transparent
exemption
dividend
physical
convinced
prepare
ajit
phenomen
displays
elsewhere
bag
bod
body
bachel
fly
ghz
iac
kl
kir
mech
pg
rac
tut
##ders
##fast
##tes
##lest
##pson
##ko
##22
##64
throw
##alo
##icip
forces
stap
anton
shore
dean
##ateful
moore
plug
unus
outreach
##ieg
clay
##isted
cance
workfl
worksh
advertise
developers
demands
memo
##loyd
priorities
hoff
possibility
ca646
gaining
popularity
measures
introducing
lineups
daniel
ensuring
environmental
thompson
announcements
##icians
achieved
cybers
improvements
unfort
sexual
moderator
utilities
obser
lobb
millennials
adjusted
treatment
predicting
rescue
kaplan
inaugural
instrumental
metropolit
iowa
fulfill
bachelor
mechan
az
aids
bunch
docus
esc
fish
gall
lion
mey
ri
sket
sending
ties
wra
##rina
##die
ther
##inger
##itv
##station
##aska
##ution
conjunction
shel
##osoph
frame
comply
offices
##apolis
brill
indiana
afraid
##space
warren
phill
specif
speakers
promised
colbert
grateful
mobitv
keith
shouldn
180
imper
letting
northern
patri
judges
claiming
approaches
democrat
feeling
neutral
philosoph
rounds
downloadable
editorial
georgia
aspect
essentials
slowing
principles
budgets
jumped
recommendation
savvy
speaks
obtained
entrepreneurs
discrimination
prospects
comfortable
navigate
fasc
gab
mos
nathanson
ske
samp
wend
wisc
##nation
##ele
##mons
##pin
##57
##ese
##itively
##stakes
##iser
##abeth
consequ
weight
##channel
##tha
##osition
difer
disinformation
leased
accl
consp
expire
scal
workforce
betting
distributing
smit
payments
developments
underlying
remove
transport
entities
midnight
ca640
falling
info
patents
nationally
goldwyn
##center
bundling
emerge
celebrating
urged
advantages
mentors
sounds
deeply
advocate
ebay
seriously
bonus
outlook
municip
apparently
montana
##rific
kennedy
struggling
sweepstakes
guarantee
avenue
recession
hbcu
docuseries
municipal
eri
gut
kay
lig
nd
tests
##rest
##sg
##ience
##fri
##mo
##wr
inch
##rell
##iders
##illon
reaction
saving
##agon
##mental
sevent
haiti
##ardo
unn
clark
soap
root
techniques
smooth
knock
caught
cahall
grants
publicity
caps
interactivity
evil
ski
supplement
discussing
resulting
urge
retailer
regularly
requested
##ossible
##heel
layer
navigation
sandy
visitors
emphasis
mystery
pipeline
appreciate
alleged
excellence
infringe
jurisd
distinct
mcmah
clyburn
showrunner
museum
freewheel
91
gil
gbps
lum
native
rus
rachel
tam
vign
wired
xm
##lon
##gence
##wick
##54
##eli
isra
pride
##oca
sequ
dialog
encom
##ffei
butt
preserve
unable
accused
foster
expend
blank
maffei
mayweather
##xton
entertaining
crash
prompted
flip
demanding
surge
edition
calend
performers
controlling
ers
membership
steph
stephan
portable
morris
magid
credits
positioned
declar
personalities
legislative
selection
solve
##exp
##erto
exploring
contribute
votes
kicking
demonstrate
mysteries
accomplished
nominees
loyalty
arguably
publisher
marathon
metropolitan
encompass
cens
cinc
gues
joost
##nel
##rad
##vine
##zo
##gs
##90
##organ
##ingu
##etch
##rol
##ecurity
shorts
except
spun
hair
##gry
##ained
ampl
outcome
quiet
impossible
justin
##encable
wells
poised
advised
gram
guard
opencable
courts
##aze
differenti
bread
protected
peers
passing
raven
presentations
appearances
conflic
supposed
facility
expecting
smartphones
kinds
northwest
##keye
rooms
towards
parks
violation
magazines
evolved
transformation
occup
fubo
appointment
translation
gateways
submit
accelerate
adventure
##innati
confirmation
cybersecurity
sketch
cincinnati
guests
bind
dbs
ect
fn
fav
hat
hast
lte
nv
nathan
river
sr
ses
upped
wo
wn
##gy
inher
forth
forms
stem
stats
rey
proced
conv
##andon
netf
##ilm
alleg
comprom
hasbro
##artz
tvod
trigger
disast
##sell
##izabeth
clinton
##video
laid
prelim
execute
blow
phili
101
##argo
retired
backers
fled
##azin
headend
focuses
countdown
thoughts
globes
elizabeth
processes
combine
doug
blockb
divisions
addresses
dana
journalist
urging
banking
gigi
##backs
levy
automated
roger
charging
advisor
advisory
pitching
sweet
embracing
freshman
werner
supplied
remarkable
replacement
eliminate
frequently
execs
dangerous
indecency
wimax
embedded
vince
conferences
matthew
enormous
mccarthy
avid
dates
esh
fighter
gent
lies
nut
rou
vet
##eg
##tim
##bi
##page
##gests
##word
##36
##96
##itate
##omp
forb
whit
##ried
##ander
frust
##ested
contem
##aine
button
ambit
broadly
output
monica
preced
boom
playstation
anne
mapping
knology
underway
##phere
teamed
keen
simington
##uctions
timing
merc
affiliated
##whel
traditionally
##umped
##graphics
ideal
measuring
suggests
sectors
snap
resulted
drawn
replaced
##strong
constantly
descri
sample
progressive
attempts
dozens
ballroom
melissa
graham
joseph
athletic
narrative
memorial
illegal
accurate
inquiry
uncertainty
compatible
mcmahon
expendit
calendar
bt
ced
cree
dat
fbn
hind
pix
rum
sween
##rant
##equ
##sky
##bie
##giving
##88
##76
stu
##acon
aside
cham
chain
shake
sued
ort
##cean
alike
##odi
##apan
consoles
clubs
quant
howe
securing
seth
everyday
curios
earn
cru
colo
flash
associate
grace
opens
legit
instant
pawn
thirds
formal
harry
privately
stein
stepped
factiva
placement
cutters
student
partnered
reading
goldman
representative
puerto
sny
##ternal
missed
responding
collins
installed
baltim
contributed
750
miles
blogs
sunny
tweets
immediate
historical
louisiana
##breaking
married
disappointed
revolt
tactics
exercise
scientific
hughes
observers
brilliant
wendy
curiosity
baltimore
csn
denn
hate
hire
hannah
loud
nb
os
pin
pel
pep
tve
tik
von
vamp
##yers
##lers
##bol
##ho
##ken
##55
##86
##anim
ingr
##uto
stack
##igible
chrom
##ulating
nets
##ppe
compris
plain
upt
##izz
##izable
clip
aged
reps
expense
distingu
##anged
wherever
watches
delight
cruc
pole
schol
grid
grab
myself
##ennial
defend
generations
campus
subur
trio
harvey
governments
ering
returned
finds
ceos
innovations
partnering
exists
franchising
christian
matchup
northeast
collecting
missou
shifting
commitments
circum
voip
dramatically
valuations
strauss
mexican
trusted
trailer
crowded
rebranded
vehicle
ftth
leveraging
australia
gemstar
synergies
antonio
wnba
04
ai
bout
dma
hend
ic
ng
naked
pound
ubs
vel
wives
##de
##irect
##cable
##lat
##hor
##21
##ja
##73
##erun
##edith
##arch
##idays
##eca
##uted
stunt
rejected
chines
willner
diane
cold
alloc
offset
opera
resid
newscast
internation
consume
booth
incremental
espn3
##cling
managers
minnes
lawmakers
timeline
courtney
meredith
packaging
tries
negotiated
combines
pattern
addressed
visual
immun
introduction
collectively
coupled
similarly
demographics
staying
constant
violent
publishers
appealing
concur
##heimer
fifa
utah
purposes
oklah
touting
touted
recipients
millennial
tagline
route
maximize
kaitz
couples
arrangements
tribune
vmvpd
tandberg
schwartz
stimulus
diferent
hastings
chromecast
chinese
minnesota
oklahoma
bord
bird
dp
gle
gome
hilton
mp
rig
wider
zee
##ya
##fred
##li
##lined
##bum
##alk
##roy
##erse
stead
reject
##cht
anonym
##unate
adel
server
fraud
albre
##annon
##anning
brods
##ortium
dispar
broadway
##bson
presum
unre
doyle
consortium
brady
overwhel
##hertz
newsnation
sportscenter
streamer
carr
prominent
schm
founding
myth
awarded
##enness
knowing
hallow
lincol
redstone
posting
funded
martial
portland
landing
panels
listening
shortly
refres
consideration
revolution
downloads
mandated
conducting
websites
evolve
materials
occas
masters
macro
armstrong
##abytes
irre
damages
katz
accelerated
cinemax
##chester
indicates
label
criticism
documents
ocap
insertion
flagship
hoffman
unfortunately
conspiracy
dialogue
netfix
preliminary
mercury
expenditures
gomez
albrecht
brodsky
lincoln
82
ebit
fargo
gro
hiring
jer
japan
kra
nds
pas
rack
tbd
##tok
##how
##part
##omo
##leiff
##etn
##ecca
stun
##adow
reap
beef
ascent
frst
alan
##emble
ampt
doors
goei
partly
brett
##iful
quo
carpet
signing
##onsin
128
schleiff
depend
tale
guides
drink
openness
myspace
##aza
standpoint
costly
script
insider
empire
merge
handed
integral
buyer
superv
encry
estimate
positioning
measured
independently
proposition
streets
celebration
lasso
renewals
groundbreaking
answers
proceedings
hurric
flexible
catal
oliver
attributed
legendary
opposition
mirror
resolve
resolved
conceded
recalled
disruptive
germany
citizens
phenomenon
wisconsin
acclaimed
vignettes
sweeney
tiktok
crucial
internationally
amptp
dor
ec
pir
sab
tone
ub
vangu
wgn
##mel
##uk
##uins
##bons
##hol
##here
injunction
forever
iteration
##igner
proof
chuck
excess
compression
abandon
vibr
unanim
medal
##ounce
scope
prev
##arez
stress
strang
senator
justify
salary
underst
##comm
chairwoman
attended
mckin
remake
designer
119
epic
manages
globally
##parts
merch
expands
walmart
storylines
norman
harms
lessons
bench
centered
renov
addressing
puzz
uniqu
tells
450
requirement
theatre
ensemble
hotsp
collected
murray
shifts
establishing
licensed
dominance
wheel
upgraded
mentoring
rebu
surviv
kentucky
clarity
highlighted
investigate
katrina
attributes
provisions
thanksgiving
bulk
maximum
predicts
russian
insurance
pledge
exceptional
emotional
encoding
scenario
honorees
bargaining
retirement
temporary
vertical
terrestrial
jurisdiction
eshoo
ambitious
immunity
halloween
ebitda
eve
hog
jere
lad
luck
oak
pall
rerun
si
sons
zo
##nick
##mein
##bon
##kings
##92
##ater
##oria
##orge
##arian
##alle
inj
reh
##acqu
##abil
##irational
shout
##asty
##mented
albert
##estamp
wash
pluto
broaden
interpr
neil
##orship
##enders
##opher
##ista
overturn
sheet
executed
decre
weekday
impose
warri
190
##boards
files
126
118
polar
defe
simmons
timestamp
protest
careers
metric
holders
superior
deployments
renamed
discussed
glance
christopher
administrative
url
1980s
logmein
picking
pacific
rocky
feedback
parker
subsidy
criminal
rebecca
##ervation
gardner
victim
citrix
rental
adventures
columbus
vacation
scratch
vehicles
prioritization
barriers
glasses
skinny
monopoly
duties
brooklyn
pgi
philosophy
blockbuster
scholars
adelstein
vanguard
cathy
dow
fat
pie
sad
sach
ting
tina
vic
waste
zar
##ollo
##nandez
##vest
##aunch
##log
##mos
##uel
##game
##enheimer
##sta
##stal
stable
reif
conce
beales
shr
##immer
##through
plun
tvn
tem
##perform
broke
coff
median
outd
resigned
##ordan
scream
roy
bush
dece
blument
hernandez
playboy
anymore
starred
effects
hdr
located
##elli
removed
longstanding
termin
slower
slugg
memory
edward
builds
apollo
##iously
informed
nightly
differentiate
profiles
discip
equival
posts
lowest
applaud
breaks
jean
democracy
christine
christina
favorable
attracting
jeffrey
craft
crazy
revamp
replacing
professor
mccain
violated
inspiration
cameron
penal
detailed
tuning
libraries
advocates
julia
settlement
explaining
emphasized
anticipate
submissions
delayed
functional
convergence
registration
registered
karen
prospect
apparent
moonves
antennas
##theimer
excellent
birth
reverse
tailored
nurse
binge
unusual
workshop
wrapped
skept
consequences
seventh
infringement
philippe
missouri
blumenthal
03
hott
jen
ky
kathy
mids
nond
punch
sized
tu
tig
tight
tank
xd
##ye
##fe
##tr
##hwar
##gment
##kates
##46
##erving
##inth
##orrow
##iced
##sters
##etz
forcing
reim
reorgan
projected
beating
saul
shanks
##essee
##agn
##ila
alv
album
hey
heels
placing
##umber
##ains
##sole
##ardi
manip
directing
joel
shell
novel
distant
##enses
##licit
carroll
106
signifi
filings
##comes
locast
advances
positively
gran
belief
beloved
modest
eligible
swift
raises
testim
restore
facil
credited
tomorrow
breakthrough
horowitz
emerged
visits
deny
craw
battles
banks
replay
explores
installments
stayed
opponents
tennessee
milest
slowdown
principle
centurylink
trek
professionals
julie
hdtvs
tweet
transforming
historically
accompan
venkates
lucas
damage
##haul
filled
loaded
divided
somewhere
illegally
involvement
gibbons
solely
weeds
ethnicity
dismiss
disagree
##lotte
griffin
bronx
stephanie
venkateshwar
benn
bazin
cum
cav
gym
hi
kit
kard
nail
ntv
sque
sizes
vig
xum
zomb
##rus
##iors
##ua
##gart
##wc
##85
##43
##ani
toy
##etic
fores
##utt
stall
stance
stood
stint
stuck
reun
##acle
##owers
chad
##una
degr
##usal
sull
exit
spear
newest
newcom
align
##ivan
heights
##oof
amounts
unified
telef
appet
consc
intense
sox
monster
expenses
busy
imposed
genius
americas
continu
worlds
##ancial
##onsider
realm
nextel
brandon
supporters
headlines
useful
succession
regulating
entit
entrants
elite
stepping
##itches
findings
committees
confi
cea
fastest
employment
tns
purchasing
involves
seemingly
pupp
childhood
responsibilities
1988
casey
solom
surveyed
waters
failure
franklin
stakeholders
reflected
profitability
##blatt
killing
influential
sisters
troubles
cheap
heavyweight
submitted
lgbt
tackle
arrived
queen
chronicle
athlete
sleep
arrangement
mitchell
dodgers
ripley
fs1
hudson
fascin
legitimate
catalyst
vibrant
jeremy
equivalent
bazinet
xumo
bou
diller
iv
jew
kath
mak
mort
mign
pd
pm
pure
rico
tens
uk
##ob
##rament
##list
##mar
##mers
##zing
##wind
thor
##arm
##arge
##stv
##eco
##utsch
rebo
##acey
##abama
beer
chi
deutsch
##theless
external
serial
##ils
alabama
sea
##anny
envision
neill
##opia
intimate
perpet
recover
expires
devoted
acts
##cove
worried
anyway
smack
undert
statements
speaker
##icted
123
##ennan
extract
charlotte
mini
sellers
walton
steal
midwest
martine
dvds
finalized
boards
landed
supplier
listing
drops
nevertheless
honest
risen
exclusivity
breakfast
humans
detective
authorized
choosing
revised
brightcove
retailers
cyber
bobby
aspire
boosted
activevideo
latinos
treated
attendance
implementation
dogs
cheer
pursuing
translate
recipient
cinema
buckeye
jamie
tower
sacrament
attached
duration
filmmakers
tubi
volunteer
duplic
immersive
statistics
cancelled
breadth
suburban
scholarship
sachs
mignon
sacramento
auctions
bub
eco
etc
gas
glo
grey
jill
kle
lady
labs
mit
moss
node
ore
pul
pere
picket
rg
ts
tip
tree
tiny
ward
yield
##sm
##lif
##uits
##bb
##po
##gie
##onald
##enberg
##edge
##idge
##asse
foray
##utional
##adata
reins
reiter
##urally
proved
##tering
shaw
prest
ala
alien
##ocity
dipped
martha
enfor
##emp
levin
cov
unt
unh
##ptive
##ghami
companion
resume
##active
brennan
reconsider
newsroom
therefore
##cover
consumed
warm
retro
earning
ende
currency
deserve
##cles
seconds
##ups
113
##ugger
##atherine
billy
charts
elections
merely
hoped
strongest
discour
carefully
metadata
performed
handling
optic
concerts
periods
barr
barack
##aux
refused
robinson
judgment
horse
pushback
geico
immig
southeast
sooner
downloaded
unlock
switching
frankly
understands
maintained
kicks
fears
taught
middleweight
recommended
hunting
pursuit
venues
normally
eliminating
hunters
magnol
communicate
nods
perception
##eopard
reelz
illustrated
algorithm
andrea
preschool
clayton
vonage
vampire
velocity
merchand
zarghami
sluggish
testimony
kardash
squeez
martinez
perez
aetn
fitz
kore
nesn
pwc
rare
tat
tape
ze
##lu
##mann
##bour
##hard
##87
##erted
##aring
##ete
##rep
##roe
##illa
reward
pros
##rio
sapan
shannon
suz
spy
##olph
adri
aligned
alaska
mojo
coinc
unle
##pton
resort
indian
arn
ark
overnight
recon
monk
expired
##rection
scand
scores
twins
workplace
stressed
herring
backing
knight
wayne
airtime
promos
terry
terrific
grav
connor
2025
mode
headends
##ashed
goods
differently
##iano
docket
generates
agreeing
sometime
140
hopkins
powerhouse
170
breach
passage
steady
nickto
titled
confusion
barbar
dougl
listed
initiated
fighters
educate
##network
20059
dominate
walker
freeman
oppose
circle
maintains
palm
dynasty
berke
killed
survival
implemented
##author
misle
reinst
emphasize
trailers
witmer
attempting
referring
bucks
converter
mun2
incumbents
beautiful
lux
ramping
exhibit
marshall
biography
towers
memorable
explorer
goltv
excluding
stopped
staple
lobbying
conflict
description
circumst
##latino
residual
reruns
alvarez
conscious
nicktoons
ace
bun
breat
dunk
eager
hitting
ling
lut
mav
nim
ocean
pig
pause
ptc
rfi
sel
tuck
tci
wing
wag
wiz
##oks
##yles
##ease
##care
##atable
##oric
inev
##itage
##elo
##ira
##unted
##akota
##gram
incident
abd
abuse
brooks
lea
intermedia
unb
neal
##ghan
usf
usual
scary
twist
multisc
assume
technic
##ounded
10th
heritage
##erald
developer
relaunch
donnell
advancing
flood
premises
##fty
lifeline
latency
engines
lov
comedies
136
profi
reduction
careful
walden
password
1993
fundra
hopper
defining
waivers
gaines
greenblatt
suggestions
southwest
complained
1983
1987
holm
holidays
##aws
winds
friendship
90s
slowly
automatic
harmful
thriller
outdoors
nasda
taxes
rodgers
embraced
reinvent
ellen
cubs
gala
galax
referred
exempl
stevens
margar
lynn
songs
tricky
village
perceived
permit
leaning
thrive
restaurant
cuban
extensions
stephenson
hurricane
hottest
sullivan
solomon
barbara
multiscreen
nasdaq
bos
dent
gender
hors
jordan
lag
lined
opted
rice
taste
##ox
##rer
##rac
##dc
##aul
##aware
##town
##zen
##zar
##held
##wa
##53
thro
##ala
##itation
##amation
##illing
##ables
beij
beacon
##tery
dele
##earing
alison
hell
heather
commsc
##antic
interrupt
interconnect
vista
unexp
doj
outright
marketer
##000
##quer
quot
stretch
##onda
industryid
technicians
carve
carib
salt
reloc
##week
helpful
mcgr
##ictional
flavor
desper
connell
112
114
##mmet
loves
surve
chiefs
persu
counties
feder
creativity
evan
evans
skate
emily
erin
appearing
ipod
##inois
comparable
robb
judy
capitalize
commentary
tracker
proposing
virtualized
massillon
identifi
accountability
1980
fairness
establishment
mandatory
aiming
##offs
550
iii
dramedy
disclosure
##world
doubling
regardless
##mingham
settle
feltheimer
strengthen
describes
illinois
displayed
fortunate
gmc
katie
rhet
recipe
bullish
eliminated
substantially
enhancements
incorporate
indicate
hammered
birmingham
climb
insurrection
graduate
sustainable
praised
occurred
weinstein
privilege
curiositystream
outdated
reboot
suzanne
galaxy
beijing
commscope
aqu
bb
bang
cel
ding
eis
ease
floyd
iab
jeopard
kr
lived
lomb
mm
mant
py
ped
pam
peng
rud
rook
##rise
##each
##db
##dom
##fall
##ae
##aper
##awn
##liest
##matic
##xon
##30
##enet
inked
##itous
##lem
##isine
##aming
##amedia
foref
isol
bee
chern
##chain
atop
suits
orts
prin
alert
##ighth
##usters
##umes
teacher
##ection
##ectives
disconnect
allison
interstit
unkn
accol
##ureen
resign
intends
agrees
brav
arth
arms
reco
##herland
hadn
decides
betty
##sports
impeach
##ibal
anybody
develops
relate
relax
accessed
mck
promising
remo
121
terror
depends
dawn
supportive
115
instruct
defi
dishlatino
##ucus
135
##amai
eli
packed
equation
relev
ered
erings
olds
holy
integrity
existence
blockchain
robin
bidders
uniform
sne
##bean
suggestion
burd
recognizing
schedules
effectiveness
picks
optimism
contributing
contribution
gigabytes
dolans
destruct
interfaces
1970s
dreams
adjac
reveals
behaviors
applying
##ricks
surprising
clarify
cuisine
anthology
sophist
efficiently
adopting
bullet
migration
exploits
frequency
affecting
lamb
chronicles
scrut
akamai
banner
certification
gonna
coaxial
pocket
lmn
megahertz
hacks
restructuring
conglomerates
encompassing
censorship
allegations
delighted
ubiqu
understood
hotspots
rebuild
klein
reiterated
coveted
douglas
unknown
bc
berg
gop
han
hood
ios
lon
nc
pent
pill
patt
rt
sib
sits
tar
wik
##eb
##sons
##zone
##bank
##gling
##26
thin
thres
##atv
##ompet
##etown
##isms
react
##abody
chances
chunk
withd
##che
shir
sue
##anded
examp
adams
frat
alive
##emark
disease
viz
outs
##ounced
intrig
agents
bride
laf
permission
providence
fired
string
##aving
owning
fiance
reliance
wanting
donna
column
129
schem
talents
courage
losers
apoc
trademark
##efe
drivers
145
##ahan
discret
175
peabody
receives
160
##mining
filmed
languages
organic
listen
certainty
excite
benefi
##shot
environments
casual
shoes
pacts
prepares
achieving
failing
inspiring
activist
automation
preventing
nascent
consolidated
implementing
watermark
catalog
shutdown
venue
outlined
inclusive
homeland
silverman
lengthy
acceptable
aggregate
forecasts
conditional
jamison
complementary
exhibition
teaching
##monds
bolst
exceeded
russia
barrier
construction
enthusiasts
exploitation
dimens
padres
odds
nevada
embark
subsequent
laptops
creek
hendricks
newscasts
benchmark
milestone
entitled
magnolia
arnold
unexpected
forefront
chernin
arthur
examples
aid
census
dust
danny
ero
ether
fnd
feld
fishing
gift
hid
hiv
jorge
kitch
liv
mount
mets
npr
rup
##rors
##via
##life
##uer
##ht
##kind
##79
threw
##lli
##ige
##ador
##urate
##ayette
##oto
chose
ante
suited
##osa
spanning
newhouse
ali
alter
alfred
##akis
##iah
abr
commem
leon
##sement
liqu
ample
ally
offi
intervent
vip
unint
##pting
##ineas
accident
outperform
gov
##kee
intend
clin
braz
explicit
scar
roots
noah
deck
internally
phineas
whereas
payne
downs
curt
curious
underground
caution
chairs
locally
espnu
afflu
grade
capex
111
myers
##pler
##balls
##ronts
johnny
insist
merged
merrill
calm
harass
1991
financing
corporations
magna
examines
syrac
lists
expectation
drove
applies
impacted
##iker
##ikes
smartphone
##beat
animals
approached
copies
plepler
searching
firmly
battlest
lowered
bald
petitions
jointly
cyrus
enjoys
suddenly
grounds
sentiment
##iscri
sunset
females
sticking
ctia
hunts
televisa
describe
sandvine
troubled
attorneys
cannibal
reinerts
civic
surprisingly
alpha
rocco
retaining
cablecards
completion
filling
arrive
riding
nyc
accepting
migrate
rebranding
surface
communicators
cooler
coordinator
buffalo
ferb
compliance
praise
assumed
barton
lori
scenarios
browsers
ratio
cpj
racial
##friend
unnecess
russell
dennis
unreason
gymn
##hardt
nimble
rhetoric
relevance
sophisticated
ethernet
rupaul
commemor
intervention
syracuse
battlestar
reinertson
bids
dt
ett
eighth
fits
fern
fusion
hir
hfc
ib
ire
klob
lane
lucky
nate
nancial
rar
rust
tang
upper
ware
##rence
##eh
##iances
##flo
##fronts
##top
##mod
##mont
##erk
##eria
##erting
##inations
##oning
innings
##oup
##idt
##utter
stell
ital
##igion
proxy
congr
constr
console
ish
##ewise
ches
chapt
##rie
##chron
sham
shadow
##asting
##unct
##uset
ada
pron
plate
##ortion
upst
outcomes
marketed
##berish
cliff
brent
repurch
bases
twin
multn
executing
acron
assault
blamed
phr
cares
carly
107
advertised
##boys
religion
cran
corn
correl
##ociation
poly
poker
mcg
##mson
grass
##uchar
teaming
belong
headline
persons
lawyers
##entially
universities
scripts
insec
entries
totally
redef
redbox
brew
equipped
##screen
##scale
recordings
handled
hardly
barcl
greenberg
sym
purchases
##auf
menu
bows
visibility
identifying
recognizes
thomson
computing
violate
inspirational
enjoying
voters
tapping
kingdom
sara
attempted
sportvision
pitched
##ropic
complexity
bridges
oliv
elimination
bells
qualified
qualcomm
hometown
galact
monetization
gathered
succeeding
cables
##broad
opposite
derby
remembered
bradley
adaptive
admitted
derek
teachers
reliability
cowboys
borrow
baum
locked
climbed
apartment
astros
ignore
evaluating
gibberish
zuckerberg
cantwell
surpassed
accomplishments
##ulsa
honoree
ccia
semif
algorithms
gadget
##rocket
hobbs
bodenheimer
azt
escap
gallery
israel
##azeera
compromise
stuart
snyder
border
macrovision
unanimously
interpret
tinged
shrink
scandal
misleading
luxury
caribbean
rookie
recovery
impeachment
adjacent
lafayette
kitchen
klobuchar
chapters
ctv
duck
dakota
ef
ew
fid
fert
fisher
gav
jes
kc
kab
lans
oan
p2
pew
rally
roman
sig
sieg
tribut
tying
tulsa
vanc
wt
wol
wak
##eas
##fn
##aven
##aire
##ture
##tra
##me
##maker
theor
##enner
##anorm
toss
##ioned
##stage
##ouver
##rec
##real
stabil
rewards
##acrest
prov
isa
##charge
shelf
shots
atmos
##andra
##olic
adapter
adequ
alc
##ocal
compuls
seacrest
moody
dial
byron
enact
amort
viamedia
resur
armed
qubo
##achuset
directs
customize
noise
digits
senators
blame
##flower
undis
grows
backs
cron
caucus
accessing
airings
terrib
affir
grat
dress
paranorm
deliber
greatly
extr
default
editors
25th
keys
discounts
passes
likewise
appearance
ipv
angela
rollouts
210
morph
wax
innovators
marking
symmet
mediaro
bands
projections
benefited
glad
horn
departments
visible
predecess
casting
massachuset
healthcare
artific
burling
administr
huff
pleas
logical
geograph
explos
upgrading
springs
aws
sounding
laying
layoffs
syndic
buddy
eyeballs
pioneering
willingness
grande
divor
showcasing
absence
expression
suffered
preferences
investigations
wrestleman
fitness
utilize
##guide
arbitr
crews
sponsorships
shaping
objectives
wealthtv
hawai
lammers
headsets
elementary
constitu
disappointing
randy
assessment
pledged
evaluate
overlay
audit
kelsey
lobbyist
mistake
inducted
workflow
specifics
patriot
sampling
lumin
disaster
patterns
encryption
survivor
functionality
nondiscri
circumstances
margaret
penguins
burdens
vizio
congrat
semifinal
vancouver
paranormal
mediaroom
massachusetts
wrestlemania
bour
cyn
dancing
eag
escape
ian
jp
jets
ker
loo
mba
mma
rot
rol
sorts
tick
tara
wis
wade
wides
zimmer
##nett
##rain
##iper
##uate
##bian
##icul
##lead
##eta
##llen
##rot
##aman
##aments
##acket
##urry
angry
netherland
fron
alerts
height
heated
mog
molly
dixon
abra
mars
tracy
##ante
butler
amp
##gey
##urel
resist
intensive
ages
arc
##oga
repair
monitors
expon
scann
twent
##ickham
##eks
bets
warning
105
##sson
relies
relied
remot
12th
slim
commissioned
localism
loan
##uggle
modulation
##ressed
183
counting
wraps
##ucks
experiencing
proponents
trium
receiver
swing
clearing
midst
affiliation
classroom
teleno
ordering
pictured
ca645
singing
fallon
fried
economies
symonds
listings
noncom
robot
##ika
responses
closes
essence
burden
burbank
casa
revis
replays
practical
takeover
walls
crossed
voom
enhancing
worthy
pali
subsidize
tournaments
##approp
trained
contrary
anticompet
absor
cooperation
cheaper
substit
impressive
bonnie
jayant
satisfied
obtaining
manufactured
tasks
colleague
countered
mcdonald
daughters
arrival
literacy
sensitive
pipes
ridge
register
aggregated
opposing
acknowledge
fundamentally
emergence
electricity
weighed
danger
randolph
communicating
undersc
coupons
precious
ramos
banned
convenience
filmmaker
entrepreneurial
restaurants
dirty
conglomerate
prolifer
subsequently
axs
wyoming
advertisements
sequel
favored
fledgling
distinguish
steadily
stranger
pallone
revamped
facilitate
zombie
appetite
boucher
thorough
rgb
indianapolis
robbins
dingell
fratern
apocaly
brazil
gymnast
cranston
barclays
netherlands
abraham
telenovel
anticompetitive
3g
8k
bak
biz
biling
cine
crist
cstv
dive
dil
eating
finger
gates
hence
hitch
hsi
jugger
jazeera
kh
kam
kodi
mim
mack
nip
nik
pond
pays
patch
rab
tends
ug
ucl
vow
##say
##found
##fiction
##cut
##zes
##zub
##pes
##prim
##pread
##xi
##just
##35
##97
##erie
##erves
##inter
##esa
##eding
inapprop
ofering
##lett
##etically
##isse
##rog
##amo
forged
stumped
whist
##ura
##uration
##urring
proc
bears
##irk
asc
chem
chap
ana
shipping
dell
##thon
##ando
##osi
spac
##ols
##oli
newport
##ppers
##uda
diagn
##peri
marci
uphold
interoper
accomm
mediaflo
viewpoint
##keep
presidents
intens
intels
brut
##quest
laud
overcome
##ogether
bass
exped
scram
joked
sheets
deciding
whenever
##aved
boat
groupm
##association
blind
##ological
##encer
helm
invas
annie
undefe
seasonal
downturn
curve
knicks
delays
##othy
causing
dayton
flu
flurry
officers
valid
110
strategically
##platform
debra
legally
extends
edwards
eddie
buildout
##holder
lawful
lawrence
apiece
severance
134
##alegu
carries
llp
asks
steam
stored
1990
farrell
colleen
config
ca642
fallen
landmark
restored
nonfiction
commercially
credential
##auer
reneg
altogether
honoring
comparison
considerably
authorities
logan
battling
paula
resource
optimized
##naut
mandal
gamers
gambling
peters
professionally
mccumber
franken
mental
##health
saralegu
perspectives
pilg
perfectly
demonstrates
1979
tween
paired
showcases
hyper
consolidate
caroline
towns
conventional
moderation
sonic
satisfy
reclaim
falco
academic
dubuc
tremendously
manny
converged
duo
criticized
converters
joshua
appreciation
obligation
voluntarily
struggled
dissent
vmvpds
gonz
soror
evidently
skewed
fragmented
laptop
imperative
skipper
sesame
icons
schmidt
uniquely
warriors
victims
midsized
foresee
bubble
prestigious
##bourne
inevitable
holmes
sneak
threshold
discretion
hidden
phrase
insecure
symbol
baumgart
p2p
atmosphere
compulsory
hawaii
looph
widespread
triumph
bilingual
juggernaut
inappropriate
accommod
intelsat
undefeated
saralegui
bite
bible
bump
bounce
cth
cake
csi
dl
fve
faw
hl
jv
jet
jenc
jacqu
kal
leo
leno
mall
mine
moca
ot
sizable
xperi
##oa
##yard
##rine
##rets
##ielle
##fm
##can
##tn
##tel
##low
##lack
##lock
##bly
##wall
##waves
##onent
##onge
##atar
##orah
toll
inner
inches
##omy
##stock
##oul
##rella
##advant
reign
##irst
weap
anc
##ima
##ulative
surew
sponge
##ocs
compare
sexy
plum
notified
outp
partial
##oding
resili
agile
branch
##ifc
quint
scifi
##icked
noon
lasted
##plex
dealer
subscribed
genu
boyle
assur
assign
secular
blake
technically
themes
retool
https
invite
invited
starks
salv
knights
reluct
needle
specs
spell
colin
124
grac
305
116
satellites
simon
runner
billboards
estrella
buildings
promotes
minne
wrap
severe
137
plane
trivia
competitions
harlem
turf
swamp
raiders
handles
varied
colleges
concerning
212
designers
richer
riches
breakout
approaching
##rupted
##header
policymakers
1989
interviewed
crave
effectv
##erta
travels
pete
contributor
determining
fails
inspire
##itzer
licensees
consisting
reflecting
449
##paid
tweeted
linked
louisville
suffer
misinformation
impressed
ordinary
stanford
festivals
reforms
##porary
lucrative
outlining
juan
lesbian
vastly
counterparts
ipads
minimal
pipe
burns
avoided
converting
prohibition
mrs
temple
harrison
constitutional
ceremon
##burne
witnesses
bailey
slew
rfd
ignored
shedding
sustained
reclassify
institutions
shocked
braxton
shawn
quadrennial
culmin
tallied
jacobson
gabri
contemporary
cedar
comprised
concurrent
overwhelming
refresh
supervis
renovation
enforcing
desperate
celtics
mantra
ubiquitous
intriguing
liquid
baldwin
unnecessary
hirsch
adapted
upstart
galactica
##broadband
azteca
jesus
sigma
artificial
ucla
##zuban
whistle
cthra
jenckes
surewest
minneapolis
ay
ale
aide
bend
bsky
cri
cia
carter
ds
dm
eros
fy
grim
hint
hung
jaz
lect
lens
loop
lloyd
mn
pic
pose
pund
rend
rbc
sight
sie
till
tatt
tucker
vas
wong
##ni
##rd
##vard
##drop
##father
##cial
##lar
##ull
##zer
##pay
##ports
##piece
##40
##93
##inburne
theft
theplatform
##oned
##esy
##around
topping
inn
##icing
##llon
##aser
##rod
forg
##uth
stays
##igm
##abase
chin
chel
chest
chile
chick
##ulations
##mentioned
spain
spik
spawn
frances
alice
alumn
##ivate
haul
plot
plaza
##orementioned
dip
##emer
##emol
##emoth
disadvant
lex
cole
amanda
##gee
considers
contentious
##ords
##quared
lajo
laurel
recy
scan
joanna
preference
strides
aforementioned
assert
nowhere
##ango
103
195
maver
maureen
nationalassociation
nbcsn
backdrop
entertained
crunch
accessibility
realities
endemol
donated
desired
poses
grail
slots
secondary
drum
parsons
##plus
deborah
finch
followers
counted
billed
researchers
janice
webin
musk
muscle
successor
successes
132
imdb
##aha
interactions
swinburne
165
performer
rapper
steep
behemoth
nearby
optical
pressures
240
buyout
superstar
larsen
examine
270
goldberg
##itories
surely
properly
authorization
bowling
visited
natal
celebrates
burk
males
urg
1985
murders
solic
rounding
installing
installations
downloading
gamble
##icole
houses
awa
traveling
middleware
##worth
splits
sunflower
doubles
skype
hurd
hunger
hungry
transformed
hyp
hype
##boro
attendant
digitally
catching
myster
satisfying
cullen
theatricals
maryland
behavioral
buck
bonding
sorted
omaha
fundamentals
objective
hawley
relying
controversy
tentatively
reversed
experimenting
enthusiastic
concentrated
bethpage
australian
browser
braun
yellowstone
royalty
nevins
##rock
resonate
overbuilder
frozen
erik
##elihood
frustration
database
plaint
prevail
concepts
##track
dismissed
bennett
toyota
lgbtq
pdf
endeavor
##repres
fundraising
interstitials
watermarking
dimensional
abrams
unintended
affluent
unreasonable
acronym
carlyle
tribute
predecessor
luminaries
invasion
bskyb
lajoie
02
4g
aided
batch
bits
bode
cic
dw
dumb
dna
duty
denson
dzuban
fictional
gerry
hide
ira
jum
kin
kud
kings
mere
np
nol
nations
ninth
nicole
pump
rail
rib
ust
uhd
viv
vick
wings
wbd
##eem
##fr
##aic
##apped
##lag
##zn
##zed
##zione
##hous
##pu
##gins
##ji
##jam
thrown
thumb
##atus
##enish
##edict
##icial
##leen
##lear
##rex
##isons
##ashing
##ecd
##adena
procl
conan
##ewor
beers
##chin
##child
saved
sherman
##imp
##ctv
##usc
fray
alco
haug
haunted
hem
heller
hefty
moines
##ffer
trucks
notch
cog
coleman
##sea
lib
butter
unions
uncon
unpar
##berman
##apore
inters
footh
ours
##hero
##ogue
fires
htm
afl
beck
consuming
##atched
secrets
blended
justified
retiring
##raft
downgr
delaware
crush
caut
caption
realistic
advers
colomb
tales
respected
11th
belo
poles
lotus
edg
edgy
comedians
federation
webisod
naming
regulator
##ahl
merging
completing
harsh
peace
##etta
swed
rae
likelihood
erick
singapore
economically
##under
264
representation
declared
deadliest
sugar
##shlag
streak
matched
castle
identification
separation
1982
figured
pickle
strive
sciences
##iciently
doubleheader
letterman
encourages
wideband
threatened
parental
squad
boosting
mindset
simpson
consistency
inflation
activated
answered
tougher
##appy
destinations
domestically
1972
degrees
##blaz
transformative
divest
showcased
absent
strengths
widget
wideop
territories
teenage
bridget
jesse
welter
stanzione
anticipation
##abyte
imagined
tickets
lindsay
tasked
abbas
geared
synchron
prohibit
doctrine
coordinated
graduating
reclassification
methods
publications
polls
hospitality
narrowly
correctly
deregulation
ambass
punish
mechanism
meyers
##writer
israeli
binding
inherent
whitaker
precedent
boomers
uptake
##alleled
decrease
temper
reorganization
continuously
fascinating
deutsche
smackdown
pulse
kardashians
residuals
mavtv
wizards
mcgrath
withdra
excitement
bolstered
harassment
bellsouth
lansing
wakshlag
ipv6
roland
fronts
mogul
ugly
credentials
baumgartner
mysterious
alcohol
unparalleled
foothold
wideopen
aub
boo
bark
bias
bickham
cites
catherine
dy
dash
fd
furn
fiction
gure
gif
hs
hut
hoo
iot
js
len
lan
mans
mend
maps
mpa
mouth
ner
od
powers
qwest
ric
ras
roo
rational
roth
riley
tid
vue
vary
vint
wj
wise
wisd
xfi
zach
zieg
##rone
##rett
##ses
##ieth
##cia
##cord
##cock
##aa
##tle
##uels
##zin
##haw
##pn
##with
##wich
##koff
##ju
##48
##95
theg
##onica
##orr
##esc
##iture
##icide
##lean
##asat
ong
stitch
##illas
##igrou
##oting
##ewood
##essa
dear
##agger
##osis
oral
##ivec
sebb
##ichaux
trillion
disconn
amass
upset
viable
vikings
preserving
##endan
go90
partially
mediavest
##apa
brendan
induction
##ifications
##quel
##ileen
##istically
peru
recre
baseline
megan
sheer
decency
##irez
##artered
weekends
assure
carat
102
104
193
continent
smok
starcom
##bob
backhaul
knorr
underpin
hdmi
endors
ava
avatar
attending
promin
affair
issuing
guer
engle
drm
drake
ops
parad
surger
154
defending
jana
timothy
##ysh
specialized
##gestion
img
##ahy
interaction
redes
storyline
passive
releasing
virus
varies
processor
maine
mtv2
criteria
multiples
sundanc
portra
mature
soup
lands
testified
tyson
patient
patience
goldstein
shortage
##auge
refers
comparisons
robichaux
thursdays
##shine
danielle
condista
bowen
burst
accountable
roundt
explan
paced
garcia
determination
threatens
325
frankel
slingbox
dolby
activation
championships
cmg
mails
tunnel
arrested
prevented
advocated
nasa
advisors
pilots
advancement
headquartered
protocols
umbre
emphasizing
supplies
850
561
citigrou
investigative
revealing
provisioning
fashioned
gearing
efficiencies
routers
derived
kenny
previews
kimmel
sweeping
coordinating
infringing
ramirez
guarantees
snowboard
canceled
lifted
convenient
assuming
discovering
ashley
distinction
mutual
monopol
claire
preschlack
portrayal
meyer
##elecom
quietly
procedural
router
vetting
cruz
nbmedia
pepsi
comprising
##archy
dpi
stunts
mckinney
ladies
tiger
reimag
crawford
accompanied
hiatus
spearhead
##points
discourage
merchandise
gravity
##gramming
surveys
scrutiny
scheme
siegel
amortization
burdensome
exponentially
fraternity
pilgrim
sorority
loophole
hln
spongebob
erosion
chelsea
ustelecom
afliate
captioning
welterweight
vintage
wisdom
sebbag
citigroup
975
aur
cim
cach
cass
cros
dug
egreg
fake
fitt
fath
fury
ger
gand
gail
hag
hust
hod
hikes
kant
kemp
lent
lending
mw
mx
mundo
oz
pon
poo
punk
td
tm
tast
tear
tube
tbn
vmas
wb
yo
zal
zig
##rg
##vas
##sico
##dp
##dling
##far
##aver
##lies
##lauf
##mon
##zmi
##hu
##horn
##post
##will
##wau
##kt
##65
##82
##47
##inct
##ateral
##atural
##orp
##alch
##icism
oft
##stuff
##lemm
##isch
##ece
forest
##utory
stal
stif
stup
##illo
whis
reid
##acular
##urp
##urer
cher
chill
chats
chasing
##rier
anat
anger
shak
shah
defer
##thetic
sezmi
mogo
dilemm
commons
##emand
lease
cofound
liate
upfronts
viasat
unity
uncom
arpu
##istry
lazar
monroe
exposed
quipped
meerk
##icking
pregn
strick
buch
decis
dealers
betsy
##spot
blast
throughput
reth
downward
relatable
capped
##ieri
airwaves
endor
premise
deserves
##closed
117
myri
loving
##enny
belt
idah
editing
charity
minn
pave
informative
timely
146
149
personnel
michalch
173
breed
nielsens
seller
mete
harbor
turkey
swap
cnet
skip
governor
governors
embar
hardest
blackouts
potato
turnaround
pressed
ipo
ipg
spectacular
ceiling
hollow
ca6433
barely
barnes
barcel
panthers
superst
patric
restoring
28th
blocked
designated
rankings
265
refin
altitude
310
independence
capitals
pushes
visiting
quicker
natpe
introduct
introduces
foods
badly
hotels
1986
caserta
staffer
holes
statutory
fancast
balancing
contracted
voiced
archer
milwau
extremism
wondered
draws
laybourne
characterized
stops
prevention
lacked
interfere
predictions
browns
repeal
actresses
pairing
captain
sufficiently
##ova
affordability
##gregor
cannon
fortune
collaborative
clarke
hundt
qualify
cuomo
safegu
rhode
disappear
1960s
gaug
appropri
burning
indicating
intelligent
prohibits
##buquer
mooney
limitations
cowboy
convince
blevision
browse
mull
manufacturer
fleeting
sacrif
authenticity
psycho
sharply
crystal
carlos
inquiries
constructive
sdv
deregul
kelley
treasury
quadrature
recruit
desktop
exclude
kristin
boundaries
baghd
tutv
staples
amplitude
chamber
chambers
steinlauf
pepsico
excessive
abandoned
zoom
plunge
kathleen
reinstate
lombardo
resignation
dtas
ireland
constrain
undisclosed
constituents
twentieth
remotely
accommodate
pundits
spiked
natalie
wideopenwest
thegrio
##yshyn
explanation
aurora
egregious
mogollon
cofounder
idaho
michalchyshyn
##buquerque
911
akin
bh
bot
bog
cb
cus
cath
cials
dga
dillon
fate
fick
fbi
greens
habit
jake
lod
lena
lrg
nog
ota
pony
qams
rs
rie
rita
tire
taco
vag
vud
vivo
wach
ye
##nbc
##nik
##rome
##vals
##ii
##fam
##live
##mast
##mine
##mire
##zie
##busters
##good
##wes
##wan
##wal
##700
##inely
##oner
##atz
##orian
##esch
##eney
##anth
tomm
toler
toby
inac
inability
##icia
##stri
##lee
##oub
forge
stol
##igence
##igian
whip
reauthor
##aci
##accar
cha
withhold
wear
anecd
shud
##imedia
deft
suisse
##agic
exibility
spart
netted
albuquerque
##cci
heyn
heaven
##arton
##aks
contour
marin
yearly
discont
legey
alliances
upton
upheld
unch
unpr
##pte
neb
nebr
medic
reserve
##apse
clues
breth
brenner
fost
overd
recap
feas
replic
reposition
scra
scoring
devast
execution
acted
distract
impacts
##inda
asserted
phases
justices
10g
108
1080
##mercial
herb
playback
continually
smpte
undercover
delta
##onsc
avg
attwell
donations
flaw
quarterback
dazn
issa
slice
slide
drill
experim
##aznick
##enne
151
goodby
amongst
estr
autism
##efan
##aleigh
opener
forming
insisted
elaine
comeback
sharon
179
totaling
metal
handing
liked
likened
emil
placements
fared
oldest
classics
classified
retransm
centerpiece
ca649
innovate
maggie
supplying
237
organize
diversified
##otten
encoun
overseen
refusal
deadwood
sanct
smartmatic
participated
emma
imminent
favoring
hillary
burger
reviewing
reviewed
accounted
attraction
camcord
craf
necessity
holanda
collier
statute
strip
striking
dominion
706
packet
walked
gambit
balanced
802
roads
cycling
violations
thoughtful
samuels
390
berman
destroy
sopa
candy
piligian
consultancy
demonstrating
1975
tweens
supino
survived
47200
influences
lifestyles
erica
troubling
explains
affords
surprises
moderate
moderated
codify
rockets
homework
printed
accelerating
structural
tackles
bulls
succeeded
neighb
bonds
gregory
adopters
swimming
adapters
draftkings
spreading
briefing
weighing
kaiser
vacc
absolute
baton
bryant
neighborhoods
shipments
bearing
assessing
certified
astound
oculus
institutional
leveraged
discovered
truckers
paleyfest
trophy
concentration
gilligan
sidelines
tandem
psas
##onymous
##continent
elder
kirk
throwing
fulfillment
patriots
unnamed
grammy
nuts
rumors
distinguished
anonymous
disparate
hogan
overturned
crafted
skeptical
newcomers
puppy
duplicative
bunim
wikimedia
huntsville
warehouse
bourkoff
noncommercial
gymnastics
telenovela
interoperability
##keepers
gabriel
jazz
cogeco
portrait
umbrella
zalaznick
anatomy
meerkat
meteor
patricia
fickle
tireless
vudu
##western
anecdot
shudder
legeyt
nebraska
brethren
bm
bone
bath
c3
cun
cient
dal
doo
eileen
fg
flying
fwa
gur
gore
gauge
hew
hug
ja
jaws
kron
lime
lang
luch
mch
ns
nad
por
pug
rome
rings
rug
sion
tud
tong
tighter
upping
vy
vdc
vocal
wc
wab
wies
wink
##oio
##news
##natural
##yl
##yon
##ype
##06
##rich
##sity
##dar
##dog
##fa
##aad
##apping
##ls
##met
##mother
##zel
##bay
##bus
##hill
##kia
##kirk
##31
thun
##instein
##onom
##eday
##anan
##idable
##ecl
##amy
##amer
ster
stacey
wharton
reass
##ackets
proving
congestion
##ithe
##iromo
cheng
weird
anarchy
sap
sail
shy
shat
##unting
dee
##andos
excer
spade
spends
spoof
spencer
frames
albe
seal
seating
moz
205
203
##grap
tvg
tvguide
incoming
diaz
##umen
bypass
envel
##ffler
trace
trending
levi
copp
uplif
##ptic
outr
partisan
reservation
intact
##ifah
##istics
canal
canyon
sof
manc
wholly
joan
shep
struggle
somehow
bucc
devil
nokia
##ailable
afli
##available
topical
acumen
boone
boasts
regards
technique
wwl
accordingly
fier
playbook
maher
whereby
smarter
competes
backyard
underest
relay
##otham
causes
coron
aval
mcel
prompt
espnews
##elled
cola
nextgen
desus
122
schl
depreci
articles
latifah
drain
experian
myprim
loos
debmar
legends
fines
instantly
158
185
##atti
paige
##sonian
janet
139
144
elabor
proponent
profound
meters
movements
norris
##prints
factored
hardwick
lesson
everest
varsity
augment
classify
confusing
ca648
ca6415
argent
magical
superhero
supernatural
patients
220
restrain
noneth
260
##tedly
compares
rises
personalization
conde
glitches
naturally
educating
favorites
nominate
panelist
malcol
madd
philo
couch
casino
shoppers
smithsonian
365
collapse
staten
westchester
lighted
gambell
individually
peterson
circulated
cyma
threaten
slowed
sentence
mls
palin
lawsuits
sarandos
fixing
faul
crimes
navy
rosenbl
##eryl
captured
richardson
2000s
penny
jungle
touched
orduna
reinforce
anticipates
cellphone
irving
##rigan
translated
translating
megabit
concludes
spotlighting
yankee
delaying
references
loads
photograph
duop
duke
routing
confidential
forecasting
graphic
hersh
opinions
random
bolster
masn
tori
##lynn
accepts
concede
reminding
functioning
instituted
##bledon
bartiromo
cosby
wimbledon
assemble
crackle
empowering
gatekeepers
lightsquared
nicely
cornerstone
nuv
sitcoms
podcasts
ispot
echoing
echoed
dimin
exploration
discounting
gadgets
griffith
calculated
motivated
riot
specifications
soapnet
differentiated
btig
defendants
kraft
defeat
screaming
immigrants
stretching
accolades
bridez
curtis
olivia
scannell
cristina
hitchcock
renegoti
fawaz
chicken
hurdles
colombia
pickleball
dylan
ziegfeld
kantar
dilemma
myriad
milwaukee
deregulatory
rielly
tommy
unpredict
1080p
wabc
wieser
albeit
##grapher
uplifting
depreciation
myprimetime
nonetheless
gambelli
rosenblum
bent
bab
bans
biting
bomb
ci
cot
dj
dic
daly
fing
frem
gree
gps
hong
hedge
ivi
kot
kmart
lud
mock
meld
malf
nort
nition
necast
piz
pey
pink
pasc
paved
qurate
rivers
rca
sed
sut
tiff
waves
wicker
yv
##rays
##don
##iar
##fish
##from
##count
##aus
##tte
##len
##late
##lash
##mans
##mott
##born
##hed
##hot
##91
##atures
##ori
##esis
##ede
##ares
##ario
##anow
ofer
##oulah
##ethe
##lland
##iski
##idd
##asi
comics
##amic
stam
starg
##acre
##uries
##aya
##ewide
##irus
##irky
chew
##term
weber
angle
##astro
##essner
deem
##ulous
##ulates
spill
spiel
##olor
cablevi
##ception
fring
fruit
pray
alj
##estview
compos
##ichael
hevc
contains
abund
abusive
teeth
mario
enl
commod
amd
telep
##berger
usfl
##onged
brun
brink
indo
arise
overr
overhaul
quirky
whopping
directions
##manus
veronica
##sport
impair
subscribing
boenish
prizes
##isha
streamlined
blues
##ocks
109
##ologist
192
invis
##itta
knee
knox
##weigh
eventual
crestview
accessories
daypart
dayparts
mcmanus
##ella
##ellers
advising
flux
127
schne
depic
##phis
lifting
latv
starters
capric
parl
303
memphis
loans
debates
debbie
shoulder
finishing
##eee
instru
instinct
184
18th
defect
boxee
##rising
apolog
timber
approving
ca60
insane
entice
purvey
pope
evac
harvard
peek
receivers
##etti
161
steer
errors
factoring
blacked
blackwell
lesser
viral
pressing
standardize
critically
governmental
portrays
215
ca6460
ca6456
argyle
singled
bars
barnett
screenings
supporter
forwarding
examining
280
##oked
reads
readers
credible
designing
reno
deadlines
robina
judging
snoop
breakdown
##show
dane
sponsoring
participant
atlantis
bowman
alma
geek
453
celebrated
selections
selectively
millen
solved
collision
statewide
multiroom
silence
silva
lightning
laser
booker
renewing
garrett
preparation
commonplace
dispos
cycles
signaling
girlfriend
554
320
levine
humanity
principally
dolph
activists
granting
##worthy
cmo
hamm
hamper
hamilton
thrilling
percentages
eyeing
difficulties
prevents
treating
##after
rebuff
settings
pitches
##bursement
achievements
dynamics
captures
minorities
supers
wildly
anchors
ericsson
complexities
stewards
cater
##kinson
olsen
cesar
translates
victor
conclude
investigating
anthem
attribute
contacted
melinda
broker
manning
arrives
millennium
amendments
ridicul
converted
prohibited
multimillion
migrating
miguel
drafted
suspension
montreal
vanessa
cleaning
wealthy
randall
surfaced
forums
chronicling
narr
alleging
navigating
lyd
ferro
muoio
darren
compliant
graduated
lieu
astron
accurately
romantic
prioritize
carlson
hanging
indecent
permitted
ruby
ripe
weiner
volunteers
dirt
skewing
hobby
jacobs
moloney
##leston
mechanisms
escal
therap
phillies
layer3
allegedly
tammy
buttons
occupied
rumored
quantum
ingred
uptick
presumably
pasadena
oakland
rehr
skepticism
reimbursement
reunion
reelzchannel
zeal
arkansas
breath
luther
abdoulah
technicolor
thrott
python
destructive
bergman
sibling
benchmarks
stellar
cablesystem
ewtn
fertitta
affirm
explosion
ceremonies
mnf
mavericks
burkhardt
plaintiff
englewood
surgery
tastes
stupid
whisper
lazarus
barcelona
gauged
noggin
yeah
heynen
discontin
excerpt
malcolm
bridezillas
necastro
pizza
peyton
stargate
abundance
instruments
ailes
bust
bones
bitter
binary
coc
coca
dict
dale
dsg
eure
ecl
fgh
gann
gina
h2
hig
hij
io
jury
kur
kia
kilar
lying
lively
mint
mouse
moth
nect
nuc
oden
pess
ports
panc
pee
porter
rio
rash
render
rizz
raleigh
sg
tp
tion
tally
tension
tipping
uh
vul
vest
wrec
yard
yards
##05
##des
##dale
##iott
##fers
##cials
##aels
##trol
##lit
##lake
##bec
##bury
##hire
##hee
##66
##81
##44
##anag
##anza
toes
invid
inception
##itating
ofcer
##sted
##stown
##step
##stra
##isely
##rold
##ecraft
combs
stear
stela
##illary
##igl
##acor
##acus
proactive
asche
chec
chiller
##ria
anime
saints
shan
shall
##astically
##essler
deaf
##thia
exter
##osaur
spence
spook
##eard
fraction
##ocation
comprise
sein
seas
haves
heap
207
incomp
##udes
dietz
abroad
##emin
##ector
nots
disab
leahy
liz
##anta
##arding
amended
allbl
offs
##itional
unify
unavailable
##ghorn
##forward
accent
telegraph
##iello
viewpoints
##keys
##odies
##izations
##apso
intim
intuit
clas
canelo
perl
reck
recuse
manchester
exposing
quinn
roi
joke
newsday
shea
strain
strange
stranded
htc
digging
##airie
##ails
##avirus
distro
demench
gene
##atches
assured
##ishes
ifilm
##ibda
blair
blunt
carn
carson
##itty
entertainer
cave
polled
specify
specifi
airport
chairmen
mclean
donov
colors
remed
flock
depri
guit
guided
slash
lifet
lately
connors
parrot
##upo
loose
##tele
153
157
15th
defended
countless
knowingly
minus
wrang
paxton
informing
256
formation
14th
hearts
empathy
imus
entren
elusive
octagon
mero
packaged
michele
michaels
shari
futa
totaled
musician
meter
harold
harness
holder
performs
cleared
storer
empt
emulate
eru
factual
titans
broadcastingcable
249
roller
hole
motors
buybacks
possess
infusion
muster
barring
liberal
markup
examination
employed
ideally
222
limiting
restart
overseas
moms
excel
##anche
improper
richmond
politically
##shire
glend
emmit
culturally
transitioning
451
singleton
separated
chooses
mickey
replied
collar
optimization
##strom
ows
domino
dominican
volumes
packets
rocks
gamco
garage
mccon
archives
widevine
threatening
progression
awes
fearless
##zzy
soundtrack
suns
sunlight
sunshine
tuner
budill
confirming
rebound
rebroad
prediction
browne
repeats
1976
copyrighted
banse
swept
dedication
dynamically
guiding
##ecker
650
ballard
##folk
suffering
dogg
taped
impression
icontrol
touches
stankey
fortunately
codes
lucy
highlighting
qualities
attribution
reclamation
remarkably
rhapso
cinemanow
723
enhancement
photographer
##fox
synacor
##brook
acceptance
spinoffs
aggregator
bloods
cleaner
grossman
doctors
luke
stadiumvision
conservation
transactional
precisely
permanently
lyrics
banners
avenues
##warf
loren
assembled
hayes
hayden
nurt
##evo
overlook
gillman
##roads
discriminate
discriminated
disagreed
spurring
temporarily
gibson
privileged
theresa
knocking
conviction
outputs
pelosi
espn360
gleason
steadfast
refreshing
jerrold
medalist
puzzle
##logic
penalties
swiftly
newcomer
makeover
stealing
unhappy
korea
korean
technician
interruptions
interconnection
quotable
persuade
mckay
terrorist
patterson
fernandez
ibm
gavin
kabel
isaac
alcat
pleasure
cynthia
eagle
bakish
vowed
jacqueline
ancillary
##ifcation
tattoo
disadvantage
iraq
ambassador
hsd
endorsed
buchanan
reauthorization
spartacus
fostering
tudors
afliates
coronavirus
unpredictable
spielberg
odenkirk
invidi
stearns
ascheim
allblk
demenchuk
donovan
entrenched
rebroadcast
720
bom
brist
cind
cpe
cats
crop
csg
dab
dct
dens
dmas
fought
gor
gessner
hath
hints
hires
iphones
jc
joc
khan
lec
lil
mate
mdu
miley
nw
ned
nair
nxt
nina
nfc
ost
olin
pb
pagan
papers
rb
rams
rift
sx
sends
tink
tabs
tires
vett
wals
wony
w18
witches
yaccar
##olly
##yo
##rero
##ih
##iak
##fits
##cal
##crest
##ahn
##aways
##bard
##hand
##power
##press
##path
##wo
##water
##kite
##84
##71
##aton
toe
##itas
##icion
##stration
##etable
##entv
##isy
##isp
##idi
forem
forging
forecl
##uten
stel
stability
italy
##iguous
##adam
##adows
reaff
##uristic
##urches
##otts
isi
beverage
chan
chop
chead
cheryl
##chat
shook
##imbo
exh
spice
oracle
adren
##cee
##ilty
framed
seats
hef
moh
mood
208
204
tvision
mari
commend
##embers
coven
##rous
amate
programing
upward
interst
interch
unsp
unauthor
##endo
##geoning
##oping
##berry
consists
intr
clout
cluster
clutter
indication
##ifif
arab
##quis
##venmire
lav
recurring
feud
##mph
repack
basics
monumental
screw
scutt
twenty
rooted
multib
newsy
preem
pregame
thereafter
##eka
strat
strict
highs
highway
##ostic
##avel
##issible
industri
warrant
reginal
regimes
blan
blend
blitz
##licity
distributes
worries
wellness
undoub
stark
starrer
salaries
##cery
ca4
signage
povenmire
specter
airy
airline
##ancers
endless
attitude
homepage
colon
remembers
transit
daw
feather
##bravo
grupo
guilty
connolly
publication
drunk
opentv
paralle
diddy
309
memories
instances
persist
costa
simps
dishes
billboard
minist
episodic
severely
webb
133
courtesy
specialist
approvals
inserted
141
143
##aham
entropic
changer
competitiveness
redzone
176
equality
obst
objected
swath
steel
steered
skating
emi
facto
cutter
ca6428
singers
barbie
greenlit
supplant
fries
273
refusing
terminal
independents
snapped
politicians
pageant
60s
605
modeling
detri
glow
eleven
bowed
denying
455
matching
predomin
weathered
burgeoning
philip
identifies
solar
conversely
shoots
questioned
holt
practically
lightpath
renews
corey
takeo
80s
encouragement
deterior
infrastructures
disputed
georget
safely
squid
voter
grounded
minded
feared
alternate
soundly
demonstration
hampton
thrillers
tuners
pioneered
confirms
organizational
hurl
advisers
ca636
illum
sanders
sandra
sistas
toni
architects
chev
jenny
jenna
elevate
welcom
trailblaz
manuel
alexander
evolutionary
rentals
attributable
manufacturing
structured
bullying
cinematic
woods
woodstock
##rano
assistance
cabler
gaiski
jacksonville
burned
synonymous
ght
ny1
dinosaur
karm
painting
aggregation
prospective
shaped
suspect
suspend
magnitude
storytellers
oscars
grapp
struggles
beachfront
alleges
akimbo
precise
kohl
shopnbc
simulcasts
acknowledges
weakness
attachment
evaluation
emotions
institution
##oyed
daddy
occurring
assembly
empowerment
phenomena
bedrock
enthusiast
shocking
thriving
intentionally
treasurer
spurred
cdma
recruited
recruiting
biased
simplify
fragment
cancell
workshops
phillip
phillips
fascination
mosaic
smoothly
declaring
triggered
rouge
contempl
snapshot
snapchat
btn
pixel
pixels
watchespn
schwartzman
rigas
anonymized
pirates
mckinsey
warrior
deceptive
disciplined
penalty
tigers
granular
cumulative
viggle
spears
fascinated
perpetu
cheerlead
##employ
rewarding
reconn
passwords
bosch
relocated
federally
jeopardy
prince
removal
shirley
columnist
clinics
cautioned
brewing
theoretically
adequately
cronkite
terribly
deliberately
symmetrical
burlington
nondiscrimination
absorb
chemistry
scrambling
spawned
##represented
proclaimed
continental
cimm
dugout
fittv
pregnant
introductory
stolen
flawed
retransmit
mozart
20527
fierce
knoxville
disposal
dictate
eureka
gannett
uhf
vulner
seinfeld
incompas
##television
pagano
wonya
yaccarino
foremost
reaffir
chopra
adrenal
unauthorized
multibillion
undoubtedly
simpsons
georgetown
2nd
ais
agr
aka
bount
bury
bbt
bauer
cation
cage
cial
cott
dot
dry
duff
ebers
fen
fand
fber
gw
goss
hent
hil
hank
ivan
jav
ket
kro
kend
kong
kiss
kline
katherine
lend
loun
lord
lms
lenders
mul
mash
nity
nding
neck
ond
ping
pear
pist
puck
porn
pension
routh
sights
ti
tart
taps
ui
vive
wiring
wires
zoe
##rights
##sler
##fare
##fax
##card
##awe
##tree
##lings
##map
##uke
##har
##hely
##pool
##gerald
##walk
##kner
##2b
##jay
##45
##78
thorn
thirst
##esp
##ndly
##arity
##arhely
##anity
##antha
toml
inou
infer
##omi
##icious
##eto
##etter
##etical
##isel
##ask
##elt
onerous
##americ
##utura
starter
stiff
stym
styles
##iger
##igor
rever
##acaf
##otic
##otive
concess
isles
beast
##irical
ashe
chry
##cha
##chest
anxi
shaz
##asted
##uso
##agr
exiting
spurs
##tsch
frndly
altered
hevey
hello
##aken
##grav
contained
incub
abbe
tea
broch
brooke
##emon
traf
tracey
tragic
notification
leasing
coh
cohn
liza
amber
broadening
interruption
presc
unaff
uncover
##pta
accum
outfit
outweigh
telehealth
##opes
parte
##ryn
reset
aging
bruins
indel
indie
indef
peril
overly
repurp
reprising
expiration
quart
quoted
scat
scoop
twists
joey
##loe
becky
##speed
##inks
demise
productive
assort
asserts
##rowave
##eped
blaz
blends
carm
herman
1956
invitation
playlist
esports
maisel
salem
saluted
seasonality
competed
downside
downplay
curs
watchable
backlash
signups
filter
makeup
speculate
##onsist
mcder
rembrand
fling
schu
schan
terrif
depos
##photo
affinity
sino
gupta
famously
slack
respects
drastically
parity
30th
founders
looming
loesch
surcharge
186
##asha
edit
differing
charities
charleston
promoter
wirelessly
13th
timetable
footing
courtroom
courteney
##llywood
studied
hearn
enters
##jectory
protests
norfolk
turt
sword
162
169
raf
handset
happily
error
gottsch
midcontinent
midterm
potter
authored
remainder
titan
248
mainten
marty
dvb
finalize
angelakis
cease
cutoff
integrates
matured
possibilities
waited
testament
testifying
tykes
greenlight
patrol
employs
285
existed
##oken
radical
regionals
annualized
312
benefiting
judged
considerations
glick
departures
emerges
cultivate
denise
natas
educators
##networks
hillcrest
maddie
selecting
flows
philips
huawe
microwave
logic
replaces
rounded
volat
volley
spoken
feeding
soldier
copyrights
roadmap
clouds
##henney
aspx
aspir
samantha
##kai
requesting
mentions
palmer
subsidized
automotive
splitting
380
cmc
berlin
fixes
skyrocket
lacks
exchang
rebell
1978
etkind
unfold
grandin
darker
influx
anchored
##auts
widening
championed
taping
bridging
juniper
##break
nomi
fortunes
skilled
utter
cookies
lucent
straightforward
incorrect
marvelous
tackling
succeeds
marginal
##iquity
minimize
incorporating
arbitron
photography
pipa
dividends
omar
888
suspended
864
queens
frequent
template
briefs
appreciated
biograph
coupon
coward
hartford
sternberg
tribeca
laughs
accuracy
reclassifying
crying
assumption
methodology
trajectory
coaches
godfather
worrying
tactic
##ippi
brainchild
hospitals
concentrating
##related
auditor
tubular
unfairly
cdn
culinary
restructured
statistical
hudlin
prolific
citizen
duncan
drugs
portrayed
terrestrially
bodies
lobbied
wrapping
gabelli
erika
gutfeld
##friends
distinctive
buttress
declaratory
differentiator
fnc
reyes
gentle
forbes
hindery
allocation
racked
drinking
zoey
injury
weekdays
vicary
plunged
terminated
discipline
cavanag
vigor
telefutura
kathryn
envisioned
scholarships
##smith
##lifetime
merchandising
fitzgerald
unleash
skateboard
eisen
destruction
ncis
italia
italian
pronounce
pronounced
repurchase
correlation
interpretation
shrinking
administrations
geographies
syndicate
revisit
procter
petersburg
foreseeable
supervisor
vasarhely
alumni
webinar
kudos
libby
erickson
mpaa
rooft
prominently
guerrero
spearheaded
ziggo
beltway
constraints
greensboro
vague
wachtel
inacc
medicine
estranged
emilio
sanctuary
lucha
mchale
vyyo
outrage
mcelhenney
maddow
faulkner
duopoly
nuvotv
greek
tiffany
timberlake
evacu
nuclear
rizzoli
exterior
rhapsody
alcatel
hathaway
walsh
cheadle
interchange
industrial
henthorn
lounge
ondemand
inouye
anxiety
shazam
rembrandt
maintenance
tykeson
huawei
cavanagh
vasarhelyi
1st
460
599
675
ah
aly
bum
bored
bicket
biker
cf
cure
cock
dn
d3
dary
dora
esch
fis
ful
fitch
flet
foss
fetv
fetch
gos
gum
gould
gerald
ia
jl
jar
jod
km
kol
lak
ming
mud
mum
nix
oil
pets
rl
ritch
rides
rsg
tide
tcl
tett
tau
tiles
vl
vance
varg
wu
wine
wary
wang
wiley
xl
zen
zillion
##oll
##oons
##ocean
##non
##ypt
##rat
##rates
##vr
##vor
##vil
##voc
##vicker
##ea
##ehan
##su
##dam
##fs
##fk
##fire
##cr
##ck
##cro
##cers
##tan
##takes
##tech
##mic
##mate
##most
##mail
##uh
##uiz
##bul
##bee
##bots
##pal
##pse
##pants
##gage
##watch
##wave
##kr
##kus
##41
##3s
thum
thick
##erb
##iner
##atoga
##oral
##orbit
##enow
##enke
##eded
##anis
##alid
##itiously
##itudes
##ician
##stan
##style
##oust
##ouff
##isure
##rolet
comer
onstage
##amous
forens
revision
##aca
##acp
##acles
##acopia
##urb
##urice
convey
conex
bea
bead
##verning
##iris
churches
##rik
shakes
shane
shadows
##usp
##ulis
sud
suicide
##aga
##agno
exha
##osphere
spt
spat
spree
spider
orchest
fres
complic
comprises
20s
plc
contain
contend
inconsist
diet
tee
teenn
marry
##ffrey
##emies
notices
notewor
notwith
##ourage
leh
leib
lebr
leisure
coving
lily
##anted
amic
allied
interven
whichever
##kett
##ipse
unr
unjust
accord
outtakes
##opic
governing
usc
usher
viewable
##oder
reside
resell
resides
##izer
intx
clich
clint
agn
braves
communacopia
laulis
addiction
perennial
sober
overtime
overla
recoup
scp
scor
scors
roam
multitude
subset
worker
strigl
buena
devote
##colymp
afc
##avors
dealt
##issippi
ack
distort
verge
impart
boz
boon
howell
regis
streamline
industrywide
##verted
blown
blessed
phy
philly
movers
##angel
invests
invalu
invalid
##itti
##itters
seasoned
downtime
knack
underwood
undercut
undermine
underdog
ears
earl
##wealth
ca5
cafe
corners
hds
##onson
realizing
mcavo
mcgregor
##ictions
advise
premature
posed
creed
daisy
affects
famed
paraly
306
valerie
foundational
mylifetime
##plays
surged
leguiz
exto
costner
editions
billie
138
131
clever
specially
electrical
keyboard
entourage
elias
interactivec
merits
subway
redford
discs
tripled
postp
postgame
receptive
sworn
skipping
erence
factory
opting
negotiates
angels
angles
benya
financially
246
mainst
augmented
100th
10016
telesc
hoya
holland
motto
213
definitions
definitively
mornings
ca6417
singles
inflect
infomer
waithe
baron
barred
testify
satire
patr
mighty
organized
223
giveaway
282
facial
lows
lowell
##okes
reader
credibility
shortages
267
refuses
impacting
honey
richards
##ikoff
centralized
judith
bidder
considerable
snack
multiplex
##beam
commenting
commenters
departed
authorize
299
bowick
denies
averages
favorably
legislature
philanth
cartel
##aneers
##aneous
searches
mississippi
solves
figuring
banker
bankers
revive
robertson
optimize
yester
augusta
owes
stripped
unlaw
silos
lightweight
balked
garfield
winding
freer
freel
parkinson
gigabits
mccann
mccall
voye
tiering
sentenced
##fields
wondering
simplicity
##rete
awful
louder
fearing
invented
updating
399
saratoga
330
destiny
visionary
##etha
trevor
hurts
julian
settling
predictable
1971
##blue
##blower
ebb
wildlife
wildblue
strengthened
analyzing
describing
bayer
advancements
tapes
catering
davies
macd
sexually
ruth
islanders
bonanza
collaborate
unsu
savannah
squarepants
579
alexandra
grader
okla
falcon
brokers
obsess
observed
1969
earthlink
egypt
nichol
synthetic
cwa
ethics
omd
prohibiting
apparel
admiration
hawkeye
constitute
disappointment
implies
unveiling
bleeding
villano
spirits
freddie
guaranteed
tentp
masked
torch
torres
psychology
bosses
durant
reminds
reminder
convene
hubbard
rowe
contextual
dissemin
transmit
nicol
amidst
conferencing
halt
discriminatory
kanouff
naacp
matthews
treasure
treasures
sherri
transferred
dutch
fs2
sparking
restructure
seamlessly
klar
klug
ca6463
scaling
ca6406
ligado
gilford
amplify
conflicts
ects
ectively
inherently
stems
procedures
forbear
descriptions
steinberg
nbcolymp
allocated
birds
rejecting
disparity
mythic
occasion
stunned
dependent
pirated
unanimous
fatal
coffee
replaytv
telefilm
undertaking
mitig
mitigation
unheard
kardashian
unleashed
lingo
reinventing
exemplify
aqua
pamela
princess
accolade
removing
instructions
leonard
##rieve
huffington
divorced
resistance
apocalyptic
apocalypse
nikki
marcien
upholding
intensity
lauded
expeditiously
mandalorian
weapons
resilience
genuine
assurances
assignment
reluctant
whistleblower
urgency
nolan
railroad
haugsted
webisodes
hutch
##hawks
sundancetv
roundtable
mundofox
deferred
catholic
vivoom
deftly
recapital
devastating
tongue
envelope
mancini
buccaneers
underestimate
argentina
cotton
malfunction
schneider
necta
perlman
remedies
hefner
reginald
parallel
chevrolet
adrenaline
kroenke
chrysler
quartet
mcdermott
terrifying
rafael
rooftop
fletcher
jodie
tettemer
thumbs
exhaust
teennick
noteworthy
notwithstanding
lebron
covington
invaluable
mcavoy
leguizamo
interactivecorp
nbcolympics
050
3rd
875
874
aew
bs
bess
banc
beng
cig
cip
cite
cian
dign
efor
efort
fm
fiter
ferg
fancy
gan
gou
gest
gulf
gotham
hing
hick
hone
hike
heck
henson
honda
kg
kil
ktv
kress
korn
kelle
lp
lur
lure
licht
mb
mour
mason
nh
ox
rif
ranch
rode
rola
rica
roof
tate
tended
tusc
vander
wan
wound
witch
wcm
yance
zel
##olyn
##nut
##nier
##you
##yth
##rar
##rend
##rance
##eu
##dock
##iens
##cp
##case
##aj
##aid
##aas
##afi
##ahertz
##lins
##lene
##lenet
##uld
##uple
##hear
##ping
##pix
##gro
##girl
##wart
##kowski
##94
thunder
thesis
##onne
##orf
##orph
##orious
##eson
##ndall
##edad
##arad
##aria
toch
tooth
toffler
##ali
inad
##oms
##stop
##stones
##etr
##enthal
##elity
##elight
##elie
##elman
##econom
onscreen
##amara
forty
##uting
static
itaas
whites
rex
reut
regr
revel
##urro
confl
##ewater
beau
##vering
##verent
##verine
asap
chor
cherry
chattan
chilling
weis
weave
##chemy
##ulo
sues
sude
##osito
spam
netrating
##iesta
##oler
##olved
##ears
fren
fran
friction
alum
alarm
alchemy
##ustain
##ocy
##ocon
compounded
##ivating
havoc
moyer
20ht
##grad
plight
##anned
diana
##umer
abide
abound
byr
marvin
enro
##ooga
disability
leed
coord
cops
lip
amen
offline
upscale
unm
unw
unile
unemploy
doocy
outage
outline
##keeper
resh
resem
clink
clause
brick
brighter
bracket
indirect
arrow
addict
perkins
overt
manif
reply
reprise
monsters
moniker
quinc
meghan
rox
roaming
buses
firest
bug
businessweek
digeo
televisions
acac
##reatic
##owned
##owners
dems
genband
boats
booming
boomer
boils
assigned
regs
##iba
##ensen
bless
carolyn
payable
mayans
relent
##othes
fuels
corwin
polling
##ningham
flour
desai
schiff
teran
terence
slipped
slipping
##click
dressed
##fering
##lessly
parr
##anked
courses
mynetwork
strategist
##azine
##plan
surfer
legs
belg
belush
modular
poland
ida
standup
freeing
edie
edged
comedic
mins
researcher
docs
lawson
experiential
johnathan
informal
informational
mush
clemson
footprints
##amax
trades
traditions
##alez
specializing
142
148
147
regulated
empowers
imaging
entrance
campuses
elon
propag
totals
packers
mcnart
competitively
redirect
objects
poster
nora
harper
harrigan
turbon
controller
cn8
happier
##minatory
blackarrow
blackhawks
turnout
24th
classical
colleg
collette
concerted
confab
confess
ipgs
##lander
portions
motives
integrations
buyback
maturing
216
ca6413
40th
fallout
infancy
infamous
waverly
sumner
tyndall
greenville
techs
employer
organically
congressionally
ideals
initiate
studying
estimating
##baum
reasonably
stateside
266
renowned
radar
comparative
beneficial
##ikis
sni
breakup
leary
glut
glaad
commentator
departing
moffet
novels
cultures
educated
massacre
southwestern
rosie
ensuing
creditors
hotly
soledad
logged
logistics
fields
saturated
establishes
lowering
revival
bitgrav
statu
statistic
summers
strikes
dominating
micros
lightly
windstream
wallace
travis
doubleclick
gigantic
gigahertz
mccorm
vox
void
violates
##hammer
videot
parenting
321
aspirational
descend
samba
domain
concacaf
traveled
kingpin
automob
##maurice
splash
layout
berth
berger
berwick
passionately
doubts
tunity
deepen
ranges
rogue
arrest
segmented
428
##valued
##ethear
hurting
exchanged
fueling
1977
banij
376
373
sweethear
##blood
473
raycom
raymond
analyze
bayou
jumping
adjunct
rodeo
rodney
startups
##anaugh
troupe
terrain
bernard
##2020
substance
displaying
643
teenager
oln
floors
expansive
anticipating
ryvicker
unsung
unsustain
appointments
luckey
856
alexa
elliott
concluding
culled
investigates
monetary
utilizing
recipes
1967
exempt
abbey
garnering
cabin
niches
gao
wgae
manageable
adjusting
engagements
sync
labels
coaster
derail
625
wesley
suspense
quebec
deaths
admit
diamondbacks
##bridge
buzzing
luis
surfers
##eworks
scrap
kidna
bolt
peaked
witnessed
sleuth
tenth
tentative
dickinson
compliment
weakest
transcoding
romo
rescuing
revolves
assumptions
surpassing
cosgro
encoders
conclusions
intentions
empowered
narrower
transmitting
transmissions
haygood
nicc
canadiens
bethenny
ca6438
nuest
pockets
browsing
ca6513
kanter
enormously
discounted
sparks
extensively
simpler
simplified
punishing
resonating
claus
clauses
inductees
faber
fabulous
##anya
giul
gangster
phenomenal
unusually
imperm
philosophies
samples
transportation
supplemental
luminary
stephens
binder
favors
hatton
forthcoming
gentile
pixar
ingraham
overwhelm
irreverent
japanese
reaping
sabrina
defeated
viceland
birthday
midsize
tuz
##umbered
jewel
jewish
chieng
undertake
glover
algorithmic
squeeze
squeezing
fitzmaurice
lutz
pigs
wagner
unbund
exemplifies
erinmedia
bbq
bbdo
mmtc
alfredo
rarely
chester
belongs
redefine
wolverine
provoc
terrible
gratifying
geographically
nondiscriminatory
congratulate
semifinals
slimetime
substitute
mimo
rabbit
chapman
brutal
daytona
mandalay
gonzalez
dlna
mallory
culminating
bendbroadband
fyi
grimes
lecture
forgotten
lexington
assertion
unconstit
cautious
aubrey
fdr
furniture
rationale
disconnects
amassed
smoking
paradigm
redesign
gandler
ozark
endorsement
potatoes
mullin
sacrifice
unchanged
avgiris
experimented
camcorders
cunningham
guru
coppa
avalanche
elaborate
banshee
sutton
overriding
ingredients
whisperer
eclipse
pessim
pancreatic
disabled
distroscale
caveat
wrangling
improperly
bristol
nwsl
bounty
tartikoff
stymied
incubator
indelible
exchanges
daryl
vargas
##croft
conexant
agnostic
scorsese
inflection
yesterday
tentpole
bengals
eforts
fiterre
rolapp
yancey
##uplets
chattanooga
sudeikis
netratings
20http
coordination
unilever
quincy
belushi
turbonick
bitgravity
banijay
cosgrove
2d
2a
3m
5th
818
aer
avi
bin
bis
bish
bates
bert
bios
cad
cort
cary
cory
cbr
cined
dade
dune
diving
dci
dwarf
ez
erect
evert
ego
fc
fade
fah
flynn
gim
gul
gorge
hats
ioc
jail
jaw
jodi
kt
kw
koon
kano
lv
lach
lund
lighter
liao
lemon
miron
nps
pike
rim
raz
ruff
rushing
sans
sink
siff
til
tup
tacom
ticker
tanya
vant
vine
vivid
wfn
xy
yas
yang
zones
zlot
zahn
##oot
##neck
##rass
##raine
##dn
##film
##frog
##cas
##cam
##core
##cinem
##tie
##las
##lining
##mot
##mag
##mates
##uf
##zog
##zilla
##bal
##bies
##based
##butt
##hr
##hon
##hog
##hanna
##pent
##pop
##park
##gent
##gun
##gess
##gard
##grown
##kit
##kow
##xious
##jud
##jia
##jackets
##199
##77
##´s
##inas
##inated
##inite
theo
##orris
##orne
##orium
##esity
##enstein
##enez
##anes
toys
inexp
##itus
##itated
##itative
##iona
##ionable
##icit
##leap
##leaf
##levant
##ouch
##isen
##robe
##roduct
##eling
##elage
ons
sting
stamp
stumb
stints
stagger
stoner
iter
##illance
##igs
reint
rewr
##acio
##acional
##uri
##aye
prow
conj
conyers
beam
bevil
chell
chiqu
##ription
weiss
##choice
anach
shor
shining
shorter
dei
deer
##user
##uson
##andro
spans
orph
##olo
adop
adler
cabletelevision
serrano
willy
fridays
newman
alerting
##occ
compel
compiled
mover
##group
plat
plac
tv5
contended
contenders
incar
dipping
abel
abry
telly
tekt
marina
envi
commence
##caster
tricia
##ortrend
notched
notorious
disrupted
coin
covey
##seum
interior
interval
vix
vibe
viii
vijay
preservation
unequ
unrelated
ney
neel
##answ
outb
outer
outset
usga
##odes
cloon
claman
clothes
agility
contention
brag
brass
brenda
fool
##ifier
arsen
communicated
##qua
##quet
##istan
lawn
pervas
overview
overweight
rech
recusal
feasting
manfred
repay
reprises
expose
quer
quiz
scared
##achi
meh
preval
prepaid
prequel
workah
decor
afghan
##avis
vern
impasse
##ensible
##assarian
##verty
americom
pharm
carac
carmel
herzog
##rao
espino
technologically
sms
smoke
salute
payback
thinker
watchful
backlog
backstage
undergoing
underrepresented
undergrad
relat
caa
corrao
needing
poverty
species
speculated
origins
origination
airlines
airports
vein
chaired
enduring
endured
mckee
prompting
homegrown
advises
deserved
longest
schult
schumer
revenge
daunting
demanded
##phal
centris
##bride
grud
grady
sla
##cled
##club
dracon
parole
2026
lofty
greatrex
##places
##ronix
financed
modify
modified
headach
##teen
155
159
189
##ashow
edo
eden
goodman
builder
##atted
autumn
generational
creatives
creatures
timers
nightclub
pastry
##parable
namely
formally
someday
insists
hostetter
propose
mcnamara
##derone
futuristic
calderone
reds
reductions
protot
obesity
metv
harley
harbert
pepp
peete
swan
16th
steering
505
clearleap
pricey
nearing
valuevision
blackburn
turnkey
titus
benjam
martina
classification
finalizing
portals
motortrend
214
definitive
ca647
ca6412
screenplay
##umping
syd
symson
227
limelight
funeral
##oudi
275
tna
actionable
excuse
mondays
315
deadly
richie
discusses
introcas
breaker
glen
glam
glashow
commented
commentators
horrib
happenings
353
291
emeritus
appease
denial
immense
casts
castro
artistic
burgess
cartoons
identical
copied
ensures
recognizable
choir
chopper
conversions
questioning
environmentally
366
##ergy
collaps
installers
owed
owens
pulls
strives
saturdays
silent
70s
fanfare
eurosport
mattel
takethe
waller
gigabyte
mccoy
archive
violating
aspiring
saml
samuel
groundwork
mindy
detailing
taika
toughest
443
counselor
berks
mailed
337
thrills
tunes
deepest
difficulty
optional
sticks
1973
tweaking
capturing
##ervations
divas
hyatt
learns
televising
analyzed
influenced
ballpark
cardinal
trustee
##113
afforded
641
catastro
pursuits
junct
touchdown
welch
welcoming
islands
shutter
venech
trailing
guyardo
enforceable
imagination
cookie
appointee
rocket
britain
britney
toddler
gradually
incentiv
observation
1968
1963
counterpart
exemptions
sharks
fellowship
bucket
##foot
sensational
717
lynne
riders
grip
operationally
paint
painted
derives
restricted
pegged
checking
simulmedia
868
podium
admire
684
machines
mirrors
exhibitors
scoreboard
tables
coordinate
890
batman
batting
bleeped
villain
exceeding
daring
ricky
sustainability
794
conceding
reminded
emotion
prioritizing
revolve
finishes
##oyo
humorous
hangs
ghosts
bartender
reduces
soprano
simultaneous
displaced
mcmorris
ccap
marquez
sidney
##ubsc
pocoyo
sorry
sorcher
weinand
psa
ps4
##content
discriminating
greeting
sherwood
sheriff
quadrup
dcr
padden
##2008
##2007
yellowjackets
dupont
hackers
mccarley
guns
##stitute
leapfrog
mistakes
unconsc
vertically
motivation
frost
molen
bags
tutelage
workflows
advertisement
unfortunate
fulfilling
shelves
shelley
mosley
liggins
skiing
guardians
ravens
convicted
disasters
ortiz
grabbed
grabbing
henderson
concurr
occasionally
irrelevant
ecw
stressing
survivors
pallad
##acqua
royals
applauded
jenkins
crawl
zombies
degrade
degrading
troublesho
purely
ukraine
deutschland
duplicate
wardrobe
yielded
endeavors
immigrant
prosecut
adrian
breaches
abdul
lovato
lovecraft
horsham
relocate
surveillance
settlements
isolated
longhorn
pillars
patti
siblings
stringent
erotic
mounted
nimbletv
commemorate
clifford
admittedly
borrowed
escapist
resurgence
morphed
symmetric
arbitrary
rotation
proliferation
thoroughly
diligence
procure
dissenting
weapon
assurance
retooling
salvation
hinted
tillman
awaited
hypoth
ribbon
intersection
edgar
swedish
dashboard
mansion
nerdy
fathers
pooja
##liese
decisive
embarrass
holloway
3101
safeguarding
recruitment
baghdassarian
feasible
goodbye
neighbors
meteorologist
dalton
pugliese
rugby
##business
nortel
yvette
stamford
amdocs
indoor
purveyors
dolphins
stewardship
astronauts
zealand
mothers
checks
accenture
guitar
lifetim
awesome
sxsw
vetted
amateur
lavish
blanket
welcomed
karmazin
fragmentation
reconnect
cotto
ebersol
inferior
##america
revere
concessions
assortment
aspirations
incorrectly
cockt
fossil
zilliontv
fresno
sobering
impartial
klarman
klugman
ferguson
kressley
kelleher
unsustainable
provocative
cinedigm
koonin
kanojia
lachlan
tacoma
##cinema
bevilacqua
chiquis
anachron
orphan
tektronix
espinoza
undergraduate
draconian
benjamin
takethelead
catastroph
2x
8m
9th
apt
ary
bil
bree
bach
baking
bocc
cs
cout
cakes
dew
dies
dying
doming
danson
ee
eich
eug
eternal
einstein
fink
fined
fda
foul
gator
gaps
gerv
hq
hines
hsm
jw
jays
jung
jpeg
jugg
ki
kann
kse
kern
kram
kov
lub
lup
lured
lament
lilly
leland
luna
nin
nal
nap
nose
niss
nons
nike
nished
nique
pec
pich
pier
pell
riv
rous
rouse
rms
rah
ritter
sas
sot
sook
silly
tired
udp
veo
ws
wf
waking
watt
wishing
wme
wahl
wapa
xi
zag
zend
zype
##oh
##oos
##nor
##numbered
##rint
##racts
##eves
##dream
##direct
##iot
##first
##ais
##tal
##mak
##math
##uant
##bas
##bra
##bble
##hadow
##hugger
##gal
##gable
##gio
##gwick
##kerson
##xie
##jandro
thrust
##inos
##inqu
##online
##oniously
##atou
##energy
##arely
toon
##aler
inh
inade
ingest
inhib
##icy
##icate
##still
##stime
##letp
##eton
##llis
##isetv
##isima
##idas
##roof
##ecified
combo
##amatti
sta
stere
stating
##igg
##igel
##adas
##ados
##adakis
wham
whitt
rej
reels
##acies
##acious
##aceted
##owan
##urd
##urz
##otes
prod
proxim
cone
bein
beats
##vera
chum
weigel
##chi
##charg
anyst
anemic
anxious
shri
shuff
shvera
deon
##usations
spate
spades
orby
orbit
adon
##iler
newbay
##estream
##ocally
comporium
##ivable
##ccess
heal
plasse
conting
incon
incomes
##uma
##allen
abby
tees
teed
byu
marines
enrich
##casting
brody
brock
trum
discharge
leaked
cope
coding
copper
##sella
liver
lips
liars
ames
amster
broadstri
allvid
offensive
upwards
intercol
vib
preserved
##ipher
##ipedia
showings
unifi
unansw
##ribed
##endas
##acked
accusations
outsp
outages
outnumbered
teletra
##opus
##opoul
##bermann
usda
clot
clive
agendas
programmed
brunch
branson
indict
indeb
##ifaceted
##quire
laund
canon
percept
perplex
overture
manor
maneu
reprieve
monter
monkeys
explet
quote
##osevel
scout
scrib
hisense
twitch
twisted
mep
rooney
roosevel
multifaceted
busch
##arelli
strad
hader
devin
##cov
aftra
##avio
imposing
imposition
##inking
genoc
bollywood
assoc
assass
regain
##asses
setup
setanta
systematic
thematic
carmi
carbon
carrot
aftermath
foxsports
##itte
##lected
technologists
payroll
paypal
nationals
undervalued
relating
relinqu
##vio
crut
capping
filtering
daydream
yorkers
poeh
vega
veered
attest
attitudes
attracts
mcken
donny
rematch
remov
scha
schitt
schurz
posing
depress
depicted
##ftime
daju
##phoria
grabs
slat
lifel
besting
bested
secondly
drone
parale
localized
##ethered
stillerman
lovers
avails
debevo
surreal
##ronics
standstill
defines
##ashi
sims
goodwyn
counters
boxer
estefan
buildouts
primed
docud
histories
familynet
speedway
janus
opportunistic
generous
1396
timed
speciale
lining
formidable
insure
##olutions
entail
entrant
purview
merit
merced
mercer
rightly
pops
178
equitable
obsole
##scales
musicians
metaph
hara
harron
passions
##selin
163
raft
skitt
50th
##ynn
emerson
emcee
erst
erences
ernie
hardship
optics
bena
standardized
committing
amazed
finalists
younge
portug
rollback
combating
morrow
ca6454
boardwalk
landl
waive
tyco
satcom
satirical
magnet
greenwich
235
232
clicks
clicking
employers
225
221
286
encores
medias
278
overshadow
readily
designs
virtue
268
impactful
addressability
declare
risky
fxx
smartest
##share
capitalization
danes
humble
detect
electronically
eleg
eleph
natoa
natasha
wednesdays
hubs
solving
logging
staffs
staffing
geoffrey
euphoria
explored
collateral
brightest
striving
analogy
arenas
wheels
spokane
respectful
windfall
contributes
freely
cooley
tourism
texts
mccask
crossing
failures
milk
555
inspector
heaviest
appealed
squarely
housed
domen
mentality
applicable
louie
tenuous
concrete
activate
##heim
splin
alternatv
harming
sounded
387
extraordin
##boxes
fault
susanne
optionality
lacking
settop
decidedly
cta
felix
transformational
grandmother
trialing
guideworks
situated
diva
divvy
absurd
expressing
strengthens
strengthening
ca633
taxpay
##lieb
historian
township
##ovic
##2010
##legiate
bridgerton
insightful
pursuant
##7554
junk
jenni
olbermann
welcomes
reinfor
moderators
architectures
cooks
alexis
damn
damaging
juke
megaph
homeless
610
615
monetizing
utilization
utilisima
ecosystems
ultrahd
1965
substantive
assisted
fellows
cablenet
gaunt
gregg
714
taggable
santo
ilene
routinely
solidarity
karey
adventur
##eremoniously
pains
derive
prohibitions
warsaw
bulletp
wester
adapting
maximizing
brotherhood
jamal
quello
complementing
admits
machin
vehix
corresponding
correspondents
miranda
constituted
981
dangers
rampant
##iconduct
surfing
aaronson
marsha
physics
physically
tablo
unveil
ruins
precision
journeys
horizontal
895
battery
borough
borrell
ferree
lockdown
kopp
##oopers
sacrific
climbing
laughing
lieberman
lieuten
ignacio
inputs
crypt
romance
emotionally
disruptions
crackdown
troops
wolfe
transmitted
transmitters
hooks
hooked
concentrate
exercisetv
uploads
uploaded
overlays
inauguration
esquire
nuanced
nuances
dismal
dismuke
halftime
semiconduct
boldness
greet
shaun
shaft
transferring
lobbyists
marathons
sparklight
stopping
calculate
unceremoniously
resonates
inductee
kristina
giamatti
racism
##aloosa
shelter
mosko
acclaim
mentorship
erie
liga
supplemented
mysteryquest
jurisdictional
gilbert
declaration
favre
rivera
srms
woes
stemming
convictions
disastrous
avidity
gentleman
nutr
##369
frustrating
preceded
cedric
rumor
quantify
cruise
gridiron
ngc
residences
borders
mythbusters
occasions
supervising
encrypted
hotspot
laden
##927554
decreased
scratched
manipulate
accompanying
stalled
monsterfest
jewels
undertaken
treehugger
reconsideration
newsrooms
preschoolers
breathe
selena
unbelie
fundraiser
gainesville
galavision
horses
ruddy
bravia
bravocon
scrutin
wikipedia
feldman
accidentally
outperforming
scarce
cannibalize
cannibalizing
tangible
##model
stella
efective
fertile
tossed
stabilizing
enacted
dressler
deliberate
extras
waxman
hornish
administrator
friedman
absorbing
underscores
kamala
ascension
chapek
spacs
diagnosis
otter
outpace
alejandro
recycling
soliciting
kinsella
npd
npg
pumping
##frame
crushed
edgier
barker
tmt
stifle
strickling
disappearance
appropriations
overdue
crafting
bathroom
porno
winkler
sterling
loosening
melding
pascarelli
sedgwick
bruno
##eeeek
narratives
tpg
nurturing
720p
cindy
unspecified
strictly
cancellation
aisle
gossip
hilary
pearl
carmichael
volleyball
marginalized
vigorously
gosselin
vlad
cliche
roamio
telescoping
infomercials
unsuccess
cigar
cianelli
ktvk
rifkin
tuscaloosa
tocheeeek
inadvert
revelations
unmatched
clinkscales
indirectly
mynetworktv
videotron
impermissible
unconstitutional
razor
inexpensive
staggering
prowess
arsenal
prevalent
afghanistan
vernadakis
headaches
sydney
introcaso
berkshire
juncture
quadrupled
lifetimetv
aryeh
boccardi
domingo
eugene
kannan
veoh
zendaya
inadequ
proximity
anystream
amsterdam
broadstripe
intercollegiate
unanswered
outspoken
teletrax
##opoulos
indictment
indebted
laundry
roosevelt
poehler
mckenzie
dajuana
paralegal
debevoise
1396927554
obsolete
mccaskill
extraordinarily
bulletproof
unbeliev
2m
860
ao
aunt
bail
bolog
bakers
cv
cro
cue
cds
cantly
cagr
dus
ditt
dta
fon
fad
gy
gers
gir
gag
gins
gaw
gaza
iz
iann
ims
ica
icar
jb
jha
kre
kier
kbps
kessler
lc
lap
lone
lptv
mt
mj
mous
mish
macy
nm
nord
nune
nerv
narc
och
ought
pst
pend
pens
pants
peck
pique
rin
rage
ranc
rider
ss
sip
sank
sizz
tich
tum
tort
tata
tons
tds
taker
torn
uef
vim
wet
wec
wors
wack
wpl
wounded
wicked
xx
x2
xfl
xcl
yu
yar
yari
zitter
zodi
zeta
##oard
##oitte
##new
##nights
##yx
##ypes
##rs
##rations
##rama
##ridge
##vu
##vh
##vall
##vale
##eet
##eason
##sburg
##dtv
##dez
##iom
##iaries
##final
##fold
##cs
##cons
##aith
##tit
##tors
##tario
##last
##uition
##uela
##bin
##bach
##bird
##hi
##hur
##hart
##pers
##pier
##games
##green
##wer
##klin
##jan
##714
thir
##inch
theories
##orical
##ener
##ingham
##edo
##edown
##arre
##aris
##arket
##arry
##anp
tos
tours
tosh
##itized
##omen
##ionage
##stick
##struct
##etus
##etics
##lls
##isphere
##asley
##elon
##ersen
##ersand
##ecial
##ecoopers
onyx
ontario
##amorph
stro
stard
stod
stero
stefan
stinch
##illage
##adette
##oway
##ayer
##ayed
##ayola
proves
##abel
conform
behold
bebe
beasley
##vered
asper
chey
chave
chucky
##riani
wee
##chio
anstrom
sake
sht
shack
ships
shipped
##imated
##imeter
##ctic
##usic
##thro
##ules
##uliar
suing
##agu
##osures
sphere
spanned
##olt
adhere
wills
willis
##iltered
frant
fraz
fruition
pry
prag
prere
newark
newseum
##ppert
alley
compass
##ivocally
##icef
sext
hailed
209
##aki
contends
contiguous
dire
diver
diference
##uming
##umbo
##allery
aboard
marang
marwan
servant
##emates
##emagno
trash
traged
tr3s
noto
disk
disable
disord
leigh
leans
leaf
coke
covert
cogn
##sover
##rouch
amm
amir
amish
broadlogic
offload
viability
presstime
preseason
##ipes
una
unite
unoff
unbox
unaf
unbrid
unaware
unpaid
unicef
millionaire
neu
nevers
##anski
vida
##ulture
accred
outf
outbreak
gods
##kell
##oda
reselling
resisted
##aprio
intric
clan
agbo
##actively
bru
brace
brides
bracing
bricks
foe
fog
indy
indians
indicted
##ifed
lauer
canc
addams
perview
perret
##ogg
expedia
quit
quid
scare
scotts
##hnic
meals
meeks
melee
customizable
whats
preach
precar
##onellis
busby
strings
buoyed
devito
##lov
noble
##pleas
executions
dealership
##issance
acr
weeknight
weeknights
distric
distaff
verify
verifi
##sps
impending
impetus
000s
##index
warns
##ventional
genie
boch
boiled
##rowing
##ishly
grouped
blade
blaming
setbacks
##lication
##angle
justifi
carved
##ologists
19th
invoke
invoked
playground
continual
espionage
maz
curtain
deloitte
earliest
relates
##weights
##vier
subscribership
crashing
crayola
caes
cait
billionaire
signif
poign
popping
##ierta
veiled
mcgee
mcbride
homebu
homeowners
adverse
colts
colman
remanded
flipped
flipping
deserving
longform
schre
schup
schned
transitions
terabyte
quarterfinal
daa
affi
grinth
guessed
sliver
slipp
latina
connie
cape
parish
valdez
loeb
##enna
legion
belmont
modeo
headroom
headset
headlined
gameplay
152
announces
announcers
loser
defn
defying
defne
simms
esteem
##iani
minors
minson
paw
paqu
html5
thenews
speedtv
janoll
muslim
##athers
acquir
versat
creatively
258
specialty
specializes
##linger
telecoms
ca629
insult
insuff
inserting
hears
employing
elbow
hostage
hostile
planes
subtit
sharpe
futures
calab
calvin
profiled
profiling
redneck
172
protects
protective
eva
metrix
norwood
harrer
turmo
holdgate
##etto
swain
swirl
handy
skies
skins
clearer
clearance
##mines
storied
ern
erl
erased
errone
nears
davidson
vodka
socially
fuller
stepfam
1000
confined
confront
confused
confessed
youngest
cement
holling
spotlights
##ucked
timeslot
moral
ca6411
ca6492
singh
innovid
barn
greenburg
halfway
231
233
examined
syl
studded
facets
funky
##otted
274
readiness
appliances
renomin
refocus
refurb
radios
responsive
sections
closure
##central
dancer
detection
detavio
gloria
celebre
antonellis
natale
transitioned
452
456
454
immune
matchmaker
##doing
##ilarating
496
massoudi
roker
malice
madden
mixing
pricewater
selective
neutron
flowing
rosa
identities
urges
##apeake
mills
crowned
1981
camel
interviewing
solo
##iculture
figur
despierta
fairfax
paulsen
installer
circles
mandy
mandating
eyed
silberman
booking
gamut
##letter
garth
contracting
copywriter
parking
tourney
tourists
motorcy
jonas
crossroads
commonwealth
archival
archae
cyl
publishes
557
904
547
variable
##ezuela
disclosing
palumbo
applicants
invention
concili
subsidiaries
activations
##zzo
##zzi
##zzlies
bloggers
layers
berry
berning
writes
deepak
ranged
##edios
organizer
consultants
brownback
demonstrations
1970
unfiltered
evolves
522
526
379
swell
materially
grandfather
contested
scottish
darkness
##borne
survives
televises
consolidating
4719
implementations
ca638
influencing
taxing
historians
sandwich
gettysburg
tonia
knowledgeable
488
widgets
cardboard
cheek
bernadette
conventions
trustees
championing
##knows
penetrate
catfish
##754
laurie
shuttle
venezuela
bonner
nominal
reformatted
moderates
imagery
collaborating
collaborator
codifying
cookware
wilkinson
clarification
sucks
attacked
heartland
577
iran
irish
bellamy
nexus
530
531
damon
damaged
retained
katy
reclaimed
monetized
silverstein
##eroy
rhimes
melt
compensate
compensated
obsc
##180
referenced
eliminates
lengths
vault
woody
stevenson
petitioners
##fortable
converge
sensors
adjustment
tags
tagged
grizzlies
nypost
solidified
solidifies
dinosa
kara
orioles
spinning
##bros
##508
omari
aggregators
ralphie
multimedios
conditioning
ronald
##126
adaptation
montemagno
magnum
magnific
hawk
storyteller
lamont
comforting
hammering
backgrounds
winship
motherland
aarp
dragon
kimber
vacated
wrongdoing
sweeps
narrated
bleacher
villains
freder
buffering
ferr
mulling
ltn
ovds
697
##242
reversing
torino
laughter
snowpier
095
nonex
nodes
romney
praising
solekai
convenes
rivalry
rivalries
##oya
dads
mountains
murdered
bedoya
hayashi
lightshed
overlap
gillesp
mitchko
rubin
bargains
ironically
ratner
kanan
prisoner
commands
muted
ambitions
cdns
dirk
shields
immersed
cuba
gunn
misty
uncut
bronze
overbuilders
prolonged
motivations
molten
wyatt
wyden
ca6445
memoir
consequence
scalable
knocks
surgeon
gramm
guarded
occupation
procedure
compromised
blowing
forbid
preceding
creep
denny
pinned
plainly
pounds
dpuc
glee
mp3
unreal
myths
occasional
irreparable
reaped
hurricanes
uniqueness
injuries
polarizing
terminator
##463
reorganized
granite
beliefs
disagreement
continuation
sleeps
ivillage
morton
gloves
gravitate
reinstated
wagering
incidents
lovett
reinvented
deleted
persuaded
ipods
jeopardize
pedestri
bulletin
dusted
curtail
commemorating
fernando
chesapeake
shammo
plateau
olivares
gavel
adequate
cronin
explosive
eagles
wisely
heightened
ampersand
scramble
configured
configuration
reigns
plumm
plummet
genuinely
retooled
culminated
alec
innoc
chestnut
alumnus
scanlon
1950s
webinars
jumps
vicki
haugen
hemisphere
unconventional
downgrades
adversely
webisode
sweden
divestiture
auburn
gifted
hoog
varying
disconnected
recreation
redesigned
snowboarding
monopolies
reimagining
caching
crossover
fathom
shahs
unitymedia
uncomfortable
decisively
embarq
appropriately
baghdad
chaos
mariners
encountered
crafts
packetcable
wcsn
shepard
shepher
hershey
dicaprio
fremont
fringe
enlisted
overhauled
invisible
depicts
capricious
lydecker
therapist
affirmative
plaintiffs
wreck
##steps
intuitive
clasen
empty
erupted
mcconnell
overlooking
bombers
dct700
mateo
tinker
foreclose
stelar
chancery
exhilarating
mohler
marianne
featherweight
ministries
detriment
hurlbutt
illumin
trailblazer
agriculture
thornton
##igorate
brochures
cohes
deposits
volatile
biographies
gentlemen
inaccurate
fischer
geraldine
leibowitz
overlapping
postponed
unlawful
macdonald
ruthless
nicholas
cipriani
byrne
firestorm
flourish
schiffman
confessions
sweetheart
cabinet
overwhelmingly
cbrs
gorgeous
enviable
unequivocally
neylon
pervasive
caracol
slavery
horrible
unconscionable
concurrently
hypothetical
gatorade
juggling
nissan
peculiar
rousey
watters
contingent
removable
slattery
lifelong
docudrama
skittish
erstwhile
elegant
gauntlet
borrelli
semiconductor
pornography
inadequate
aoibda
bologna
gawker
icarly
nunez
nervous
narciss
uefa
vimeo
wplg
xclass
zodiac
##hurst
stardom
beholden
chavez
marangi
tragedy
unafraid
unbridled
intricate
agboh
perrette
precarious
districts
grinthal
thenewsroom
janollari
insufficient
turmoil
hollinger
ca649299
celebreality
dinosaurs
snowpiercer
gillespie
2f
4c
4th
7th
760
820
960
ain
ave
ald
aus
aul
aston
bam
bast
bate
bia
bother
bloy
bests
cin
cis
cous
cube
cenergy
db
dul
dore
dong
dense
dwind
edu
eman
eats
fas
fth
fals
font
gs
grees
gdp
hf
hed
hab
hess
hann
hatch
hild
hamp
hilar
hetz
hacket
hynn
ironic
jg
jal
jab
jain
jsp
jarg
jup
jerem
jinn
kd
ku
kb
kou
kos
kem
kour
kane
kapp
kauf
kcci
lac
lun
lough
lamp
lump
lyle
lsu
leroy
mip
mitt
mund
nl
nan
nit
nis
nir
nun
nud
nia
nint
nug
nave
nlc
nerve
nonsc
oust
oann
oher
oops
ouster
pff
pap
pbr
pied
pale
pik
pairs
pumped
rere
rav
ratch
rund
rgu
sick
sanch
siesta
sears
tx
tin
tac
tir
tia
tah
tuss
ull
uis
uber
ustream
ufo
uva
vt
vand
vong
vub
vying
vested
wad
wann
wrist
worship
wbb
xv
xs
xocs
yoga
zand
zoo
zuff
##oing
##oints
##rid
##rane
##vn
##vis
##vana
##ean
##ept
##egle
##ser
##sight
##sby
##dict
##dled
##ioli
##fx
##fired
##freed
##fires
##felt
##cat
##corn
##cipher
##aam
##aissance
##lis
##los
##lift
##mey
##mount
##mov
##morgan
##zi
##zews
##zano
##bet
##bage
##bone
##bush
##beth
##baby
##high
##home
##hub
##hang
##pi
##pable
##people
##pric
##plication
##gear
##gem
##gone
##gian
##kel
##kish
##xic
##xia
##jour
##843
##100
##175
##927
thur
##ergan
##inis
##onetics
##atino
##esper
##esda
##enos
##enches
##eds
##eder
##aru
##arra
##arms
##analy
tol
topp
toxic
inews
inequ
##itier
##itarian
##omed
##omedia
##icela
ofered
##sten
##stall
##leigh
##eters
##ettered
##ethnic
##requ
##asa
##asma
##roches
##ecoming
##amiliar
fork
forres
forget
##utionally
sty
stk
stir
stip
stys
staging
staf
stomp
stagn
stasi
stmic
##illed
##igans
reall
refl
reuse
rewind
##acris
##acerb
##owed
##urable
##urred
##oter
provin
proffer
conway
isl
##ewar
beale
##irable
##irety
chapp
##rival
wem
wears
wefi
saini
shen
shim
sheld
shores
##iments
##uneration
deleg
atc
atari
atkinson
##usa
##thorne
##ulion
##ulse
##ulik
##agi
##ands
exorbit
exacerb
##osc
admission
adidas
cableos
willful
##ilante
fra
fraser
pru
prad
prud
prone
prairie
newton
newfronts
als
alas
aloud
##esta
compressed
seated
seized
##ichting
##artney
mof
mold
modu
##grid
plag
plastic
plaus
plasma
tvos
contender
incom
incite
dif
abbre
marine
maricela
ensequ
enlist
brosn
brolin
##ema
##emia
trent
tray
traced
traci
trenches
##ecting
disl
##ouring
##ource
leven
leach
leves
leeco
lebas
coolid
liable
##antom
##antle
amas
ammun
offsh
upc
uplink
upbeat
interfering
vietn
showdown
unac
unim
unavo
unifying
unicast
unhealth
neulion
medial
##ghai
##ulty
accustom
theirs
outgoing
telethon
marketplaces
goose
##iella
useless
residence
resumes
resolutions
resuming
apprent
##apy
cler
claud
clerk
agg
##actors
##videz
timeframe
ard
arango
aretha
arctic
##lude
lavern
laureen
canela
soared
overhol
recount
fein
fever
manual
##ogallery
monolog
monty
monkey
monique
quarant
quench
scaven
##acho
meehan
##uba
##ubin
prefers
workings
sportscaster
stray
businessman
##loat
nostal
lasting
lastly
digi
highmore
decent
decomp
##coat
aces
acres
becker
distortion
vermont
verklin
verdict
##span
impeding
impasses
demarc
##inders
##venth
asserting
bigfoot
regina
##ibi
##ibur
##ensely
blod
phi
phased
phasing
phantom
setback
wwj
wwor
##lical
justification
carpent
##encers
helene
herald
retract
##rae
194
1946
inviting
invites
unduly
esposito
mah
mait
maid
maia
maven
mazz
caller
wherein
smear
smell
salons
salaam
##boat
downtown
thinkanaly
backfired
undergo
delve
earmark
earvin
earns
relive
cramer
corrupt
signifc
discovers
wayans
##arkin
pohl
specified
##ierra
aires
airplay
realign
realization
av1
averse
mcner
mcelf
mcgin
mcgu
mcfar
mcstuff
mcadam
curran
donating
donah
##ellar
remedi
remuneration
flm
flame
flung
flicker
desert
desires
desesper
desroches
longoria
scher
schwar
schrier
transfers
terabytes
depict
grin
grids
grilling
gritty
sincer
slip
paro
parade
parody
locals
winsl
valent
##leson
loki
loosen
keib
begging
surr
suratt
modification
156
##atello
announcer
1876
loses
defning
defensive
simone
goodell
##rese
##resh
differential
charm
charism
charitable
primaries
promoters
wrink
wrench
##uciary
apace
generator
##iliated
cleaver
creativec
interestingly
253
##yssey
electing
lineage
linch
linney
ca650
regulates
##gestone
imax
##ahasse
entirety
propelled
interacting
##elda
packer
sharers
sharenow
futbol
##engard
populated
populations
popcorn
neglected
profanity
redeem
177
breland
evoca
trips
keepers
wales
metairie
postal
posters
managerial
norad
harlow
pej
peep
peaking
turkish
beginnings
##vernay
switzer
164
167
rave
handica
handheld
storms
emissions
empting
erase
gotlieb
harding
filmon
filming
blackstone
midland
midha
midpoint
midseason
middling
varo
classes
finalist
##ussy
portia
portability
ceased
maturity
211
definite
ca6418
ca6490
402
infonetics
##onta
screened
spectrumco
innovating
innovator
satkow
magness
##ernal
superman
234
239
patty
michaela
symp
congressmen
ideological
228
faculty
hitron
hitachi
lowers
##otta
noncont
mediator
276
reasoning
shorten
26th
renaissance
frontrun
honing
projecting
comparing
##ikh
sanction
significance
snook
closest
politico
##should
capitalists
leveling
jeanne
condol
condem
humbled
60th
modeled
glaze
trackers
horrific
fios1
eleventh
290
298
immensely
49ers
##ommons
predator
artie
burch
burner
burleson
maldon
selects
selectable
flowers
rosengard
separable
copa
copying
foodnetwork
348
344
plex
jefferson
complaining
casinos
camarad
shoe
respondent
battin
saturation
fairy
staffieri
##ertips
revital
revoke
holistic
##ergate
installs
optimal
optimizes
##struck
summed
summar
summits
multiethnic
westwood
westbrook
dominic
hollyrod
microphone
eurocinema
bookcase
balk
garland
garnier
garbage
takedown
walled
probation
probability
petro
contractual
frey
freaks
primeval
gigs
mccartney
circulation
crosses
georger
cordova
milan
milch
sprite
sprink
parenthood
552
556
readying
heavier
capacities
##player
samknows
slingplayer
penafi
easter
levitt
understandably
humanitarian
stakeholder
photogallery
pretend
lougee
activating
tapp
tavern
answering
445
442
446
##maid
sunrocket
sunbeam
berend
fixer
fixture
hammond
doubted
tuna
profitably
vrv
rogen
battlebots
faiz
##aldi
423
hurst
speeches
##iffe
candace
rebate
rebates
consulted
navde
repeating
unfettered
unfamiliar
tweak
pitcher
375
##ropolis
431
occurs
wildfires
2000000
ca634
ca637
analytic
influencers
baylor
cooperate
rapids
##ospace
widow
miscon
cheers
trusts
trustworthy
##119
impressively
bridal
bridgestone
clubhouse
elevates
olive
teddy
trails
honorary
catches
utopia
515
wilkerson
clara
lucia
heartfelt
578
irr
irres
bellator
evidenced
566
538
5395
citrus
homage
homicide
investigators
crowds
galanis
fatherhood
touts
linden
utilized
accelerator
brokaw
brokered
waititi
handsets
dubious
tacked
1966
721
litig
earthqu
assistants
egg
eggs
bucking
incorporates
literature
sensibility
adjustments
sorting
##2799
sophie
burnett
indicator
duplex
dueling
duvernay
santana
routes
routine
muni
munich
criticisms
omn
pitmast
painful
opposes
665
667
convertible
##innon
883
bottle
migrated
objections
suspicion
vanqu
cleaned
originating
mrc
songwriter
##132
##136
chefs
hawthorne
buzzer
buzzword
596
weighs
581
miracle
##programming
constitution
985
dangar
exhibits
1201
physician
819
781
athletics
cowen
convincing
trickier
precurs
##monde
batter
borg
lynd
lyons
lyric
lymph
witnessing
ramin
##vault
emailed
exceeds
masks
##166
thankful
fleet
certific
pledges
attaching
attachments
reclassifcation
crystall
gibbs
prioritized
canton
hangers
hangover
aje
cosmos
encoded
murderer
tactical
assembling
assembles
bedroom
transmitter
framing
correcting
dtcp
sidew
sideline
chatter
pocatello
reeled
echoes
ratatou
naito
naegle
thrives
greeted
mutant
gadsby
padila
schwimmer
tallahasse
##uxe
##830
calculating
broncos
folder
synergy
kristian
axe
gangs
gangsters
jacob
compatibility
ca6442799
##644
ca6467
thermost
imperioli
skein
##579
conspic
scaled
guts
knocked
declares
encompasses
censoring
amplifi
fnancial
fledged
blockbusters
veto
contempt
datas
hindsight
quantities
sunnyvale
brilliantly
vampires
ingrid
suburb
boutique
##irectional
rejection
presumption
labeled
grover
kraus
krause
pirate
abandonment
puzzles
luckily
rehearing
overturning
defeating
superiority
terminate
kylo
kyra
##feit
manipulative
novela
milestones
caval
nails
reunite
##market
##winds
perpetuate
recovered
honesty
gaspin
enforced
retroactive
discourse
barrage
squeezed
tatel
breached
wagons
wizard
inevit
twister
friendships
exemplary
throats
deleon
quotes
rudolph
interstitial
relaxation
instruction
penthouse
reactions
withdrew
shirt
bolstering
embarks
mounting
explicitly
rustin
polycipher
mcgarry
bowser
borrowings
fiduciary
resurrect
pleasant
divorce
arbitrator
jpmorgan
revisiting
underscore
brazilian
bizarre
mackinnon
pondered
vowing
ascend
diagnosed
bassett
fluid
gonzales
assignments
gracie
swampy
liquidation
ayo
cribs
dmca
siege
lexus
drumbeat
dwight
kudlow
vivian
##houses
##housecoopers
synchronous
withdrawn
gifts
odyssey
stitching
underpinnings
paradise
hustle
hodulik
forestall
stalking
shakira
endorse
safeguards
botched
##walt
scrapped
scrapping
encounter
neighboring
vaccine
vaccinated
langner
shattered
sofia
promptly
schlichting
restraint
confidentiality
hershman
renegotiate
renegotiated
fingers
fremantle
kotaro
ludacris
##manship
composite
commodity
invisibility
depicting
defections
ca60927
ridiculously
lydia
throttling
kurt
sgt
shanghai
spooky
intimid
reckoning
lorenzo
interstellar
steelers
ca6428242
takeoff
cheerleader
unaffiliated
schanz
turturro
rebellious
outrageous
eschew
lakewood
ritchie
forensic
inconsistent
intervene
ushering
patrons
philanthropic
voyeur
torchwood
recapitalization
besser
gesture
hickory
##economic
reuters
enrolled
unemployment
reshap
manifest
belgium
statuettes
descendants
automobiles
kidnapped
giuliani
pigskin
unbundling
pessimistic
evertz
fahey
lemonade
tupelo
vantage
zlotnik
##popular
##roduction
iterations
reintro
tv5monde
outbid
gruden
gervonta
kramer
ninja
wsvn
zagin
adonis
clothing
perplexed
maneuver
genocide
assassination
metaphor
benavidez
landlords
domenech
machinima
inadvertently
indebtedness
icahn
cheyenne
pragmatic
compassion
accreditation
bochco
schremp
schupack
figurine
frederick
hoogstra
bateman
bloys
dwindling
fasulo
falsely
greeson
hfpa
hampshire
hetzel
hackett
jargon
jupiter
jinni
kappa
kaufman
nirvana
nintendo
naveen
nonscripted
piedmont
rereg
rundown
sanchez
ullman
vongo
vubiquity
wannab
zandt
zuffa
##freedom
##zewski
forrester
styslinger
stmicroe
sheldon
module
abbrevi
ensequence
levenson
levesque
coolidge
ammunition
unavoidable
unhealthy
accustomed
apprentice
laverne
overholt
monologue
quarantine
scavenger
demarcation
carpenter
thinkanalytics
earmarked
mcelfresh
donahue
desesperadas
schwarz
winslow
creativecommons
switzerland
satkowiak
maldonado
camaraderie
penafiel
navdeep
2000000200
pitmasters
lymphoma
crystallized
ratatouille
tallahassee
1b
2g
2q
3net
711
770
8th
870
9c
aes
ait
awe
aides
aisha
bn
bain
bould
bah
bike
bik
bicultural
bouts
biles
bicy
cz
cush
cfm
dd
dh
d2
dice
dose
dame
dough
dining
drought
dread
dumped
dancers
eo
eam
fow
fence
fite
foud
fitting
fager
fete
focal
fiona
gp
gel
gast
gpp
gust
gild
gell
gures
gird
gumb
giff
glynn
hb
hans
harg
halog
hicks
hiding
hager
hanks
iy
ig
icel
ieee
jd
jm
jos
jop
juce
jigs
jolt
kon
kav
kau
kai
lis
lith
lus
lust
leop
lords
lenny
mf
mage
mose
mays
mesh
nj
n3
nag
nos
nest
noc
nvid
nancing
owe
ooma
oibda
pf
pq
pals
pimp
rit
rag
rake
rmed
rope
ripp
sven
slo
sbc
sway
sipp
soder
tc
tan
tann
tain
tones
takers
tarant
tender
tanks
terse
vor
vit
vab
voc
vans
vinc
vows
vogue
wore
waged
woke
wanda
wrex
xli
xcal
yale
yara
zidd
##oak
##oys
##oha
##ng
##nan
##yield
##yroll
##rit
##rade
##rored
##rained
##vo
##eff
##sa
##sion
##sle
##sley
##dr
##dh
##dit
##dish
##dep
##iable
##iem
##iket
##ienne
##fin
##fly
##fans
##free
##cence
##camp
##crum
##aults
##tropolis
##lay
##long
##mor
##mad
##mings
##mtv
##mund
##muda
##uyer
##uweather
##uori
##zell
##bel
##bri
##bial
##bound
##hir
##hans
##pm
##pat
##pages
##pins
##gom
##gamy
##wing
##was
##kers
##kling
##kool
##2m
##260
##jer
##jar
##89
##38
##773
thr
thread
thwart
##erec
##erable
##inen
##ongh
##aters
##atant
##orum
##eski
##enberger
##ingle
##edited
##arial
tob
toast
##alow
##alia
inning
inks
inerg
##itics
##itaries
##itously
##icz
##icle
##icec
##icms
##icago
andor
##stood
##stract
##ouder
##etri
##etwork
##etches
##entin
##enton
##asp
##asco
##rovers
##rogramming
##ecy
##amas
##utv
##utz
##utive
##utical
stump
staged
staked
itc
##iga
##igital
reef
regress
rejo
reagan
##owks
##urk
##urities
##ayon
prover
proff
proph
probe
progn
##abis
conch
conund
conroy
conquer
conkling
##ewell
beavis
chast
chil
chrome
##rip
webc
##chanted
sapping
saga
sauce
sailing
shind
shaking
shops
##astor
##astas
##cta
##unts
deple
atva
atlas
##thora
##ulu
##uler
sums
suites
exits
exotic
spar
sput
spiket
netchoice
orte
##olics
##earth
adt
adgate
cablep
willie
##ilation
fry
frito
prism
prerec
prouder
newwave
##ppin
alon
alvin
aloha
##eston
##ocl
compound
compton
composition
comprogramming
sey
seed
seid
seize
hassle
hau
heidi
moham
molli
2050
##gren
##ityville
##udd
diary
diament
dianne
##allo
abrog
abstract
tek
byutv
marjor
marcos
marquis
enlight
enemies
enchanted
commut
brod
broom
##emption
trin
trac
tryn
##orted
##ecto
##ectors
noticed
disgu
displeas
coy
cove
cody
##selling
lien
lizzy
lippin
amburg
ambros
amityville
offbeat
upsell
uphill
interrupted
##iping
##ipino
##ipitous
unse
unfor
unqu
unification
unta
unwar
unrest
unwind
unedited
##ribing
##ptons
medina
##ineau
videography
accusing
accuweather
##geist
telepr
##bergh
goad
mediaocean
resale
clor
clone
clipp
cloak
bras
brind
bressler
bratches
fosters
##orded
arb
##quille
##ister
##iston
##isting
canwest
perisc
sovi
soaps
sochi
sojour
overused
overbl
overarch
overindex
recreat
manger
mansell
repos
baseless
monte
monaco
quentin
whoever
scour
scales
scouts
directory
rochester
prepping
workable
sportsbook
strongh
hadley
haddish
##aceutical
buenos
devoting
##plete
##onder
##ondocks
##onditional
highspeed
interns
internship
internacional
##taine
firsts
aft
aficion
afloat
##avitz
digitalsmith
topeka
distancing
verance
bettors
consumm
imply
impract
impulse
sena
##inko
demi
demons
demetri
##independ
warmed
gena
generic
genesis
boot
boondocks
assessed
assaults
howstuff
regan
ife
##ibu
grouping
##intosh
##assi
##assat
##assic
blasting
blitzer
blatant
techno
##ocki
cara
caring
carving
##ologies
1948
##flow
playon
playout
undue
undoing
mae
mazin
##lectronics
smiley
starry
salinas
seasonally
payout
livek
curation
curse
watcher
backup
backwards
underworld
deluxe
##web
##wegian
##vii
crom
crtc
fuzzy
corb
signatures
needless
filters
filipp
filipino
effi
yorker
pok
poitier
##iero
##ancies
audible
seniority
chairmanship
mcqu
prompts
dono
espnw
flop
flick
terayon
deplatform
dahl
salesman
sinister
guad
slap
slapped
articulated
latman
brandy
takeaways
caplan
mobium
2027
didja
locale
localities
##anker
307
mytv
myron
lof
##ugo
corpus
##plained
debated
legacies
modules
madea
standout
costumes
188
1883
##otherapy
defici
defamation
simons
freezing
cbssports
edelman
charming
##attled
rulings
speeding
severn
opportune
##blehead
versa
hallway
comedycentral
elects
##parents
##ricting
insati
inslee
keyboards
goofy
##views
emph
empires
smalls
octane
totality
packard
submission
believer
redund
reddit
redemption
powering
breast
evangel
trilog
metan
norway
norah
norwegian
peel
pepper
passings
turbo
basement
##price
stockholders
swaps
swanson
swarm
1675
##peed
##peak
releg
handler
skipped
skedge
508
governance
embody
emblaz
errol
blacks
blacking
midday
davidsons
nickn
lessen
angie
everett
farmer
farewell
farassat
benita
finances
financials
242
presenter
##ughton
standardization
sourced
classmates
hulk
multiplat
teles
telstra
cequel
cutthro
motel
spotted
moran
morales
centerfield
404
boarding
infrequ
##onto
documentation
magilla
maggio
greenwood
greenlights
greenleaf
suppose
superd
libert
238
markham
clickable
organizing
diversify
diversification
ideology
listens
##clusive
288
existent
funk
nondu
fourthwall
272
divisional
goldsmith
measat
refine
refined
refrig
robber
robyn
easiest
menlo
menier
snake
planner
planners
capitalist
capitalism
capitalizing
animators
humming
glitz
glaring
glaser
celeb
christi
christie
christman
357
295
novak
denlink
denzel
antip
geol
nato
messiah
phpand
olympia
491
hillman
virtualization
titleholder
legislatures
masses
envy
healthination
##gener
burr
legalized
malibu
pricier
selectv
badge
millimeter
345
plethora
collects
##avox
missions
##echannel
choke
murrow
solon
segundo
logos
##untroy
fielder
##illett
revise
pickering
holo
##umbing
optimizations
circling
retails
chico
westin
practicing
domination
dominates
pacino
roseanne
bookmark
renewable
gamification
balart
garcel
garros
windy
traverse
petit
contributors
frees
803
oppenheimer
achieves
##slide
professed
gigante
mccoys
commonly
switches
dispatches
756
754
bbca
pandora
caliber
bobblehead
girlfriends
inspires
326
323
327
540
squab
squared
pen15
eastwood
disclosures
thomasville
kickoff
mentored
consisted
palatable
palpable
tenant
fearfest
inventing
problematic
taub
440
447
kingstown
traffi
automate
automating
##maids
blogging
bowls
396
394
counseling
layering
385
386
characterization
characterizing
meaningfully
syndrome
bermuda
hamlin
hamptons
visions
fauntroy
segmentation
##linary
susie
organizers
mlbam
hurdle
advocating
##mington
##iffer
rebel
predictive
navar
rosenberg
banfield
37th
colorful
captive
captivating
433
ebon
##borough
leavy
472
ca639
ca63463
illness
florid
florence
dreamhouse
sandford
familia
toner
suffers
misuse
cheating
##bany
##205
waterfront
640
springfield
##daily
##daugh
##puted
iconocl
macgregor
sexier
olson
touching
armisen
415
float
cannabis
umc
venice
genachowks
bono
bonuses
fortnight
imagines
collaborations
collaborated
mentioning
codec
wilmington
unsolic
clarifying
outlays
outlaws
irwin
535
qualifies
qualifications
qualifier
victoria
homecoming
612
61st
securely
spotlighted
doorbell
lgi
rhyth
observe
obsessed
observations
dublin
1961
cinemas
mcdon
mcdan
cablers
nichols
##guard
sensation
sensible
boyd
boyfriend
synced
indicative
duvall
ghting
coastal
extender
##509
kenan
kenney
omni
pitaro
aggregating
aggregates
housewife
885
peggy
##124
checked
checkout
bloody
suspending
630
637
montage
montgom
vanity
churning
flatbush
865
frequencies
andrews
magnate
magnavox
hawks
hawkey
lambert
595
mirrored
constitutes
implied
dragged
810
kennard
##704
##709
787
conservatives
kahn
002
003
coordinates
akbar
infringes
bleak
bolsters
villan
spiral
buffet
buffeted
peaks
847
ferris
ramsey
##vais
hartenstein
pools
locks
masse
fleisch
g4tv
reversal
toronto
wishes
complac
snowden
snowbird
psychological
##147
weakening
rodrigo
praises
reminders
experimental
experimentation
761
jurassic
recalls
traver
perceive
ashcroft
hangar
indecision
permitting
doubtful
rmation
weeden
brainer
cracking
gatekeeper
troy
trove
nurphoto
##riptive
uploading
bethesda
goncal
sdi
correction
poorer
rubber
rubicon
nuance
vinny
tubes
deregulate
tendency
seminal
scientist
volunteering
dimension
explorers
shaquille
instrument
##2000
hacked
reedbusiness
royalties
showrunners
calculation
mathew
##252
unconditional
overbuilding
fabric
kristine
fragile
motivating
hopefuls
bounds
boundary
cpm
cpms
dunn
frot
flyers
kira
kirby
ca64611
mechanics
riordan
rihanna
shelanski
patriarch
sampled
##channels
ca64076
municipalities
knockout
tamron
crashed
##radio
exceptions
occupants
hatfields
srs
woj
conviva
compromises
##ompter
whitney
##ranted
chains
cruises
##hofer
gridlock
##737
allocating
booths
gleeson
overwhelmed
revolutionary
##party
stunning
beefed
eck
renovations
puzzling
uniques
rebuilt
shouting
interpreted
polaris
vicious
revamping
manipulation
manipulated
facilit
cummings
vigilante
degrad
aligning
puppets
sleeping
maki
mortgage
serialized
envisions
extracting
bubbly
picketing
warmth
retrosp
barrett
adrien
coincident
coincide
circumstance
bunting
relaunched
donnelly
boseman
lagging
throat
interconnections
quoting
carveout
mcgraw
eisner
mantle
isolate
eliot
eliason
rebuilding
bcap
haney
lonergan
rtl
shirts
schemes
dimensions
embarking
erode
aliens
alterman
outperformed
insisting
insistence
rarity
##unctions
repurchases
assaulting
polygamy
escapism
efci
ewan
fidelity
kabc
romano
stabilize
alcamo
undisputed
gratified
syndicating
congratulates
taraji
marsai
acknowledgement
telenovelas
macken
patchwork
##prime
chemotherapy
brutality
petersen
townsend
reclaiming
triumphs
reluctance
ceremonial
supervisors
hungary
assertions
crunchyroll
steeped
urgent
solicit
hyped
##children
adversarial
squads
synchronized
punishment
withdrawal
barkley
tidy
tidal
recreate
prominence
sundancechannel
cassandra
gerard
hustler
hodge
tmz
cherished
strickland
superstars
superstorm
refinance
repealed
psychographic
##master
withholding
replicate
drills
experiments
camcorder
kirkland
anecdotal
anecdotally
fgure
reassert
shatner
tracee
levied
ca64828
restraining
photographs
photographers
benton
babineau
ludington
pascal
fruitful
composer
impairment
caprica
rebuffed
brokerage
therapy
throttle
discontinued
higgins
kurtz
mintz
minted
peele
intuitively
carnival
glendive
glendale
dabbling
lecuyer
rbicms
covenant
interstate
##ifififif
##quisite
stratosphere
obstacles
predominately
takeovers
deteriorated
grappling
perpetuating
cheerleaders
fenway
java
kendra
tomlin
asheville
repurposing
glickman
skyrocketed
auditorium
skateboarding
pronouncement
evacuation
fulcrum
kolb
mingling
nixon
zenith
orchestrated
amicus
paralyzed
extolled
mainstay
freelance
ganeless
lurks
beauvais
chorus
##planet
collegiate
mccormick
voxant
jewelry
aviation
bishop
ezra
chellomedia
adopts
incarnation
cloonan
queried
mehta
workaholics
pharmaceutical
prototype
cardinals
symmetricom
procurement
coutaz
hsm2
riveting
roush
rejigger
shuffled
inconven
monterey
expletives
mercedes
tycoon
mediasmart
overshadowed
taxpayer
unsuccessful
fontaine
ginsburg
mousetr
tornado
worsening
steroids
frazier
sextuplets
outfitted
cancels
whatsapp
poignant
paquete
pricewaterhousecoopers
nonexclusive
innocent
dongle
fontana
hannity
hilarious
hynninen
topples
chappelle
incomplete
brosnahan
vietnam
unimas
maitra
mcginley
mcfarling
mcstuffi
sincerely
noncontrovers
condolences
revitalize
precursor
borgias
lyrica
certificate
conspicuous
inevitably
aesthetic
aitken
foudy
gellert
halogen
iceland
joplin
juceam
jigsaw
kavanaugh
leopold
moseley
n3d
nvidia
sippel
soderbergh
wrexham
xcalibur
ziddio
proverbial
proffering
prognost
conchords
conundrum
shindig
spiketv
ortega
prerecorded
abstraction
marjorie
tryneski
displeasure
ambrosia
untapped
unwarranted
teleprompter
clippers
periscope
soviet
overarching
digitalsmiths
howstuffworks
insatiable
trilogy
skedgell
emblazoned
cutthroat
refriger
garcelle
genachowksi
unsolicited
montgomery
fleischman
snowbirds
goncalves
noncontroversial
056
2k
3a
4b
5m
560
6m
775
799
833
933
912
avery
ahn
a18
aiding
aaa
bg
bore
bong
boring
baza
cg
cq
cing
cain
cbc
cattle
cried
crouch
df
dag
dues
dante
dsps
ea
fiv
fey
fading
faye
gere
giz
gees
gump
greed
giles
gannon
gathers
hare
hier
hanc
henn
heter
houd
hoss
hector
iq
iia
ibc
istan
jt
jord
judi
jep
jams
jared
jacket
juggle
ks
kst
kere
kare
kph
kaz
kios
kilm
kinks
krik
lill
lia
lille
lakota
mow
mild
mama
mik
masl
moses
mfn
mtn
nr
nast
ness
nive
neo
ncc
nications
nale
nah
nials
nont
nugg
nasty
nscreen
oce
oath
osw
pj
pes
pia
pue
pach
pare
pav
pits
psc
piers
pitting
pinn
pizz
pfe
paving
qwer
rr
rj
ruck
raging
roost
riff
ripped
rican
raving
ropes
rvu
s3
sbs
sif
slic
sang
sangu
sided
sift
sza
tt
tes
tug
tuc
tba
tami
tipped
tisch
tls
uci
uenced
vog
vices
vbr
vma
vspot
wast
wich
wakes
welf
wta
wanna
wander
wasted
xg
yi
yae
zi
zip
zack
zona
zager
zacher
zevo
##oes
##oft
##overs
##ography
##nt
##nar
##now
##nels
##nady
##niest
##ycl
##08
##rr
##riss
##rup
##ronged
##vd
##vol
##vich
##eve
##eight
##eous
##eade
##eau
##sb
##sall
##search
##dm
##due
##dee
##iation
##iew
##iath
##ihan
##iopia
##fts
##funch
##fsky
##cor
##cap
##cape
##a0
##aque
##tis
##tops
##talk
##tanker
##luster
##mc
##mom
##mur
##mined
##mhz
##music
##uz
##uar
##uum
##uance
##uze
##zos
##zien
##b5
##blo
##base
##bits
##buc
##bler
##blin
##bda
##botham
##bodies
##had
##hunt
##hoy
##pv
##pd
##pid
##pack
##pace
##public
##pons
##gus
##gil
##gpt
##gans
##gett
##kward
##xual
##xpress
##2home
##jiah
##827
##813
##120
##3media
##32007
##933
thumping
##erer
##erville
##inian
##inets
##inction
##once
##onoff
##onkowski
##atization
##atech
##atisf
##orable
##orse
##oramic
##esl
##enous
##enopoulos
##ndt
##ingfield
##edys
##eddar
##arn
##arts
##arlo
##arium
##anic
##anigans
touring
toky
##alter
##alous
inex
##itin
##itom
##itime
##itled
##itech
##omach
##iones
##icts
##icially
##icano
ofers
##sth
##state
##stine
##stack
##staking
##static
##storm
##lez
##lease
##levard
##etal
##entel
##llas
##asers
##elife
##elmann
onion
##amon
##amag
##amoring
##amoto
foret
forfeit
##vee
##utable
thatcher
stag
stub
stire
stivers
staunch
styl
##illes
##iggers
##igrated
##igenous
##adors
whirl
whdh
rear
reop
revert
reigned
##acola
##owing
##urdy
##oton
##otov
proj
##aban
conrad
isbe
beece
befits
bezos
##ithic
##irson
asians
choo
chord
chees
chai
chops
channing
chloe
cheddar
##rive
##rious
weid
weary
wearing
weaver
##chef
##chuk
anac
##ldrum
sherry
shonda
shaving
shentel
##imo
##imi
##unit
##essen
deid
delect
athen
##that
##things
##thasa
##ulge
suf
suarez
##agold
exited
extern
##osely
##ositive
spont
spalter
netgear
orr
##olar
##olos
##olithic
adher
adored
adoles
cabletech
serend
##cea
##tson
##iland
##ilies
##ilight
##ilms
##ilah
##ilateral
fright
fratell
frax
pror
prong
newfront
##ppy
##ppets
##working
##workable
aln
alf
alam
alber
alchin
alarms
##este
##estar
##estia
composed
compelled
##iven
##ivue
semin
semi
hasht
##eoff
##eography
hahn
haunt
haunting
hauser
hein
mole
moot
moxi
206
##gra
plame
plume
contra
incurs
##udup
##annie
##annual
direc
abilities
abortion
tej
mara
maras
marve
marie
marily
maritime
entic
enemy
enroll
commu
##ffing
servicing
trinity
triggers
##ortal
##ectious
notre
disin
disgr
disall
discer
disabilities
leuk
copped
##sof
liu
lied
liam
lipped
libre
##antini
##antgroup
butte
amos
amuse
amph
amino
broadbus
allan
allot
allies
all3media
allantgroup
offenders
uptv
upselling
intermod
presid
##ipe
##iped
##duce
unid
unap
unreg
unex
unused
unbi
uncomm
unworkable
millionth
##ptively
nebu
medals
mediter
##acker
##acking
##forest
##forthe
##ultures
dodd
dopes
doping
doldrum
videoamp
##geirson
channeling
outlander
telecon
marketperform
goetz
##iever
usb
##rystal
##00hd
rests
resched
appell
apples
appoints
##aport
intrans
intoler
clamoring
##nercable
brat
bric
brash
bratt
indigenous
arbor
arndt
##qui
laa
canine
perf
percy
sok
soar
soaring
overload
recaps
fex
feig
feinstein
manually
manheim
##hera
repet
reproduction
mono
mond
monolithic
expiring
qub
quibi
twilight
##hnell
directive
meier
customary
customization
roz
roch
joanne
subsides
newsweek
prejud
buss
thereby
##eker
sportsmen
strahan
hadsall
##aryn
bugs
businessedge
devious
devotes
nostr
digest
diginets
deceler
decries
decker
getgl
##ostv
##cox
##coalition
##cooler
##ideas
operative
##aysia
##avan
##avant
##avored
##isson
digitalplus
veritable
verivue
##splatform
impres
imposes
demond
gennady
boil
boise
##rows
hower
rego
reggie
##ibus
streamlining
##intz
blaze
setagold
carra
carrey
carlin
carla
carrad
10b5
worces
##merich
afterell
helen
herd
herbert
191
1910
1921
1930
fiostv
invari
unden
espy
maids
mahal
maiella
##lectic
callahan
sme
smother
staring
salutes
salmi
##boats
competent
payday
paywall
downton
downplays
##ssa
mayors
curator
nbcs
backcount
knuck
knife
underwr
undermining
delicious
entertains
crank
crushing
crudup
cauld
##tingly
filardi
poking
##ieres
airstri
airborne
##anca
##ancarlo
velez
realizes
endure
avon
mcil
mcke
promax
##ictures
homegrid
curricul
donates
colony
remix
reminis
remorse
fln
flix
flatt
flush
flesh
flicks
nextvr
desist
desks
desirable
schul
schaff
schram
schoen
depended
depressed
fours
evenly
evenings
affording
bothers
grit
grain
grind
greta
grasp
gronkowski
guber
teamwork
famers
slime
slings
slashed
latitude
lattie
branden
diffi
seconded
publicis
commissioning
opeka
pared
parma
winston
valken
valastro
vps
foundations
lover
looney
looms
keeler
##placed
##itsch
belle
epstein
epitom
finn
finest
modifying
extinction
##eebies
polk
idt
standouts
costing
costantini
181
187
deficit
##ashes
freevee
cbsn
audiencexpress
comedienne
shareable
prima
minow
mineral
dockets
hourlong
api
severed
johns
webster
women18
generators
clement
creature
timewar
footsteps
##efen
255
252
specialists
developmental
pastor
pastore
linea
carrie
openap
lins
lina
socal
importing
importation
ca628
insign
insanity
insuf
keystone
keyword
elf
elle
elves
purse
purple
purdy
purdue
proportion
plants
persona
subtle
subchannels
righteous
sharpton
letang
rightsholder
negl
negatively
calitics
powerhouses
17th
evue
evie
complements
trian
wald
walks
storyfit
metamorph
harrowing
peering
peeks
passenger
privatization
swearing
168
steib
skech
skaad
likens
##racted
citybravo
##ynchron
##munity
emea
emigrated
emmerich
erhardt
nearer
lifeblood
hardy
hardin
blackley
blackboard
blackberry
midband
midocean
nicky
negotiator
##pshow
processed
farther
farina
farrar
benz
245
241
##ugher
standardizing
sourcing
classifying
fullscreen
stepmother
confron
ipbased
ipdr
multiply
multipronged
angelica
tellet
telestream
cutbacks
hoxie
moto
combinations
financialcontent
matrix
matenopoulos
mormon
centering
ca6429
argo
403
409
407
singular
landel
landline
landlines
landslide
infu
infectious
panoramic
documenting
documented
greenspan
supermodel
supertanker
markers
clicked
##unding
congressman
226
restroom
281
284
2878
basico
facie
funniest
nonp
roberto
encode
encycl
mediam
estimation
shorty
lederer
applause
refu
alto
radi
radically
youtoo
policing
maxine
maxwell
316
318
313
benefactors
judicial
softness
snag
snappy
##shots
##ternet
danish
danuff
jealous
humility
humbling
pageviews
606
601
604
glimp
##atories
##atorial
tuesdays
youngblood
christensen
proposes
355
354
35th
bowie
emeril
visitor
feelings
dena
antid
antagon
geir
geeks
geppert
natively
45th
unites
draper
effortless
hillcoat
legislator
predatory
essay
weatherman
##genet
buried
maloney
malaysia
madigan
mixon
mixture
administered
rosas
urjiah
separating
ensues
ensured
342
pleaded
searchlight
complainant
similarities
solberg
##tca
conversational
logs
staffed
paulson
exploding
bites
##ergens
summing
brightpoint
silenced
##ceptible
lighting
pacing
rockies
rockland
petitti
cooke
809
rulemak
watergate
deterrent
echelon
roadbl
mccran
mcclar
jimenez
voy
disprop
75th
clouded
archived
californication
trumpeting
squel
squaring
vendetta
sameness
groundhog
variation
variations
##ginbotham
housemates
2013e
cups
boosts
mindful
mindshare
energized
palo
awkward
tenacious
activism
amounted
reflection
reflective
ppa
blogosphere
395
391
characterize
characteristics
sarandon
latinx
latinum
berk
bergen
332
tunnell
budding
recommends
ranger
rangel
vrbo
battlefield
##linear
trains
trainer
straub
skyline
susceptible
426
pointsmart
tread
lackluster
chargers
candor
julio
enjoyable
browning
brownfields
deggans
banquet
370
fifty
##dened
hunk
hunted
grandma
dynamite
divis
656
651
linking
societal
434
ebony
wilder
##ramid
471
ca6392
shotgun
taxi
bayless
dreamworks
athens
oxygenlive
textbook
##ovkin
misery
misgu
misunder
bernie
proudly
##118
familiarity
mastery
wertheimer
watercooler
penned
suitors
macs
macintosh
elevating
elevator
candidly
olgeirson
armando
staniec
reinv
venerable
noms
cells
conversationally
utm
moderating
screenshot
wii
wield
cookson
wilshire
unsett
unsusp
jaydee
luckett
treme
preferential
attacking
570
857
8514
ellwood
irons
mystics
nexcare
536
539
purported
purposely
juergens
stuffers
megatv
lesley
pathways
investigated
retains
618
subcultures
sizeable
contacting
falk
falcons
falchuk
manufacture
lindner
lindell
lindsey
rhi
rhys
rhodes
fuseideas
disappearing
bakery
tacks
tackled
##185
bullies
vaults
woodside
exempting
sharktop
petitioned
##haus
cabling
converts
surrounded
photobuc
bonded
bondholders
wgaw
##995
sensing
capito
modernizing
boyers
synch
synctv
santos
ghana
grief
gripping
grifn
karr
orient
marriott
##506
criticize
ethiopia
omb
omvc
painter
painstaking
hits2home
##ciline
restriction
graphical
672
880
##ponder
adaptations
operationalizing
objection
objectivity
suspects
634
exploiting
treats
vanilla
##connected
emergencies
866
965
grossed
podesta
688
briefly
masterchef
593
appreciates
##rosse
constitutionally
740
ramped
implore
keynoter
harmonizing
marshal
physicians
kennedys
##701
786
vacations
vacuum
metrocast
mtvni
001
narad
akon
navigates
navigator
bleed
845
ramifications
emails
truths
muller
muppets
thankfully
beside
koer
kohn
koala
695
flekt
##246
darcy
torrent
tribes
tribal
wishology
##105
##104
apartments
snowe
graduation
psychic
fttp
ignoring
duran
evaluated
796
798
concedes
normalcy
accomplishment
ashes
ashford
brittany
ghostbusters
youthful
deportiva
intentional
bedingfield
flags
nonprogramming
exercises
ca64387
922
tablettv
laboratory
mitchelson
rubio
rubric
chatty
chatgpt
dodged
930
935
934
gems
gemstones
vincent
marginally
illustr
illustrating
illustrates
illustrious
psu
halved
irony
chipsets
scientists
repeatable
kanye
naive
##olitical
commanding
braugher
grego
mutually
evidentiary
culver
dcas
goliath
golovkin
hrts
brookstein
recruits
schwab
biases
biennial
biannual
hacking
tallies
##195
shielded
sparked
desktops
immersion
##8391
leaping
leapstone
embold
embodies
gaynor
mathem
mathews
folded
statistically
fabled
fabrix
motivates
cpni
dunked
giancarlo
jacoby
molotov
privileges
baggage
kirsch
tutor
lobbies
galloway
riots
specifc
entrepreneurship
##572
diferences
kayu
ligue
liguori
##writ
seventy
clarken
rooting
lumen
rushnell
##loncam
sequentially
##expo
censor
shortshd
grammer
gramming
differentiators
hatfield
woid
philipp
gente
forbids
frustrated
creepshow
dateline
hindi
hinder
hindered
cruel
legitim
steinfeld
stacks
grabert
matchups
missoula
circumvent
icann
allocate
presumes
schmitz
revolutionize
katzenberg
grocery
paso
mirroring
dorit
doris
ecstatic
merchant
puzzled
hogs
hogar
injured
rehabil
urls
criminals
coffers
outdist
deceptively
applauds
reorganize
manipulating
granito
accompany
benny
bennack
##garty
##garten
reuniting
aligns
alignment
appetites
sleepy
boulevard
morty
perpetual
smacked
honestly
duplication
mitu
pulitzer
untitled
immigration
unlocking
tatiana
coinciding
berkeley
mislead
oceanic
unbound
laguna
federated
identifiers
identifiable
aquarium
krass
kravitz
lombardi
pyramid
pyloncam
pedal
isolation
resigning
mckenna
bcs
hanlon
pentagon
penthera
pillar
watermarks
catalogs
embarked
livel
nprm
clinched
affluence
groundswell
cannibalization
unreasonably
rustagi
cheskin
correlates
mcgowan
redefi
brewers
kcal
siegman
wolzien
extrav
congratulations
cynical
keri
tickle
scanner
remotes
slimmed
robotic
substitution
fingerprint
rabe
interoperate
brutally
blindspot
fluency
ca64275
renegade
frankenstein
jacques
ancient
resilient
quinta
salvador
liquidity
dsr
dsmart
rendering
rendered
tillis
tattoos
##payment
maverick
drums
plaintif
cicciline
##eworld
notching
downgrade
cautions
inflationary
ambassadors
tempered
lanes
ricci
##hawk
avatarlabs
bursts
snowboarders
crossplatform
shahidi
rethore
pavement
spectacularly
reinstatement
cbeebies
cusp
lodgenet
tolerance
feasibility
distracted
distraction
bmg
bmw
hewlett
hugely
sterlin
reassess
sailboat
augmenting
diminished
fingertips
kotay
yvonne
prayer
commoditized
telepic
brunson
parlay
purveyor
ca6456714
breakdowns
hampering
higginbotham
hijacked
shanley
clasico
deprive
slashes
motorsports
rebounding
bombs
gorman
jcpa
jockeys
ramsay
tinkering
toehold
##adamus
covenants
scuttle
dawg
supplanted
detrimental
deterioration
ca6368391
vulnerable
reaffirming
duffy
javier
pistols
##2btv
unaffected
accumulate
indefinite
scatter
scattered
blazers
cursed
schuller
schanman
turtles
rebellion
alyssa
mummy
tauke
##fkhan
revision3
beadle
orchestra
marrying
lehman
unravel
accordance
scorec
invalidate
creeden
extolling
mainstays
freelancers
obsession
egyptian
ca640660
forbearance
mitigate
mitigated
hutchison
05032007
dignitaries
kgb
mourning
resembles
blessing
relentless
microsite
derailed
suspenseful
quebecor
haygoods
nuestra
ca6513195
tuzon
eclipseplus
stumbling
stoneridge
rewrite
shorman
foolish
rechrist
schultz
ca64129
collapsed
incentivizing
troubleshoot
prosecute
embarrassed
cocktail
anachronism
catastrophic
eichner
jayski
jpeg2000
lamenting
nonsense
sascha
sotu
inhabit
stereot
prodig
enrichment
trumps
vibes
relinquish
crutch
elephant
splintering
reinforces
jukebox
megaphone
sacrificing
nutrition
unbelievable
bailout
bakersfield
dittrick
ianniello
kiera
lcd
pendency
pensacola
siphon
xxx
prerequisite
bridesmaids
##lovitz
homebuyers
esteemed
calabrese
ernest
stepfamilies
renomination
camelot
grandfathered
meltdown
obscure
magnificent
kimberly
grammys
plummeted
aulestia
jeremiah
kouwe
lacrosse
loughlin
mundane
nlcs
##ranean
##ederate
inequities
stagnant
islamic
shenanigans
exorbitant
##oscopic
pruitt
pradco
offshoot
claudia
nostalgia
blodget
mazzara
mcnerney
remediation
valentine
irrespons
omnibus
ca609270
reregulation
wannabes
abbreviated
boulder
gilded
gifford
hargis
lustgarten
ripple
tanner
vorhaus
cablepositive
alonzo
abrogated
commuter
brindle
arbiter
recreates
repository
aficionados
consummated
corbis
deficiencies
holographic
codecs
rhythm
mcdaniel
complacency
ashcroftcea
facilitator
degradation
efciency
mackenzie
gerardis
bazaar
cingular
hancock
hennesy
houdini
istanbul
kerekes
kilmeade
krikorian
maslany
niveus
nuggets
oswald
pueblo
qwerty
slicing
sanguine
ttls
wichita
welfare
yaeger
zachery
##funchicago
tokyo
stirewalt
reopening
athena
externally
cabletechtalk
serendipitous
fratelli
fraxa
hashtag
incursion
marilyn
enticing
leukemia
intermodal
unregulated
unexplained
unbiased
nebuad
mediterranean
dopesick
doldrums
teleconference
appellate
intransigence
nostradamus
getglue
setagoldstein
carradine
worcester
afterellen
invariably
backcountry
cauldron
curriculum
schramm
valkenburg
timewarnercable
metamorphosis
skechers
skaaden
##ynchronous
telletopia
encyclop
glimpse
rulemakings
mccraney
mcclarnon
disproportion
misguided
unsuspecting
sharktopus
photobucket
flektor
ca6438774
024
3x
4m
411
5c
5k
611
660
633
811
829
974
919
au
arou
ayear
aissa
a2btv
bcc
bare
barter
bays
bib
breen
bins
bax
bane
bfc
bunk
b2b
cac
cpp
cations
cally
cream
ctp
cale
cially
cdd
cpa
cvc
ciel
cadena
d9
dion
dst
dre
dth
dos
dud
dome
dence
dare
dail
dives
damp
dwe
dway
dsc
duly
ditch
drey
d23
elo
elic
etv
efc
ehr
fll
fatt
fsc
fax
fnal
faded
faux
gated
gatt
genders
hays
hille
hinton
ies
iou
ict
ike
ilo
ips
ivp
iwo
jin
jad
jef
jett
jaut
jih
jagu
kj
kas
kie
klo
kail
kitt
kamp
kris
kille
keller
kla
khal
kalk
koral
lace
lance
lung
miz
mire
mural
muff
melle
mctv
nf
nig
nies
nil
nem
nance
nish
nger
nitely
nsg
nested
nanny
omission
oller
ogil
pk
pab
pant
pard
pors
pong
paz
psi
pomp
piper
papa
rak
rall
riz
rach
rone
rens
rents
rape
ritz
rida
rios
ratched
s2
sigh
soo
sind
sik
ssl
tiv
trey
tisd
tux
tearing
tethered
ue
uw
uly
ucc
uential
udn
vines
vni
wg
wig
woo
wage
wally
wern
wny
waco
wagon
wenner
weta
wickham
wpix
wxia
xtra
yip
yoda
yarkin
zog
zwe
zander
##oother
##nys
##nically
##nament
##nham
##nado
##nomer
##yms
##ymmet
##ras
##rued
##ruck
##vs
##vt
##vet
##vork
##vice
##vain
##vue
##vie
##vist
##vised
##vette
##vestri
##eer
##eal
##eke
##eeth
##sday
##series
##di
##dem
##datz
##iam
##iard
##iber
##iated
##iago
##fg
##fel
##fight
##feed
##futable
##favored
##cul
##call
##ceral
##corp
##clical
##aise
##awards
##tw
##tion
##tles
##times
##lou
##lum
##lass
##lund
##lane
##mn
##mstead
##mouth
##uy
##uro
##uay
##uity
##uley
##zre
##zeline
##zera
##bot
##bast
##biz
##bord
##bilt
##hle
##hab
##hive
##hoo
##hist
##hoe
##handed
##pear
##phing
##pres
##gis
##gow
##gust
##wi
##wag
##wear
##wifi
##kh
##kamp
##kids
##kah
##x3
##xies
##51
##560
##218
##229
##614
##821
##174
##32
##98
thy
thre
thie
thune
thai
thayer
##eron
##erion
##eros
##erwe
##inel
##inum
theod
##onic
##onna
##onstruct
##atre
##atri
##atore
##atia
##atics
##atient
##orc
##oration
##orld
##orous
##orino
##enance
##enuous
##enfr
##ingenuous
##aret
##aned
##anut
toled
todo
token
##alion
##also
##alyn
ineo
ingle
inject
inordin
inroads
inmate
##itts
##itored
##itivity
##itgeist
##ionary
andersen
andrade
ofce
##stas
##stad
##stru
##stuf
##lea
##lements
##lebr
##lete
##oux
##etam
##etry
##etap
##etric
##reux
##enth
##entown
##llor
##llers
##llie
##isn
##isite
##ishn
##isney
##iscer
##isoft
##asive
##rob
##roff
##roots
##elin
##elior
##elps
##ecured
comu
ono
onboard
##veer
stee
stacy
stiger
iti
itu
itif
##illitas
##igently
##igley
##iguity
##ads
##adel
##adget
##adores
whim
whome
whale
reining
reese
reemer
reeves
##acco
##acasting
##urg
##urated
##urals
proactively
proxies
##abag
##about
##abile
conor
condu
conlon
beek
beings
befri
##irically
ascertain
asyl
asphal
asymmet
chun
chand
chann
chary
chron
chiod
chalo
chidd
chagr
withstand
##teras
##terned
##teridge
weg
webr
weaker
weitz
weaving
##cho
##chant
##chair
anz
ance
anhe
saas
sage
saudi
shal
shear
shivers
shred
shines
##astered
##imir
##imilar
##unshine
##essential
dept
deeded
atom
atas
##usky
##thand
##thewood
##uli
subr
suwan
##agers
##agew
##anding
exes
exod
exton
##osion
##oski
spo
spies
spieg
##atement
orton
orci
orlins
ornament
##olta
##olulu
adage
adept
cablefax
serena
willard
##ilo
##ilion
fract
frons
frms
fritts
prett
##worked
alton
albany
networked
##estead
##estinian
##ustream
##oco
compend
compact
compile
##ivas
seism
seym
sebast
hasan
##ichson
hail
havas
heed
heir
heff
heating
heats
moons
mohu
##grin
##grats
ploy
plucked
tvb
incur
incited
incurring
##uding
##uded
##announced
diaries
diverted
abi
teal
teiss
teasing
teaser
bye
bythewood
##peration
mare
marian
maroon
marlins
enty
enquir
##ooby
##casts
servants
##emens
##emade
##emaker
trl
tracing
trude
disqu
disrup
disfavored
disgust
disenfr
disingenuous
##ourses
ley
levers
leaps
leghorn
coal
coel
coales
cooney
coplan
cobra
##iality
##seeker
liates
libur
lizzo
ama
ameeth
amelior
broadhurst
allig
allbr
allstate
offense
upshot
intermed
interpublic
intertw
vie
vips
presley
presiding
##ketts
##ipitously
showbiz
showseeker
##dued
univ
unident
unman
unready
unknow
unturn
unwa
unrival
unannounced
nee
neon
neely
meddling
##inea
##inelli
##orski
##endered
##acks
##ultuous
doom
dole
doable
accrued
accustream
##gev
##geon
##geiger
outlier
outfi
outfits
goers
goff
##ieve
mediahawk
usp
usoc
usability
usdtv
##ryl
##00000
operas
##odied
reseller
appian
appreh
cloo
clif
clare
clover
##ongs
##vide
##formula
programmable
bret
brakes
fools
induce
##ifully
arlen
arlene
aronoff
##quity
##quist
##ileus
##istors
oneprice
##eyphoto
lazy
lazo
canals
additive
addicted
perish
perks
percol
perils
overhead
overhang
overpric
recused
feist
mano
manos
mance
maney
mankind
##herty
##heretv
##ogging
repairs
reprint
bask
monitored
exposition
quiver
quorum
sco
scam
scot
scrum
scanning
scopus
scooby
thanked
##ached
##itee
meat
customizing
rov
roast
multiv
joys
jokes
johans
subsystem
##icki
newsmakers
newsletter
prey
preacher
sheen
shelly
sheehan
sportskool
straw
stretches
businessmen
devils
noel
##ondo
##ondemand
diggs
digeron
highland
decimated
deconstruct
##mania
##cobar
internap
afters
dealings
##isser
acsi
acerb
verb
veria
verdes
verveer
betray
betamax
##spring
##special
implic
implicated
implicit
impede
imprint
impastor
impatient
senor
0000
000th
productivity
warn
wares
warnings
boasted
prix
priest
pristine
biggie
bigalow
##assy
##verton
bling
blink
blending
blanch
blinking
blurred
blvd
phelps
seta
systemic
justine
carous
carmen
##ounters
worn
afterward
afterparty
##uese
helper
helmed
herm
hereto
retali
##rax
1960
1945
fiances
invict
playl
playhouse
annoyed
undere
undone
undup
undisco
##itton
mazar
smur
smile
smyth
smoother
watchmen
watchdog
backer
backstop
knit
underwater
undermines
delving
delicate
delisting
##cero
crue
crises
caj
ca3
ca28
ca43
accesses
accessory
fuj
billion20
corruption
corvette
signiant
needn
filtered
worldbox
pov
poke
##comb
##combe
speculating
hdc
spelling
increments
airband
##ancings
##tvf
realworld
locur
endang
endemic
disneychannel
avila
attent
mcen
mcph
mclar
mcstuf
promul
donate
espnradio
##ellows
colby
remastered
flam
flir
flann
flare
flint
flames
flosp
flaming
flaca
nexttv
schiller
schrad
schae
transpl
transcontinent
transistors
teri
terre
terri
##ftth
##tones
dai
##phr
centre
centuries
reportage
grumb
grilly
sins
guinea
famer
slid
slug
sluss
slump
slope
slaves
##cliffe
engulf
engadget
brandt
dres
startling
takeout
opined
moby
mobil
paring
locales
##ankind
30s
valuing
myworld
loy
lois
kee
keefe
keaton
kevork
strategists
##uguay
##azi
beforehand
corps
##pling
begs
begley
beggs
debi
deba
debit
debun
debaters
surplus
lego
epid
##vedo
finley
modi
##eez
header
headwinds
15m
1546
persists
persever
ides
costume
costabile
defensible
##loyed
simmer
freeze
freezone
edits
edison
eddy
goodwill
countenance
billings
ministry
minaj
wrangler
wracking
autonom
lawenda
lawlor
americanlife
pax
paj
paff
##risco
fedex
speedvision
apr
apathy
johnston
johnstal
webcasting
informs
musser
talker
courtaban
universo
universally
259
nightline
allowances
electus
electoral
##rically
agreeable
ca624
forma
formative
driessen
##acomo
somerville
insuring
keying
llano
marching
##ahi
elena
elmo
elvis
merry
subpar
subdued
##novel
##enged
popo
popul
populate
calming
caluda
profiting
redding
disca
171
protagon
equate
evoke
evokes
eviscer
triangle
trierwe
postcard
connector
harriet
harrel
harrad
harrar
peanut
passages
passively
receip
turbul
##prin
decisionmakers
stocked
stockton
##velis
##cessible
swir
swear
swire
swallen
166
1628
raiser
controllers
behest
handmaid
skids
skitter
##ync
storing
storming
emarket
erichson
harden
hardcore
nicktropolis
nickmom
vodaf
angst
anglers
evercore
evergreen
variant
socialite
socialize
socialites
farscape
farhad
titill
benesch
247
criterion
fullest
confederate
periodically
span2
hovering
motown
motley
matador
maternal
217
morphing
ca6499
ca6427
ca6470
ca6480
ca6453
40s
singling
boardroom
falloff
infant
infected
infinity
infeas
infospace
##inski
##insky
barco
barney
barford
screenplays
panther
panama
panicked
panicking
panzera
tyrone
suppress
suppression
superb
liberating
applebee
pati
patterned
forwarded
markley
economical
lovells
sykes
symons
symph
cnnx
diversifying
224
limb
restricting
restoration
giveaways
faceoff
adsense
nonlinear
schooled
##oking
encounters
deploys
designation
designate
engineered
reasoned
bandamax
##eringh
ottaw
virtuous
momoa
droves
measurable
renner
raddatz
youtub
improves
honed
honolulu
314
319
317
deadlock
deadpool
robles
##govern
wedell
benefitting
benefitted
beneficiary
pubs
##avorably
softball
spacex
menus
snider
snuff
snipp
snapping
snipes
breakers
politician
animations
condon
voicemail
humane
humira
humankind
detent
detectives
participates
glue
glory
glimmer
commenter
youngstown
tracknet
horns
parameters
3554
visceral
feeln
quickplay
nova
denis
antena
messy
commercialized
immeas
celebrations
beyonce
effortlessly
490
kindness
legislate
predators
castillo
seekers
massape
tbs1
healthier
burstein
##regular
furman
furious
malaise
madsen
madonna
mixes
administering
rosenson
uruguay
separates
2012e
theatrically
badwyn
millan
huang
plea
attractively
hotline
hotshot
cameo
chopping
murano
responds
smithgeiger
logjam
battista
battalion
questionable
paulo
furthering
furthermore
revived
replenish
364
necessities
necessitated
collide
statues
circa
##ciato
##streaming
stripes
silvestri
##awk
##olfini
702
707
70th
volk
volpi
wheaton
bravolebr
microphones
microeconomic
lightrocket
pacs
paces
lasse
booked
renewability
gametap
garret
windjam
tvsquared
petrie
contraction
freak
freight
copycat
805
808
804
watts
nabshow
opponent
profession
gigolo
mcclain
##rime
circulating
jima
jacking
enhances
dispel
dispose
dispatch
751
archaic
wideorbit
cypress
cyclical
tennant
bureaus
cords
cordless
##uffs
videa
conducts
553
55th
aspired
aspires
appealable
541
544
culturex
cameraman
trumpeted
descram
##rilla
samual
##ooned
penning
easttown
princeton
chancellor
##aganza
slowest
cupc
worthwhile
domains
svods
kickin
energetic
palos
palestinian
awak
dolgin
louise
tenets
fearful
concise
subsidizing
travelogue
inflated
inflating
vhi
##zza
forcefully
amounting
##ossi
trafficking
energy2020
381
383
389
auctioned
characteristic
mailers
338
334
librarian
visionaries
percentile
arranged
trainers
straits
strapped
elsevier
420
425
422
421
trepid
sticky
juliano
rebut
interfaith
predictably
enjoyment
navic
perfection
dropoff
unfounded
unfavorably
marcia
521
5214
banter
##burner
##bluh
contestant
captions
captains
captivate
divulge
436
439
wildfire
mexicano
excelled
surviving
479
taxed
illicit
flores
dreamers
sandbox
adjud
balls
suffix
dogged
architected
rainforest
##ovo
##ovia
misfi
misanth
misnomer
misdem
cheered
cheeks
proudest
##202
freshly
selfi
tapeless
plannedftth
storefront
##gregation
penetrations
steward
francis
springer
pursued
jessie
pennies
##757
juno
junket
macias
maclean
macchio
olay
olmstead
touchstone
touchstones
ordained
412
shuts
shuttered
seriousness
reinvest
emphasizes
bona
gardens
##6057
imagina
collaboratively
516
unsecured
clarified
faiths
jaye
appointees
lucid
tremaine
outlast
outlaw
574
irregular
ariel
supremes
supremacy
inclus
568
569
534
qualifying
damper
juvelis
stuffing
trendy
megap
citadel
homestead
lester
gradual
pivoted
613
galvan
anthrop
subcateg
wrestlers
submitting
accomplishing
013
falwell
acceleration
melton
melvin
melani
replacements
sender
##183
bullrun
1962
shootout
cinemato
foregoing
##rani
##ranet
sharknado
blueprint
materialize
nichelle
minimally
##3312
surrounds
literary
capita
modernize
710
715
lynx
tagging
boyc
indicators
duane
dividing
registering
grips
coasts
solidify
karin
karla
ethan
ethical
ethnically
kenin
omnic
dermot
conceptual
civilization
621
bulgrin
chipmaker
673
679
bradenton
herscov
##122
beatty
shapes
631
brotherly
863
grossing
pods
queer
quell
admir
admired
magnets
682
##130
spreads
harrisburg
beautifully
planting
briefed
briefings
lucero
elemental
585
582
mirgor
745
748
749
983
randi
implosion
surfs
harmonized
949
815
780
ruhle
rugrats
undersea
005
reliably
akron
cowden
cowgirl
tricked
preclude
precipitously
893
897
infringers
battered
blew
bolts
buffer
840
848
baer
gaping
tentacles
vmetv
locker
mask
masquer
koch
kobe
kellogg
flew
fleury
fleabag
siri
##241
climbs
certify
certifications
fantasia
simulcasting
daron
darby
darius
darryl
gordo
pledging
laughed
snowfall
authenticates
acknowledging
066
westerns
ignores
ocpv
weaken
newsmag
newsmaker
transcoder
092
durability
vitale
vitality
##ijn
reclassified
reclassifi
avenger
romero
revolving
juris
jurors
methodically
methodologies
traits
disrupting
leverages
godzilla
barrios
ashleigh
carlton
1257
inquirer
permits
permissible
pollock
guessing
glasser
constructing
babyfirst
cosm
cosmo
kaplar
slammed
encoder
encodes
loretha
stonepeak
dissolved
dissimilar
brains
assembl
bedol
clockwork
filmmagic
hurtling
obligated
hooking
hookup
nickell
corrected
gillian
gilliland
chatting
dodge
879
877
932
escobar
reputations
illustrate
071
halo
hbcux
ironies
kelvin
ratcliffe
semillitas
ca652
commanded
intentioned
greenthal
ambition
ambiguity
williamson
ballyhoo
culmination
hrtv
brookings
duplass
##193
spiritual
ings
stoll
stopp
leaped
upsets
extensible
simplest
simplifying
calculus
calculates
embodied
antennae
mathes
punct
uncor
resonated
resonance
verticals
kristen
stimulate
eateries
giann
portraying
portrayals
ca64420
bodes
klores
plugging
ca64624
cyberspace
sexuality
observing
bachelorette
azn
fishman
gallant
lionel
meyeringh
shelby
imperfect
scalise
scalability
gutstein
gutteridge
tamara
##543
sequence
surgeons
morrison
##raditional
occupies
ecting
inherit
inherited
procedurals
allegation
prelims
whitfield
keenan
btop
datacasting
earnest
dennler
loudness
pelcov
##555
ingrained
stacked
##izzi
048
pounding
##730
concurred
gleefully
rigid
rigged
rigging
schmoo
irrefutable
labeling
grove
jerusal
passport
beefy
beefing
citizenship
dorian
sabado
ubisoft
##ukkah
chuckling
strangle
wheelhouse
ladder
siemens
injust
injunctions
190369
scratching
fatig
sadly
sadness
saddened
sadusky
shrunk
coffey
deception
deceased
disciplines
applauding
jeanine
hotties
tuber
tucci
tightening
albums
facilitating
breakthroughs
lucasfilm
cavanaugh
##858
reunited
chadwick
continuity
puppies
watershed
cheaply
##obits
perpetually
gloom
picketers
rgus
wardens
yields
preston
prestige
untethered
reconsidering
southeastern
unlocked
magnolias
algorithmically
zeitgeist
rewarded
prosper
adriana
coincides
coincided
reconven
reinstating
wingman
flooding
flooded
horsesh
interrupting
desperately
persuasive
evansville
rudy
pocketed
ubiquity
unknowns
bcfm
hanukkah
hoodlum
pills
tarn
tariff
thresh
outsider
trademarks
discrete
eroded
livin
liven
allyson
clinic
unnecessarily
shameless
acronyms
assaulted
cornileus
grassley
grassroots
belonging
kcr
theorized
theoretical
stabilized
enactments
affirmed
ipv4
patriotic
rotating
rotary
##amanian
arcane
repaired
exponential
friedlander
noncoms
proliferates
diligently
mimic
##interactive
##letters
spacecraft
##keeping
intensely
lauder
expedition
validity
thresholds
symbolic
juggernauts
kali
malls
reigniting
outpaced
resiliency
quintessential
salvage
graciously
aztecaamerica
fyc
grimaldi
lectures
forgot
disadvantaged
laurels
recycl
awaiting
prevailing
nolting
vicky
hemisp
downgraded
adversaries
temperament
hutkin
lantern
nerd
rickey
tidings
recreational
sheeran
1930s
smokes
guerrilla
monopolists
reimagine
reimagined
caches
fittingly
gerber
gandolfini
haggis
tears
wbtv
##659
stalwart
stifling
shaky
shaken
uncomp
pregnancy
throughputs
rethinking
ca64334
superstore
introductions
sacrifices
bhatia
bogus
bogada
cusson
habitat
wachovia
tolerated
inaccessible
medicos
overdrive
replica
replicating
repositioning
estrada
classifieds
sanctions
anecdotes
dooley
hewes
kroner
##itheatre
spoofed
sealed
2032
envelopes
buccieri
avalon
ca64157
ca6415560
diminutive
babys
norton
pinkman
sutherland
oferings
chewing
spilled
prayers
parlors
instincts
millenium
dolphin
hampered
supersede
ridiculed
ingredient
affirmation
coco
fghts
checketts
telegraphed
intimacy
reckless
depriving
lifetimes
mcconkey
osteen
intrins
intrusion
arabic
repackage
warranted
dawson
obstacle
kohlberg
contemplating
vulnerabilities
drywall
fanduel
pistol
tiara
thirsty
tomlinson
##igorating
uncovered
deposited
volatility
unfolding
utterly
biographical
skateboarder
inaccur
ahc
forensics
revisions
beauch
shakespear
complicating
containing
amicable
unruly
unjustified
ackman
bozeman
ca64172
patrice
multiplexing
philanthrop
obsessive
disseminating
exhaustion
dignity
gouge
gouging
hinges
kilobits
kornbluh
lpga
nhk
oxford
vanderbilt
waning
regrett
weisbord
frenkel
franco
addictive
relentlessly
propaganda
mccormack
sleuths
tenths
##magazine
##1992
conjured
shorthand
deerfield
platinum
bragging
relativity
schulte
ca6473312
glamour
palladia
cocktails
catastrophe
breezeline
kiara
pichardo
pierce
ingesting
##iggles
whammy
liverpool
lipsitz
straddling
depressingly
portuguese
junkie
adventurers
adventurous
koppel
lieutenant
lieutenants
scrutinize
vladeck
vladimir
dusk
gersh
mje
sizzle
tumultuous
wacky
thirty
toshiba
stodgy
stinchomb
frantzre
pryor
disorders
unofficially
scottsdale
preaching
caesar
caitlin
acquirer
ca6296
subtitling
erroneous
barnz
sylvia
motorcycles
archaeology
cylons
sandwiches
creepy
unrealistic
pedestrian
cohesive
ca6492998
dbm
duluth
doree
jabbar
kbw
wbbm
##between
tolchin
exacerbated
mofett
plausible
incitement
clerks
ardent
digiacomo
decompress
signifcantly
surratt
charismatic
frontrunners
sidewalk
ca6467205
thermostat
eschewing
reintroduce
stmicroelectronics
2gbps
gumbel
hansen
lithgow
magee
pfizer
tarantino
vinci
##brief
##patrick
tobacco
inergize
rejoined
sappington
depleted
seidenberg
enlightening
brodkin
impractical
demetrius
cromwell
lofrisco
versailles
telesat
infrequent
libertarian
nonduplication
glitzy
antipathy
geolocation
bookmarking
taubman
villanova
761st
retrospective
coincidentally
rejiggered
mousetrap
liaison
mowry
nontraditional
nscreenmedia
piazza
pavilion
vogt
staggs
cheese
weidman
spontaneous
discern
unidirectional
unapolog
repetitive
prejudice
deceleration
paydays
airstrikes
mcilvain
mckean
infuential
refugee
antidote
ca639214
reinvigorate
unsettling
outdistancing
livelike
extravaganza
rechristened
stereotypes
arouh
baxter
ctpaa
caleb
cielos
d9858
dstac
dwelling
dwayne
dreyf
elicited
efcient
jettison
jautz
jaguars
kiefer
killelea
kalkwarf
mireille
nfh
nemesis
ogilvy
rakuten
rachael
tisdale
tuxedo
wernick
wnyw
zogby
zweig
##history
toledo
ineoquest
inglewood
##ishness
whomever
conduit
beekman
befriended
asylum
asphalt
chandler
charytan
chalozin
chiddix
chagrin
webrtc
anheuser
subramanian
suwanee
exodus
spiegel
prettiest
compendium
seismic
seymour
teissler
entyvio
enquirer
trudeau
disqual
disenfranch
liburd
allbritton
unmanaged
unknowingly
unturned
unwavering
unrivaled
clifton
canalsur
overpriced
reprinted
digeronimo
acerbic
betrayal
implicate
heretofore
unduplicated
undiscovered
mclaren
flosports
schrader
transcontinental
slusser
kevorkian
autonomous
johnstaleyphoto
trierweiler
harrelson
turbulent
emarketer
vodafone
infeasible
symphony
ottawa
deadlocked
hornsby
massapequa
windjammer
trepidation
misdemean
omnicom
herscovici
mirgorod
masquerading
pelcovits
jerusalem
hemispheretv
shakespeare
frantzreb
075
060
026
1cast
2b
3q
3am
4q
4as
5b
5ive
6b
6x
620
699
7x
7up
718
8h
827
812
9to
920
914
aik
aero
ailing
a28
a24
auer
averted
aunts
b3
bmp
bake
bhn
bair
bics
bony
bended
bung
bomer
berto
bacqu
bounced
bpn
bribing
bisson
c4
cst
cec
cust
cere
cenc
cuse
cmm
cio
cults
celine
cume
cinn
czak
cotten
cierra
d4
dith
dort
dvid
dock
dames
dys
dina
dds
dots
dude
dwell
drex
ej
eet
eid
ely
ecc
ery
epl
egan
epps
ff
fic
fet
fec
fum
fse
fod
fner
fide
fft
fences
fne
fistic
fta
fencing
fizz
foust
fiesta
gd
gt
gew
gork
gage
gors
gist
gub
gide
garg
gte
gale
gael
gane
guration
hn
hic
hoc
hue
hft
hmm
hecto
iat
ich
iris
ibe
ichin
ictv
jy
jor
jair
jell
jeter
jaff
jody
jada
jda
jerald
jensen
jingle
kf
kk
kx
kes
kum
kop
kod
kite
kish
kass
kale
kett
komin
kats
kung
kptv
kattan
kiley
krak
kfm
krod
kitty
kpix
kubin
karyn
ls
ld
lf
lb
lite
lint
lass
lili
litter
ltered
lsi
loney
lumped
leopard
mk
mou
mam
mab
mick
mier
mined
mio
misc
mmi
mstv
mika
mesa
mfm
moust
m2m
nent
nady
nte
nals
nosed
nyn
nai
naco
niece
nese
nfr
nitti
nacional
niem
oo
oj
o3
oor
oro
oled
olly
omin
osh
odc
ooos
pow
pter
pak
pour
pine
pile
pint
pitt
pamp
ptv
pash
pett
pto
piment
pta
p18
plying
pde
pidge
puma
pussy
qoe
rw
rect
ruse
rba
rik
rats
romm
rami
rta
rattle
rva
ripping
renders
rattled
rtca
sity
sod
sally
smp
sings
seld
sode
sizing
szar
soto
sutter
socks
sasha
sierra
ture
tory
tuch
tending
tted
tumb
tila
targe
tavel
ttingly
ux
uence
ump
utv
usta
ucp
ved
vil
vbs
vare
vail
vinson
vito
vulture
vectors
wd
wand
wick
wint
witt
wels
wbr
wtc
wetv
waving
wavel
wvue
xed
yun
yol
yank
yeon
yawn
yeh
yuri
yonder
yamag
yossi
zim
zil
zak
zink
zte
zinter
zaccar
zelda
£5
£2
##oi
##oz
##oid
##olet
##o71
##nn
##nay
##nity
##nall
##nage
##nite
##none
##yp
##yk
##yll
##york
##yach
##yah
##yler
##yana
##09
##rack
##rally
##rach
##rals
##rances
##restri
##riona
##vod
##evision
##eons
##eft
##eva
##eghan
##sas
##dest
##dard
##dient
##dwell
##desc
##deto
##iage
##iree
##iator
##fan
##fia
##fone
##face
##fting
##fony
##farc
##funct
##cine
##cated
##cup
##cially
##craft
##cicki
##crime
##a1
##augh
##aunted
##aucus
##tor
##tar
##tve
##tun
##try
##tap
##lt
##lion
##lich
##litz
##liano
##lolar
##mg
##mut
##may
##mare
##mind
##moth
##mfully
##mux
##m100
##mfony
##ui
##uin
##uation
##uage
##uero
##ueless
##uzak
##uera
##uanis
##zman
##z80
##zinger
##bh
##bq
##bill
##bil
##bbs
##bug
##brew
##bille
##billy
##bacher
##brows
##hum
##hner
##hound
##hees
##hler
##hoff
##houb
##hstan
##pow
##pump
##pott
##puff
##piling
##political
##pz80
##gt
##gel
##got
##gary
##gates
##givers
##gger
##glob
##gool
##gina
##greens
##wg
##ww
##wose
##whip
##wass
##wires
##wright
##wani
##women
##kom
##kos
##keld
##koe
##kroy
##kamoto
##qvist
##xd
##xm
##52
##582
##5eva
##228
##62
##69
##6000
##jian
##jko
##880
##127
##170
##475
##450
##412
##417
##464
##300
##354
##7en
##716
##´ve
##¬sion
tha
thl
thug
threl
thaler
##erd
##eri
##erz
##ercy
##inne
##initely
##info
##invest
##inatorial
thec
theta
thedaily
##onur
##onuze
##atlant
##atening
##attering
##oren
##orized
##orola
##ester
##esco
##esko
##enor
##enup
##enomin
##enhe
##enla
##enko
##enbaum
##edon
##edew
##arri
##arwal
##anu
##anoke
##anetv
tok
toms
toym
##alm
##alit
##alot
##alind
##alted
##aldo
##aloop
##aluso
inel
invision
inward
inference
ingen
ineff
inbound
inbetween
##itan
##itim
##itiv
##itates
##itives
##itons
##itatively
##omay
##omah
##ometer
##omising
##omikes
##ionably
##icter
##icine
##icop
##icist
##icating
##icron
##icured
##icomm
##icua
andres
ofcom
ofbroadband
##stiel
##steen
##stenberg
##leod
##leading
##ouched
##etel
##etian
##etworks
##etooth
##etob
##etwose
##rea
##reate
##rego
##reery
##recy
##report
##enti
##enta
##entures
##entional
##entral
##entimes
##entiful
##isor
##isville
##isabeth
##ido
##idan
##idal
##idad
##idant
##idized
##asqu
##asio
##asci
##aspeed
##roch
##rovid
##roach
##roys
##robor
##elow
##elotta
##ersberger
##ecele
como
comey
comstar
onc
on2
onair
onetime
onof
oneday
onetwose
##amine
##amarg
##ammed
##amination
##ampton
forew
forte
forgoing
forerun
##uti
##utia
thatyou
thatisn
stas
stab
stare
stah
stoke
stoked
stokes
stussy
stomach
##ills
##illop
##igo
##igree
##igibility
##adia
##adays
##adio
whack
whod
whiting
whoop
whbq
ree
rees
reem
reair
reinal
rejects
reacts
reiser
reanim
##acs
##acula
##acuda
##urt
##urig
##urations
##urial
##urance
##urbed
##urbon
##otan
##otage
proft
proton
prodd
prods
progen
prostitute
##abul
##aberry
##abouch
##abhoy
conqu
coney
conomikes
isaza
##ewal
bean
behn
beams
befriends
beanp
##veraging
##irs
##irque
asr
asi
asbille
chu
chal
chess
chib
chock
chitt
chug
chool
chau
chocol
chalk
chokes
chriss
cholos
##rifc
weep
weei
welear
##chel
##chial
##chik
anag
anol
anub
anked
anita
aniello
ankit
##orkis
sapp
saav
safer
saves
saget
sahner
sakamoto
shol
shod
shib
shade
shined
shaut
shomi
shuler
##imar
##impton
##ctor
##union
dea
deen
deol
deference
deanna
degener
atv
ate
ats
atres
atlink
atorino
##usiness
##uski
##them
##threat
##think
##thold
##thatt
##thaler
##ulent
##ulas
sump
sumer
##agher
##agne
##aghan
##agoga
##andi
##andalo
exo
exude
exagger
exorc
exalted
##mentor
##osph
##osca
##osnick
##osynchronous
spinal
spouse
spars
spara
spicing
netcoalition
orson
ording
orzo
orethe
##ieson
##olve
##olow
##olab
##olies
##olves
##olnik
##olatino
adl
adb
adkey
adworks
cableone
cableace
cablecenter
cablecasts
serdar
##cell
##tsy
##ivey
willow
##ilova
fruct
fritz
frye
freston
prc
prent
prided
prero
prenup
newco
##ppable
##ppard
##ppiness
##ppost
##ppled
##ppei
##ppanic
alb
alot
aless
alag
altic
alanna
alpert
alask
networkhas
network229
##estown
##eree
##erella
##ocop
##ocument
complying
compiling
##ivities
seah
seanna
sevier
se7en
##eof
##icho
haigh
haase
haired
washa
heist
hems
heising
heintz
hebrew
##arte
##arted
moat
moar
mook
mooted
moosnick
20a
20the
##akhstan
##grams
plumbing
plentiful
plimpton
tvworks
tvfreedom
tvguard
contamination
inconse
##udy
dia
diab
dipl
diba
dibit
difc
dizz
dixie
dio71
##umed
##umont
##umatic
##umetric
##alla
aback
abused
abusing
abuses
teas
tequ
tease
teppei
marlo
marco
marib
marino
margo
mariana
marwell
marva
marissa
marlon
marfa
ensn
enfield
en25
commencing
commitee
##aina
##ainted
brood
serviced
##emis
##emary
##emics
##emedia
tran
truman
traur
##orton
##ortes
##ections
disav
diskin
##oury
##ourcing
leen
leann
leff
leather
leases
leece
leaks
lefk
coen
coch
coors
coital
coined
coatt
cobl
cozi
##sodes
##sein
liabilities
##antz
##anton
##antis
[...]
