[CLS]
[UNK]
[PAD]
[SEP]
[MASK]
[unused1]
[unused2]
[unused3]
[unused4]
[unused5]
[unused6]
[unused7]
[unused8]
[unused9]
[unused10]
[unused11]
[unused12]
[unused13]
[unused14]
[unused15]
[unused16]
[unused17]
[unused18]
[unused19]
[unused20]
[unused21]
[unused22]
[unused23]
[unused24]
[unused25]
[unused26]
[unused27]
[unused28]
[unused29]
[unused30]
[unused31]
[unused32]
[unused33]
[unused34]
[unused35]
[unused36]
[unused37]
[unused38]
[unused39]
[unused40]
[unused41]
[unused42]
[unused43]
[unused44]
[unused45]
[unused46]
[unused47]
[unused48]
[unused49]
[unused50]
[unused51]
[unused52]
[unused53]
[unused54]
[unused55]
[unused56]
[unused57]
[unused58]
[unused59]
[unused60]
[unused61]
[unused62]
[unused63]
[unused64]
[unused65]
[unused66]
[unused67]
[unused68]
[unused69]
[unused70]
[unused71]
[unused72]
[unused73]
[unused74]
[unused75]
[unused76]
[unused77]
[unused78]
[unused79]
[unused80]
[unused81]
[unused82]
[unused83]
[unused84]
[unused85]
[unused86]
[unused87]
[unused88]
[unused89]
[unused90]
[unused91]
[unused92]
[unused93]
[unused94]
[unused95]
[unused96]
[unused97]
[unused98]
[unused99]
[unused100]
[unused101]
[unused102]
[unused103]
[unused104]
[unused105]
[unused106]
[unused107]
[unused108]
[unused109]
[unused110]
[unused111]
[unused112]
[unused113]
[unused114]
[unused115]
[unused116]
[unused117]
[unused118]
[unused119]
[unused120]
[unused121]
[unused122]
[unused123]
[unused124]
[unused125]
[unused126]
[unused127]
[unused128]
[unused129]
[unused130]
[unused131]
[unused132]
[unused133]
[unused134]
[unused135]
[unused136]
[unused137]
[unused138]
[unused139]
[unused140]
[unused141]
[unused142]
[unused143]
[unused144]
[unused145]
[unused146]
[unused147]
[unused148]
[unused149]
[unused150]
[unused151]
[unused152]
[unused153]
[unused154]
[unused155]
[unused156]
[unused157]
[unused158]
[unused159]
[unused160]
[unused161]
[unused162]
[unused163]
[unused164]
[unused165]
[unused166]
[unused167]
[unused168]
[unused169]
[unused170]
[unused171]
[unused172]
[unused173]
[unused174]
[unused175]
[unused176]
[unused177]
[unused178]
[unused179]
[unused180]
[unused181]
[unused182]
[unused183]
[unused184]
[unused185]
[unused186]
[unused187]
[unused188]
[unused189]
[unused190]
[unused191]
[unused192]
[unused193]
[unused194]
[unused195]
[unused196]
[unused197]
[unused198]
[unused199]
[unused200]
[unused201]
[unused202]
[unused203]
[unused204]
[unused205]
[unused206]
[unused207]
[unused208]
[unused209]
[unused210]
[unused211]
[unused212]
[unused213]
[unused214]
[unused215]
[unused216]
[unused217]
[unused218]
[unused219]
[unused220]
[unused221]
[unused222]
[unused223]
[unused224]
[unused225]
[unused226]
[unused227]
[unused228]
[unused229]
[unused230]
[unused231]
[unused232]
[unused233]
[unused234]
[unused235]
[unused236]
[unused237]
[unused238]
[unused239]
[unused240]
[unused241]
[unused242]
[unused243]
[unused244]
[unused245]
[unused246]
[unused247]
[unused248]
[unused249]
[unused250]
[unused251]
[unused252]
[unused253]
[unused254]
[unused255]
[unused256]
[unused257]
[unused258]
[unused259]
[unused260]
[unused261]
[unused262]
[unused263]
[unused264]
[unused265]
[unused266]
[unused267]
[unused268]
[unused269]
[unused270]
[unused271]
[unused272]
[unused273]
[unused274]
[unused275]
[unused276]
[unused277]
[unused278]
[unused279]
[unused280]
[unused281]
[unused282]
[unused283]
[unused284]
[unused285]
[unused286]
[unused287]
[unused288]
[unused289]
[unused290]
[unused291]
[unused292]
[unused293]
[unused294]
[unused295]
[unused296]
[unused297]
[unused298]
[unused299]
[unused300]
[unused301]
[unused302]
[unused303]
[unused304]
[unused305]
[unused306]
[unused307]
[unused308]
[unused309]
[unused310]
[unused311]
[unused312]
[unused313]
[unused314]
[unused315]
[unused316]
[unused317]
[unused318]
[unused319]
[unused320]
[unused321]
[unused322]
[unused323]
[unused324]
[unused325]
[unused326]
[unused327]
[unused328]
[unused329]
[unused330]
[unused331]
[unused332]
[unused333]
[unused334]
[unused335]
[unused336]
[unused337]
[unused338]
[unused339]
[unused340]
[unused341]
[unused342]
[unused343]
[unused344]
[unused345]
[unused346]
[unused347]
[unused348]
[unused349]
[unused350]
[unused351]
[unused352]
[unused353]
[unused354]
[unused355]
[unused356]
[unused357]
[unused358]
[unused359]
[unused360]
[unused361]
[unused362]
[unused363]
[unused364]
[unused365]
[unused366]
[unused367]
[unused368]
[unused369]
[unused370]
[unused371]
[unused372]
[unused373]
[unused374]
[unused375]
[unused376]
[unused377]
[unused378]
[unused379]
[unused380]
[unused381]
[unused382]
[unused383]
[unused384]
[unused385]
[unused386]
[unused387]
[unused388]
[unused389]
[unused390]
[unused391]
[unused392]
[unused393]
[unused394]
[unused395]
[unused396]
[unused397]
[unused398]
[unused399]
[unused400]
[unused401]
[unused402]
[unused403]
[unused404]
[unused405]
[unused406]
[unused407]
[unused408]
[unused409]
[unused410]
[unused411]
[unused412]
[unused413]
[unused414]
[unused415]
[unused416]
[unused417]
[unused418]
[unused419]
[unused420]
[unused421]
[unused422]
[unused423]
[unused424]
[unused425]
[unused426]
[unused427]
[unused428]
[unused429]
[unused430]
[unused431]
[unused432]
[unused433]
[unused434]
[unused435]
[unused436]
[unused437]
[unused438]
[unused439]
[unused440]
[unused441]
[unused442]
[unused443]
[unused444]
[unused445]
[unused446]
[unused447]
[unused448]
[unused449]
[unused450]
[unused451]
[unused452]
[unused453]
[unused454]
[unused455]
[unused456]
[unused457]
[unused458]
[unused459]
[unused460]
[unused461]
[unused462]
[unused463]
[unused464]
[unused465]
[unused466]
[unused467]
[unused468]
[unused469]
[unused470]
[unused471]
[unused472]
[unused473]
[unused474]
[unused475]
[unused476]
[unused477]
[unused478]
[unused479]
[unused480]
[unused481]
[unused482]
[unused483]
[unused484]
[unused485]
[unused486]
[unused487]
[unused488]
[unused489]
[unused490]
[unused491]
[unused492]
[unused493]
[unused494]
[unused495]
[unused496]
[unused497]
[unused498]
[unused499]
[unused500]
[unused501]
[unused502]
[unused503]
[unused504]
[unused505]
[unused506]
[unused507]
[unused508]
[unused509]
[unused510]
[unused511]
[unused512]
[unused513]
[unused514]
[unused515]
[unused516]
[unused517]
[unused518]
[unused519]
[unused520]
[unused521]
[unused522]
[unused523]
[unused524]
[unused525]
[unused526]
[unused527]
[unused528]
[unused529]
[unused530]
[unused531]
[unused532]
[unused533]
[unused534]
[unused535]
[unused536]
[unused537]
[unused538]
[unused539]
[unused540]
[unused541]
[unused542]
[unused543]
[unused544]
[unused545]
[unused546]
[unused547]
[unused548]
[unused549]
[unused550]
[unused551]
[unused552]
[unused553]
[unused554]
[unused555]
[unused556]
[unused557]
[unused558]
[unused559]
[unused560]
[unused561]
[unused562]
[unused563]
[unused564]
[unused565]
[unused566]
[unused567]
[unused568]
[unused569]
[unused570]
[unused571]
[unused572]
[unused573]
[unused574]
[unused575]
[unused576]
[unused577]
[unused578]
[unused579]
[unused580]
[unused581]
[unused582]
[unused583]
[unused584]
[unused585]
[unused586]
[unused587]
[unused588]
[unused589]
[unused590]
[unused591]
[unused592]
[unused593]
[unused594]
[unused595]
[unused596]
[unused597]
[unused598]
[unused599]
[unused600]
[unused601]
[unused602]
[unused603]
[unused604]
[unused605]
[unused606]
[unused607]
[unused608]
[unused609]
[unused610]
[unused611]
[unused612]
[unused613]
[unused614]
[unused615]
[unused616]
[unused617]
[unused618]
[unused619]
[unused620]
[unused621]
[unused622]
[unused623]
[unused624]
[unused625]
[unused626]
[unused627]
[unused628]
[unused629]
[unused630]
[unused631]
[unused632]
[unused633]
[unused634]
[unused635]
[unused636]
[unused637]
[unused638]
[unused639]
[unused640]
[unused641]
[unused642]
[unused643]
[unused644]
[unused645]
[unused646]
[unused647]
[unused648]
[unused649]
[unused650]
[unused651]
[unused652]
[unused653]
[unused654]
[unused655]
[unused656]
[unused657]
[unused658]
[unused659]
[unused660]
[unused661]
[unused662]
[unused663]
[unused664]
[unused665]
[unused666]
[unused667]
[unused668]
[unused669]
[unused670]
[unused671]
[unused672]
[unused673]
[unused674]
[unused675]
[unused676]
[unused677]
[unused678]
[unused679]
[unused680]
[unused681]
[unused682]
[unused683]
[unused684]
[unused685]
[unused686]
[unused687]
[unused688]
[unused689]
[unused690]
[unused691]
[unused692]
[unused693]
[unused694]
[unused695]
[unused696]
[unused697]
[unused698]
[unused699]
[unused700]
[unused701]
[unused702]
[unused703]
[unused704]
[unused705]
[unused706]
[unused707]
[unused708]
[unused709]
[unused710]
[unused711]
[unused712]
[unused713]
[unused714]
[unused715]
[unused716]
[unused717]
[unused718]
[unused719]
[unused720]
[unused721]
[unused722]
[unused723]
[unused724]
[unused725]
[unused726]
[unused727]
[unused728]
[unused729]
[unused730]
[unused731]
[unused732]
[unused733]
[unused734]
[unused735]
[unused736]
[unused737]
[unused738]
[unused739]
[unused740]
[unused741]
[unused742]
[unused743]
[unused744]
[unused745]
[unused746]
[unused747]
[unused748]
[unused749]
[unused750]
[unused751]
[unused752]
[unused753]
[unused754]
[unused755]
[unused756]
[unused757]
[unused758]
[unused759]
[unused760]
[unused761]
[unused762]
[unused763]
[unused764]
[unused765]
[unused766]
[unused767]
[unused768]
[unused769]
[unused770]
[unused771]
[unused772]
[unused773]
[unused774]
[unused775]
[unused776]
[unused777]
[unused778]
[unused779]
[unused780]
[unused781]
[unused782]
[unused783]
[unused784]
[unused785]
[unused786]
[unused787]
[unused788]
[unused789]
[unused790]
[unused791]
[unused792]
[unused793]
[unused794]
[unused795]
[unused796]
[unused797]
[unused798]
[unused799]
[unused800]
[unused801]
[unused802]
[unused803]
[unused804]
[unused805]
[unused806]
[unused807]
[unused808]
[unused809]
[unused810]
[unused811]
[unused812]
[unused813]
[unused814]
[unused815]
[unused816]
[unused817]
[unused818]
[unused819]
[unused820]
[unused821]
[unused822]
[unused823]
[unused824]
[unused825]
[unused826]
[unused827]
[unused828]
[unused829]
[unused830]
[unused831]
[unused832]
[unused833]
[unused834]
[unused835]
[unused836]
[unused837]
[unused838]
[unused839]
[unused840]
[unused841]
[unused842]
[unused843]
[unused844]
[unused845]
[unused846]
[unused847]
[unused848]
[unused849]
[unused850]
[unused851]
[unused852]
[unused853]
[unused854]
[unused855]
[unused856]
[unused857]
[unused858]
[unused859]
[unused860]
[unused861]
[unused862]
[unused863]
[unused864]
[unused865]
[unused866]
[unused867]
[unused868]
[unused869]
[unused870]
[unused871]
[unused872]
[unused873]
[unused874]
[unused875]
[unused876]
[unused877]
[unused878]
[unused879]
[unused880]
[unused881]
[unused882]
[unused883]
[unused884]
[unused885]
[unused886]
[unused887]
[unused888]
[unused889]
[unused890]
[unused891]
[unused892]
[unused893]
[unused894]
[unused895]
[unused896]
[unused897]
[unused898]
[unused899]
[unused900]
[unused901]
[unused902]
[unused903]
[unused904]
[unused905]
[unused906]
[unused907]
[unused908]
[unused909]
[unused910]
[unused911]
[unused912]
[unused913]
[unused914]
[unused915]
[unused916]
[unused917]
[unused918]
[unused919]
[unused920]
[unused921]
[unused922]
[unused923]
[unused924]
[unused925]
[unused926]
[unused927]
[unused928]
[unused929]
[unused930]
[unused931]
[unused932]
[unused933]
[unused934]
[unused935]
[unused936]
[unused937]
[unused938]
[unused939]
[unused940]
[unused941]
[unused942]
[unused943]
[unused944]
[unused945]
[unused946]
[unused947]
[unused948]
[unused949]
[unused950]
[unused951]
[unused952]
[unused953]
[unused954]
[unused955]
[unused956]
[unused957]
[unused958]
[unused959]
[unused960]
[unused961]
[unused962]
[unused963]
[unused964]
[unused965]
[unused966]
[unused967]
[unused968]
[unused969]
[unused970]
[unused971]
[unused972]
[unused973]
[unused974]
[unused975]
[unused976]
[unused977]
[unused978]
[unused979]
[unused980]
[unused981]
[unused982]
[unused983]
[unused984]
[unused985]
[unused986]
[unused987]
[unused988]
[unused989]
[unused990]
[unused991]
[unused992]
[unused993]
[unused994]
[unused995]
[unused996]
[unused997]
[unused998]
[unused999]
[unused1000]
!
"
#
$
%
&
'
(
)
*
+
,
-
.
/
0
1
2
3
4
5
6
7
8
9
:
;
<
=
>
?
@
[
\
]
^
_
`
a
b
c
d
e
f
g
h
i
j
k
l
m
n
o
p
q
r
s
t
u
v
w
x
y
z
{
|
}
~
¡
¢
£
¤
¥
¦
§
©
«
¬
®
°
±
¶
·
»
¿
×
æ
ð
÷
ø
þ
đ
ı
ł
œ
ƒ
ɚ
ɛ
ɧ
ɨ
ɪ
ɬ
ɵ
ɿ
ʼ
ʿ
ˆ
ˇ
ͻ
ͼ
α
β
γ
δ
ε
ζ
η
θ
ι
κ
λ
μ
ν
ξ
ο
π
ρ
σ
τ
υ
φ
χ
ψ
ω
ϩ
ϫ
ϭ
а
б
в
г
д
е
ж
з
и
к
л
м
н
о
п
р
с
т
у
ф
х
ц
ч
ш
щ
ъ
ы
ь
э
ю
я
ђ
є
ѕ
і
ј
љ
њ
ћ
ґ
қ
յ
ն
א
ا
ب
ة
ت
ج
ح
د
ر
س
ص
ط
ع
غ
ف
ق
ك
ل
م
ن
ه
و
ي
ی
ଵ
௧
ท
ป
ย
ร
ไ
ᄀ
ᄂ
ᄃ
ᄅ
ᄆ
ᄇ
ᄉ
ᄋ
ᄌ
ᄎ
ᄐ
ᄑ
ᄒ
ᅡ
ᅢ
ᅥ
ᅦ
ᅧ
ᅩ
ᅪ
ᅭ
ᅮ
ᅯ
ᅳ
ᅴ
ᅵ
ᆨ
ᆫ
ᆯ
ᆷ
ᆸ
ᆼ
ሺ
ሻ
‐
–
—
―
‖
‘
’
‚
“
”
„
†
‡
•
‣
‰
′
‹
›
※
⁄
⁎
₦
€
₹
₽
←
↑
→
↓
↵
⇄
⇒
⇡
⇤
∀
∂
∃
∅
∆
∇
∈
∑
−
∙
√
∝
∞
∧
∩
∪
∼
≈
≡
≤
≥
≪
≫
⊂
⊆
⊥
⋅
⋆
⌬
⎯
␣
␤
─
│
└
├
■
□
▪
▲
△
▶
▸
►
▼
▾
◆
◇
◊
○
◎
●
◯
★
☆
☎
☰
♥
♦
♪
✓
✔
✖
❤
❬
❭
➢
⟩
、
。
々
《
》
「
」
『
』
【
】
〒
あ
い
う
え
お
か
き
く
け
こ
さ
し
す
せ
そ
た
ち
っ
つ
て
と
な
に
ね
の
は
ひ
ふ
へ
ほ
ま
み
め
も
や
よ
ら
り
る
れ
ろ
わ
を
ん
ァ
ア
ィ
イ
ウ
ェ
エ
ォ
オ
カ
キ
ク
ケ
コ
サ
シ
ス
セ
ソ
タ
チ
ッ
ツ
テ
ト
ナ
ニ
ネ
ノ
ハ
ヒ
フ
ヘ
ホ
マ
ミ
ム
メ
モ
ャ
ュ
ョ
ラ
リ
ル
レ
ロ
ワ
ン
・
ー
一
丁
万
三
上
下
不
与
专
世
业
中
为
主
了
予
事
二
于
交
产
京
人
今
介
仕
他
付
代
以
们
件
任
企
休
会
位
住
体
何
作
使
例
供
価
便
保
信
修
個
備
催
元
先
光
入
全
公
共
关
具
内
円
冷
出
分
切
创
別
利
制
前
力
功
加
务
动
動
務
化
北
区
医
南
印
原
参
及
发
取
受
口
古
可
台
号
司
各
合
同
名
向
告
味
和
品
員
商
問
営
器
回
国
國
土
在
地
型
城
域
基
報
場
境
士
売
备
変
外
多
大
天
太
好
始
子
学
宅
安
完
定
実
客
室
家
容
富
対
専
導
小
屋
展
山
岡
島
川
工
市
布
常
平
年
広
应
店
度
建
弊
式
引
当
形
役
後
得
心
必
応
思
性
情
意
感
成
我
户
戸
所
手
承
技
投
持
指
採
接
提
換
援
支
改
教
数
整
文
料
断
新
方
施
日
时
明
是
時
更
書
最
月
有
服
望
期
木
本
术
机
材
来
東
析
果
査
校
株
格
案
検
業
概
構
様
機
次
正
歩
気
水
求
決
法
注
活
流
海
温
測
港
源
灣
点
為
無
熱
版
牌
物
特
状
現
球
理
環
生
産
用
田
申
电
町
画
界
番
療
発
登
的
目
相
県
真
着
知
石
研
確
示
社
神
福
私
科
程
税
種
積
空
立
站
端
第
等
策
简
管
築
精
系
約
素
索
紹
組
経
絡
続
線
績
繁
经
统
网
置
美
考
者
联
育
能
自
致
與
般
良
行
術
表
装
製
西
要
見
規
覧
解
言
計
記
設
証
試
話
詳
認
語
調
談
請
護
计
设
语
販
資
賞
質
購
资
路
車
転
載
込
近
返
送
通
速
造
連
進
運
道
適
選
部
都
配
酒
重
野
量
金
销
長
門
開
間
関
间
闻
阪
防
限
際
集
電
面
音
頂
題
页
食
首
香
駅
験
體
高
�
the
of
and
to
in
for
our
as
is
on
we
that
are
or
with
by
from
be
an
which
this
at
not
million
other
have
31
was
year
december
company
financial
interest
these
may
net
income
cash
will
its
value
it
market
sales
increase
operations
business
assets
costs
were
due
related
000
ended
has
based
products
rate
such
results
all
tax
more
operating
under
##s
new
services
also
stock
during
their
capital
any
if
credit
primarily
revenue
fiscal
management
than
future
total
expenses
can
us
result
information
years
cost
development
increased
including
statements
could
expense
risk
certain
no
period
time
compared
loss
table
term
product
companys
been
one
through
accounting
revenues
debt
approximately
rates
changes
2008
2009
significant
service
price
used
2010
amount
loans
fair
use
2011
2007
loan
2006
over
2013
2012
into
customers
2005
activities
10
2004
non
consolidated
impact
2014
would
investment
when
securities
decrease
2003
additional
data
there
change
common
each
30
higher
2002
between
about
well
average
they
losses
current
agreement
but
factors
performance
following
general
research
equity
customer
first
number
long
facility
sale
basis
liabilities
lower
per
companies
effect
level
growth
notes
those
share
do
had
addition
2001
2015
estimates
two
analysis
production
associated
expected
quarter
available
foreign
both
required
impairment
purchase
include
included
economic
bank
you
industry
obligations
asset
shares
most
after
conditions
acquisition
provide
quality
only
system
some
subject
however
investments
offset
balance
upon
insurance
prior
15
date
recorded
estimated
ability
payments
effective
terms
high
markets
using
amounts
material
should
prices
compensation
12
within
make
equipment
because
less
contracts
third
contents
exchange
gas
process
property
public
technology
requirements
while
up
part
generally
fees
segment
financing
earnings
flows
condition
support
provided
three
taxes
note
commercial
deferred
plan
systems
see
marketing
made
##a
11
outstanding
portfolio
model
recognized
percentage
order
state
gross
various
group
continue
real
states
control
existing
accounts
corporate
funds
where
believe
resources
different
annual
facilities
reporting
respectively
increases
fixed
energy
periods
demand
potential
government
same
firms
june
study
agreements
policy
assumptions
policies
experience
contract
20
affect
employees
benefit
decreased
issued
liquidity
work
who
benefits
many
out
further
##e
above
payment
home
liability
your
january
allowance
discussion
international
federal
united
administrative
end
line
2000
13
since
paid
levels
september
risks
goodwill
distribution
report
firm
sold
march
below
25
14
form
program
lease
al
construction
et
limited
currency
100
transactions
percent
partially
acquired
reported
estate
health
principal
forward
second
senior
##i
board
countries
resulting
regulatory
months
among
pay
amortization
includes
actual
project
statement
oil
inventory
being
mortgage
important
currently
large
contact
natural
power
how
so
case
specific
events
does
banks
software
short
local
expect
supply
16
profit
method
legal
manufacturing
position
claims
incurred
flow
properties
reduction
party
therefore
instruments
received
charges
charge
rights
private
valuation
margin
selling
carrying
reduce
life
before
2016
18
portion
estimate
plans
standards
expenditures
able
##o
whether
variable
working
17
social
require
needs
thousands
need
requires
off
values
provides
proceeds
fund
attributable
them
acquisitions
projects
50
units
likely
volume
unit
determined
access
significantly
security
against
must
environmental
then
environment
act
ratio
held
consumer
global
low
reserves
provision
effects
network
meet
connection
inc
return
strategy
subsidiaries
##r
full
decline
borrowings
news
looking
reduced
sheet
gain
options
##d
transaction
activity
solutions
set
19
owned
section
regulations
several
direct
overall
historical
key
##t
adverse
##n
28
employee
programs
intangible
managements
contractual
regarding
21
similar
although
trade
without
option
october
items
item
24
directors
design
account
22
accordance
greater
gains
##ing
positive
national
given
resulted
capacity
considered
depreciation
sector
retail
arrangements
businesses
affected
internal
preferred
entered
small
base
possible
offer
area
dollars
deposits
competitive
29
extent
defined
provisions
receivable
maintenance
site
necessary
july
maintain
sfas
office
world
what
negative
care
fourth
dividends
knowledge
individual
continued
beginning
determine
critical
february
adversely
standard
23
relationship
primary
respect
sources
remaining
own
review
27
range
even
thus
example
excess
test
investors
ii
materials
five
26
pricing
adjusted
measures
commitments
measure
areas
established
recent
paper
sell
purposes
approach
recognition
did
payable
generated
completed
technologies
laws
aggregate
people
strategic
funding
major
trading
parties
##l
discussed
restructuring
april
cannot
event
present
professional
find
country
applicable
industrial
application
compliance
derivative
take
best
november
particular
exposure
law
reserve
point
either
license
described
personnel
fee
four
returns
water
develop
corporation
structure
leases
pension
competition
maturity
size
developed
trust
finance
day
ownership
food
continuing
brand
relating
become
past
efforts
previously
studies
revolving
decision
focus
40
presented
shareholders
delivery
partners
making
days
increasing
store
type
according
improve
variables
until
innovation
circumstances
banking
very
materially
initial
settlement
independent
components
##m
sufficient
main
institutions
issues
series
##c
dollar
technical
adoption
gaap
august
purchased
next
domestic
offering
obtain
goods
issuance
secured
organization
##er
timing
appropriate
interests
minimum
opportunities
implementation
substantial
00
joint
medical
plus
realized
subsidiary
35
differences
better
land
clinical
entities
##ed
place
protection
read
adjustments
##y
building
discount
2017
pre
cause
right
consumers
1999
way
lines
pursuant
receive
directly
substantially
nature
de
relationships
500
found
reflect
points
center
plant
month
issue
least
across
advertising
consider
segments
types
training
fully
now
china
follows
fuel
processing
online
operation
balances
economy
down
clients
deposit
represents
repurchase
free
class
anticipated
personal
disclosure
believes
majority
last
internet
evidence
purchases
help
record
lived
safety
actions
fluctuations
single
accrued
located
website
differ
equal
driven
assessment
special
quarterly
often
strategies
##p
manage
practices
processes
strong
stores
relative
cases
39
good
stockholders
executive
weighted
outside
litigation
providing
com
members
might
trends
early
excluding
33
community
treatment
convertible
32
role
source
experienced
residential
efficiency
applications
favorable
open
media
impacted
north
infrastructure
profitability
availability
shows
guidance
margins
yield
family
34
billion
developing
judgments
others
additionally
agency
models
sample
means
investing
60
consistent
human
matters
another
region
labor
dependent
core
approval
##g
underlying
collateral
regulation
generation
success
organizations
45
complete
operate
comprehensive
contacts
highly
discontinued
principles
fasb
collection
enterprise
characteristics
earned
uses
staff
equivalents
typically
write
default
america
difference
european
reflected
managers
previous
europe
groups
adjustment
suppliers
premium
rules
obligation
recognize
longer
content
co
city
accounted
48
accordingly
volatility
mix
entity
education
useful
disclosures
volumes
coverage
improved
component
otherwise
except
external
show
amended
failure
36
dividend
achieve
identified
much
millions
combined
view
relevant
##k
consideration
particularly
money
difficult
successful
expansion
influence
team
generate
positions
##ly
exercise
evaluate
multiple
industries
90
forth
assurance
known
merger
electric
evaluation
factor
covenants
taxable
##1
subsequent
##0
cookies
bearing
index
lead
alternative
action
reflects
like
unable
rather
46
partner
methods
reports
measurement
literature
ongoing
combination
audit
uncertainties
field
transportation
comparable
enterprises
workers
represent
receivables
agencies
problems
37
llc
users
improvement
still
final
planning
##es
premiums
twelve
awards
address
temporary
governance
200
ensure
decisions
hand
recovery
occur
venture
reasonable
employment
selected
incentive
38
largest
applied
allow
competitors
rental
##2
approved
fact
measured
regional
create
relatively
orders
operational
expectations
##b
transfer
complex
indicated
engineering
ebitda
mainly
purpose
larger
taken
completion
problem
via
shown
performed
adopted
scale
determining
commitment
judgment
##h
commodity
chain
partnership
response
self
status
designed
75
limit
throughout
holding
together
his
classified
court
space
savings
obtained
mobile
calculated
course
iii
consists
offers
identify
six
commission
decreases
degree
he
initiatives
testing
borrowing
amortized
spending
variety
accepted
warrants
search
44
digital
42
patent
basic
category
termination
criteria
post
hedge
incur
leading
transport
41
enter
indebtedness
restricted
re
book
filed
involved
principally
written
half
anticipate
earning
2018
improvements
retirement
conversion
page
participants
projected
south
traditional
department
wide
here
web
leverage
phase
providers
integration
parts
consulting
lack
43
proposed
consist
maximum
organizational
adequate
assumed
history
framework
raw
allows
claim
user
air
function
reductions
every
figure
storage
##u
uncertainty
hotel
practice
rating
##f
name
original
central
having
added
communication
conducted
step
things
times
impaired
lending
bonds
individuals
especially
contingent
closing
perform
80
qualitative
##x
respondents
intellectual
back
negatively
location
monthly
privacy
##on
remain
procedures
networks
active
grant
inflation
locations
70
client
technological
categories
guarantee
47
beyond
job
manufacturers
derived
political
top
stage
face
holders
unrealized
49
normal
monitoring
capitalized
determination
indicate
52
granted
target
brands
arrangement
advantage
american
managed
around
understanding
55
cumulative
needed
reasonably
resource
start
elements
agreed
along
president
committee
get
respective
platform
satisfaction
acquire
rent
sets
focused
officer
summary
1998
healthcare
disposal
integrated
charged
distributions
sec
yet
apply
subordinated
tel
restrictions
drilling
code
travel
51
vary
allocation
profits
tools
derivatives
allocated
population
reinsurance
seek
300
depend
utility
drug
comparison
assess
productivity
produce
depending
housing
holdings
indicators
effectively
wholesale
expand
specified
conduct
force
age
allowances
institutional
patients
agricultural
quantitative
member
represented
context
separate
preparation
responsible
california
implemented
survey
communications
hedging
former
waste
behavior
findings
historically
call
logistics
electronic
establish
53
www
65
objective
manager
sites
began
cross
electricity
presents
objectives
importance
largely
maturities
occurred
totaled
changing
##3
lives
worldwide
investor
uncertain
swap
mail
specifically
whole
consumption
ratios
##5
responsibility
know
comprised
efficient
reducing
canada
details
division
authorities
caused
square
solution
contains
multi
ratings
card
##v
overview
recently
registration
opportunity
taking
attention
libor
asc
involve
successfully
manner
conjunction
qualified
always
regions
comply
chief
##in
inventories
going
info
few
performing
close
theory
credits
centers
funded
contributed
bankruptcy
transition
carried
capabilities
limitations
letters
offerings
totaling
150
sharing
incentives
controls
request
participation
probability
sustainable
furthermore
##4
created
equivalent
administration
guarantees
contained
diluted
towards
makes
patents
supplier
hold
growing
sectors
54
corresponding
asia
stated
##en
intended
contribution
daily
raise
invested
reference
advanced
video
selection
innovative
invest
refer
students
entire
depends
computer
closed
choice
transmission
evaluating
vehicles
buy
offered
affiliates
reasons
amendment
build
questions
56
currencies
announced
just
devices
follow
interim
concept
functions
commissions
challenges
effort
mr
enhance
vehicle
ending
notice
250
provider
extended
unsecured
dates
communities
give
licensing
##al
finally
offices
consisted
produced
rule
list
plants
backed
licenses
1997
officers
moreover
57
royalty
proprietary
400
district
quarters
outcome
58
aspects
la
advances
crisis
sensitive
learning
coal
already
managing
features
warranty
probable
exceed
pro
steel
empirical
spread
123
achieved
versus
etc
highest
inherent
intend
consolidation
listed
cover
authority
predict
noted
developments
light
ultimate
legislation
fda
declined
##z
affecting
choose
ltd
sensitivity
salaries
elsewhere
distributors
great
led
exploration
contain
collected
emerging
borrowers
contributions
near
tourism
covered
continues
01
association
export
effectiveness
exposed
manufacture
house
university
lenders
59
utilization
press
carry
agent
acceptance
patient
planned
implement
physical
underwriting
skills
protect
school
servicing
tests
york
compete
mean
once
repayment
expects
channel
declines
turn
phone
texas
owners
goals
61
weather
director
retain
05
representing
trend
unless
delivered
uk
1995
meeting
creation
62
scope
culture
smaller
annually
statutory
corporations
person
detailed
question
limits
unique
denominated
grow
treasury
reflecting
accrual
##an
serve
presentation
wells
put
zero
despite
improving
presence
accumulated
situation
thousand
prepared
proceedings
purchasing
ten
discounted
scheduled
installation
concern
offs
car
pressure
collaboration
swaps
run
utilize
timely
fax
monitor
outcomes
64
sustainability
63
deemed
doubtful
yields
met
ventures
##us
today
relation
##6
enable
hypothesis
advance
impacts
95
becomes
trial
66
supplies
reason
registered
##ers
canadian
email
potentially
##ia
agents
methodology
85
pipeline
aircraft
perceived
jurisdictions
exclusive
usage
packaging
goal
trials
introduction
medium
relations
called
bad
1996
shareholder
numerous
institution
later
farmers
assumption
utilized
please
inputs
interpretation
regulated
hours
67
eu
##is
leased
society
italy
go
award
update
release
calculation
involves
142
became
instrument
800
requirement
understand
restaurant
earlier
considering
iv
clear
reviews
generating
owner
satisfy
wholly
progress
japan
exists
though
article
indicates
add
relates
regression
forms
guidelines
little
works
##rs
##8
expertise
arising
constant
seen
controlling
optimal
green
ways
geographic
budget
hence
commerce
partnerships
600
operated
unfavorable
candidates
di
##7
concerning
broad
east
reform
opinion
exit
deliver
summarizes
sub
consisting
cycle
mining
rely
instead
maintaining
reliability
71
bond
euro
authorized
redemption
mexico
marketable
srl
changed
placed
exceeds
want
definition
68
indirect
wireless
en
prime
72
road
structures
techniques
secure
documents
guaranteed
usually
certificates
vice
english
exist
governmental
modern
hardware
traded
urban
acceptable
prevent
reviewed
perspective
evaluated
women
why
my
channels
##able
69
rural
crude
recoverable
modified
restaurants
immediately
whose
99
referred
accompanying
relate
allowed
black
come
functional
severance
correlation
contribute
climate
cooperation
words
damage
stakeholders
extend
engage
late
ultimately
03
09
##co
hotels
fail
committed
pharmaceutical
poor
regard
contingencies
assume
element
specialty
west
governments
occupancy
assistance
output
select
recurring
india
insured
73
engaged
likelihood
suggest
st
emissions
copyright
title
union
file
minority
reimbursement
delay
penalties
utilities
realize
repair
seven
remains
terminated
promotion
consequently
reputation
restated
02
incremental
shift
patterns
157
fin
##ic
filing
profile
suggests
##as
concerns
buildings
discounts
opening
gap
germany
duration
asu
economies
##w
extensive
chinese
observed
expanded
revised
strength
74
side
permitted
77
shopping
automotive
france
expiration
entry
professionals
##9
matter
map
##ra
publicly
almost
sheets
principle
statistics
introduced
jobs
topic
76
delays
producing
##te
manufacturer
organic
creating
overhead
tool
possibility
parent
done
slightly
periodic
tend
mechanism
78
metal
learn
attract
distributed
africa
sum
far
hospital
takes
inability
vendors
08
replacement
debentures
play
floating
extension
retained
room
81
flexibility
resolution
ceo
latest
itself
ordinary
letter
description
##le
mentioned
length
russia
stable
reliable
repay
estimating
rise
remained
assessing
warrant
grade
branch
old
consent
payroll
device
exposures
secondary
occurs
coefficient
120
grants
125
drive
concluded
144
positively
damages
essential
thereby
shall
proportion
divided
procurement
household
reach
traffic
shipping
interaction
reserved
similarly
panel
tier
mid
portfolios
merchandise
civil
consequences
too
intangibles
arise
employed
supported
eligible
medicare
promote
calendar
necessarily
classification
mutual
obtaining
children
setting
scientific
safe
82
warehouse
fleet
pronouncements
entitled
periodically
link
700
pending
06
tangible
88
participate
86
91
enforcement
prepayment
assigned
royalties
estimation
cultural
83
placement
straight
incorporated
nor
84
87
regular
expressed
97
measurements
implied
big
county
served
translation
researchers
79
borrower
98
accessories
leadership
operators
increasingly
published
keep
projections
04
homes
facts
unconsolidated
proved
##na
carryforwards
handling
week
toward
freight
retailers
franchise
monetary
requiring
expenditure
160
examine
mechanisms
image
leasing
adjust
94
variance
pool
built
89
mitigate
continuous
tables
frequently
check
task
middle
frequency
download
indicator
statistical
1994
inception
analyze
involving
russian
transferred
assuming
again
rapid
simple
adopt
subscription
considers
telephone
concentration
records
machines
96
seeking
hospitals
subsequently
##os
##man
shipments
capitalization
liquid
significance
her
noninterest
separately
input
auction
followed
subjective
##re
operates
herein
detail
profitable
headquarters
##or
reached
existence
feet
101
controlled
hedges
advantages
accept
impairments
dynamic
accruals
park
smes
catalog
formal
workforce
postretirement
designated
equilibrium
approaches
living
collect
gold
look
109
133
analyses
##ne
93
amp
producers
fall
supporting
92
unpaid
implementing
bear
australia
move
whereas
paying
adequacy
initially
identification
renewal
settled
realization
thereafter
issuer
difficulties
speed
backlog
constraints
receipt
enhanced
san
earn
lesser
calculate
tested
republic
finding
harm
110
persons
csr
households
prospects
combinations
schedule
vendor
chemical
street
awareness
avoid
vesting
licensed
preferences
pursue
fdic
machine
telecommunications
measuring
themselves
assessments
execution
fluctuate
ranging
errors
permits
science
television
350
headcount
mature
composition
influenced
shared
career
municipal
instance
actuarial
western
links
theoretical
141
07
demands
absence
meaning
attributed
facilitate
priority
permit
expire
##ta
900
attempt
mark
furniture
platforms
buyer
eight
voting
doing
behalf
reg
structured
authors
document
showed
applying
confidence
distance
eitf
targeted
loyalty
establishing
mortgages
targets
recover
student
structural
floor
agriculture
nasdaq
nine
investigation
converted
kingdom
forecast
establishment
dimensions
pacific
anti
maintained
indefinite
##ar
contrast
prospective
leads
actually
sg
fhlb
cities
visit
##ness
game
florida
welcome
treated
worth
database
body
enough
amendments
##ity
retention
defense
disposition
108
error
respond
challenge
115
bring
actively
specialized
declared
tenant
liquidation
1990
104
menu
105
steps
reit
dealer
station
feature
affects
shop
residual
##the
launch
sign
aim
advisory
agree
percentages
farm
1993
usa
permanent
stocks
direction
beneficial
managerial
159
offsetting
membership
closely
expanding
repurchases
cable
stages
opened
assist
weight
certification
stability
valued
closure
compare
welfare
manufactured
quantities
define
reorganization
regularly
turnover
formed
wind
recoveries
140
comparing
newly
complexity
lender
language
settlements
electrical
true
limitation
signed
carbon
starting
quickly
securitization
excluded
foreseeable
weak
distributor
flat
noncontrolling
exceeded
quoted
promotional
examination
attractive
deal
inclusion
dedicated
smart
laboratory
experts
milestone
indonesia
innovations
suitable
initiated
##el
certificate
begin
gdp
ipo
refers
outsourcing
achieving
sports
mission
easy
procedure
entertainment
1992
parameters
107
2019
collections
clearly
buyers
mostly
carriers
statistically
attributes
##to
renewable
surplus
commercialization
reverse
consultants
voluntary
acquiring
involvement
salary
implications
formation
enacted
##et
disclosed
pressures
equation
130
immediate
leader
sense
occurrence
buying
outlook
pass
capability
establishes
affiliate
remediation
governing
##j
explore
art
started
vat
intention
careers
master
vision
updated
undiscounted
prepaid
750
initiative
solar
102
qualify
##®
180
##la
score
questionnaire
embedded
forecasts
marketplace
sustained
clean
alternatives
rated
stations
regulators
borrowed
vs
gives
fewer
drivers
educational
wages
terminate
movements
auto
linked
brazil
minimize
approvals
version
took
hypothetical
none
accident
fire
threshold
marine
wage
entrepreneurs
106
analyzed
absolute
widely
partial
bid
unrecognized
shipment
register
146
competitiveness
disease
idea
discover
oriented
declining
rapidly
situations
practical
broker
giving
1991
articles
websites
iso
counterparties
whenever
seasonal
weeks
extinguishment
aware
accelerated
raised
dealers
characterized
assessed
nuclear
quantity
recoverability
latter
finished
103
fields
121
numbers
audited
meaningful
moving
season
offshore
experiences
stockholder
radio
explain
utilizing
##ie
allowing
fundamental
explained
identifying
cars
supervision
appear
forecasted
assure
alone
interested
refinancing
electronics
classes
indeed
143
495
white
kind
released
participating
receiving
reduces
said
##da
drugs
rising
advice
perception
regardless
she
teams
wealth
##net
brokerage
flexible
ones
stand
notional
block
young
semiconductor
foundation
log
construct
never
cards
borrow
japanese
live
fas
financed
replace
conventional
load
nonperforming
front
click
determines
whereby
cell
approximate
ideas
elected
promotions
ab
gaming
namely
lowest
head
enables
official
stronger
repaid
cloud
representative
remainder
representatives
##ts
##ro
departments
capture
military
collaborative
newsletter
repayments
111
internally
send
prevailing
suggested
additions
focuses
contributing
superior
entering
cancer
exempt
easily
fit
responses
satisfied
assembly
cap
column
failed
tenants
applies
certified
chapter
facebook
transfers
barriers
imposed
tv
forma
fraud
believed
behaviour
148
london
114
transparency
references
pattern
identifiable
becoming
##ment
british
http
collateralized
tons
achievement
seller
installed
fast
##ka
heating
112
##ma
efficiencies
territory
origination
sections
coefficients
implies
scenario
annum
feedback
asked
examples
expensed
reconciliation
discussions
seems
gallery
##no
ground
exception
##ng
releases
vessels
connected
assured
ip
obligated
fresh
tasks
cooperative
academic
variation
eliminate
repurchased
marginal
covering
obsolete
gathering
trademarks
##ce
175
organized
recovered
environments
branches
employers
acts
discretion
collectively
distribute
sometimes
specifications
chosen
track
expensive
labour
113
collective
154
holder
import
leaders
simulation
examined
aimed
jurisdiction
addresses
lost
express
intent
conclusion
varying
contractors
film
lien
operator
deficit
variations
simply
wood
schools
alliance
curve
machinery
interviews
readily
decreasing
computed
restrict
##ton
##ge
introduce
emphasis
145
comparative
investigate
forest
documentation
ready
terminal
actors
box
spain
131
valuations
games
determinable
display
hedged
match
focusing
discuss
counterparty
135
universities
recording
executed
solid
northern
##00
diverse
chairman
guide
exchanges
mandatory
executives
mine
helps
impose
excludes
reliance
brought
bases
le
integrate
comes
116
citizens
spreads
owns
lot
reversal
label
club
appears
##ch
organisation
intends
##q
programming
movement
negotiated
accurate
satellite
stay
amounted
employer
package
cookie
##de
billing
maximize
considerable
delaware
118
print
holds
message
nearly
port
encourage
french
diversity
inter
southern
quite
##ri
spa
##total
insurers
semi
##ion
costly
bonus
##ation
2020
strongly
affiliated
diversification
deductible
117
identity
summarized
124
158
heat
450
calls
surface
225
filings
separation
institute
originally
summer
typical
downturn
scenarios
volatile
considerations
casualty
observations
discovery
river
proper
par
driving
engine
italian
lose
subscribers
automation
##nt
anticipates
scheme
hard
132
medicaid
entrepreneurial
128
indicative
views
149
151
119
commenced
names
german
recommendations
realizable
staffing
willing
spent
domain
let
login
petroleum
rooms
coordination
thereto
161
122
155
border
engagement
aid
thanks
analysts
legislative
proxy
washington
instances
chemicals
exports
trusts
mass
promissory
causes
difficulty
supports
informed
emergency
poland
launched
customary
downs
hazardous
moscow
severe
pollution
breach
conflict
constitute
covenant
conformity
transformation
accuracy
epa
modification
issuances
residents
away
competing
scholes
1a
malaysia
productive
concrete
170
commodities
127
depth
##io
preference
126
eliminated
drawn
##table
valuable
orientation
deterioration
sole
maintains
processed
awarded
reclassified
concepts
153
slow
sweden
heavy
custom
validity
automobile
illinois
charter
360
receives
##va
rest
islamic
cent
factory
style
sea
129
creditors
se
futures
##we
submitted
creative
village
evaluates
carrier
election
suffer
branded
printing
solely
interesting
220
functionality
micro
preceding
138
dated
calculating
dynamics
insufficient
left
inherently
exercised
requests
whom
strengthening
think
host
strengthen
formula
shipped
123r
raising
discretionary
exclude
fashion
entrepreneurship
mode
replaced
settings
calculations
magnitude
decided
motivation
informal
ict
perceptions
voice
recognizes
gt
assumes
del
describe
older
adding
skilled
destination
ask
conservation
expert
linear
issuers
rail
studied
165
concentrated
eastern
appreciation
argue
undertake
commonly
observable
prepayments
demonstrate
serious
ferc
indenture
conducting
tech
derive
correct
136
answer
intensive
organisations
junior
concerned
mineral
double
listing
coupled
mergers
cutting
##ine
el
diversified
relief
intervention
prove
##um
minimal
bill
province
serves
originated
inspection
aspect
men
ensuring
sponsored
choices
fdi
priced
mixed
134
##ur
elimination
##ble
aluminum
sells
boards
audits
aims
sellers
grew
issuing
founded
feel
signal
generic
##th
continually
infringement
162
passed
137
trademark
correlated
properly
shelf
revealed
fsp
complaint
individually
##ti
##ry
broader
truck
korea
winter
spend
leasehold
1989
##ns
animal
split
robust
centre
saving
islands
139
cleaning
samples
unused
neither
km
190
hong
singapore
decide
severity
attitude
expectation
plastic
intercompany
proposals
physicians
council
mechanical
music
156
147
varies
maturing
computing
duty
##tion
ever
premises
lt
google
supplemental
latin
draw
unemployment
ppl
subjects
defaults
indirectly
completely
behind
broadband
conference
technique
dummy
##se
##at
conclude
chains
specialists
blog
240
ex
milestones
netherlands
fi
adequately
makers
proposition
designs
driver
metrics
disclose
nevertheless
path
jersey
faster
elect
popular
convert
intensity
remote
375
refinance
taxation
asbestos
pound
airport
privately
undertaken
glass
merchant
revisions
say
accurately
library
210
random
universal
hierarchy
repairs
pennsylvania
ru
##ter
nonaccrual
stress
serving
indicating
kong
employ
168
spare
associations
benchmark
modifications
reportable
server
allocate
financings
me
##ca
##ies
challenging
billed
lawsuits
1988
red
creates
1986
vacancies
diesel
economics
recruitment
navigation
gender
meetings
places
valley
predecessor
courts
producer
somewhat
courses
covers
fiber
##ps
background
variability
responsibilities
addressed
bulk
parking
stop
##son
occurring
ministry
pages
analyzing
redeem
152
forced
enhancing
mdash
recycling
roles
gulf
insights
disposed
text
166
prevention
requested
emission
surrounding
hypotheses
ffo
evaluations
complementary
sound
##land
vertical
crucial
interactions
automatic
comparisons
##it
miles
cycles
failures
indian
authorization
contracted
players
163
230
pipelines
404
extraordinary
delayed
167
asian
unamortized
faced
enhancements
subscriber
motion
oem
ad
portions
##ted
try
cargo
##ni
metals
protected
argued
deliveries
congress
hiring
##line
containing
un
quick
275
indemnification
bridge
continuously
refund
execute
dependence
##go
internationally
efficiently
indication
join
specification
beliefs
qualifying
recourse
negotiations
australian
310
cluster
debts
circuit
irs
brokers
limiting
185
dimension
sized
exceptions
demonstrated
proposal
diseases
willingness
excellent
foreclosure
spot
van
seem
forces
vote
nigeria
americas
surveys
tobacco
ohio
allocations
optimization
modeling
expires
figures
coast
desired
##ian
incorporate
legacy
adopting
deviation
205
hire
ship
bias
rents
redeemable
families
repricing
candidate
740
matrix
named
defines
lighting
bodies
peer
motor
scores
systematic
tender
convenience
auditors
dry
leave
feed
penalty
recommended
disruption
predicted
indices
fig
virginia
peak
publications
partly
everything
contracting
apparent
soon
abroad
carolina
consequence
cut
fish
foods
renewed
jordan
extremely
blood
var
influences
worker
172
196
unanticipated
retailer
milk
century
upgrade
preparing
clearing
describes
uncollectible
corp
260
virtual
164
entirely
economically
liable
sampling
apparel
coming
##ve
returned
215
valid
determinants
##ization
##ting
depletion
171
contractor
pretax
therapy
specialist
##ate
corruption
cancellation
appeal
thereof
consolidate
divisions
star
conflicts
identical
confirmed
320
195
announcement
viewed
181
550
promoting
removal
##do
owed
sustain
intelligence
deals
##ive
perhaps
holiday
healthy
proven
evolution
201
passenger
203
169
zone
friendly
extreme
counter
achievements
##ized
vessel
##our
normally
173
001
don
interpretations
observe
settle
coffee
il
seeks
rendered
advisors
con
preliminary
engineers
inside
820
format
perfect
wine
prepare
shorter
emergence
african
methodologies
disputes
unexpected
poverty
highlights
extra
##am
duties
automated
worked
reforms
macroeconomic
constantly
directed
annuity
facing
heart
liens
##li
independence
came
650
grid
injury
foot
186
pace
crop
demographic
matching
capable
apartment
280
object
copper
favor
expired
explanation
174
pdf
lawsuit
176
enabled
270
179
bargaining
183
attempts
criminal
basin
trades
modify
commercially
papers
count
182
333
enabling
188
178
199
constructed
disaster
analytical
networking
diagnostic
trucks
color
foregoing
oversight
deductions
save
212
attitudes
resort
rebates
ago
sought
regressions
accrue
competence
interactive
binding
sourcing
thermal
beverage
produces
heavily
simultaneously
benefited
physician
essentially
conditional
twenty
184
taxing
382
securing
187
deployment
conclusions
twitter
island
redeemed
pharmacy
recognizing
solve
alliances
mobility
spectrum
temperature
dispute
206
round
stream
interview
catastrophe
possibly
325
compares
192
receipts
##lo
##il
sa
appendix
warranties
route
hybrid
upgrades
feasibility
177
am
disruptions
monitors
impacting
entitys
window
tourist
geographical
consecutive
605
commencing
acres
photo
integrity
moodys
submit
222
books
connect
carefully
##ll
associates
participant
vi
enhancement
meets
dr
standby
decades
consistently
ratably
renew
207
broadcast
189
precision
imaging
bonuses
tariff
nations
frequent
desire
reception
193
distinct
ethical
regime
th
programme
202
delivering
rigs
insignificant
hour
drop
204
accelerate
hot
rm
plays
208
certainty
presently
adapt
211
accretion
mortality
216
1985
marketed
##cs
198
yen
##tm
college
pays
##ga
unknown
counsel
aerospace
running
soft
dispositions
taiwan
197
apb
prc
unitholders
objects
1987
restrictive
man
war
191
formerly
194
235
acceleration
suite
median
365
farms
architecture
password
threat
warning
##st
718
moderate
dilution
weakness
401
talent
violations
##ls
es
strict
unlikely
229
equally
cells
sab
evolving
connections
pcs
female
hosting
nevada
245
violation
automatically
unrelated
rich
214
resale
schemes
##bs
stakeholder
seasonality
refined
gift
teaching
fulfill
frank
ford
ranges
concentrations
cease
minutes
windows
221
blue
campaign
comments
spin
analytics
causing
##ley
imports
prescription
bulletin
shocks
assurances
browser
290
255
##ki
georgia
farming
supervisory
author
treat
##less
container
abnormal
209
bears
escrow
812
resolved
217
dairy
223
##ling
shock
232
219
municipalities
incorporation
303
sure
233
investigations
218
accruing
descriptive
developers
php
wall
independently
213
##ville
substances
origin
aviation
attribute
farmer
recession
frame
updates
supplement
accountability
medicine
deduction
grown
227
casino
exercises
houses
meat
attacks
doors
easier
231
##ler
625
announcements
annualized
parameter
enrollment
cold
something
reality
laser
sent
codification
330
removed
optimize
enjoy
guaranty
phenomenon
downward
228
utilizes
pools
237
dealing
contractually
deliverables
id
265
paris
##ke
restructured
proof
510
md
mw
publishing
##ol
ingredients
doubt
##ms
observation
exclusively
224
##age
358
argument
affordable
efficacy
story
fill
keeping
spring
234
unlike
collectibility
child
unaudited
contributes
mbs
besides
pursuing
plaintiffs
appraisal
representation
consensus
248
adjustable
mm
develops
dental
inadequate
inflows
belgium
explanatory
243
ideal
exhibition
shape
ireland
deep
aforementioned
usd
340
behaviors
customs
252
226
penetration
addressing
241
affairs
insight
revolver
##me
subscribe
switching
propose
242
249
##ds
density
installment
256
prescribed
##sa
workshop
mind
##ex
prefer
850
auditor
moved
246
restatement
238
##ism
##ey
collectability
globally
subsidies
244
translated
sizes
875
gained
schedules
defendants
substitute
miscellaneous
285
247
memory
236
251
contingency
migration
fuels
registrants
thinking
preclinical
train
dominant
pilot
hr
ethics
silver
conversely
purchasers
253
258
watch
finland
lae
greatest
380
pharmaceuticals
town
manages
364
composite
favorably
investigated
belief
fruit
player
relocation
254
intermediate
introducing
tracking
federation
263
reimbursements
airlines
death
withdrawal
oxley
integrating
262
generates
behavioral
exhibit
temporarily
305
tariffs
files
nyse
420
containers
bar
horizon
revision
unchanged
des
england
energys
##ck
257
differs
##ko
posted
sarbanes
soil
bottom
saint
defer
picture
arbitration
theories
oral
264
fines
phases
intense
##ist
286
jointly
meters
ton
239
295
flight
equipped
remove
relevance
excellence
burden
skill
sp
bus
mill
rewards
315
optical
fulfillment
##ner
301
hydraulic
obsolescence
speculative
pledged
370
##ability
supplied
499
alleged
certifications
journal
indications
rig
fails
gmbh
outflows
267
tourists
airline
ease
261
343
selecting
reviewing
scholars
turkey
consistency
satisfactory
268
304
sufficiently
1990s
335
luxury
answers
272
beneficiary
norms
colorado
du
originations
him
425
266
ecological
pc
259
completing
billings
packages
274
portal
delinquent
supplementary
parallel
edge
begins
powerful
vested
confirm
aging
socio
sublease
showing
kinds
treatments
##10
los
thought
composed
reinvestment
1980
interior
sophisticated
fine
functioning
handle
overseas
302
checking
wire
##ty
##ba
upper
definitions
threats
ukraine
codes
insurer
fr
absorb
justice
mac
choosing
sciences
organisational
tends
conceptual
getting
287
computers
resolve
statutes
proceeding
269
273
1934
1984
sport
writing
contamination
commercialize
fifth
greatly
##tech
sprint
powers
maryland
columns
345
win
czech
stored
degrees
shops
opinions
directions
modules
workplace
ecosystem
intentions
negotiate
opposed
288
410
##que
relies
falls
480
authoritative
281
erp
312
fairly
277
##ee
276
##ec
engines
survival
299
lag
forfeitures
combine
nm
440
helped
audio
terrorist
##ite
examining
279
transit
revise
271
278
311
iron
detection
296
ca
interface
standardized
thailand
philosophy
##ent
dodd
351
arizona
383
qualification
assignment
appointed
cds
capita
vest
timber
ore
clarifies
die
successor
316
entrepreneur
interventions
visitors
arises
exceeding
##hi
oecd
355
390
feasible
refinery
282
surgical
284
probably
zealand
minus
questionnaires
##ure
rose
470
overcome
routine
accessibility
disasters
##ze
consultant
massachusetts
formulation
manual
815
org
traders
283
292
requisite
licensees
grand
505
sitemap
profiles
unearned
laboratories
balanced
##berg
apartments
nursing
pipe
289
campaigns
protocol
rms
308
excessive
sovereign
enforce
prohibited
kg
contrary
322
wish
installations
prospectively
collecting
renovation
garden
294
experiencing
customized
helping
brazilian
graph
franchisees
interpreted
matures
shifts
291
alpha
metric
metropolitan
342
##wood
expose
las
810
352
307
marked
ifrs
priorities
therapeutic
images
acting
unallocated
297
332
harbor
475
313
stringent
##way
298
varied
integral
bull
freedom
314
347
restoration
vulnerable
3d
expressions
extending
vital
spanish
sun
950
really
species
323
wider
resistance
touch
euros
retaining
existed
##ors
railway
##one
306
weaknesses
460
parents
modest
divestiture
magazine
equals
317
persuasive
lots
switzerland
309
coupon
terrorism
334
rank
golf
slight
panels
293
monitored
array
columbia
unusual
terminals
trigger
recruiting
influencing
word
signs
budgets
##za
reaching
territories
430
understood
2021
tied
327
lake
385
363
324
ag
occupied
##wa
brokered
logic
outdoor
fcc
committees
326
318
pertaining
visits
baseline
jsc
805
vie
immaterial
dividing
predominantly
ceded
suit
sme
lists
depreciated
331
372
nation
perpetual
static
officials
321
525
fluctuation
cancelable
constraint
engaging
ms
manufactures
auditing
tour
app
fraction
browsing
337
uniform
discrete
regulate
adjusting
switch
pa
gradually
349
338
judicial
bureau
##les
negotiation
ngl
reveal
crops
reversed
wisconsin
336
constructs
##di
weekly
ethanol
risky
##he
319
generations
##е
344
520
forwards
multinational
delinquency
impair
paragraph
deferral
guarantors
differently
348
les
historic
weaker
statute
consultation
outlined
##ally
monday
break
virtually
friday
strictly
preserve
legally
aggregated
screening
371
forfeiture
eventually
characteristic
nominal
329
consuming
bringing
339
aggressive
compounds
interruption
collaborations
advisor
1933
415
353
door
540
battery
extensions
goes
rentals
designing
hazard
ceiling
publication
sop
vast
gasoline
inform
hospitality
expands
connectivity
performs
346
##nd
criterion
##om
411
explicit
328
403
align
comparability
354
conform
illustrates
readers
refining
inclusive
communicate
moral
horizontal
standing
##izing
tower
smith
##mi
ameren
installments
telecom
puerto
recall
intrinsic
sterling
405
rice
experiment
sanctions
forum
clothing
pepco
messages
pl
programmes
exploratory
practitioners
eco
359
administered
appeals
competencies
perspectives
viable
##id
357
suggesting
argentina
capitalize
560
classify
throughput
duke
reward
dual
researcher
upfront
395
slowdown
501
seismic
1983
microsoft
356
accessible
530
enters
341
cf
369
368
366
hurricane
pumps
discusses
575
361
spatial
##ja
loading
avenue
mountain
adapted
injection
declare
precise
chicago
symbol
constrained
minor
takeover
381
378
indiana
490
phones
widespread
decade
targeting
384
synthetic
rehabilitation
huge
412
362
391
suspension
municipality
novel
dec
directive
reaction
motivated
pure
films
greenhouse
happy
corn
retired
050
centralized
cms
roll
auctions
comfort
373
oklahoma
discharge
377
388
harmed
payables
dispose
beach
vsoe
406
purchaser
explains
ups
ceased
da
friends
374
640
386
reading
402
444
387
399
developer
topics
435
660
##gen
everyone
teachers
spaces
closer
rata
improves
debit
376
representations
##isation
423
impossible
367
##ier
506
417
437
variances
quote
##gs
resellers
455
cart
amends
max
rational
basel
379
ocean
intermediaries
unions
408
complaints
trained
##fs
##pa
begun
norway
hall
petition
male
667
combining
evident
anniversary
cyclical
cognitive
620
john
biotechnology
nutrition
desirable
videos
394
saw
555
397
complement
393
identifies
422
differential
surveillance
##tor
waiver
michigan
expiring
traditionally
lock
disability
bidding
copy
392
relied
comprise
##ina
580
##ize
audience
peoples
polish
426
rico
ranking
macro
432
389
bancorp
sponsor
roa
##20
398
418
424
denmark
attracting
##rt
instability
ancillary
character
distinguish
vacation
possibilities
blocks
transparent
introductions
454
##ac
exchanged
subsidy
396
416
visual
438
unauthorized
adaptation
imported
414
systemic
##ant
defects
explicitly
413
archive
504
forecasting
libraries
solving
protecting
##est
##ron
screen
undelivered
displays
ourselves
clearance
suspended
ours
strengths
finds
multiplied
825
dc
defend
obvious
407
imply
module
trustee
occupational
swedish
checks
9001
421
##ir
mitigation
434
configuration
starts
433
counties
competitor
withholding
448
highlighted
##ide
heritage
unfunded
chance
joined
##tic
443
creditworthiness
465
heterogeneity
409
bills
neutral
shortages
502
emerged
442
449
590
456
429
pm
aa
419
##ised
ce
missouri
browse
appearing
clusters
451
deficiency
atm
1st
highlight
appropriately
570
submission
##other
441
445
leveraged
merchants
tank
depository
720
439
tranche
473
plc
428
digit
ensures
louisiana
roads
likewise
reveals
atlantic
860
layer
515
caps
675
string
855
adults
regulator
468
unobservable
null
reinsurers
##ci
convenient
##ny
446
oy
encouraged
liquids
plug
endeddecember
431
458
incurring
accommodate
##ow
abstract
cooling
constitutes
holidays
rolling
prudent
##ous
485
regarded
7a
policyholders
427
analyzes
ed
verification
branding
##а
464
496
false
478
oems
commencement
signals
##ad
subscriptions
opposite
725
010
466
reimbursed
appointment
proceed
bbb
fired
debate
surgery
610
apart
positioned
545
483
775
brings
508
##lin
##м
narrow
rmb
bermuda
pounds
continuation
##ff
488
730
436
447
insolvency
declaration
vector
flash
maximizing
630
##mo
503
680
campus
morgan
underwriters
mexican
districts
securitized
606
1982
austria
prediction
matched
ties
discipline
##ning
documented
020
467
crm
737
462
ticket
incumbent
positioning
compensate
463
proportional
considerably
cautionary
confidentiality
457
##ek
ahead
471
512
452
##nce
eliminating
proximity
ve
moment
leisure
492
accommodation
##и
divestitures
advertisers
469
respondent
493
bay
070
519
slower
leaving
535
489
bp
999
459
514
##zione
classic
780
diagnostics
sugar
453
472
516
481
silicon
kitchen
interstate
exemption
##and
474
shoes
517
differentiation
shale
eps
prohibit
granting
tendency
differing
refunds
permanently
476
conditioning
666
##ss
exercisable
grain
hope
dilutive
financially
oreo
middot
lp
incorporating
pet
511
extends
715
985
ends
482
509
recommendation
chart
emphasize
461
creek
examines
reset
exclusion
ice
credited
renewals
690
houston
thirty
040
carries
479
487
##out
498
840
##ura
born
rejected
examinations
494
507
israel
predictions
comprising
secondly
arm
livestock
526
lee
524
tissue
486
585
##der
497
571
floors
747
emerge
landscape
##ya
lab
deteriorate
drives
522
alter
mae
propane
pakistan
484
correlations
tailored
assesses
strive
era
notion
acquirer
notification
670
exploitation
titles
521
011
approve
760
602
ndash
518
scrap
601
1000
531
hub
556
filter
##com
leveraging
carryforward
491
destinations
##ha
532
538
regards
booking
concludes
crises
brief
drill
##ance
outsourced
ars
615
##ix
477
alliant
tree
513
563
leaseback
hired
710
accidents
830
##per
529
concessions
weights
socially
facilitating
trying
foreclosed
barrel
falling
ghg
770
533
deficiencies
603
##rd
anticipation
accountants
565
595
surety
agenda
powered
played
##tt
566
payors
541
environmentally
ruling
troubled
##field
specify
participated
777
reits
emea
554
558
exploring
552
645
567
beneficiaries
030
534
572
diligence
compute
highway
subcontractors
ordered
contexts
542
557
588
secretary
psychological
990
underground
543
minerals
583
precisely
petersburg
synergies
guests
528
638
527
536
635
980
544
582
tm
gave
faces
790
pp
notified
577
548
substance
poors
defining
604
categorized
harvest
analysed
na
665
767
564
weakening
reservation
573
035
circulation
523
880
verify
568
bids
##30
562
finite
personalized
003
551
eur
537
553
547
undeveloped
576
permitting
cyber
fiduciary
streams
boundaries
unsuccessful
arguments
breaches
ngls
relational
compression
574
amortize
claimed
925
578
619
787
consumed
importantly
831
569
hearing
bio
lean
experimental
sensors
shanghai
##50
960
vies
##si
guarantor
seed
asserted
##point
animals
otc
detect
interact
596
ge
cancelled
549
acute
714
commence
inquiries
stainless
payout
559
steady
susceptible
bound
midstream
611
barrels
shifting
aged
broadly
beta
controller
swiss
608
beauty
reclassification
install
612
appliances
##ating
interval
refundable
fabrication
703
599
##ys
546
lowered
561
539
607
648
584
raises
emotional
617
thresholds
591
745
##ated
caption
conservative
888
textile
705
587
609
shortage
waiting
616
581
payoff
versions
visibility
002
quotes
homebuilding
collaborators
634
creativity
626
688
pledge
went
##ise
restriction
662
676
minnesota
missing
welding
downloads
642
databases
taste
reinvested
recommend
acreage
655
contemplated
579
051
acid
##are
vegetables
920
johnson
incorporates
618
super
viability
911
protein
755
613
031
622
illustrated
openings
685
substantive
treaty
592
exporting
663
##ap
prompt
plastics
logistic
originate
1981
##ot
extraction
joining
mini
597
1980s
compound
586
005
679
residence
628
encounter
641
brown
695
confidential
594
636
shell
704
mills
624
assisted
discovered
004
653
rare
##ah
ranked
aaa
632
621
definitive
youth
589
retrospective
713
scales
fifty
invoice
gaps
expression
strike
biological
southeast
785
614
helpful
routes
abandonment
concentrate
kansas
623
passengers
drawing
643
indexed
637
702
##cy
boston
discontinue
802
succeed
910
045
890
multifamily
initiate
passive
080
mall
co2
trip
682
dataset
727
870
skin
647
025
barrier
instructions
658
yielding
639
##tive
701
678
valves
absent
902
598
corrective
##ford
633
631
entirety
idaho
merit
651
medicines
hurricanes
644
728
illegal
youtube
765
rue
668
930
demonstrates
footwear
seriously
pump
852
possess
securitizations
646
995
triggered
proportionate
bookings
656
762
perceive
673
illustrate
629
833
975
restructure
##ino
dutch
adjacent
convention
notices
frozen
steam
modernization
downstream
session
exactly
671
fluid
servers
indemnify
712
motors
721
731
795
alternate
627
757
milan
717
744
649
##hs
689
aftermarket
652
672
661
labels
explaining
explored
faq
tradition
accumulation
711
cited
exploit
stockholm
##bank
707
669
##operating
fargo
724
735
upward
749
681
suggestions
593
empirically
printed
pv
691
708
notably
equations
diffusion
stone
argues
equities
kept
684
faith
globalization
846
bags
664
##be
692
speak
055
capacities
insulation
835
677
696
skip
reflective
opt
outlet
743
remedies
modes
732
075
722
729
940
965
659
796
evidenced
654
undue
683
supreme
843
closures
winning
706
populations
scientists
699
provincial
bangladesh
alternatively
687
734
697
deployed
advertisements
consummated
indemnity
secrets
081
863
674
698
857
716
locally
eliminates
challenged
jones
784
751
877
analyst
boxes
saturday
unpredictable
726
promoted
averaged
spirit
866
biggest
necessity
752
753
clauses
861
776
placements
predictable
801
945
##ary
engineered
deliverable
781
earth
selective
heading
amend
926
778
remuneration
tep
prominent
royal
mines
certainly
governed
693
733
unvested
demanding
686
tanks
ghana
754
accompanied
privatization
upgrading
748
delta
telecommunication
annuities
657
915
758
react
unforeseen
928
746
adult
rmbs
nationwide
fitness
footprint
##den
comprises
king
drilled
credibility
971
694
warehousing
martin
asymmetry
pointed
studio
774
exact
719
813
marketers
##ut
ceos
guest
723
816
##pe
cellular
##ini
connecticut
policyholder
foster
robustness
mitigated
916
856
tickets
768
prepay
895
921
rubber
alignment
741
761
apple
prospect
049
970
##rate
905
##mm
rock
771
autonomy
overnight
842
assortment
clinic
stories
792
845
808
fell
##ard
wastes
creditor
interbank
811
preservation
709
founder
secret
988
783
791
fishing
delinquencies
742
och
preventing
love
mental
756
merged
landfill
060
outlets
pensions
negotiating
lowering
meanwhile
kentucky
encouraging
fertilizer
763
lies
won
linkedin
fixtures
799
hill
insider
738
948
ha
vol
788
absorption
conducts
772
protective
professionalism
764
956
739
cooperatives
sba
competent
noise
maker
804
##bility
759
distress
964
972
943
forming
romania
039
unbilled
firstly
tail
incident
catalogs
op
multiples
visa
incorrect
961
932
imposition
kenya
possession
769
885
937
807
806
shortfall
ranged
933
philippines
maritime
789
bilateral
ads
eligibility
858
736
015
debtors
779
santa
865
vietnam
ibnr
978
838
lifestyle
roe
818
918
##ists
809
935
007
906
clubs
captured
851
studying
782
inquiry
abilities
commit
wafer
generators
resident
##ft
797
batteries
006
poultry
773
090
824
041
quantify
thing
949
contemporary
hungary
centres
qualifications
police
correction
942
853
complicated
associate
midwest
##by
abandoned
786
worse
implicit
962
zones
864
##ell
968
greece
tenure
sep
##ik
redevelopment
901
charging
felt
portugal
016
night
803
venezuela
828
844
fannie
voltage
946
ports
766
accessing
798
sponsors
wastewater
886
867
italia
936
lieu
##house
986
793
847
motivate
826
intermediary
022
821
832
chile
887
upstream
868
059
878
834
931
##un
##interest
owning
976
hazards
dramatically
1978
922
008
914
##ria
##fi
014
wrote
794
saudi
gathered
computation
881
862
917
stands
##res
908
018
careful
crime
##ware
823
cancel
955
963
814
reimburse
876
817
954
seat
889
wants
corresponds
##ux
merchandising
comfortable
836
044
hourly
##ks
decommissioning
012
848
944
974
924
907
927
amongst
depositors
surrender
accredited
race
883
strengthened
damaged
wholesalers
947
trips
runs
flood
exogenous
ordering
irrigation
052
wave
837
874
inaccurate
enhances
quot
882
##ea
048
013
859
839
959
903
ships
941
appraisals
841
eye
mandated
019
comed
913
973
871
patented
997
ec
arrears
distinction
028
929
emphasized
957
sponsorship
026
clause
validation
##ping
##port
884
998
m2
usual
##hip
829
912
909
958
822
923
##ding
872
879
##era
compatible
decree
enactment
permission
095
873
938
edition
visiting
replacing
catastrophic
broadcasting
046
mile
827
pain
854
951
fix
952
892
898
responding
chip
storm
1979
roof
033
atmosphere
##vo
salt
021
designation
meant
provinces
chose
resorts
967
032
nothing
finalized
hands
projection
concession
probabilities
904
lg
987
953
894
prolonged
analyse
beverages
036
propensity
routinely
placing
ineffective
891
819
##nes
strategically
869
internationalization
981
##40
977
unified
ace
engineer
ma
983
warehouses
994
919
encountered
##ham
differentiated
restructurings
consult
849
vulnerability
jan
899
897
frameworks
algorithm
992
934
966
reclamation
stimulate
023
pi
attorneys
017
dominated
intra
intelligent
083
ts
debtor
powder
065
disposable
##12
##mann
063
complying
rebate
fossil
academy
896
##so
treating
072
adds
991
interpret
merits
outputs
abuse
establishments
ceding
basket
092
##tec
mention
plaintiff
korean
979
893
taxed
sharp
982
nonetheless
029
nols
aggregating
yes
009
titled
##tar
liquidated
091
989
085
separated
042
pictures
voluntarily
984
sort
##sky
047
969
convergence
defendant
076
therein
ll
departure
077
downgrade
attack
thomas
062
parks
displayed
034
bed
labeling
reseller
graduates
publicity
eleven
faculty
##link
024
993
redemptions
elderly
098
calling
colleges
053
intervals
presenting
formally
marks
doctors
endogenous
054
##vi
996
##ova
breakdown
diamond
038
discrimination
inconsistent
027
##ries
modular
sectional
##ire
attached
employs
rolled
quota
tennessee
nutritional
catering
939
interruptions
reimbursable
037
082
043
##gi
cement
sl
089
mcf
##ring
071
##11
bi
informational
mar
061
allocating
kit
incurrence
oregon
##em
alcohol
engagements
pt
##tes
investigating
familiar
excise
chronic
056
lagged
##ities
078
relying
##mer
##for
074
079
themes
employing
mutually
hsbc
088
unaffiliated
084
arms
continuity
premier
francisco
на
wto
ultra
comment
consummation
turns
antitrust
newspaper
workshops
factories
hygiene
theme
oils
pooling
solvency
grocery
diversion
suppose
incidence
roughly
069
058
palm
##group
##jo
monopoly
li
mi
##sk
converting
induce
057
photos
speeds
meter
094
sc
compliant
repeated
plaza
##kin
ante
lifetime
067
domains
cancellations
086
gaining
##led
coatings
##vs
merge
stem
hair
073
analog
talk
trailers
diversify
ibm
passion
approximates
lands
christmas
clarify
oncology
093
root
coordinated
yourself
068
##ay
##ov
064
notwithstanding
imposes
retire
causal
coastal
deploy
transactional
1976
nda
appeared
##bo
david
099
inspections
##tone
pooled
nationally
inflationary
angeles
piece
withdrawals
facilitates
asymmetric
predictive
abl
cattle
simplified
push
bakery
happen
096
arrive
exelon
oct
amortizing
066
advised
bought
geological
combines
whilst
presentations
promising
outages
counts
pulp
merck
else
liberalization
##burg
isolation
featured
visible
elasticity
097
evolve
promulgated
accepting
draft
##im
turnkey
estimable
shut
proactive
consumables
##ger
compact
iowa
passage
atlanta
##о
cdo
##bi
fed
##ral
lng
govern
differentiate
judge
tape
minute
delivers
##men
hosted
demonstration
cotton
cultures
sur
turbine
substitution
responsiveness
ipl
unrestricted
golden
geography
##ris
##han
##je
colleagues
launches
transform
brochure
movie
hiv
clinics
electronically
originating
beef
dose
087
aligned
dac
continental
cm
pieces
assign
deviations
signing
1977
undertaking
reader
filling
refinanced
zinc
triggering
unlimited
bidder
northeast
suffered
##lla
domestically
randomly
noi
commensurate
ar
induced
incomplete
reject
serviced
reservoir
lifo
unfortunately
designers
https
administrator
liquidate
someone
aggressively
vegetable
census
obstacles
balancing
correctly
##ets
garage
pharma
forestry
inefficient
says
##well
usefulness
ebit
paradigm
denote
gases
resistant
pnm
bb
indonesian
attractiveness
matured
processors
james
jet
dioxide
##ial
supplying
upcoming
##view
denotes
merely
repatriation
captures
hundred
circuits
mg
##ana
regimes
frb
devoted
discourage
ols
eagle
turning
referral
##ak
mandate
realizing
tire
empowerment
terminations
taxpayers
alabama
naturally
chi
recapitalization
responded
pursuit
mon
coordinate
suits
citizen
geographically
newer
prohibits
optional
minimizing
aum
cream
bps
trusted
twice
advertisement
eng
ac
discounting
recruit
pipes
##ai
##income
attempted
devote
mississippi
##ita
formats
incomes
##tel
peers
draws
exceptional
##care
vc
si
sri
eventual
##ons
outpatient
alleging
determinations
denied
surcharge
underwritten
##back
attempting
genetic
graphics
ventilation
autonomous
experiments
pocket
moves
nol
proposes
specialization
tips
fabrics
va
bidders
predetermined
chen
bankers
confirmation
personality
determinant
conferences
ic
filters
momentum
shifted
got
dummies
landlord
colors
indexes
costa
licensee
appearance
vaccine
cables
undistributed
injuries
gets
sap
satisfying
npv
rarely
openness
##ore
lend
formulated
trustees
beer
finishing
##ful
##ging
sand
deducting
airports
portable
peco
cheese
pharmacies
confirms
responsive
recipients
emphasizes
stake
vacant
misstatements
cents
perfectly
##che
correspondent
headquartered
vegas
kits
metro
exporters
locate
executing
verified
gps
towers
chooses
respects
linkages
unavailable
debenture
divested
indefinitely
##sen
affirmative
retains
##up
##board
luxembourg
summarize
accomplished
statistic
surveyed
pack
scrutiny
averages
##ws
logo
translate
essence
avoidance
accomplish
orderly
idle
obtains
explanations
html
regulating
pe
entrance
grades
extracted
containment
leather
##po
downturns
sunday
##nia
row
villages
designer
diagnosis
cultivation
focal
interchange
disrupt
repeat
corrections
looks
supplements
##zing
homeowners
paul
caution
coating
protocols
##у
expansions
drinking
incidents
packaged
nordic
2022
colombia
tell
profession
dropped
##her
organize
severely
surprising
smooth
customization
##tors
reserving
turned
ku
stabilization
##med
pick
uns
##tti
niche
sourced
beds
biomass
fairness
precious
gm
consolidating
extract
tires
invite
rea
expressly
clicking
arts
breadth
sensor
native
systematically
filled
tried
mezzanine
rome
remember
##ica
connecting
closings
transitional
sending
resilience
boeing
miller
toxic
otti
harmful
##au
##ue
sd
sequence
nodes
##ы
actuaries
uninsured
pronouncement
boost
toyota
valuing
earthquake
homogeneous
wrong
bigger
triple
##tal
band
mapping
syndicate
tokyo
younger
varieties
dvd
render
consortium
##15
concurrent
correspond
toll
##60
cmbs
talents
nitrogen
happens
bit
dei
##ins
madrid
rf
theft
aps
heterogeneous
##ano
michael
belong
iva
postal
##01
handled
referring
realignment
abs
##ics
scheduling
puts
unclear
satellites
cooperate
beijing
maps
indentures
belonging
congestion
nonfinancial
justify
hp
baby
spillovers
obviously
franchised
cad
##ara
wines
dell
shaped
ipr
nymex
recipient
tailor
manipulation
fitch
popularity
painting
camera
grounds
##red
definite
vii
therapies
expended
pursued
divert
##ible
languages
pr
chemistry
invests
restricting
budgeting
aside
invoices
subprime
arrival
transferring
frontier
wang
vacuum
initiation
anything
prudential
##ten
fabric
ppp
virgin
interviewed
prototype
remedial
pair
malaysian
attendance
failing
funeral
thereunder
vis
eurodollar
gather
dallas
##ker
reaches
consolidations
organizing
cd
promise
basically
su
freddie
imf
##ang
substandard
famous
fy
para
chartered
consultancy
practicable
##ere
della
classifications
northwest
approximated
whatever
21e
kim
tea
legitimacy
multimedia
everyday
htdocs
specializing
entrants
axis
compromise
administrators
disadvantage
cuts
deem
paint
assert
ojsc
mt
stabilized
describing
telephony
literacy
simulations
distributing
frames
waters
defending
implication
curriculum
artificial
reprice
foundations
infrastructures
introduces
llp
##ments
financials
supplemented
dramatic
simultaneous
playing
alco
grows
cruise
nl
##ves
boe
rio
graduate
occasionally
technicians
payers
architectural
owing
referenced
charity
allegations
mb
000s
gateway
fort
innovate
footnote
disagree
fruits
effected
coding
viagra
fundamentals
chicken
encourages
fulfilled
anderson
habits
ct
performances
sudden
attrition
globe
terminology
accreditation
peru
robert
microfinance
racing
command
treaties
hrm
temperatures
subdivisions
trees
recreational
bandwidth
enforcing
influential
attorney
bag
founding
newspapers
min
wishes
tablets
infringe
wheat
desktop
fittings
publish
withdraw
normative
democratic
pose
applicants
grouped
phi
occ
wanted
truly
worlds
arabia
lift
ages
##21
aversion
counterparts
boat
enrolled
ontario
avoiding
span
beautiful
removing
amounting
constructing
rst
constituted
retroactive
surcharges
cc
molecular
lodging
diabetes
reliably
gallon
supervisors
resin
##sson
southwest
novartis
crane
promotes
egypt
aids
taxpayer
learned
motives
2nd
##ul
exhibitions
aggregation
dissemination
wins
pvc
ny
seats
h1
inefficiencies
jewelry
distressed
reactions
fracturing
1⁄4
registrant
birth
competes
apps
##ber
lastly
condensed
drinks
radiation
lessee
cast
realizability
totals
lengthy
##lt
qualities
ball
consume
1974
parcel
##gan
assemblies
researches
und
worthiness
directory
latent
onto
enforceable
der
fifteen
rigorous
phoenix
styles
leaves
penn
signature
tolerance
api
groundwater
modelling
##ky
knowing
remedy
##ji
destruction
pos
##ens
fear
distinctive
recycled
ounces
biodiversity
yearly
depreciable
catalogue
threatened
chase
builds
b2b
1970
erosion
festival
machining
premise
arab
guinea
recipes
nd
valve
optimizing
acre
notable
guided
##ud
dispersion
speaking
gate
empty
borders
instrumental
territorial
guides
journey
predicting
survive
curves
budgetary
linking
ir
fluctuating
##ver
utah
afford
standardization
exclusivity
externalities
thin
fun
##based
##22
dip
methodological
##mark
personally
advantageous
ngos
supermarkets
tractors
tours
doe
hit
normalized
proud
##time
millennium
demographics
hierarchical
tight
weakened
reconstruction
legitimate
transported
putting
alaska
losing
barcelona
descriptions
advancement
##т
authorize
jensen
heads
wpl
distinguished
gene
prefecture
rotation
boundary
orange
overdraft
doral
##urs
simplify
fraudulent
##lle
eliminations
messaging
predicts
ingredient
deposited
interestingly
##chi
dd
node
bars
labs
hidden
pln
nancial
therapeutics
estimations
seeds
outsource
compensated
situated
tuition
inequality
economical
wellness
vigorously
persistent
##eo
paths
trailer
gp
charitable
distributes
derives
kazakhstan
breast
journals
unconditional
disciplines
##ings
cosmetics
bylaws
salvage
issuable
societies
latvia
plate
bundled
supra
dakota
springs
deeper
phenomena
curtailment
insiders
##work
allowable
additives
chips
fri
##ium
iran
retrospectively
##13
onshore
nonprofit
inpatient
passes
deconsolidation
footage
wear
dimensional
transformed
cr
generator
agro
acquires
proxies
cooking
lifting
assignments
gov
ul
detected
dialogue
williams
##cor
numerical
quotations
mmbtu
suited
anyone
yuan
realistic
bulgaria
collaborate
registry
msrs
unnecessary
copies
nov
evolved
forests
humans
receiver
opportunistic
tertiary
##nts
cheap
au
religious
diminished
founders
deciding
samsung
captive
updating
retiree
collar
filtration
gradual
serbia
nearest
theater
##х
accessed
similarity
thank
pioneer
characterize
tube
deregulation
plasma
segregated
improper
weighting
ci
warranted
subordinate
admissions
fluctuated
contest
disabled
syndicated
motivations
procedural
reversals
franchises
indoor
doctor
##works
decentralized
##od
attracted
arose
renovations
loads
ai
occupation
dpl
pjm
remodeling
veterinary
##ped
justified
likert
##year
strongest
villa
infringing
sides
educated
mitigating
##sh
optimum
imposing
##14
supermarket
accrues
wet
sas
allocable
cure
activation
gallons
railroad
specifies
##king
borne
feeling
1975
fl
durable
omitted
preferential
unfair
##ech
rs
wheel
crown
prevalent
sanitation
adjusts
##ising
specializes
stationary
deepwater
prevail
interviewees
cv
##town
dining
hawaii
depressed
visited
secs
thursday
fox
montana
ots
invoiced
freely
football
searching
27a
centered
exhibits
sms
attain
banner
restore
reflection
stochastic
politics
rd
cis
##ile
aig
societal
waived
lawyers
##lon
kr
buses
height
testimonials
nike
rationale
pronounced
reinforced
arrange
thorough
compatibility
walk
noncash
authorizations
franchisee
streamline
validate
monte
readiness
francais
crew
sessions
interference
vocational
segmentation
mercury
##llo
1973
undercapitalized
ray
minister
benchmarks
exert
occasion
heightened
thirds
##ran
holistic
refineries
##fe
nights
equitable
tuesday
##lli
protections
finances
##ct
summit
dna
nonrecurring
bone
nowadays
petrochemical
unfavorably
chamber
lessons
cubic
principals
edison
commissioning
cronbach
##24
##zer
modeled
disclaimer
jv
turnaround
slowly
##op
ipos
guideline
arranged
slot
##des
outflow
tooling
respiratory
##sing
walls
mountains
cleanup
offline
insure
##ok
facilitated
inflow
##cc
##ung
nos
##gate
thereon
assistant
worst
attainment
lithuania
reservations
inland
dp
revolution
fault
instagram
specialties
seasons
neighborhood
entails
announces
##ters
scm
hd
institutes
halal
resell
problematic
travelers
admission
uranium
ring
regency
snow
ferrous
una
lump
suites
bathroom
blockchain
optic
curtail
peso
startup
titanium
croatia
graphic
supportive
polymer
inn
poorly
sorting
extensively
loyal
rss
sectoral
americans
slovakia
spite
catch
acknowledged
arkansas
milling
furnished
java
layers
prospectus
##16
sequential
##ator
iot
signaling
##fa
##lan
##tan
affiliation
##tra
mediation
##cion
commissioner
layout
votes
asean
processor
parcels
##hl
combustion
##tte
sixth
defaulted
profitably
##water
subjected
switches
subcontractor
##70
privileges
sulfur
expend
preventive
##cal
posts
##ving
hundreds
##non
opens
conversions
cs
hills
louis
discussing
craft
binary
sentiment
141r
advise
toys
waivers
##rc
jun
roche
winner
developmental
matches
suspend
nurses
harris
taylor
laundering
arena
standalone
indigenous
investee
flights
ph
publishers
mwh
instrumentation
radical
fans
##ties
que
anywhere
econometric
lasting
payoffs
rfid
equality
ceramic
anchor
unprecedented
dangerous
fluctuates
urgent
capturing
fulfilling
buffer
lpg
mouth
authentication
versa
cameras
dealership
incidental
estonia
engages
synergy
ml
elevated
##ser
massive
structuring
##rin
3rd
##ration
##zo
dismiss
progressive
ramp
steadily
asking
##off
escalation
foundry
logit
##ки
cigarette
##ess
porter
illness
diego
##zi
turbines
##con
peripheral
communicated
stabilize
av
loop
1970s
outage
sga
##25
dealerships
disposals
drink
norm
briefly
ue
a1
seminars
dependency
donor
fat
washing
cup
consummate
upgraded
endogeneity
sustaining
tenders
billable
che
penny
##tta
differentials
charters
degradation
strip
##box
##ical
announce
downgrades
##ence
cautioned
##tek
disorders
##zation
divide
decides
для
prevented
sphere
dietary
recognised
replacements
confident
optimized
te
pertinent
clarity
brothers
##ock
applicant
shoppers
##star
pairs
interconnection
revaluation
studios
coverages
cheaper
46r
purely
kids
applicability
meal
viewing
fisheries
occasions
portrayal
td
investees
ounce
accreted
wait
forwarding
subset
bbl
competency
enforced
lessees
simplicity
h2
circle
imprint
feedstock
breeding
forbearance
ne
##ken
earliest
donors
trucking
concurrently
violated
##art
hole
desk
cp
##of
allied
##cash
##mar
backup
credible
cooper
till
idiosyncratic
biased
##ice
mandates
##80
appropriateness
##tz
trillion
salon
arbitrage
passing
actor
##lp
##sis
2023
4th
shutdown
lane
behaviours
screens
reinsurer
friend
slope
##end
ethnic
stating
incurs
pci
fragmented
rises
lifecycle
pleased
fan
iraq
shaping
##ola
##lia
scott
pride
adaptive
casual
pik
slovenia
army
irrespective
teacher
3854
pour
condensate
##18
sat
illiquid
infusion
deutsch
lakes
bread
cemetery
moderating
dissolution
##ees
operative
validated
tablet
resolving
##17
cope
growers
warm
cranes
formulate
woman
attend
boats
museum
wi
hinder
mailing
markdowns
printers
logical
recreation
og
sanitary
finish
clustering
lemma
prevalence
refuse
diameter
##ato
earns
##zed
charles
##с
##90
classical
phased
policymakers
assembled
interfaces
##я
isolated
##к
##let
algorithms
materialize
bell
deductibles
plot
pfizer
attraction
aug
toggle
approving
coded
dismissed
differed
wholesaler
reinvest
visitor
realty
##vision
##ho
meals
broken
academics
totally
virus
cat
continent
bargain
inventions
requesting
attachment
disciplined
theatre
##ular
innovativeness
replaces
scarce
promptly
inspired
benchmarking
belt
delaying
trailing
norwegian
supervisor
volvo
tended
enron
predictor
boiler
pivotal
##und
restricts
med
collapse
stipulated
cayman
##ese
aggregates
##ab
##ка
apr
po
lottery
demonstrating
condominium
transmitted
rationalization
##ong
tranches
defective
devaluation
serial
##if
nearby
unregistered
carriage
amazon
peter
trader
##pro
adviser
##change
remeasurement
avoided
coordinating
costing
instituted
voip
unregulated
builders
swimming
platinum
spillover
ind
eq
appliance
ok
wednesday
brochures
slowed
ecosystems
##ld
davis
vaccines
##rk
relocated
arb
showroom
coalition
по
kwh
lacking
behavioural
residuals
anonymous
automobiles
contentsthe
marking
sex
wheels
packing
violate
competences
corridor
soes
intuitive
saved
straightforward
fluids
prohibition
externally
bmw
oxygen
zhang
gifts
procure
##ane
corrected
dispersed
exterior
tightening
exchangeable
belongs
womens
callable
exited
downgraded
invention
retailing
tx
##dal
hi
##19
deducted
liberty
bs
magazines
marriott
combat
##pers
ski
mart
budgeted
listings
payor
noting
##tions
configurations
ls
lloyds
conscious
ss
##ute
gray
economists
metallurgical
misleading
informative
implying
exercising
professor
harvesting
george
movies
##dy
laundry
adherence
nonmonetary
hydroelectric
alloys
contaminated
handset
photovoltaic
pollutants
##ale
##uk
alongside
nextel
undertakes
theoretically
cjsc
##ras
participates
ap
exemptions
##ox
mmcf
wyoming
mas
oak
##cio
hydro
unproved
##nen
emotions
reputational
overlap
exiting
jose
instant
diet
nigerian
surprisingly
optimistic
critically
##nic
strain
alarm
inappropriate
baltic
##ski
deteriorating
wooden
2025
dod
horizons
dea
logarithm
##ani
caribbean
dsl
rubles
##pp
diminish
lyon
spss
##zioni
##rie
seattle
##rm
##tc
communicating
technologically
2030
solved
shore
prescribes
##oc
est
ranks
abc
encompasses
getaddresses
getaddrinfo
stimavending
slowing
opposition
withdrawn
traits
warsaw
lessor
unobserved
##can
speech
##ou
vertically
equilibria
##pi
button
franchising
impede
partnering
db
inactive
probit
tacit
plots
proteins
substitutes
rescue
elite
investigates
##л
smallest
nickel
##istic
distributable
hoc
1972
closest
intel
immune
##tation
stressed
##gh
mathematical
nonperformance
tie
cafe
kb
corner
assigning
aiming
outlines
von
bath
returning
mercedes
formulations
terminating
doesn
negligence
comparatively
technically
accountable
inverse
##ory
carlo
lumber
prestige
asphalt
genco
ipls
infection
acted
netting
quotation
repossessed
inefficiency
storing
infectious
disabilities
##mp
magnetic
sky
viruses
setup
feelings
lehman
conflicting
smartphone
ubs
disadvantages
ppa
prestigious
mo
sharply
contributors
##nk
realizations
##max
supposed
##ivity
transact
answered
constitution
philadelphia
shortly
cra
posting
egg
unprofitable
cosmetic
##ual
preserving
causality
##bel
circular
##ions
linkage
deficits
ascertain
austin
broaden
bore
quantifying
coke
decentralization
exposes
reclassifications
factoring
disk
ecommerce
squares
ps
reciprocal
compulsory
jul
scaled
##ney
succession
katrina
finnish
sharia
##ag
knows
##dos
1940
fertilizers
plumbing
##over
om
##ata
launching
##tis
plains
appreciate
refine
chances
miso
##hn
##ious
deems
aesthetic
miami
shortfalls
acknowledge
workflow
cook
brain
resume
parentheses
looked
##ei
drove
solicitation
dissatisfaction
hereof
explores
subsidiarys
sleep
blended
##ии
chair
cinema
squared
flooring
prone
registrations
amenities
proves
novelty
crystal
eve
venues
##sed
impression
lanka
sigma
##rn
generalized
ga
taxi
trs
undergoing
intersegment
fringe
seeing
adhere
whichever
##ative
deadline
demanded
wild
molding
catastrophes
synthesis
##cos
behave
sweet
##ew
activated
vacancy
fairs
dust
gear
timeliness
cdos
boom
oci
fx
viii
rokcommon
##ов
resins
##dale
strengthens
rejection
##cing
underway
accelerating
servicer
##ology
appreciated
##market
scotland
contributor
dark
defect
trans
5years
dso
shadow
##ku
em
##corp
bonding
##cia
##ery
accountant
federally
defence
intuition
morning
interpersonal
cabinet
fm
labeled
drought
##ish
routing
tractor
pd
contextual
##ez
stanley
yellow
cigarettes
transporting
wafers
sierra
regulates
soundness
depicted
happened
feb
conduit
denoted
forty
nc
characterization
agrees
redundant
##media
planet
settling
ineffectiveness
ems
measurable
stemming
noncurrent
roofing
##ada
vista
demolition
tactical
##nik
##ico
detrimental
lights
neighboring
fusion
cl
nil
propositions
pork
fastest
deter
microwave
clo
conforming
appraised
##ska
dilute
antibody
nox
instruction
grading
compelling
footnotes
##gas
beneficially
siemens
referrals
tanzania
cardiac
churn
peace
chargebacks
paragraphs
warmer
booked
cleco
##making
renegotiation
##all
planting
##ari
##fc
maximization
shortcomings
copyrights
parametric
instantaneous
coupons
jr
foam
alloy
ambiguous
prescriptions
##bury
catalyst
##ep
permissible
smoking
##lab
commonwealth
invalid
towns
audiences
recalls
atlas
refrigeration
bundle
une
females
fits
uganda
repositioning
tort
redesign
renault
transitions
foodservice
israeli
##ene
contraction
cleared
exciting
hu
underwriter
advisers
motive
surfaces
meta
designate
affordability
canceled
medication
inner
persistence
criticized
##ick
richard
ban
biopharmaceutical
britain
occupy
prize
turkish
##bly
transports
##ert
##ological
negligible
##ero
reasonableness
pumping
chocolate
hydrogen
seal
tracks
itc
floods
enormous
er
sporting
noncompliance
similarities
intermodal
analysing
than1
##ip
espanol
elections
safeguard
stimulus
##pm
dow
unspecified
entail
pleasure
wash
##23
scoring
guaranteeing
fundamentally
nepal
mandatorily
rulings
opeb
##31
##ach
burdens
cpp
selectively
specially
wilson
disruptive
guiding
temporal
##ao
##100
##rated
doi
homepage
sooner
loaned
pma
kw
fiat
integrators
rbc
maine
emphasizing
pull
geophysical
simulated
authentic
##ros
plates
discontinuation
outlays
socioeconomic
##ned
claimants
##head
biodiesel
##rio
venezuelan
undergo
##tex
cohen
disproportionate
transmit
withheld
##35
##gy
delle
laid
seafood
proportionately
downtime
league
exported
##ev
hvac
donations
tobin
##els
##ses
fight
textiles
mc
gauge
levy
rsus
shrink
##ification
recur
oilfield
baker
conducive
honor
##ants
airways
guard
ignored
reasoning
calculates
concluding
danish
##45
triggers
delegation
cessation
cardiovascular
reuse
wherever
a3
analogous
tag
rounds
##ax
allen
collars
suitability
adr
cisco
geographies
implements
reluctant
ash
seminar
2024
buyout
handsets
checked
##ii
compounded
transforming
##ig
rigid
encompass
advancing
favourable
repatriate
##ona
##hr
renminbi
prevents
intermediation
##logy
rider
fama
alt
feeding
chassis
cmos
couple
nv
zip
multivariate
cfo
##ua
attractions
sq
retirees
navy
residences
routines
underperforming
disclosing
overhaul
paints
crossing
imbalance
moderately
##rus
expo
rub
##bc
pnc
corrupt
steering
frequencies
earthquakes
son
##ori
controllers
roots
ride
distances
intake
volkswagen
installing
compressor
portals
##ом
highlighting
agglomeration
##oy
implicitly
heard
ridge
yielded
##ming
adapting
artists
exhibited
resultant
dispatch
collects
discoveries
flooding
sem
encryption
sic
im
ta
terminates
uncommitted
moments
width
saas
confirming
reconcile
renegotiated
favour
donation
specificity
expectancy
lay
sek
livelihood
cit
gsk
mnes
nice
parliament
refusal
greek
mainstream
mixture
gone
reo
physically
surviving
thai
##book
attained
##met
armed
talented
fibers
venue
##gatan
averse
fte
barge
inspiration
postage
defenses
yang
bottles
lapse
##ren
discharges
himself
pan
mcfe
observing
ambiguity
juice
14001
grains
belarus
imperative
##ius
irrevocable
##sion
reinstatement
##ven
dominate
william
occurrences
##yer
lags
bankruptcies
methane
completeness
sony
ethiopia
printer
llcs
tubes
cre
username
formulas
illiquidity
dominance
favorite
cola
holes
##long
clothes
##28
fuzzy
implementations
involuntary
hypothesized
unusually
administer
nrc
clark
entries
retroactively
hollywood
storms
wise
fifo
modifying
plausible
esp
staffs
unplanned
grace
excel
nbsp
##during
arrivals
unwilling
q4
mold
msa
##via
convey
##og
tdrs
geothermal
dubai
##ators
qualifies
symmetric
novo
##ml
productions
trace
refurbishment
##pt
h3
participatory
concentrates
unsafe
alla
ecuador
achieves
wp
##gue
ij
multilateral
##ord
##33
q1
outline
intercept
vascular
1971
accumulate
boilers
rica
lens
cabinets
roaming
wireline
a2
apparently
acc
cape
tonnes
breaks
editorial
##ase
ev
semiconductors
cnc
drainage
loaded
lynch
complements
shed
wachovia
##mos
tags
##32
ing
stopped
supersedes
volunteers
successive
##ena
##service
albeit
fsa
informants
shenzhen
males
genuine
tropical
##02
##ged
##ome
dokumente
pesticides
eggs
insolvent
offsets
posed
##ные
optics
thirteen
rolls
lunch
disputed
revpar
emirates
casting
jackson
specialize
hardly
shapes
architects
weekend
florence
ignore
landing
mechanics
reinforce
##ort
fortune
vacated
absorbed
invasive
milano
keywords
syndication
##ет
affective
q2
ave
eat
clock
governors
denver
imagine
##ных
graded
liquidating
wales
brussels
jury
polymers
liu
allegedly
classroom
estimator
optimally
##oe
imperfect
motorcycle
ch
expensing
inhibit
ltv
##fer
truth
centric
##lus
breaking
foreclosures
mere
oracle
abbott
assisting
deeply
##core
scalable
urbanization
affirmed
dynamically
##use
walking
knowledgeable
##dc
continual
safely
antonio
ruled
ics
expropriation
promised
trains
##26
autumn
mediating
##ett
abandon
church
casinos
coach
classifies
vintage
spine
##но
alleges
shirts
attribution
capped
compiled
cohort
maize
traceability
##ade
##light
##sc
discontinuance
ethernet
balloon
politicians
fires
adopters
bg
rival
##mc
directives
entrant
incoming
attended
clustered
rankings
corrosion
cardboard
scarcity
umbrella
billions
##dia
notify
##sation
2b
amortizable
narrative
res
buys
##eria
leach
missions
pinnacle
sr
grouping
pillar
traditions
ft
##air
arc
hydrocarbons
unstable
contagion
##rp
accepts
originates
spill
keys
aes
admitted
jack
motorola
depicts
modestly
mncs
dot
ins
##ulation
tqm
wal
agile
url
bike
cbs
21st
bottle
predictability
averaging
coated
##kt
##increase
quasi
railcars
##27
agri
alert
shield
3000
justification
safer
quantified
lung
rod
##ified
switched
rentable
sands
##mont
emerges
preclude
startups
anda
deaths
delete
migrants
inhabitants
practically
biases
##cost
batch
overruns
##ates
stricter
##ima
ensured
auxiliary
tiles
conditioned
haul
##ack
seamless
permian
enjoyed
##revenue
##bar
subsection
adopts
##wear
atms
dealt
endowment
deny
gel
flowers
morocco
claiming
formations
npc
deed
##ми
brick
cocoa
integrates
bluegreen
att
memberships
subsidized
turmoil
tomorrow
alleviate
calibration
winding
symptoms
durability
exhaust
sided
depot
hectares
fare
asp
facade
eg
invited
longitudinal
outs
breakfast
float
lin
##eg
##ture
patriot
fueled
1968
interoperability
memorandum
omega
psychology
alll
blend
##ably
distant
qualitatively
advocacy
pse
correspondingly
interpreting
satisfies
characterised
sufficiency
##ded
complexes
surprise
conventions
councils
cyprus
mens
##ans
##fish
jump
##ibility
gamma
tc
reservoirs
adobe
remarkable
histories
##eco
fe
stars
##azione
lo
grey
zimbabwe
ecology
marketer
migrant
##logical
hudson
pearson
desires
initiating
##lc
proposing
voyage
promises
rus
commercializing
uni
victims
inch
ward
augment
forgot
cleaner
nash
decoration
remitted
universe
##ram
br
##ye
flour
harder
thrift
lincoln
arguably
prosecution
decorative
rivers
subtopic
told
nu
prosperity
##ich
##mes
toronto
miss
provisioning
additive
##room
danger
judged
viewpoint
newsroom
oxford
##ole
obliged
recommends
allotment
analytic
odds
bis
granite
gates
teps
1969
hyundai
quotas
##logic
shrinkage
nous
##ira
##ric
fdas
nurse
wtp
##sville
runoff
obligor
infant
sie
##ges
payer
##don
breached
tubular
forfeited
violence
##cher
builder
tastes
bridges
##val
pulse
reliant
acquirers
metering
shippers
mainland
citizenship
reproduction
2a
helsinki
##nta
deadlines
predecessors
recovering
streets
sixty
##ight
altered
winners
importing
sensitivities
remediate
xi
subsystems
1967
eyes
q3
clarification
oxide
sewage
tries
henry
malls
theorem
bayer
tendered
amerens
virtue
evening
projecting
volatilities
myers
sampled
surname
fitting
punishment
template
cdn
##cm
##vagen
watches
wpls
##len
iphone
##ef
governor
hipaa
##nza
##een
amd
##iva
separating
corrugated
##ient
deviate
hydrocarbon
misconduct
wright
allocates
dream
##ati
cured
lie
multiplying
##lay
##ement
fpl
publisher
altogether
orphan
deteriorated
avista
loadings
fur
ambac
##fy
spirits
authorizing
horse
rivals
subtotal
oss
stimulating
fisher
obstacle
##oa
irish
##ui
##zzi
prodotti
underpricing
bureaucratic
correspondence
unemployed
##ella
##web
molds
breakage
adhesive
purification
pit
##ify
ba
ill
insureds
##lation
exploiting
lacks
keeps
deutsche
gardens
hurt
factual
##stone
ie
##ныи
zoning
subordination
alberta
divest
zakat
amsterdam
dialysis
enthusiasm
agreeing
rulemaking
inbound
pizza
##ster
placebo
bologna
icc
##34
mother
suffering
volunteer
##ress
rp
tension
##44
cambridge
##win
constructive
esop
noticed
railways
##gel
innovators
##ette
##gon
erisa
infections
timeframe
inevitably
reorganized
##ource
pillars
audi
occupations
shareholding
##vin
biotech
berlin
##tto
mismatch
searches
sox
leaf
smartphones
stays
consignment
mfis
colour
lc
transnational
augmented
averagebalance
underperformance
cpi
mastercard
den
cg
##shire
##balance
##lex
gs
insert
profiling
salaried
##my
##bus
##rl
organised
##las
overlapping
##holders
hampshire
tap
##skaya
deferrals
jean
lubricants
seemed
bcf
characters
##gross
antibodies
tpe
mileage
planners
panama
verde
landlords
misappropriation
az
multicollinearity
centrally
correlate
lamps
##lar
##pc
dial
##nas
agribusiness
##oni
qatar
compensatory
##heim
predictors
##ller
##aries
mirror
dishes
##ain
cilco
commissioned
carpentry
collectible
dismissal
disproportionately
politically
circumstance
contacted
logging
##р
cool
afforded
scanning
##000
drawings
omissions
##usa
episodes
##sales
refrigerated
##tics
habitat
coca
protects
##commercial
transitioning
tracked
##нои
treasurer
disciplinary
interconnected
familiarity
pca
renewing
tarp
commercialized
merton
submitting
##matic
diagram
voted
bribery
confusion
streaming
uniformly
grinding
mirant
italiano
ix
congo
submissions
os
##42
prohibiting
marginally
stems
##ama
##aa
pnmr
distinguishing
logs
tabular
carryback
twin
##eon
multinationals
pleasant
iceland
##д
extant
gse
outreach
verizon
##sts
jurisdictional
coin
eighteen
resolutions
chat
cant
connectors
married
proliferation
hospice
tactics
1960
hear
reallocation
purported
timberland
assertion
servizi
##ли
dish
constellation
eating
streamlining
##ose
swing
##mb
colonial
origins
strikes
mer
scan
##sco
refinement
commissioners
viral
fixing
ias
attending
interdependence
kuwait
punitive
freeze
injunction
kcp
afs
proportions
recoverables
percentile
criticism
disbursements
oc
persistency
widening
hart
antecedents
illustration
klein
soybean
accessory
arrow
ipc
yard
communal
domiciled
##plus
##cus
endorsement
ftc
##car
##jet
durations
researched
naic
smoke
mediated
overtime
strips
benefiting
credentials
pec
persist
font
mount
stayed
consumable
pg
ion
##nn
alfa
kronos
competitively
##nte
##в
hesitate
scaling
marketplaces
bankrupt
impressions
provisional
svb
##ien
nissan
##36
wellbeing
adhesives
##als
puc
complexities
e¤ect
##gar
tradable
framing
discriminant
undergraduate
coincide
drops
flag
ideally
merging
1965
##pan
drying
pscw
##ия
##nder
pad
##rx
ambitious
fallen
uniqueness
##cin
hires
kilometers
##°
irr
sponsoring
reagents
interacting
concert
constructions
##ть
lilly
cpa
ra
girls
usda
booth
mounted
signage
appealing
oh
predominant
mn
poses
##vis
accommodations
diversifying
potato
officially
##sm
mobilization
ukrainian
##atic
outbound
probe
salient
##hc
##ridge
assists
distinguishes
kv
exacerbated
arch
conserve
wildlife
quest
sce
deputy
##41
misuse
pls
downtown
presumably
bitcoin
gis
biology
deploying
mediterranean
experimentation
translating
fico
mesh
tnmp
educate
knew
logistical
1960s
palace
rings
tonnage
##mento
competitions
portland
##dor
corners
penetrate
##kar
endeavor
mistakes
ep
spreading
##vest
2d
##ndo
imputed
subjectivity
agility
harmony
theatrical
cips
oman
snap
traveling
##nc
fc
haven
weaken
complied
hubs
marshall
chairs
polyethylene
inevitable
rv
transacted
disney
pierre
wherein
hmo
honest
sars
##ines
blind
cient
authorizes
flex
sealing
alerts
disc
landfills
##ents
##rix
furnishings
undertook
blogs
##yo
##average
##ique
offshoring
backward
shariah
extinguishments
rendering
waves
faqs
foundries
ho
moore
randomized
sm
actuarially
mild
singh
bbls
biogas
##lis
bubble
##kes
bankatlantic
indemnities
stewardship
##03
payouts
nuts
strives
##kan
##н
tubing
ln
outer
android
bright
russell
fostering
flavors
mri
##51
abatement
definitely
judgmental
commons
gk
##oo
abundant
##nie
topical
vitamin
risen
tumor
##day
##ques
prerequisite
solvent
bachelor
ceases
influenza
redundancy
identities
##tter
motivating
crediting
legislature
lowers
bosch
drew
rocky
sees
featuring
##fication
obama
ross
administrations
bearings
suburban
##yn
transitioned
hughes
##38
##ora
ios
compressors
exhausted
pine
##iv
licensors
meanings
muslim
##worth
columbus
dress
flagship
midamerican
stimulation
listen
participations
##ito
approximation
forums
mega
codified
unrest
vous
##€
electro
predominately
##ony
religion
spray
##lic
##rg
thirdly
##aw
than5
tdr
cas
disrupted
surgeons
intrastate
rotary
##55
loader
##ся
edwards
sci
belgian
simplifying
pest
reconciles
unencumbered
vein
jpmorgan
uruguay
##iers
nova
pas
relocate
speci
##nda
dear
##ars
interconnect
lewis
gost
##bridge
daniel
inclined
albania
coherent
immigration
maximizes
allstate
repatriated
tweets
airbus
perry
##uring
ds
pop
steels
usable
molecule
dispensing
evenly
crash
specifying
crimes
apparatus
ita
conferencing
sears
thoughts
3m
constitutional
contemporaneous
arthur
doctrine
tfp
unloading
computations
##nica
goldman
rain
ninety
psc
forefront
brake
magic
##lands
transformational
##oi
##zzo
oversee
amex
bundling
frost
nrg
sandy
industrys
rt
##49
striking
electrics
suggestion
uae
##08
furnish
##center
dried
ministries
objectively
dictate
wu
wedding
barges
rented
warner
oder
##van
citations
relax
sanofi
didn
idt
indemnifications
interrelated
denominator
construed
olive
writes
decisive
##form
##flex
imbalances
mounting
helicopter
boulevard
selects
crowdfunding
backgrounds
confectionery
dans
elects
##29
dhl
##65
##oft
covariance
pallet
sliding
apollo
remit
gb
intervene
##ias
pneumatic
##ila
pathway
##rum
workover
transferable
denial
unity
fragmentation
paramount
linux
##cast
sensing
query
##wn
trail
annex
##jan
sophistication
advocate
alexander
attach
embrace
juan
completes
retirements
##december
quebec
clearances
franklin
ranch
bancshares
interpretive
roller
cb
##capital
assemble
rainfall
rogers
cincinnati
formulating
reactive
stakes
deriving
geopolitical
##43
##park
consultations
exporter
##card
proactively
progression
undoubtedly
acs
depleted
fleets
ref
fulfil
##mal
climatic
enroll
xl
pallets
undrawn
pathways
responds
ancient
handles
connects
crowd
centrality
derecognition
##jk
5000
preferable
cautious
##ika
nareit
##list
vinyl
withstand
ngo
zambia
ellis
reinsured
tr
democracy
standpoint
lasers
materiality
##52
sachs
planner
##ida
archives
contemplates
vermont
counting
sit
williamson
douglas
##power
merrill
laying
resignation
speculation
masters
bristol
roberts
##04
flavor
unconditionally
plain
##gia
icon
interfere
tackle
##master
downsizing
advocates
renting
anova
aro
##ces
##key
quo
approves
erm
##esa
industrialization
staying
flying
robots
##ations
neglected
boli
fly
mitchell
##craft
theatres
20th
colder
gravity
locks
ou
subsea
portuguese
##west
marathon
outbreak
argentine
picking
undesirable
investigational
mitsubishi
curtailed
lcd
poll
reinforcement
ui
delisting
watson
railcar
newsletters
##nan
pink
timeline
##ward
berry
mixing
joseph
vending
##gne
campbell
handheld
nr
feeds
overcoming
rim
##cker
doubled
##down
##ib
marcellus
nets
##ncy
incompatible
##ои
lobbying
workload
appealed
nav
pin
xml
##05
cybersecurity
tri
cycling
##ils
##ink
marina
sao
wisdom
bacteria
bottling
conversation
kaplan
fnma
nutrient
##cation
buyback
grass
mcdonald
ammonia
conception
discriminatory
senate
##sta
assay
ccc
delegated
gambling
judges
##mate
hospira
evasion
cooperating
marketability
##una
appoint
arpu
alike
unavailability
moisture
advertiser
jp
##base
lebanon
##99
owe
grounded
motions
honda
##lux
##wick
cam
gses
afghanistan
por
anticipating
texts
thickness
saying
weighing
aca
##г
showcase
doubts
##its
##mon
safeguards
##life
implants
##37
artist
refunded
versatile
jakarta
calculator
##lio
demo
tailed
vulnerabilities
discourse
grande
resilient
belts
phis
snacks
##yl
##wi
piping
##eed
specialised
teamwork
dedication
disposing
nstar
administering
outsiders
##ility
dog
replicate
counted
logos
cercla
incumbents
canal
fidelity
earnout
kumar
repeatedly
contatti
1b
##maker
constituting
arriving
1966
asymmetries
intentional
intensify
viale
##ju
##tas
nelson
wendys
tighter
hilton
camp
peaks
counseling
forthcoming
unresolved
medications
piu
macau
so2
##oon
##city
##dis
dominates
schering
ben
hereinafter
tab
benz
tunisia
meyer
orlando
nord
prejudice
roma
usb
##ude
undergone
cores
consciousness
manuals
##general
harvested
statically
informs
absorptive
aerial
weapons
prescribing
replenishment
##old
dosing
ran
depreciate
5th
peugeot
bird
increments
deduct
dosage
infringed
complies
##elli
presumed
##gic
tile
neighborhoods
manpower
registering
tremendous
simon
southeastern
undermine
reconciliations
courier
disadvantaged
pawn
int
compressed
doj
##ages
##cat
##tein
cn
##mg
##xis
nonrefundable
bsc
humanitarian
npd
pervasive
professions
subcontract
migrate
obesity
deductibility
fighting
fibre
hedonic
empire
bicycle
unitary
polska
collusion
hungarian
madison
sppc
dominican
intensified
invoicing
##66
##low
##az
shipyard
##aya
##ban
usability
thompson
struggle
biofuels
3g
listening
bpd
venice
##uto
aided
destroyed
farmland
pertain
phrases
breakthrough
unlawful
##quest
approached
netted
prompted
##bin
##fair
##oli
cereals
mtcna
continuum
fractional
robot
clarified
comeds
biomedical
ceilings
renowned
assigns
##das
cee
ratified
malta
stops
edit
pmi
absolutely
cylinders
antenna
citation
wound
maybe
algeria
shoe
##75
pittsburgh
everywhere
exploited
1962
exam
innovator
oneok
actuary
foresee
gi
##gor
directional
lawyer
rationality
##side
fundraising
contingently
glance
sake
##ying
##rich
giant
sodium
encompassing
tunnel
collaborating
##ю
autocorrelation
dominion
gbp
ultrasound
1500
epc
irrelevant
myanmar
galaxy
slovak
bahrain
dan
dupont
grove
controversial
tiered
##39
##outs
glossary
carpet
correcting
depression
##los
console
holland
culinary
emails
favored
##46
murphy
typology
followers
longevity
##lly
empower
receivers
tu
##ная
successes
seventh
advancements
threatening
ri
soviet
##ione
respected
centralization
duplicate
warming
enrichment
respecting
##го
cps
ample
endpoint
ethylene
paso
##loans
seasoned
christian
moderated
##oll
basins
injunctive
arrived
saharan
stipulation
ae
thoroughly
##61
tam
maria
specials
custody
waive
feedstocks
finishes
ahp
gsm
##ali
##ave
ets
questionable
##ado
##hd
pasta
removes
impulse
loose
happening
nel
complications
estates
constrain
declaring
orthopedic
riders
##data
bureaucracy
hull
campuses
ought
roi
ses
advent
expirations
metallic
prioritize
softness
tn
translates
##ures
bge
confined
signi
##sy
2000s
frictions
##lm
malpractice
smoothing
induces
outliers
prohibitions
ues
arbitrary
covariates
durfen
servicers
offentlich
valencia
baltimore
minimizes
shorten
injured
salons
msr
espp
highways
inspire
servants
collectors
gmm
sps
1964
recipe
##gram
minimized
profound
##graphy
##ark
exhaustive
worthy
eacute
shirt
titan
supervised
capitals
joomla
ea
ns
unitholder
dilemma
nexus
ti
cox
caring
energies
episode
elasticities
facilitation
recapture
reinforcing
renewables
nondeductible
subcontracting
aluminium
importers
decomposition
kitchens
##graph
53rd
sick
termed
accord
complementarity
inhibitor
witnessed
compromised
bolivia
uv
##wo
radiology
converters
approaching
cameroon
scorecard
gothenburg
supervise
##cl
cambodia
elaborate
hansen
restored
amending
regeneration
##500
goodness
boutique
##hu
hamilton
patronage
charts
symbolic
revealing
sums
preneed
gr
##du
repurchasing
##64
lithium
stocking
##ast
##tax
explosion
nielsen
##set
ashford
customize
ni
ambition
secrecy
experiential
insecurity
castle
rooted
terrestrial
burn
evolutionary
tweet
uniquely
##mas
alcoholic
boots
plantation
##late
bv
gloves
diminishing
heaters
binomial
das
detroit
geo
infer
intranet
superfund
mp
unacceptable
packet
##nis
implant
##48
aligning
remittance
homeland
noble
railroads
splits
precedent
relatives
##eur
philips
retro
sight
convergent
##ways
deployments
guatemala
##ont
distortions
wti
aoci
manually
h4
refueling
hepatitis
surge
gen
towing
capsules
terrace
##credit
aquaculture
tampa
genes
noteworthy
##bed
acoustic
freestanding
hostile
компании
cuisine
insulin
epas
feels
cna
##ians
reassess
retrofit
shi
pediatric
medicinal
omnibus
speakers
exclusions
gazprom
wasted
##06
coaching
complemented
remittances
renegotiate
mongolia
blending
companion
datasets
depositor
hallmark
##53
##bu
preparedness
unisource
##cap
emc
endurance
##pack
walker
spanning
collateralize
departures
slack
##rol
hereafter
##tv
##uc
aventis
champion
pressing
investigators
soda
ozone
uncompleted
packs
brass
fishery
indifferent
dictated
##ering
cultivate
gem
visualization
##mente
prototypes
seating
lateral
monetization
asserting
fertility
ooo
rand
sb
woods
tapes
unsound
wires
cafes
kontakt
ecb
embodied
radar
realities
admin
gdpr
##ello
acids
##rts
rack
cfpb
pecos
bt
mis
operationsthe
transformers
za
malawi
qui
bo
recruited
webster
inventors
bm
patenting
##zio
entitlement
macedonia
deliberate
syndrome
##xi
decay
polyester
worsen
##ved
navigate
oldest
xcel
##try
edi
harvard
##ult
lenses
1963
appointments
relaxation
cabin
expressing
stack
butter
markt
##cial
##ovo
bc
uptake
##aria
patterson
harmonization
membrane
liberal
wiring
comprehensively
escape
ro
tin
biologics
cues
thesis
##ill
armstrong
uneven
##ula
novosibirsk
fitted
motivational
redistribution
riding
motorcycles
grupo
webs
progresses
presumption
smallholder
cornerstone
##eta
helicopters
possesses
workout
cod
computational
fourteen
##lock
##ug
val
variants
ces
tip
##ther
coordinates
avenues
opportunism
backbone
##olo
##graphic
##fax
adventure
friction
morris
chang
furnace
##gn
cpuc
nationals
appetite
ja
inferior
##ð
loc
homogenous
jordanian
reconciling
preparations
interiors
##bb
conceived
##tura
rewarding
##une
polyurethane
underfunded
cow
stoppages
##loss
dissatisfied
orleans
##bes
peaking
impressive
nicor
kaiser
olympic
unreported
##ervice
evans
shower
constituents
encounters
leakage
talking
ia
##iz
explorer
##world
externality
mba
nonlinear
aicpa
indemnified
##min
practiced
mda
##eva
articulated
utilisation
##din
##hill
##sys
fp
m3
morbidity
deepening
welded
##gt
grill
infrequent
accidental
microstrategy
revocation
seconds
barclays
##lers
directing
##nti
scanner
sportswear
##oma
3years
diploma
shortened
##ного
adams
pertains
seals
burning
mge
pari
pilots
priori
blocking
ppls
remarketing
rita
compustat
mrs
bakken
deferring
##more
conveyor
sanction
indispensable
##eri
##tock
congressional
normality
practitioner
advertise
mats
voters
intensely
vouchers
lawn
occupies
tissues
rev
backing
doses
outperform
poorer
botswana
classifying
##62
occasional
##ille
induction
locked
lu
subtracting
##zy
categorization
huang
attaining
malmo
silk
variant
##ales
bahamas
lessors
specifics
##ury
inference
unaffected
##88
hercules
yahoo
answering
genentech
gypsum
downside
vr
##revenues
##uch
##та
arranging
song
symbols
casa
segmented
tensions
allege
cation
mothers
##dra
forgiveness
dumping
vip
nj
onset
forcing
keller
lime
livelihoods
newest
spe
villas
tiers
liver
molecules
##85
enrollments
sublicense
reply
authenticity
berger
threaten
##quarter
##gg
##mine
div
##2014
##brook
banker
unsold
mitigates
##tu
trouble
wom
angle
consequent
foreclose
petrol
##bp
##wing
mined
seemingly
unintended
thematic
nih
##ala
##ght
ebay
nhs
consents
dock
underwrite
vans
##kb
busy
computerized
recognise
tribe
##ened
##oria
paypal
modem
piracy
##aro
succeeding
unsolicited
assays
frankfurt
inferred
porta
rescission
infrequently
bosnia
longterm
##km
intuitively
disagreement
##away
academia
garbage
##ction
##depreciation
brackets
privilege
presidential
snack
prostate
rear
importer
apache
discharged
hotline
judgement
oliver
som
##63
aigs
laurus
beam
rollout
worsening
afudc
vienna
##bach
cleveland
##int
facilitys
fs
ng
nutrients
##gio
como
mne
##phone
mod
manipulate
##trade
delisted
reside
pharmacists
conversations
manchester
roofs
cruises
salvador
##related
takeovers
##ites
io
finder
gmp
##zza
conectiv
oftotal
architect
pjsc
##stad
reagent
##therapy
toilet
cialis
imagery
##ame
facto
subsample
contacting
contests
detailing
sudan
loses
eo
stresses
fabricated
##holder
##zhou
1956
dinner
hunting
anadarko
sig
##log
interdependent
truckload
##tore
##uri
etfs
joints
alumni
##nto
##rates
##56
##tree
northeastern
riskier
tribal
##tro
debates
intersection
dedicate
mindset
progressively
scalability
automate
mnc
teach
chinas
displacement
##trust
hunt
issn
multidimensional
differentiating
trainings
wake
newsprint
tyco
radioactive
##ru
3a
delphi
isp
editor
minds
##bert
animation
empathy
ims
inferences
manhattan
inventor
opted
munich
queries
##rman
expresses
sexual
tract
azerbaijan
copying
cmo
commentary
empowered
propertys
sf
composites
##нии
bounded
coping
icts
##cent
cultivated
toy
pioneering
df
capitalizing
soc
##pes
iss
repository
salesperson
##lie
renamed
15th
refinancings
##rine
informing
xed
jeans
emilia
distortion
uniteds
11th
##54
concentrating
fha
resigned
unmet
celebrity
equaled
attracts
r2
veterans
##dge
tra
aesthetics
dal
polo
tankers
chambers
questioned
counterfeit
succeeded
depositary
nebraska
pads
##aco
configure
voucher
##68
outset
simpler
sheep
partys
##mia
mineralization
phillips
adaptability
simulate
##gard
##value
##itz
bim
consol
imitation
pushed
surroundings
unadjusted
a4
childrens
electing
##gm
##47
##ank
aspirations
romanian
unconventional
acquiree
dsm
lightweight
reversing
fragrance
ah
muscle
unilateral
##hart
##ht
ctc
lifts
thermo
blank
mentions
##rf
elastic
pole
duality
monies
phd
rewarded
##ball
##logist
##rating
##rer
1200
affinity
franc
restatements
yu
delicious
duplication
##af
##ense
digits
##ides
graphical
donate
##ем
richer
workplaces
prescribe
mask
asserts
wolf
##tate
##price
fold
organisms
pig
##acion
networked
sunoco
1958
honesty
localized
robinson
unaware
##band
disbursement
replication
##uro
missed
##gers
downloaded
softening
##iness
blanket
##wise
hunter
##gal
checkout
kia
striving
##kaya
coil
forensic
bedroom
detecting
ignoring
scene
baxter
cows
markup
elegant
hosts
reconciled
optimism
rounded
weakly
##real
confronted
votre
fares
landowners
pesticide
##ые
furnishing
industrialized
##boat
##gc
victoria
inhibitors
populated
##tin
di¤erent
god
1950
wars
##tch
shot
##dm
deleted
immigrants
pregnancy
ali
entitle
literatures
##ath
##gb
broadening
ensco
bypass
##kom
emergent
isolate
##wave
naval
passionate
##hon
thu
groupe
neighbors
nongovernmental
photography
##07
fairvalue
##lco
professionally
##09
##tie
mbbls
tough
yankee
innovating
##ции
overstated
wellhead
##chip
cancers
chan
generous
##contractual
continents
father
allegheny
repo
dam
intrusion
solidarity
ffelp
shelter
##adjusted
cal
configured
dk
rounding
worksite
conveyed
cohesion
presses
sip
wing
##67
##hing
faa
##ulated
cardinal
##ency
dcf
hide
##nstein
garcia
misstatement
notre
##71
essay
mauritius
petitions
##hare
##ured
salespeople
##lines
bedrooms
dx
stretch
tendencies
##ids
esg
premia
rc
##vic
sydney
##fit
##ington
ee
recessionary
manifest
stick
parity
constituent
destructive
convince
##fo
##lton
multitude
##stic
precautions
wool
##etti
portability
samara
localization
##86
corning
foil
organ
sede
##tus
bands
fao
releasing
screw
tenth
ryan
chrome
flu
montreal
verona
##ders
bondholders
practicing
activate
bene
##flow
clay
internship
quantification
sandwich
deconsolidated
##wall
##fin
##lu
committing
aol
coins
##ches
##ь
honey
citrus
trustworthiness
##lf
anxiety
anytime
##oro
extrusion
kraft
##rick
disallowed
filtering
inetpub
ips
licence
clos
unreasonable
##amount
##logists
accession
##ла
sito
spills
##dt
brewery
##bal
##stein
certify
reassessment
trinidad
charlotte
seo
1961
##2015
chesapeake
multiplier
necessitate
subordinates
berkshire
worry
firmly
socialization
teva
##mans
facades
greenfield
departmental
thomson
entrusted
zoom
##ake
convinced
extinguished
hearings
trustworthy
nii
unscheduled
uzbekistan
##owa
flower
nip
prefers
privileged
battle
exelons
hopes
##hin
garments
knight
##77
##tle
ceramics
designations
##scope
hartford
supplys
vhosts
categorize
garment
gc
relaxed
2026
asa
functionalities
radius
defensive
##erie
azienda
confirmatory
##ние
osaka
undivided
cashless
disable
connector
##ked
agm
yarn
renaissance
hq
lucky
sorted
yekaterinburg
antibiotics
potatoes
retrieval
exits
fractionation
lessen
prepares
surrendered
##tori
kyoto
restate
weakens
−1
##mat
accompany
apac
turin
cote
lengths
dogs
10th
tournament
richmond
divergence
andersen
stimuli
viewers
mazda
##pl
pareto
slide
characterizes
vibration
boys
bundles
waqf
sponsorships
deterministic
infinite
tolling
kickback
##еи
corroborated
tom
cpr
needle
tennis
##ento
vitro
##69
##var
elevator
e¤ects
clinicians
griffin
infinity
angola
asks
stewart
##aire
coordinator
novgorod
tp
eva
##zen
ambient
scored
##2013
bind
##page
gourmet
mediator
physics
stadium
tio2
6th
bancorps
dm
mason
rough
##vik
timetable
headed
##years
din
resumed
trap
##ily
disorder
##57
glucose
bpo
pyramid
injectable
learners
quintile
##ols
emergencies
streamlined
seniors
fasteners
graphs
imax
lizenzen
childhood
elaboration
pointing
##fiscal
iq
kpmg
locator
captioned
hawk
nt
shleifer
##ili
##nate
##rock
2050
##bing
artistic
cartel
invitation
victory
dwelling
sued
##lor
##ры
barnett
centro
ink
##ivo
##nos
skoda
deflation
licensor
oslo
shopper
accretive
capm
caa
cme
glasses
opera
wifi
cans
modifies
soils
dating
locating
sue
##bra
##rton
regain
grids
gun
outweigh
enjoyment
hook
##pay
##boro
##trom
nascar
opel
tomato
##hall
##inal
remarks
repeal
healthier
stallasocialemonastierit
notifications
proportionally
spots
technician
potentials
salmon
ratemaking
##fied
compensating
sends
refused
andrew
capitalists
halls
purposive
noteholders
amt
armenia
bodily
declarations
vcs
discrepancy
liquor
subdivision
##ub
ticketing
##ici
parker
toshiba
##rator
atc
poles
deck
racks
##ele
governs
happiness
rto
terrain
##mic
enogex
graduated
isn
jeopardize
questar
resist
jam
situational
casing
##rad
oeh
transformations
worthwhile
##uer
malicious
verbal
ppps
triad
achievable
##hy
nut
##how
##tp
capitalist
citroen
##chemical
mentoring
cilcorp
msmes
fintech
tommy
dense
sherman
elaborated
gravel
percentchange
hcv
manifested
maternal
##cks
coo
lv
multichannel
##сть
expecting
shortest
tb
niger
timeshare
b2c
##amp
geared
importation
trajectory
##ios
mineralized
scholarship
architectures
##hem
##sley
##vy
garmin
void
hs
httpdocs
appalachian
increment
kiosks
rupee
##sat
endowments
personalization
shallow
sk
##vich
divisional
privatized
waterproofing
blu
escalating
valorem
islam
##kins
cylinder
beans
editing
imperial
procured
utmost
4000
discloses
sud
graduation
injunctions
taught
ric
siamo
verdict
rhode
treats
depict
appropriation
birmingham
carlyle
harsh
wa
##top
##ль
nokia
rover
shaft
##eu
##illa
groupings
vitamins
libya
doc
##js
monaco
contaminants
macs
fob
remeasured
assistants
insulated
marital
rwanda
##hp
deteriorates
henderson
detached
hydropower
namibia
##95
bgc
wonderful
##su
nis
ons
rsa
contemplate
decoupling
##dle
camping
dpls
##chem
msc
stroke
##ggio
##nics
##rry
refractory
##makers
internationalisation
##ied
##level
##site
polypropylene
tumors
##ship
hc
graham
mozambique
writedowns
##bio
1959
airspace
bms
cater
corps
##ues
enquiry
##test
minimally
bd
noticeable
bits
disclaim
finra
upheld
commits
stabilizing
tells
approximating
##act
arisen
##ening
commences
overseeing
psa
suffers
authorised
ibid
prosecuting
dt
##gie
##investment
jamaica
victim
catheter
senegal
ssa
##rr
cereal
sul
amortizedcost
condominiums
emotion
jackets
##first
cake
clara
damaging
packard
utilitys
##2012
barter
formalized
wife
gran
nomination
s1
sensory
empowering
sept
athletes
brescia
gcc
interplay
##rex
barney
exponential
freeman
embeddedness
folding
uninterrupted
##°c
dif
quantum
##nb
deloitte
wrap
##58
##ect
advertised
denying
possessed
simplification
transformer
cros
gordon
prudently
surely
ghgs
ipcs
lodge
enrollees
##rik
angel
deliberately
har
##на
shipbuilding
hereby
neutrality
reclassify
##cell
enrich
relay
researching
reactor
refunding
stratified
geologic
ica
noncancelable
nationality
triangle
##mers
##nova
cfa
fcpa
foremost
stranded
awaiting
dynamism
prix
yemen
19th
nuova
ratable
vicinity
matrices
aic
converge
crews
promo
tianjin
undertakings
leak
procuring
skewed
paving
sequestration
ziff
##81
enlarge
riskwe
tanker
investigative
spoilage
##than
baa3
##eter
##md
enquiries
overly
##cer
##nch
##tos
madagascar
treasuries
eia
##see
mood
swot
12b
citigroup
##del
lang
cftc
elan
fortress
severally
factored
##ndi
oversupply
preserved
cho
bench
quiet
stent
##urn
fellow
nonpayment
arguing
recycle
##kie
gardening
picked
saturation
chef
##mus
elementary
exchanging
notebook
##ote
contradictory
np
sender
invites
##date
##wan
leone
keen
outward
samoa
intentionally
fa
viacom
blackrock
drafting
framed
relocations
austrian
levied
multidisciplinary
gibraltar
herzegovina
quantitatively
remodel
wed
organically
ferguson
kotler
defaulting
reputable
##cp
auf
disparities
disparity
relinquish
rep
inversely
roadmap
bending
broadened
inconsistency
proxied
##hoe
diy
endangered
krasnodar
molybdenum
passport
##ctor
##wski
inspect
montenegro
naples
quadrant
jumbo
##kel
clientele
afterwards
honduras
##ographic
agrarian
contradiction
robotics
vincent
maximise
mhz
oven
oversees
appellate
residues
discovering
nonregulated
uninformed
##mme
sweep
##oid
bloomberg
consoles
chemotherapy
nnn
depress
incorrectly
informations
morale
warnings
zu
seekers
gabon
secretariat
lan
queue
civilian
claimant
equip
fab
megawatt
sequentially
intermediates
pepsico
##kov
collateralization
ccs
reluctance
##hal
##tr
sewer
transmissions
cleanliness
ltip
astrazeneca
impianti
ipad
##ners
lacked
sewing
birds
cgmp
velocity
##lk
forget
lion
menus
purity
realised
##enberg
##inson
##да
aftermath
ambulance
canyon
overdrafts
advising
fhlmc
repriced
wacc
##har
##nds
cherry
ram
slots
clearer
pge
boy
dead
investigator
semantic
##burn
clarifying
enforceability
kelly
lamp
counterpart
hk
interrupted
solo
enjoys
marriage
invariant
meats
obligate
##nal
carter
charities
smallcap
stark
supporters
lattice
##mex
alleviation
cutoff
ema
mbia
organs
solicit
##dp
##lls
diem
sizable
##59
##nz
##uating
asm
caught
dublin
nicaragua
forged
pty
glad
##sible
amc
prev
##cr
inflammatory
privatisation
securitys
##72
toxicity
walter
##iq
carryover
discs
converts
performers
renovated
skewness
templates
2027
scholarly
woven
pushing
clicks
scientist
underestimate
cognition
disaggregated
insulating
sequencing
b1
lawrence
neglect
reciprocity
##sse
exposing
nursery
analyzer
illustrative
traction
attentive
gupta
spes
contiguous
eurozone
markdown
vectors
##82
monopolist
observes
peninsula
traced
##84
##wire
coli
pepcos
belize
civic
csp
radian
amazing
lme
schneider
disturbance
finalization
galleries
musical
writedown
##eng
overriding
##eration
calcium
inducing
scanners
shelves
##vel
branching
##rian
cameron
correlates
directorate
genomics
ami
destroy
enact
ernst
travelling
##pol
30th
hewlett
inverted
##oil
##imo
##uti
anchored
pps
redwood
rests
bush
discrepancies
paperboard
prominence
coaches
##kg
allergy
decisionmaking
finalize
suisse
##fr
##vsky
contend
paired
stance
##eld
awarding
asb
enzyme
marble
##sons
cole
ppm
marco
##consolidated
weber
##wide
payday
##rust
##ural
xbox
christopher
inconsistencies
reacting
advisable
cheeses
educators
##tiva
equipments
fca
cantor
sons
spp
##ean
centuries
leg
locking
publishes
##cha
##ston
brewing
neo
ninth
tucson
##provision
mirrors
npl
spans
verifiable
mayor
packed
##ered
euronext
sharpe
##ych
coinsurance
##ule
beck
plane
keyword
selections
drip
##business
##ente
##rity
0000
becker
economist
improperly
springerville
##america
guyana
sealed
nano
rpm
cleaners
nortel
paulo
staggered
pastry
##equity
receptor
dependable
quartile
sam
closes
isps
legality
correctional
opposing
capping
deforestation
firstenergy
moody
sunk
bespoke
chelyabinsk
exempted
tone
jackup
resold
##mmer
conceptualization
stones
strains
##aux
quantifiable
##berry
hurdle
oibda
tightly
ib
outright
reuters
##ister
catalysts
tightened
##lier
furnaces
##tad
##¢
bet
infrared
programmable
prototyping
sixteen
entitles
impracticable
shuttle
ada
realizes
str
violating
amgen
broadcasters
dance
pol
lagging
irregular
unhedged
##mail
analyzers
1950s
asy
directv
orbit
overheads
##uel
proving
##san
csi
energia
homogeneity
critics
therewith
undefined
atmospheric
evacuation
overwhelming
##83
##links
disseminate
understandable
unenforceable
bali
##78
appropriations
##uation
blades
disseminated
favorites
landscaping
robotic
servqual
synergistic
trays
unmarketable
##purchase
contested
ecotourism
grasp
pacificorp
spouse
alle
digitalization
##ffe
##type
thread
##96
defers
##uck
esa
tce
##tric
depended
telephones
##case
##tre
artisan
convex
creditworthy
ehr
megawatts
scollo
##ool
conjecture
echo
outlay
partnered
timelines
##pin
chrysler
documentary
missile
plantations
stood
##bit
altering
facets
speaker
spinal
stamp
enriched
vegetation
##under
apportionment
ordinances
##amo
##xs
formabilitycpp
indianapolis
originators
simplifies
##points
comptroller
longest
watershed
##fire
moldova
nanotechnology
prince
##itis
disturbances
remotely
wpd
consequential
recessions
##fold
exp
mortar
refrain
registers
safeguarding
soy
##cht
4g
fragrances
bcfe
bin
frontline
paydowns
rows
tan
##ого
9000
ear
fragile
wei
##war
##weighted
copenhagen
svenska
##feld
af
backs
diminishes
metlife
nostri
acceptability
papua
prps
rationing
speaks
##guard
##zia
freezing
stephen
upload
##press
##hood
cuba
mboe
preceded
##liquidity
sarl
extracting
humidity
rebalancing
unsatisfactory
##ным
hypothesize
nizhny
##food
advocated
dome
hits
interviewee
##wind
##ное
numerator
sentence
avoids
photographs
##91
bridging
cdi
bass
bronze
cascade
hhs
tandem
newmont
scrolling
conceptually
fta
je
summarizing
yacht
drain
harrison
installers
requisites
##cope
lev
relocating
##lite
arctic
cogeneration
pes
virtualization
fishermen
latitude
onsite
testimony
trivial
infrastructural
##fp
snc
##rst
strand
##ished
aces
forging
hmos
stimulated
thick
##74
plugging
benin
championship
holdco
obligors
##ows
spiritual
##row
piazza
arithmetic
diamonds
superiority
##ulate
cooked
ect
heater
heights
paraguay
residue
evraz
collins
mobilize
seriousness
##jon
##mart
maternity
stylized
##ann
discouraging
intimate
knee
liner
prizes
pu
remanufacturing
abundance
astellas
cedar
disagreed
premature
scania
wong
##ema
##xin
utilised
dissolved
illnesses
ais
attendant
compile
amplifiers
mont
##yi
lasalle
peril
soliciting
concave
joy
cakes
franchisor
##oka
chilean
circles
foreigners
tribes
revolutionary
sinking
mpsc
neck
observers
hamburg
disparate
parma
vietnamese
southwestern
##stream
envelope
ifc
legislators
oe
smelter
##200
coronary
precluded
quarry
##contact
##last
ferry
mixes
turbulence
collector
##uter
acacia
directs
segregation
vinci
zi
idled
ntics
soe
##nation
wallet
##pd
herding
anomalies
mat
disbursed
escalations
contributory
grapes
prp
##eres
flowing
replicated
spheres
ut
forbes
webpage
discriminate
flyer
presidents
lucent
perm
rmr
sugarcane
##nel
bayesian
reassessed
timberlands
formalization
ht
orion
sailing
tendering
unlocking
##vre
affiliations
invalidated
mou
rainbow
##ante
##orn
egyptian
##ition
apc
compromising
invisible
##vas
crushed
grape
tribunal
ledger
sunrise
taiwanese
recurrence
repayable
##sch
csa
repaying
rostov
gri
smb
unreliable
urged
posit
smoothly
overlooked
stationery
witness
regionally
subleased
##ination
hose
##source
dues
##73
harness
oppose
##from
##hf
##now
cord
retrieve
spotlight
surrenders
workmanship
substation
toxicology
activism
celebrate
pb
seldom
buffalo
genesis
soa
spark
inspected
minimise
tec
tentative
barbados
ceremony
screws
occidental
queen
suspected
cobalt
documenting
suspect
eds
pellets
##92
##bon
##selling
dean
gst
##management
##notes
guardian
bluetooth
crsp
volumetric
##ronics
pathogens
sewerage
mit
sw
vars
7th
deepen
od
inserts
necessitated
outdated
cu
imprecise
sabine
##ologists
dis
mv
burdensome
##fies
ams
horsepower
controversy
##nin
minimization
##dine
peripherals
uncommon
##ение
originality
quadratic
##gation
complimentary
dreams
educating
clarke
equivalence
patrons
##ams
bold
coupling
pwc
converter
shortening
boarding
corridors
creators
hhi
introductory
krasnoyarsk
leclerc
monster
oaks
planted
aquatic
extracts
forego
steep
от
##right
evolves
fuller
hoses
ophthalmic
parkway
telemarketing
##lant
delegate
narrowing
##ить
deserve
neural
p2p
surfing
browsers
exhibiting
rajan
stipulates
tivo
##nell
rcra
europa
ks
lopez
desirability
norton
takeda
talks
cng
##tream
accordion
capitalism
loire
fercs
herd
eighth
rotating
transient
##ital
##kon
biologic
psi
##uous
boss
lm
omission
##cine
brunei
creator
##bro
##gin
poorest
upc
wagner
##ple
cro
nisource
subsystem
enzymes
fantastic
banana
##home
colours
ppg
##001
##ih
##zers
continuance
notation
pcb
abu
cts
shire
stacked
caterpillar
controllable
rps
swings
unsettled
wynn
##av
iasb
terra
understandings
cartridges
davidson
urgency
zhou
##nde
##cie
infected
interdisciplinary
##direct
##oh
brasil
##gna
arbys
desert
gswc
museums
roman
##wer
hindered
inexpensive
sizeable
understands
unethical
avant
palladium
##gle
##scale
afternoon
paradox
progressed
supervising
comerica
##gain
declaratory
powell
encouragement
lyondell
##enza
fruitful
##soft
convincing
pga
##five
##lina
reputations
##ises
##nor
##ono
##ulators
ampligen
curb
nas
accretable
howard
plywood
blade
geneva
joins
loaders
subsistence
distort
intervening
ovens
besp
monetize
trim
markers
understated
##pal
chapters
uc
relieve
##ae
##bre
##horn
iec
yin
##free
utilitarian
2035
coincides
lobby
ordinarily
dredging
bla
collision
manure
trauma
ооо
##sburg
2033
espana
istanbul
ned
sar
drastically
mattress
regressors
reinforces
##ree
inducement
mf
swift
##lated
capitation
##size
expedia
h5
morningstar
valleys
bacterial
puzzle
writers
##forming
##lman
integrator
mts
protest
stairs
giovanni
graphite
metrology
palo
tue
##plast
fermentation
lesson
##89
serie
yards
ccp
dropping
heuristic
##aus
cooler
irregularities
mistake
##yan
crushing
expedited
shutdowns
contrasts
inertia
rao
aqua
compounding
lanes
gfi
sharma
hectare
inward
tt
beings
expiry
meaningfully
1957
pnms
sacramento
calibrated
coils
instructional
resides
spontaneous
crs
ff
granger
pinterest
pts
wording
##financial
pledges
weekdays
acknowledges
cfc
monopolistic
prefabricated
revises
seminal
standardize
televisions
judgements
lke
originator
realm
rollover
huawei
reusable
corollary
elicit
watching
aero
elevators
mainline
sia
##fu
##nne
disagreements
turner
writer
leap
##corporate
##nger
anonymity
cushion
##uan
friedman
remanufactured
deeds
polar
rochester
artifacts
tradeoff
npcs
countryside
displaying
fueling
simplest
baking
sequences
##ires
alto
enjoying
##note
ann
domicile
heteroskedasticity
prioritization
##arm
##etta
cedex
structurally
hawaiian
scs
solomon
##ке
aspen
cti
demonstrations
suzuki
translations
wayne
weigh
adam
bedding
splitting
##87
##scan
baskets
champions
radios
uncover
contentswe
uncovered
##rma
repairing
substrates
##ogen
eos
scaffolding
sim
2028
dealings
meridian
##managements
##pia
31st
dss
inkjet
carver
hei
porto
verifying
commented
kosovo
mali
unpatented
##ая
aurora
entrenchment
recommending
substituting
whitney
cholesterol
counters
hud
realise
silicone
antibiotic
absorbing
extrinsic
retrieved
notions
pickup
recovers
vif
burger
mixtures
pets
timetables
fences
fsc
sirius
blackstone
characterizing
dg
perishable
scottish
captions
catheters
impediments
maximized
rebuild
##boards
##bt
decor
deterrence
haute
linen
##ores
jt
navajo
signifi
##lles
fierce
iterative
objection
##ume
underdeveloped
westwood
endorsed
reinstated
tutti
workstations
mercantile
reactors
##dad
##tron
interrupt
krakow
phosphate
univariate
jefferies
##pace
dayrates
directories
kinder
trump
culturally
distillers
pesos
veneto
subleases
adidas
manipulated
poker
spr
##hold
magnitudes
tim
gartner
shaw
upscale
sublimit
##this
burkina
lounge
motivates
pellet
##acy
##ener
##mis
##rom
##text
##xa
1c
piano
##new
##stat
bergamo
bounds
omx
dismantling
microelectronics
compilation
precipitation
wilmington
informant
scandinavian
gary
norfolk
pests
undetected
##wal
alia
galvanized
##bil
biofuel
nominating
pragmatic
saves
soap
reconsideration
8th
consulted
tasting
marc
minimums
compass
25th
batches
curtain
hts
lloyd
##fort
kent
schooling
argo
f1
unexpectedly
bfc
bpm
ebitdar
webinars
##hawk
bob
ethnicity
etp
silent
##mond
opaque
richardson
attachments
metadata
##ography
herbal
exceptionally
ofrevenue
tomatoes
##ł
русскии
affo
relaxing
remodeled
##tory
##з
atk
integrative
wps
##systems
counterfactual
trending
##sphere
heteroscedasticity
mars
##rta
ike
misrepresentation
unpredictability
divergent
healing
markedly
##ami
citibank
dsp
hitachi
insofar
anglo
carolinas
##ph
##vir
butler
feeder
##lot
##uate
pearl
pigs
predicated
sos
subscribed
substations
basketball
custodial
habit
shareholdings
##nco
pseg
cautions
htm
parental
serp
##ых
retentions
alteration
heated
airborne
countermeasures
liquidations
ntic
opportunistically
cellulose
girl
amortizes
favors
ptc
conditioners
dentists
deposition
endeavors
##lb
clinton
dependencies
imc
moon
separable
teece
uniformity
##lat
##vista
##ego
##kers
beat
dvds
effecting
##fying
covanta
normalization
scandinavia
##vier
stolen
##ais
##esh
existent
honeywell
professors
##vity
faso
lithuanian
narrower
needing
##db
##with
disallowance
diverted
lb
sociale
##path
nonoperating
##bia
assembling
##zone
ideology
refinements
deceptive
limestone
##eda
particles
potash
zum
appraisers
sono
francis
##dex
album
appalachia
cardiology
childcare
hip
unsustainable
hat
lte
oz
unilaterally
##uf
nonprofits
township
ei
##76
ensuing
homebuyers
proponents
welcomes
##hai
nonresidential
##hus
exacerbate
##98
##m2
idr
polishing
versatility
##pecific
concerted
concord
entitlements
minneapolis
upholstery
##eno
##weg
##hua
##yard
festivals
drift
fasbs
##ivation
creations
excavation
incubator
liberia
##meter
impetus
sullivan
##pharma
##shi
ministers
predefined
saleable
todays
residing
##company
##iano
##stock
##ция
labelling
lasted
substrate
##iant
b2
lifestyles
renal
##rim
canned
collaborator
hostilities
mouse
nominated
theaters
nam
patch
steve
##eries
harvey
laptop
modems
cdc
medtronic
##erg
##mor
fixes
isle
kidney
winery
##sin
locality
parasuraman
pen
seniority
endpoints
sdg
##ра
headquarter
hofstede
subsamples
disappear
discontinuing
editions
montgomery
modena
sorts
conduits
paribus
stoves
tops
##79
##ulating
boosting
fiji
meantime
reunion
##rse
infants
kennedy
revising
shandong
attitudinal
categorical
diagonal
globalisation
freshness
subtle
pef
wedge
licensure
##naya
essex
slopes
0001
edges
imo
knife
spur
##леи
hampered
immunity
##aver
##izes
circumvented
stuart
##tton
porsche
standardised
tmt
vivo
##cina
##tat
northwestern
##uing
pursues
ham
canon
drawbacks
hunger
plugins
pupils
cel
cypress
struggling
sunset
cladding
handbook
rj
guangdong
unconstrained
corso
homeowner
riverside
##ва
dig
eis
##ifier
athletic
epidemic
nonqualified
token
ibs
shoulder
optimisation
rx
plenty
colored
detriment
landmark
blocked
ltl
pairwise
revoke
wealthy
##lta
particulate
khan
pants
scr
##rring
inherited
outpaced
##ild
##fco
buffet
cair
levine
unskilled
##cut
deficient
possessing
zhejiang
##gra
##run
6000
mro
rationalize
sausages
vp
##hm
##vable
diff
flats
genetically
protracted
amr
wishing
cohorts
conservatism
emphasised
lining
sour
kazan
easter
benefitted
orientations
gamble
qos
dwellings
buyouts
pfic
trait
##ats
##pharm
cancellable
ceteris
meckling
semester
stein
vaccination
##cel
2029
acuity
envisaged
benefi
leaks
socialist
underestimated
avec
npls
##tag
mena
pioneers
pledging
williston
##valuation
aligns
rods
spam
voba
##aki
flame
landscapes
mary
##pr
downloading
dressing
handed
stoppage
##iance
brooks
heis
miners
uber
vancouver
config
zurich
##uma
##watch
aep
blast
unilever
c1
molded
metalworking
microbial
periphery
dati
postpone
pregnant
restoring
##ifiers
degli
securitize
##plan
lawful
tailoring
##gren
1945
surveying
asthma
generics
moderation
photogallery
starch
fg
##holm
insertion
ticker
##sel
extranet
stamping
tobago
##94
##debt
configurator
mixer
sauce
##2011
encore
races
soul
surrounded
##ulator
airplane
sluggish
uncollected
e¢
malaria
myriad
recoup
storey
bvi
##owe
##sp
betas
enduring
guam
##dl
##pen
bathrooms
esteem
rbv
universally
##books
ciency
decile
twentieth
2500
somehow
cdars
ladder
seize
##inen
##rms
chlorine
courtesy
exerted
chloride
croatian
putative
##льных
ascribed
gfk
locomotives
commercials
pitch
inequalities
slip
##bat
cdma
inspector
payback
secures
strada
##bis
##itive
##ode
##fl
als
cyclicality
exhibitors
modelled
pedestrian
cervical
ignores
thrive
blow
slate
antwerp
chf
tyumen
dme
instructors
tba
##mac
manageable
nashville
##asia
##yne
cherokee
consolidates
fatigue
##science
arra
diving
mesa
provence
seasonally
unbiased
widest
moratorium
##amortization
##front
##hen
antecedent
haiti
hoped
rehearing
##93
##using
cite
courtyard
ent
fears
integrys
##rant
bankshares
beers
generalization
journalists
nnns
rebuilding
reno
genetics
manifestation
memphis
preview
vitality
3b
burlington
carryovers
everybody
prioritized
knowingly
outbreaks
werden
##izer
##lake
partition
prioritizes
ambulatory
recurrent
reproduce
tradenames
unwanted
bma
ural
curtailments
shipper
##houses
##rative
anna
cdm
moderator
replenish
vishny
conglomerate
atp
bernard
propulsion
reproductive
spansion
unbalanced
##elle
##hes
contrasting
nbc
poznan
precautionary
##ete
##uta
##ты
loved
shrinking
vineyards
cottage
semiannually
##bling
logics
alumina
congruence
fracture
sludge
##xx
remodels
steven
vague
afgs
fujitsu
lukoil
masonry
12th
corpus
fatty
inverter
pdp
interdependencies
martinez
##insky
##sar
edible
gnma
modernize
tangibility
sterilization
##hoff
converged
onwards
lighter
patrick
substituted
##nex
flaws
lim
plough
sovereignty
wagering
##ein
##illo
##sto
indeterminate
internalization
spoke
##energy
intensification
marsh
remarkably
spiral
##gp
donated
pandemic
routers
seventy
activist
easements
husband
sir
stat
ati
tdi
biuro
gym
midlands
nonaccruing
stern
##300
##any
basics
cartridge
sdgs
upside
##ovich
agendas
genoa
mfi
nok
pbm
prints
vibrant
##product
##research
depths
evidences
industrie
lows
rai
generality
piedmont
workstation
##part
apex
equatorial
##lights
##ие
atomic
imperfections
postponed
signatures
##code
ceasing
iac
promoters
##iss
recyclable
retiring
informazioni
migrating
paradise
##osa
berg
coherence
eisenhardt
lerner
##results
rca
resets
##phere
pn
watts
##mu
armor
floorplan
mtm
nicht
scandals
letting
probabilistic
gao
objectivity
##aps
##eurs
##idad
##mation
##pel
##rable
##uity
bordeaux
mentioning
skype
unequal
anecdotal
##ffi
##law
centred
citing
ow
##ку
hydraulics
brush
logged
##nar
han
##eau
##ym
adp
multifunctional
narrowly
physiological
tion
##sey
antennas
choi
jacksonville
mailed
refurbished
whatsoever
explosive
aaker
nascent
particle
subgroups
panhandle
weekends
fiberglass
outlier
craftsmen
immigrant
##ania
##nu
##п
revalued
essentials
injections
inspiring
liberalisation
mps
violates
##hou
castings
deutschland
ver
##fully
hurry
repaired
smoked
##ended
interacted
ya
##dd
octane
urology
##97
##bn
##oto
##critical
##ision
deferrable
recognizable
actionable
antigen
reposition
compositions
polaris
##trans
mainframe
starbucks
webinar
wired
##ben
##hel
##owned
forever
##ail
suddenly
##lone
##vet
##fast
##yang
aruba
inclement
securely
##inated
neighbourhood
sbs
traveler
coverings
gmail
mann
surgeon
##dan
plugin
sh
solvents
hospiras
isa
lexington
unionized
arlington
conclusive
ids
##segment
stopping
tirole
xu
##about
##lson
##ela
easing
kkr
pucn
ericsson
script
soccer
trainers
melbourne
pss
##zes
fsb
inheritance
krs
sv
мы
bitumen
synonymous
ugi
##iro
irc
ppas
successors
desist
fulfilment
transmitting
##insurance
halt
ile
seamlessly
withhold
##rans
intraday
keystone
##mco
##rica
##ская
apis
completions
hurdles
biometric
shutters
weddings
##pac
asic
avg
clinically
gwh
withdrew
conceptualized
federated
newport
pharmacist
suspicious
voi
voronezh
##bile
ageing
edward
##load
approx
broadway
inflated
underwater
gateways
scopri
##cu
alive
distorted
juices
orally
cultivating
modal
##enia
renishaw
tracing
##ма
lapses
nafta
ordinance
##bas
editors
tajikistan
trafficking
##green
kernel
sizing
bhc
bins
fake
garch
microprocessor
statewide
turkmenistan
##zu
hausman
phantom
rebound
servicios
weiss
##oring
pac
bracket
sacrifice
soup
vos
##anti
##hed
##igo
##tible
ach
archiving
marino
maximal
sanctioned
veritas
##haring
cctv
etf
fremont
leon
relieved
##south
##xo
cassava
informatica
##pf
##rat
industria
phrase
bail
chris
grazing
hospitalization
internships
pulmonary
disposables
sds
##development
##lit
##скии
cab
fork
##ray
bw
css
legislatures
quad
reap
summarised
##ove
carpenter
methanol
mud
slowdowns
staffed
##ggi
##rley
minded
prima
tpp
legend
midland
nasa
bribe
##ciones
fats
gramm
riskiness
unfamiliar
wonder
##rion
fence
muslims
##banks
##ern
analogy
dth
simulator
##ass
liquefied
naive
hello
qualita
tobit
##cept
##tile
textbooks
urge
dies
louisville
niches
nim
##tating
##wc
incubators
localities
shari
##ancy
##bet
dermatology
dispensed
jiangsu
marche
##adi
##kova
sbic
##kh
hispanic
kyrgyzstan
leo
sauces
##ido
gmo
illicit
novell
registrar
unapproved
##borne
0330
aux
boot
carton
provident
unbundled
naming
nominations
cbm
detectors
disinfection
gluten
sant
20549
dictionary
eighty
за
customarily
intensively
lavoro
seine
##lators
circumvent
crack
sppcs
ssl
unremitted
##qua
drastic
jacobs
mailings
murray
pigments
superseded
terminalling
nasd
readings
realign
p1
rosa
thinks
tuna
assimilation
forbidden
t−1
varian
writings
##iti
complementarities
pretty
quicker
##losses
18th
purport
scattered
bribes
familiarize
##arian
##inating
##kko
10b
cedants
##services
inserted
sukuk
likes
teller
trusting
##lift
reed
lucia
rejecting
tunnels
aerg
identifier
maison
texture
##shan
linguistic
peo
recombinant
##urance
distinctions
tiger
carroll
ess
liters
mmcfe
poisson
##400
callback
philip
reevaluated
rouge
##ements
monoclonal
obligatory
powders
##etto
##inate
attestation
memorial
ginnie
sensible
kiosk
philippine
zł
##ison
disclaims
harmonious
mover
checklist
rocks
##uchi
capsule
quintiles
router
zeithaml
chevron
objections
richness
delhi
fatal
taxonomy
##position
decent
fischer
harmonized
mails
prague
slaughter
leverages
massage
schwartz
surprises
deerfield
genomic
mmboe
rails
telecoms
##priced
asi
slabs
tcf
comcast
ot
##rini
##ła
accomplishment
rollers
meritorious
societa
interorganizational
plating
##ater
##ith
crowding
insect
pond
pte
smarter
underlie
uppsala
dla
irvine
majeure
rhone
skus
##hat
applebees
diagnosed
mentor
unwillingness
##pak
activists
chevrolet
jim
mediate
narrowed
aml
elegance
satisfactorily
##get
13th
##rous
baa2
deleveraging
undisclosed
не
##cle
birthday
intact
metabolic
seizure
starter
zhao
##nix
##льные
reevaluate
##ace
huntsman
##icing
##lator
##ologies
##ops
haccp
informatics
ubiquitous
actuators
peculiarities
sen
##bor
##place
asus
crafts
dozen
favoring
##azioni
##control
##roup
##sport
mumbai
из
1954
dj
ihop
sbc
desks
visually
acrylic
displaced
ltc
##gated
##uts
fosters
syria
x1
xerox
geometric
##pped
breed
foresight
perfected
##eck
touring
instructor
mgm
turbulent
##gano
1955
philanthropic
warren
##lane
edu
preventative
chargeback
emerald
manuscript
sanchez
upwards
docking
ecm
electrodes
9th
caf
cbd
endowed
ats
exchangers
nervous
tsa
celebrated
couples
metallurgy
motorsports
nonrecourse
uncorrelated
##meters
ilo
nontaxable
regenerative
tac
##lating
agc
betting
bop
uso
##hia
cip
##building
ags
osha
##α
shapiro
zhu
estimators
interruptible
##berger
ally
junction
lesotho
negotiable
anchors
announcing
searched
tasty
##dar
bottlenecks
nancing
##isa
alarms
banco
comp
gli
##lix
##oration
cheng
mice
polices
##ovic
##ство
andthe
salad
ambitions
catalytic
metastatic
quit
salem
##ood
ppo
proficiency
accenture
guess
reengineering
##rium
4a
villagers
inks
##dorf
radically
shrimp
x2
blends
pros
declares
hackers
microcredit
##dation
andrea
exams
fdics
greeting
reforming
servizio
##ided
##org
ferrari
inspectors
assertions
dana
##cultural
antidumping
costless
biosciences
coalitions
lends
stimulates
vladimir
##udi
compel
friendliness
interventional
##holding
excursions
strata
telling
##lam
##nse
inconclusive
pub
turbo
##hole
bureaus
overdue
societe
##rose
##rth
iprd
lemon
##dicate
coat
copied
endogenously
fdicia
foregone
fundings
layoffs
andorra
transmitter
honored
wyeth
zur
##hard
craftsmanship
makeup
maldives
sql
##rb
bottled
comparables
csm
herself
tricare
##asa
##wy
baked
deluxe
unsuitable
percentagechange
prairie
##mt
lifted
milwaukee
nfc
overarching
sol
##changes
##vax
labelled
masimo
trento
##lysis
##ones
##online
mathematics
##name
jaguar
seasoning
wetlands
##iere
caustic
guangzhou
sistema
##kor
apples
scratch
##pping
nylon
toledo
bonded
desserts
travellers
##action
##ost
catalogues
dangers
e¤ort
loops
##iso
##tia
##yr
agilent
hormone
lecture
suboptimal
susceptibility
trainees
advantaged
brakes
differentiates
horses
staple
##icity
bivariate
ppe
toulouse
facial
summed
weapon
##invest
headings
mpc
politica
sustainably
##acquisition
##lea
##owski
addiction
chp
kmart
mixers
##baum
##term
interactivity
muller
subcontracted
tvs
##brand
bans
bifurcated
ext
schmidt
solves
dbs
pollutant
ufa
##ля
petrochemicals
##aine
delicate
systemically
cfs
kan
smallholders
##cide
bolton
dignity
ethane
fb
hf
riga
17th
prison
programmers
##play
lcr
compelled
sister
##ected
10k
commuting
glue
m2m
stripping
spas
hamper
##copy
bdc
celebration
embraced
exotic
overload
paste
synchronization
10b5
distributional
nutzen
vineyard
bhutan
constituencies
pvngs
bricks
colombian
denim
posterior
wagons
##roy
beams
exposition
theorists
##nated
##rna
gecc
lectures
negligent
tolerated
unqualified
mismatches
##lini
8000
affluent
baa1
bamboo
beside
edc
forklifts
iris
rotterdam
9a
baggage
examiners
hog
installer
liechtenstein
onboard
##pur
forgotten
premiere
##iones
##rage
customizable
blueprint
philanthropy
regon
sparkling
spun
##stroy
laos
##nial
assuring
fomc
playstation
bubbles
drum
excessively
gdansk
##lets
##par
##prom
pepper
bandung
cabling
debated
shooting
unissued
##2010
symposium
##mash
##tly
cio
clearinghouse
outsider
siding
##orm
equipping
explosions
macao
tick
##borg
chad
corbion
locals
nested
sprints
briefing
dram
enclosures
gatt
lecturers
predatory
##mium
pathology
##ait
peg
volunteering
##kw
surabaya
##izers
##oke
balls
inhibiting
spares
−0
##ulous
adc
penns
epo
magnesium
sumitomo
##kas
##lage
##ometer
aspire
dough
machen
repossession
rodriguez
subnational
##het
##wd
athens
impractical
prerequisites
scientifically
swaziland
wineries
yours
jefferson
marseille
reynolds
shareowners
##lling
##sia
hyatt
dependents
gmac
levitt
occupants
rework
spices
valero
##lr
ahmed
asr
dcs
nostro
##enti
##nr
##yu
costruzioni
proceeded
##ит
divides
exerts
incrementally
laminated
multiemployer
##льныи
bend
webshop
beacon
pier
underwear
cmi
collectibles
concerts
dump
enrolling
gla
organizers
unbundling
pegasus
sac
spacing
##cape
arrives
bailout
barcode
lite
offentliche
##cz
adamis
biogen
togo
##gus
##py
##ны
ak
lord
perfection
rush
soybeans
suriname
unmatched
##fen
##pass
dryers
eigenen
scenic
sunshine
worldcom
##period
##verse
calle
imagination
memories
mtbe
nominee
sheds
summaries
accomplishments
coercive
equistar
orbital
##rail
modalities
ontology
##cas
##health
##menti
##nox
##ния
archival
eb
hse
milder
visions
welcoming
##sea
adaptable
bingo
canvas
duly
kilowatt
##itor
teeth
##iche
adjudication
econstor
finalizing
metabolism
posits
##anda
apprenticeship
bartlett
conviction
ipa
nsp
pot
##ugh
attendees
firing
laminate
psb
sothebys
##hra
bradley
finest
forge
psychiatric
##erated
##january
##ovsky
alpes
dozens
financiers
spectacular
unstructured
1952
gespeichert
organizes
sounds
vicenza
##farm
barry
buffers
nonpublic
##hler
##iana
cheapest
inaccuracies
shin
spacious
contra
corroborate
exhaustion
geology
posters
##nese
specifi
wallis
##ulture
##wr
generalize
hammer
itt
subjecting
vertreiben
##cja
##zar
##⁄4
excavators
injected
vendita
wissenschaftlichen
zuganglich
zwecken
##hips
##ista
0800
airtime
lyons
zwecke
communist
kopiert
linea
reorganize
##onal
denis
deserves
mapped
recordings
spends
takaful
vervielfaltigen
##cular
##item
##tization
anderweitig
ausstellen
batik
carve
gl
kommerzielle
privatgebrauch
redesigned
restitution
travels
tulsa
hiland
insuring
##fixed
mauritania
mms
weakest
##production
##vers
1951
ebitdax
gregory
ifrss
kpis
locus
rivalry
vanilla
##qs
axa
judging
renovate
##ically
##tland
doubling
prevails
##ое
cardholders
dos
eesa
locational
luggage
masks
oo
migrated
roy
det
encrypted
scholarships
##rel
digitally
perceives
policing
zingales
##ances
##fic
accumulating
apss
contentsour
bluegreens
electrification
mayer
sunflower
tear
renders
tens
trinity
##allowance
##eer
##glia
cane
cfi
pavilion
reminder
tutto
##force
##xy
##ob
cooled
densities
elapsed
##bah
##gaz
cares
closeness
flux
pcr
rfp
lima
##nier
##þ
defi
heco
scripts
##ables
14th
amino
aspiration
capacitors
eli
landline
override
##haw
adhering
babies
bliley
cointegration
cryptocurrency
msd
taps
##ать
romeo
seychelles
signalling
##ares
centralised
leggi
sca
ssi
timor
willful
lam
##их
bolivar
interviewing
iveco
operationally
rom
siberia
underutilized
##news
##rance
##tated
breakdowns
eea
ineligible
seoul
##chen
##keeping
epoxy
postings
rationally
utilise
conveniently
edinburgh
fornell
overconfidence
shafts
##ois
##rac
##rea
detergents
digitization
guy
lux
##bl
anomaly
equates
realisation
revoked
##tures
mdf
postemployment
expansive
gsa
remind
unlisted
##ffs
##orted
broadens
counterclaims
gambia
motorized
slavery
##goodwill
enlarged
harbors
##mix
##onia
cpu
delighted
gastronomy
recast
stylish
##ej
##mel
aflac
cricket
##pu
##team
baron
bbc
callaway
curtains
patron
qs
##hand
##nite
katz
questo
racial
caregivers
motorway
sterile
transplant
##ин
dragon
preserves
##dic
##uil
##нных
helix
redundancies
surpluses
tsfg
##gent
##inger
herbs
sitting
##kis
1947
bas
fgl
imitate
paradigms
vigorous
wrocław
##gl
avionics
dorado
personalize
ponds
boasts
cca
combating
monarch
16th
carl
diets
idacorp
individualized
occupying
follower
questioning
##die
##genic
##glu
##nian
markov
merchandisers
underpinning
conveyors
fra
nostra
yeast
##born
cropping
fujian
holy
siberian
underserved
##ception
ideological
msci
s2
stiglitz
tempered
alta
bifurcation
sst
treviso
##ivate
0200
bangkok
optimise
supportable
tsunami
underwent
barley
keyspan
unhealthy
anyway
bari
candy
seventeen
subsidize
1948
hampton
lady
mike
overestimate
programmed
revisit
spinning
##pic
agl
apt
earthworks
hrs
iconic
propylene
##aris
##iest
##ncia
bennett
cvr
cz
tang
tonne
##number
alpine
calvin
gaylord
genzyme
##nico
cui
hygienic
##ам
doctoral
midwestern
nella
noisy
unrealistic
##design
bricomarche
dichotomous
grossman
panic
##gos
##grass
##sgatan
8221
reproduced
roth
##eller
bertrand
confront
goodyear
irrational
recordkeeping
sin
sverige
tl
uspto
wanting
bucket
cheniere
infl
alm
blinds
nmhg
productos
##anto
##ности
internalize
responsibly
unlock
##lous
enthusiastic
mushrooms
newcastle
premarket
ruble
cups
suppression
##ivi
##ots
##yle
atmel
eni
rebranding
utica
yr
##atable
##eit
##technical
altman
onebeacon
pigment
saturated
##eto
smile
encoding
huntington
neighbor
psm
tokens
##nx
##vac
embarked
het
inconvenience
ka
suggestive
##lates
anesthesia
fes
rust
walmart
##rade
albert
bean
elective
nsr
paddy
widen
alcoa
conformance
esi
imprecision
instructed
hm
interacts
144a
dover
dyadic
insures
medallion
refiners
##ров
npm
sociology
компания
##ond
1935
rjr
##ibly
cinemas
ercot
incentivize
lubrication
hockey
iranian
cruz
gmt
lucas
realigned
rejects
accused
restraint
##fiers
diffuse
ey
fencing
##ssa
cutter
ett
reviewers
stuff
commune
preopening
subassemblies
usf
##fusion
bakeries
sonoco
subpoena
##ott
##rano
brent
counterpartys
diary
neighbouring
persuade
##nson
aci
celebrates
##mortgage
##ews
dcp
peptide
##proof
curing
hood
mci
peculiar
subgroup
drawdown
echostar
eric
ftp
gf
mh
refrigerators
##union
reconsider
все
##qa
capitalizes
centerpoint
conglomerates
flags
msg
xr
##cam
ammunition
appropriated
bl
blm
eff
##df
admit
asics
unexercised
viewer
viewpoints
##ection
acknowledging
clawback
electoral
markups
carte
emphasise
imminent
mortgaged
nonbank
suction
alcatel
ftb
showrooms
tradename
##jiang
##vant
coop
redetermination
revert
##600
##iology
2c
centennial
focussed
ral
##ngo
abide
burundi
collagen
fd
herfindahl
painted
proofs
somewhere
unmanned
drills
graft
receivership
regress
vara
##edge
##sd
##tai
##eti
##like
##scopes
##weight
##од
absenteeism
surgeries
beaches
burns
delight
pineapple
##natural
##nets
cede
hanover
mattresses
motto
##ncies
##ook
chateau
marker
potent
##iel
##working
##ыи
nederlands
specialisation
puhca
scroll
spar
wan
##glass
##strom
##кт
elaborates
medias
outgoing
infringes
iptv
subcontracts
##кии
1year
axes
##sl
backdrop
lets
melting
##toria
invented
stanford
custodian
drydocking
quartz
reggio
alterations
artificially
nhl
##pation
1800
luck
tolerances
##dr
##eable
##itude
##tronics
##ucci
collateralizing
commutation
eurostat
forex
midpoint
qa
##body
greens
silva
vacations
##info
##pool
##range
akin
bse
cone
dove
nerve
somalia
vanguard
##user
budapest
relatedness
revitalization
toilets
adaptations
heartland
humanity
##ancies
amb
arbitrator
monroe
poligono
profi
shaanxi
##pse
countrys
electromagnetic
gears
insurable
pseudo
tuscany
##nberg
##ught
salience
##llen
foreseen
##anta
##jack
##tons
##б
mono
mopsc
##screen
curricula
eei
h0
overcapacity
struck
##hz
##tronic
trolleys
antimicrobial
barnes
consultative
expedient
janssen
sro
upb
##own
gats
nba
t1
expatriates
jacket
parquet
slim
vod
##ket
18001
barbara
deregulated
perimeter
##etic
##haus
aggressiveness
banned
incubation
nationalization
polluting
pvr
panda
passu
diagnose
enablers
quantile
tighten
brother
permissions
vests
##chio
##kal
##ок
bauer
flip
nasdaqs
remark
##tick
brian
recalled
##ystem
crescent
fixation
mobil
npo
unrecoverable
afc
bulgarian
globals
jets
##bles
##rist
narratives
##system
galvanizing
riviera
silos
sponge
##eb
electromechanical
##ced
##ogy
##rge
nec
pecking
##nett
##scopic
abbreviated
antigua
breakeven
bruce
nga
obtainable
paa
vega
1953
colocation
eyewear
garages
intergovernmental
susquehanna
##tional
##tner
opioid
rna
##gene
acceptances
aroma
embed
inorganic
paging
##dora
hatch
informally
liter
promoter
tcs
##oz
ameristar
devised
dodge
euribor
camps
detergent
extractive
mammography
windfall
diabetic
omni
pcc
swingline
wishlist
##aires
##fier
##lts
assortments
erode
pms
reel
##hers
##wu
37table
c2
discarded
icg
progressing
tuning
##club
##sberg
##urg
membranes
##lash
##neft
##shop
##の
probes
##cji
##ifies
##rar
bee
dolby
hardship
35table
3pl
assimilate
illustrating
medal
rochling
vapor
mgp
##lde
conveyance
egovernment
hay
hca
##tide
mob
tantalum
unutilized
telefono
##iza
##tain
alferon
elizabeth
expedite
fernandez
##скои
anche
baseball
catching
granular
hep
homeownership
owes
swapped
##cted
##ourcing
dissolve
dong
header
jeep
ply
flexibly
harms
een
reversion
solicited
techno
##itt
##nych
##onne
##quist
afg
diagrams
dispensers
oehs
trunk
weed
##labs
aerosol
broadest
handful
##paid
##ня
blame
exemplary
hinges
ralph
xii
bicycles
bikes
generalizability
iia
nobel
##ience
33table
insects
##tead
accelerates
articulate
gruppo
##grams
##hop
##ocs
##tsk
##ます
counterfeiting
nantes
observance
##aran
##construction
##uce
summing
distributive
habitats
joinery
librarians
liggett
talbot
embracing
haben
intravenous
##omo
##residential
airbnb
##bird
##skie
ahmad
cloth
severities
##orate
benelux
cellar
extremes
simpson
totality
##cca
##mura
anymore
nps
revelation
torino
yi
##ely
##pk
allergan
ccr
discouraged
invalidity
contentsin
fountain
scholar
commentators
holdback
twofold
1949
##ekt
##ivist
alba
incredible
ophthalmology
refresh
refugees
##ingham
##space
advises
sage
sns
xx
##trasse
bygg
instantly
##gem
##iting
##walk
acthar
henan
maturation
microorganisms
nintendo
subsurface
textual
undervalued
##information
affords
dashboard
davies
dyeing
ifs
lca
unter
90s
bois
cet
charleston
couplings
switchboard
##cester
deterrent
firewall
gestion
intermittent
piston
plm
poster
ambiente
optimality
transcripts
##purchased
agencys
bmi
duncan
leds
##rsch
arthritis
petrodelta
eager
inflammation
kmo
mag
sickness
symphony
##polis
##qvist
2032
adb
krona
silica
##ota
##ание
##bine
c3
ofdi
propagation
##costs
##face
##not
faulty
joe
##awa
necessitates
reorganizations
sla
##payment
cube
gratitude
nal
porcelain
##tier
aec
cpc
drafted
goat
igt
mes
nestle
tps
volgograd
##ando
##written
ashland
cryogenic
escrowed
literally
##erson
##kow
disseminating
dnb
faults
legs
prioritizing
solids
withdrawing
##eh
alan
aud
bioenergy
kevin
##fil
##tb
38table
detector
endeavour
guards
harry
laptops
prevailed
saab
##aka
##fall
evergreen
fragility
##outh
correctness
##centric
##gr
cmc
kamaz
registries
sti
throw
abusive
cba
divestment
##fields
##iator
drawback
lightning
nh
onion
tcm
viking
##ifying
##listed
##used
benign
fmc
glaxosmithkline
persists
##store
##zon
adapters
tracts
wm
homebuilders
packets
produits
##property
##ства
crowdsourcing
enrolment
lr
##mobile
accomplishing
ergonomic
opa
mic
##fix
7000
centrifuge
trajectories
##ject
bbx
capitated
carpets
rite
spv
##static
friendship
ikea
nederland
sara
xbrl
##cence
##consumer
entrenched
hail
immense
validating
##aker
##uga
##yama
osb
personalised
prof
turf
yogurt
34table
filer
tipping
unproven
facilitator
ivoire
ladies
rally
rmsea
##dom
##inas
##lium
heavier
repetitive
tsx
wgl
2034
counteract
linn
nb
##dynamic
##gnano
##pco
32table
champagne
dryer
interferon
rpc
##ava
##iki
##mag
braking
clienti
dentistry
frac
moderates
plr
refrigerator
1600
alcan
cns
lasts
powertrain
heckman
incl
rr
transacting
##aj
##ril
##tem
handlers
stamps
worn
##glio
##sense
bottlers
disappointing
opting
##2000
##oye
##ths
40table
distrust
parc
36table
brunswick
dms
grenada
mueller
rapids
screened
##ppa
dictates
39table
disaggregation
flattening
greenland
kuala
midas
pbo
##2016
##kai
angles
bloom
consented
customised
solutia
##yt
accessori
bolts
kenneth
symmetry
ucb
##oop
ascending
hauling
posited
sardinia
##connect
##ede
##surgery
linearity
savoir
treasurys
##plex
delegates
lying
nes
ops
tenancy
unanimous
##track
daf
gomez
housekeeping
lever
##wicz
##ении
bgs
fo
##uit
##xt
dns
locomotive
magnet
principe
suspensions
crashes
died
moto
superstores
troubleshooting
vw
##court
##oriented
##vation
cutters
guaranties
aeronautics
dhabi
overvalued
rcc
##hir
blanc
cpg
inductive
jpg
worsened
##uw
encumbrances
executory
##oms
##rra
accelerator
cats
phc
shah
##aca
##nm
##ret
coupe
ucc
worthless
##ined
aberdeen
oxides
ppaca
spec
woodlands
hh
luis
persuasion
wearing
##gration
dep
suzhou
tying
conditioner
crucially
malfunction
malware
unparalleled
voices
##alue
##vio
cashflow
chandler
complain
redeployment
restart
sometime
##rov
panasonic
bottleneck
ivory
lone
nuisance
puget
secondarily
sedan
##fd
##−1
djibouti
eritrea
irb
blockholders
cabins
consortia
marcus
pct
regal
santos
terminable
weightings
workflows
wuhan
##print
aros
braun
glazing
marie
multinomial
ust
viz
##keepers
alphas
pie
##ories
##uss
2031
coso
deletion
ministerial
uniforms
unjust
yachts
contention
dominating
monitronics
oi
quantifies
rl
contacto
fccs
henceforth
ies
malfunctions
toolkit
transcribed
transformative
bowl
footer
jiang
shields
##iated
##vie
keybank
laclede
multilevel
roadside
sublet
unanimously
walnut
##cological
##ited
##owner
baldwin
combimatrix
mispricing
remanded
resembles
##redo
adapter
inducements
lagos
mkt
spinoff
tripadvisor
##location
confused
ndt
volga
##eye
martinique
qtr
strasse
##ados
##ulative
adjoining
fac
fastening
outerwear
seas
violent
exogenously
irkutsk
obligationsthe
odd
redd
spi
##agen
##lene
##rsk
depots
duplex
lucrative
unavoidable
##ield
kus
messrs
myself
31table
cet1
dams
rugged
sts
##come
##lino
##mid
##risk
caledonia
grower
timet
##izione
1100
communicates
warfare
apa
dissimilar
electron
formulary
rn
safari
##て
airgate
p2
tray
##dong
##essed
a5
eas
tackling
##ande
##pad
compensates
publicized
reinvesting
uil
новости
##lto
##sol
anders
openly
powerbuoy
diligently
distract
monsanto
punctuality
2036
blasting
fatalities
flown
##iya
##mber
##rez
albany
herbicides
simmons
sovereigns
##eal
##moto
bart
fms
francs
inlet
lancaster
dispatching
earthmoving
haynesville
nz
qspe
tune
##dez
htc
operationalized
stulz
##aggio
##aging
##vance
acp
palau
sweets
victor
##erry
chilled
gonzalez
housed
icp
peterson
tracker
cta
mu
princeton
sus
trails
##lity
##rdo
hangzhou
##iation
##lund
##rent
arrays
deprecated
lent
pbgc
sistemi
unweighted
##factory
##gues
borrows
cci
constraining
drafts
endless
interconnections
mmc
peaked
softer
##rries
dennis
multiplicity
observer
ordinal
potassium
sqm
##quet
facilitators
rechargeable
remodulin
##jn
##oco
coolers
envelopes
minimis
reconfiguration
##kman
lionbridge
pk
premiers
##app
##boats
cigna
etr
transferor
##egan
##quette
##tine
acknowledgement
multifaceted
pnmrs
smokeless
unattractive
##atization
##cf
1946
c4
csc
donald
entrust
juvenile
outlining
##gro
##iring
##nna
##vc
cons
microeconomic
mk
petit
suburbs
##і
banners
dusseldorf
reasoned
rocket
##bang
##technology
##uities
##yte
bugs
cardholder
dda
devon
forklift
larcker
onerous
pointe
spike
tongue
##svagen
bergen
fhfa
monopolies
pds
##aid
41table
belo
mbbl
psd
scrubber
##storm
##wen
b3
ignorance
organizer
до
conveying
escalate
portugues
pots
consigned
embodies
functionally
gmdb
michel
observability
potomac
##tran
duopoly
embody
insulate
shelters
thermoplastic
washers
##mec
1900
greetings
mutuel
unix
wrapping
##cite
##eve
##tones
##uire
collapsed
criticisms
devise
triangulation
workings
##bers
##erts
##rid
bioscience
cpm
guilty
pathogen
pill
sausage
albuquerque
dhs
harmless
partitions
providence
standardisation
##uin
boring
informatization
minorities
starters
vodafone
boyd
bsa
carson
gilbert
mastery
ncr
oasis
portrait
##tri
enthusiasts
lli
socks
synovus
##ades
##children
##cke
andrews
appraiser
capitale
dye
outdoors
ultrasonic
##zak
appoints
estonian
hypertension
pierce
proforma
staples
conductor
fractions
inches
nato
squibb
webcast
##cess
afraid
duplicative
excited
hierarchies
medically
queensland
verfugung
контакты
##branded
##fuel
chefs
saturdays
##iga
pbc
raymond
synopsys
yarns
##carious
##cyte
##posed
lac
okay
opec
orchard
preferably
##logie
imputation
verticals
##icted
##owitz
immunization
sans
##bie
acetate
biodegradable
jvs
roger
unduly
##exchange
emanating
excitement
ico
pecuniary
rcs
scenes
venezia
##tf
anne
categorised
genome
leveling
olympus
restating
straw
##eek
30table
eca
invisalign
iteration
novelties
dacia
ratification
spectra
##cious
##impairment
accreditations
brooklyn
consciously
deprived
enel
gibson
opponents
posture
speculate
temple
windsor
##osing
hobby
nutzungsbedingungen
plum
recorders
tailings
##1000
##uge
businessmen
hb
identifiers
weighed
##asis
##ific
ects
guadeloupe
njng
transforms
##cis
##erve
##lish
ohsas
##ssen
##was
bare
orthopedics
sn
##rogen
##tum
countervailing
hemisphere
integer
interfirm
operatives
##berries
##erate
bissau
icd
mad
multimodal
ndings
##gis
##ную
highland
kaliningrad
masses
ronald
s3
submits
##iate
##products
##ust
##ти
destined
institutionalized
nuestros
##ervices
##mper
bug
newton
pessimistic
prohibitive
syndicates
##lessly
24h
anthony
collinearity
hcp
insist
lebron
lengthen
morrison
nw
##orized
christensen
churches
diesen
idx
lq
resemble
sawmill
smelting
tome
vois
##zie
dispenser
kill
rex
shelving
unsubscribe
arca
dort
fostered
spouses
textbook
##orio
##wich
clips
deer
dresses
lao
mckinsey
repositories
santander
serbian
trainer
webmaster
##earnings
##gler
amplified
falcon
schema
sichuan
valence
condemnation
erent
salads
separates
certifying
firearms
protests
wes
##acity
##ис
colorectal
dominica
ide
wordpress
basf
chester
conforms
employability
latex
rides
wallace
yesterday
##nca
##nings
##srl
bornhuetter
cnas
informacion
insbesondere
vanuatu
##μ
diplomas
karl
sollten
alkali
boulder
greene
midway
retrocessional
songs
##rooms
bolt
lenovo
ocs
platelet
##cient
abandoning
matt
neoclassical
nevis
postgraduate
repos
42table
elevation
palermo
pioneered
regressed
vpn
longstanding
republican
##iled
##loc
##map
##troy
inadequacy
##katu
##rington
##ronic
##thy
gastrointestinal
hollow
olympics
transcription
signifies
sofern
wings
##ск
contradicts
effluent
genannten
luo
mandating
schlumberger
scp
społka
craig
interrelationships
mains
sorry
weee
##ament
cannes
gelten
nasal
nautical
stipulate
sint
sofas
##iy
butane
departing
gestellt
harbour
latvian
lizenz
omsk
parish
rid
##phic
##mn
29table
fis
grassroots
prudence
worried
##bid
##gno
##grade
aren
diligent
gasification
nutzungsrechte
shipyards
trended
##lization
abweichend
anticompetitive
dependant
gewahrten
oligopoly
verfasser
xm
##bbs
##outstanding
##vice
capitalsource
cvc
disregard
dl
subtracted
bangalore
facultative
hdd
malaga
sabotage
##tisation
ccsenet
desalination
entropy
mcs
mediates
##cript
##rators
corporates
generational
lamb
ows
regimen
gram
##eric
clip
ducts
h6
kurtosis
lbs
repealed
##hle
##operations
##rch
##uld
brilliant
indexing
intertemporal
sunnyvale
##omics
43table
arden
ares
causation
confounding
horn
subscribing
tk
##tina
alice
bankcard
paintings
rahman
voivodeship
##uz
##ysis
capitalisation
csd
emu
fixture
grip
##ools
imprisonment
serum
swimwear
tow
##mble
congratulations
ingram
jeffrey
troy
wrongful
##ными
avail
cannabis
maxim
smokers
sulfate
sweeping
westfield
##cco
artisanal
derivation
fmcg
formative
funders
textron
coats
decentralised
dementia
endorse
hometown
kodak
primus
##borough
##foreign
##zin
illegally
##tep
cummins
liz
работы
##inge
lauren
lotus
peters
uno
wallboard
chest
critique
giuseppe
remington
resonance
spearman
waterways
weston
wrongdoing
##itas
##june
##zs
##ер
drag
electrode
##days
##dler
##reet
cpe
evs
fried
kiribati
lcc
legale
luxurious
pins
precondition
##asse
##oot
bootstrap
buttons
carlton
coleman
filtered
pf
preexisting
prominently
purposeful
srs
tonga
armored
benches
bruno
docket
sahara
ud
##kowski
kt
phelps
qwest
##bud
##dh
##unt
ate
barely
eaton
gaz
mx
##channel
##reporting
##vent
ortho
petersen
rugby
##fect
##piece
##quo
inox
##rder
appointing
consumes
tele
gaskets
kerr
renegotiations
sdc
fever
shortterm
##dies
##metrics
##variance
acmi
ef
jazz
loral
microprocessors
canton
droughts
redeeming
singular
subsets
##ression
4x4
judiciary
scc
schumpeter
sebastian
voor
##asset
ambidexterity
energetic
idling
publics
##may
##otic
faire
hybrids
personalities
##ash
##builder
##mw
##tance
cournot
paetec
zona
##virus
averagerate
avnet
contradict
dtc
##td
##yal
averageyield
buckets
coventry
f2
fame
invariably
m1
ssd
suv
как
##sted
##uff
booms
cmp
johns
mellon
nuovo
convexity
##eys
##ют
catalogo
nci
reallocated
1930
abrasive
carbide
descending
ncm
pietro
tms
##ime
arnold
easement
levies
peruvian
selectivity
uence
##ault
##ffer
alicante
arenas
grams
##им
embedding
influx
ky
speculators
traveled
##count
##gger
climates
endo
mariner
wald
##erv
amplify
arable
ari
clec
caravan
rope
thrust
thumb
##rno
calm
dfi
micron
padua
##iam
##ued
loe
macroprudential
trolley
cornell
drc
lambert
middleware
tata
wellington
xiii
franco
harley
mallorca
naaqs
sauna
tapping
##hman
##sions
ajzen
intensities
multipurpose
sect
##blue
activitiesnet
greening
welcomed
##district
bedford
boutiques
finger
hyper
jit
programmatic
##iac
28table
flue
grateful
keyboard
referencing
##olin
##rona
administers
ffs
informativeness
licences
logically
memo
chung
ilec
inhalation
isr
sed
tolerant
##dio
##drive
##host
bunker
elites
fore
pressured
scandal
bowling
broadcasts
clerical
consummating
contemporaneously
decorations
macys
powdered
runner
##oth
bn
forgiven
##phase
bea
breeders
brooke
cos
infra
passwords
perceptual
restraints
##sive
##tom
glb
majors
oled
rigidity
viad
##zel
axle
baht
eit
necessities
styling
thrifts
##film
augmentation
biopharma
broiler
chem
enabler
##uated
bovine
cic
fashionable
mai
slovenian
therefrom
unctad
##vall
csapr
fpsc
irrigated
plotted
preemption
wallpaper
##ago
communicators
dha
imprese
tua
##cies
andersson
dyes
genre
lifelong
lumpur
plaster
royce
ua
artisans
catchment
eroded
##hima
##wald
basing
cvs
tempo
##ivator
##llar
##rome
btu
nearing
strauss
ven
voyager
##assets
##call
##haven
##march
airframe
airfreight
ebola
northrop
ritter
spc
copyrighted
fluorescent
hai
o¤er
santiago
sta
trattamento
triumph
##class
##eds
##hui
losers
postpaid
prosperous
slab
vocation
nance
puco
##stan
##ttle
##vantage
climbing
creams
entreprise
fortunately
ipod
undermined
##itable
##mera
##uary
##ите
polski
romagna
subway
validus
##current
##uni
coconut
mds
pak
trss
unidentified
##ioni
1930s
dayton
nextgen
volcker
wc
##tx
44table
echelon
galileo
hdi
hero
##vability
cmt
erroneous
explosives
grandfathered
highs
siting
stepped
surround
torre
wb
##estimation
##ор
eden
gscm
lovers
syrup
tch
underline
unfavourable
##afe
##dox
cobb
frustration
helena
piles
princess
sgi
uploaded
##hotel
##n1
##national
##qm
##unting
cache
nsf
##lica
forwarded
tatarstan
traces
##feng
##loading
##rons
bankatlantics
gom
nvidia
surf
tutte
vladivostok
walsh
cullen
filler
geometry
inclination
insurances
pra
regularity
springfield
transitory
при
##chemistry
##ieu
##tur
accountancy
folder
kunt
nand
urine
comoros
debris
depart
rossi
syringe
tex
##rco
complicate
lps
neurological
qr
seacoast
slides
subrogation
torque
undisbursed
voter
wax
divorce
ers
lisbon
mare
nuanced
putnam
##igen
##itic
##jas
cantly
radiators
tiny
tradeoffs
##nsk
##uted
##vor
arbitrators
cargoes
ecologically
hopefully
##eq
##rone
contractholder
groceries
hindering
plast
precast
webb
##ules
cheating
latency
pod
substitutability
tampere
unrecorded
##mming
##north
2g
accorded
calpine
swaptions
##fm
##lies
##ush
cop
johnston
kick
kitts
lengthening
sequoia
spider
wheeler
zahra
##strasse
expatriate
organising
ramps
xian
##dant
contradictions
cumbersome
hoffman
horticultural
intrinsically
rb
##ibe
##lide
cac
emphasises
pile
pisa
retainer
vmware
wms
##amping
##rell
##tsu
##zano
bookkeeping
lei
##tay
##льно
complementing
gencos
glasgow
ibx
mphase
transmitters
##iamo
acquainted
cleaned
uncontrolled
##atan
##ife
1932
adolescents
belonged
brc
capex
readership
##101
##iling
##lings
bolster
crunch
organise
saratov
##fg
##ngs
##quire
##rgen
##rod
badly
dessert
executes
pricewaterhousecoopers
surpassed
##nib
##rane
##ution
diodes
fu
javascript
magna
moulding
valle
##aba
##rdi
##skoe
1920
abuses
enogexs
griffith
kindergarten
kinross
pockets
stacking
telemedicine
##woods
bahama
col
laborers
leningrad
mallinckrodt
omit
pagina
riskthe
visualize
##represented
##uen
cohesive
fantasy
iurc
png
rtas
sleeves
psnh
chartering
individualism
maersk
panorama
slater
tyler
utilising
##effective
##hine
##jee
##loan
##mba
inaccuracy
polynesia
potable
##2009
##rda
matthew
rectify
##ste
daughter
killed
propel
savers
sink
##ifi
baseload
evidently
prosecute
surfactant
##ario
belvieu
rectification
sentences
##kos
abb
amid
amplifier
easiest
favourite
nineteen
scottsdale
##iec
celebrating
encumbered
infusions
johan
paolo
reallocate
bok
ftse
kings
promulgate
pulitzer
sociological
std
abi
fairfield
nonvested
shepherd
2013net
adsl
chargers
comprehension
reef
terme
trainee
##biotic
##lah
##quent
5d
avian
spatially
##bella
##nus
##oom
bri
cult
embassy
empresa
hematology
spurious
wd
##ettes
##nks
barbuda
cue
dw
viet
##stra
polystyrene
unevaluated
warmth
россии
arlp
bona
distraction
dst
ida
rec
segregate
transferability
##leta
##sent
abovementioned
authorisation
drums
isis
liberalized
phishing
sma
##arin
##nders
##ле
exponentially
##ald
##amed
##ouse
##xia
ascertained
nfl
nve
refranchising
ria
senses
##alis
##olis
##umers
believing
denomination
filers
participative
##cho
charm
chipsets
liked
numbered
shorts
synchronous
teens
twist
##git
##rner
computes
inadequately
inexperienced
##cino
bunge
cliente
flanges
macartney
nominate
punish
reselling
riskless
superiors
wagon
##category
##next
claiborne
horizontally
sofa
cor
slm
um
##cides
##ского
gompers
themed
##lou
##sized
floral
sunglasses
t2
##oulos
##нные
abstraction
adapts
installs
offenders
arrest
bod
emitting
husbandry
inviting
isos
ment
mp3
qms
##lain
##ulus
27table
incineration
visas
##menu
##yman
1929
este
investable
ith
peng
reflections
##800
##jar
##ried
##ttes
##united
ajca
civilization
harassment
lada
mysql
vet
2040
abf
autoimmune
g20
impediment
js
mimic
##x2
dirty
interchangeable
oig
45table
energie
volt
##performance
##rden
##uda
asbs
brookfield
fuji
greenville
inverters
niagara
todd
tous
yaroslavl
##3z
##ially
##льного
altitude
epic
faroe
northstar
rigorously
sleeve
yale
##ieri
##plate
##xel
detention
infancy
kirin
magnum
melt
slogan
##eting
##tka
bodywork
hubei
kc
mercer
omaha
##competitive
##psc
airplanes
comprehend
survived
timeframes
##те
homeabout
msas
poison
robin
##np
##ulia
arbitrarily
dar
domination
foothill
fullest
gearing
unesco
##eras
##kamp
##million
chancery
dsi
nondisclosure
##ives
##wang
earners
eminent
heuristics
liquefaction
perez
postponement
sicily
suppress
tehran
##hub
##percentage
##vial
##ло
cave
icahn
implantable
recorder
souvenirs
telefon
vatican
##hore
abnormally
fv
oriental
rti
skiing
veterinarians
##0s
1400
backstop
espace
melanoma
suntrust
trieste
trups
##amento
##gorsk
captain
credence
dialog
hinders
quarries
sku
##professional
##smith
altruism
enjoyable
lubricant
situ
yrs
disconnect
extinguishing
gfc
iterations
lexus
optima
pradesh
resumption
scotia
testable
assistenza
churchill
mma
newark
offensive
ores
threads
1938
avis
disappears
favoured
peaceful
redress
ted
##industry
##mbre
##pper
horticulture
##colo
collegiate
kang
reacted
stagnant
strands
yorkshire
##pathy
challenger
nineteenth
syariah
##cription
##hot
##most
##ется
dolphin
oro
stata
sulphur
##annual
##ever
##wl
bullet
collusive
degraded
divesting
haircut
informality
rainwater
sochi
stunning
subtract
##hol
activating
mmp
pmc
taipei
##char
abbvie
cai
pto
rigor
saunders
slag
acm
brushes
pavement
zao
##dee
##encia
alex
burdened
inseparable
ivan
liaison
nf
nmprc
orient
amusement
emitted
forwarders
hannover
jackpot
midst
underlined
urea
widened
##yx
hpc
johannesburg
njbpu
recharge
scana
sealants
substantiate
##share
discontinuity
edf
escalators
grundfos
hardwood
lazard
mobilized
taxis
ws
##lum
##nter
##quez
amplification
criminals
ethically
neal
percentof
tar
towels
##cute
##ishing
##nick
accommodating
baths
conservatorship
hebei
journeys
mobilizing
mss
orthopaedic
uhc
##due
##sman
binds
cie
deterring
dyer
exco
fishers
multiply
nguyen
quoting
ratepayers
##vert
mogul
nontraditional
zoo
##quin
abstracts
compost
guanxi
handler
##mount
fireplaces
kk
ordination
publ
##project
leasable
maiden
micronesia
preparatory
ras
savannah
terraces
wechat
##rey
cgi
cumulatively
deere
invaluable
invoked
##flo
##isk
##mates
##pos
##sers
##ков
elder
katowice
mario
philippe
5a
billboard
hacking
ig
lays
mentality
##activity
##elles
addressable
avaya
endorsements
forage
franchisors
hitt
justifies
veto
##endency
cfr
communicative
deceased
fancy
federals
##nces
halliburton
renews
tic
unites
amos
cadence
learns
montpelier
olson
outperformed
potency
rosenthal
thru
##illes
astra
avalon
balcony
bulbs
crc
cw
destroying
huber
##otto
##ptic
##rax
##tl
##touch
arx
audiovisual
disconnected
equalization
italiana
kahn
kd
kobe
levinthal
nk
nts
uncontrollable
##bad
##heat
##ining
##ometric
fnb
itg
msme
vault
46table
affirm
encompassed
extraterritorial
overlaps
oxidation
realogy
seizures
shurgard
##ennial
26table
confronting
jewellery
tabulated
underpin
##iving
##tators
allergic
ao
attest
haze
normalize
npp
surprised
unambiguous
unforgettable
##hire
##lver
##nko
ascs
boosted
exploits
fuse
monument
payne
roadway
##factor
##italize
barber
congruent
crt
gauges
thinly
palma
preemptive
rubin
##ingen
##linked
##pering
ecr
mechanization
payload
watt
##bili
##fine
##lg
##nged
##ports
##taking
4b
k2
mtcre
usec
consenting
decomposed
nauru
что
##chment
##metric
downloadable
elm
irrevocably
knit
preconditions
rbs
rem
##inski
##metal
##rella
2222
anger
bges
lse
reacquired
##111
##goods
##π
excavator
learner
morality
sino
somerset
speedway
welch
avocados
firenze
sundays
##2017
##lmer
##oglobin
##ologist
##сь
bic
denominations
fronts
outlooks
pastries
punching
##aga
##obe
calibrate
crest
irp
pea
sez
##2008
##fuse
##gens
aut
maple
spell
##hor
brokering
buybacks
raleigh
steer
unasserted
unexpired
##usly
ass
crowded
decrees
eclipse
sala
underinvestment
celebrities
eventi
facet
internationals
observational
overviewwe
##restructuring
##tage
blockbuster
hassan
hess
kop
woodford
##atti
##leaf
##mons
##tian
classics
contrasted
durbin
loosely
majestic
nordisk
coopetition
graphically
lockheed
manipulating
npas
schultz
seaport
##uno
coral
sui
##enta
##vita
##zard
automating
leed
lmics
sutton
unlicensed
##made
##through
##зации
births
coms
extruded
leukemia
mbpd
##aan
##ching
##ckers
angiomax
chickens
curiosity
gms
ipsum
tails
##iques
##nching
##tern
asps
broke
dwellers
ser
tpa
turks
tuvalu
##color
##dro
##runner
##ж
embroidery
heath
indebted
lorem
paved
removable
turku
##fts
##ija
##omy
##state
luna
terrestar
##fed
##ope
fodder
integrations
logarithmic
metropolis
parallels
warn
продукции
##fors
##nio
anni
bds
carbonate
commuter
densely
mismanagement
patches
repetition
vb
##eft
##uth
##zaki
drama
perpetuity
ppi
reaffirmed
southside
untreated
biscuits
kramer
paperwork
pits
vodka
##bow
##esi
##nergy
coiled
intertwined
succeeds
temp
##lav
##rds
##roc
bnp
chaired
chengdu
colony
escalated
palazzo
tesco
antiviral
automakers
gw
hugo
khabarovsk
otcbb
##floor
##lti
##metrix
##mk
##vascular
rsu
spikes
uneconomical
##has
##keeper
##upa
alters
pacificorps
savvy
tilt
##nner
##qi
aeronautical
eaf
linearly
##aciones
##cci
##global
##lsa
##quer
armchairs
hambrick
magnificent
monotonic
spoken
vittorio
wheelchair
##rise
adrs
airbag
cautiously
diode
photonics
separators
transshipment
##sina
decontamination
elk
guiana
immature
kilometer
math
parte
plgsystemrokcommon
##ilita
##months
2037
bel
couture
implantation
insweb
litter
##ending
##relli
##ения
dem
ethos
fate
freedoms
osi
retrofitting
revlon
strasbourg
yogyakarta
##anol
##bos
##cts
##firm
europes
intl
marne
noir
ritz
tram
xt
classrooms
composting
nippon
plugs
accesses
codice
commerciale
diverge
odyssey
pakistani
pills
qm
sunlight
##kka
aires
cellulosic
depreciating
envisioned
esta
maximising
mushroom
tetra
tony
##eli
##wt
clarifications
garda
greenwood
learnt
mpuc
qsr
varnishes
##essa
arrangementswe
commands
firefox
lille
pont
ros
tradestation
visudyne
##ashi
##sper
##workers
cocos
hans
hl
inert
kendall
nominees
urgently
##rial
bat
cdp
nairobi
rt001
rta
tuberculosis
vtb
##avia
##times
kern
mystery
nobody
proton
purple
rhetoric
stifel
stocked
submarine
##torial
gathers
hayes
preschool
smell
undergoes
assignee
campo
guns
helmet
planes
tbe
##prise
autoregressive
ibis
ignition
romantic
ase
complaining
disentangle
firmware
informativa
rotor
spraying
woodbridge
adversary
countrywide
eurocurrency
fertile
illustrations
palmer
republicans
rvs
separations
##centre
##covered
##spa
##ums
sandoz
tomsk
webmail
contemplating
evo
humanities
numerically
ogni
overhauls
p3
ramping
robbins
slotting
swan
##pine
##scent
##tn
devastating
fedex
logan
neon
##icia
bowen
cwa
devoting
diagnoses
ergonomics
petro
wearable
yandex
##click
##izzazione
##quity
acl
dhi
fletcher
mil
olsen
psp
puct
sei
visitation
##vera
arabic
cologne
edited
gum
legislations
rcm
subchapter
suomi
£1
cbre
cemeteries
crossroads
dti
g2
lennar
percentageof
wesbanco
##hardt
##industrial
integra
##mental
##rata
##zan
cobham
emit
ibiza
peanut
poly
pulled
roic
telematics
telescopic
##ecutor
2100
dirt
orthogonal
punch
socket
tall
ware
##erica
##isi
##issible
##mable
correspondents
dawn
gulati
kenyan
monotonically
naics
##active
beaver
deciles
hcl
millennials
nurture
##medical
##taff
##ды
anchoring
compose
macquarie
penetrating
ppt
treble
##cracies
##leys
##ube
ofs
##each
##ional
colon
fran
gearbox
newman
bdo
dilemmas
evaluative
liverpool
pal
slows
##att
##icon
##vr
47table
alu
comfortably
flora
memorable
sjgs
stigma
##cic
##¤
calgary
colleague
connectedness
emmis
reddy
varese
##eron
##nological
##nologies
berkeley
dps
fifa
francesco
paydown
pxre
su¢
uneconomic
##θ
grease
outweighed
##ficio
##tial
coe¢
energi
willow
##eks
bacon
fills
marijuana
##cross
##rre
##yuan
00€
discomfort
inject
jd
weaving
##iating
##ц
calendars
drg
ipg
telemetry
unite
cushing
enumerated
grab
rebalance
resales
sulfide
washer
##eme
##shore
irlcs
marginalized
mdi
phh
stuck
##ester
absorbs
enclosed
trio
tse
tula
##ifiable
##oping
procter
thornton
года
##grid
##itary
##marks
##nl
##льнои
antigens
carbonated
murcia
nn
refusing
##akes
##lins
bcc
couldn
gestione
metres
##gment
1936
aceh
bye
fpga
organism
polr
redeploy
sbir
adler
barrett
benjamin
extinguish
icl
repercussions
vm
zloty
##growth
##orne
bureaucrats
ctlm
curious
dsd
pri
produzione
refocus
##bau
##nny
##ogo
##olved
alleviating
autodesk
fulfills
interestincome
##cati
buenos
curtailing
hearts
kaluga
landowner
lathes
reused
sleeping
slum
taco
trasporti
wards
##kawa
##opia
##tized
25table
alexandria
bombardier
gallagher
jay
lambda
##atu
##plant
##pture
ballast
frauds
globalized
gradient
ki
rimini
uphold
whey
##ared
cognizant
snapshot
winds
##otti
enlargement
kilometres
nse
ovh
specificities
##cate
##iani
compx
ghanaian
porte
x3
##ativa
1300
bhca
bot
halted
holmstrom
iub
logistica
pressed
propelled
vf
##gative
##ror
glazed
gynecology
interagency
minors
nazionale
rainy
##dget
##elling
##rier
##tent
egus
impending
jonathan
orientated
reclaim
tribune
или
##amel
##aving
attacker
forgo
jain
lihtc
microsystems
eog
goteborg
iis
immunotherapy
leu
suffolk
##нию
arranger
atr
blackout
blvd
levi
projectors
raytheon
altruistic
billboards
circulating
idc
signify
##eka
##nee
##urized
##urne
chromatography
demirguc
emerson
ingot
stevens
cadbury
hsu
interlocking
suspending
tci
##ption
##щих
allies
atv
ciently
entre
ira
precludes
stagnation
tds
##gists
##iable
collaborated
gustav
illumination
injector
mcdonalds
offsite
transporters
ambassador
leaseholds
tornadoes
##arable
##dicating
##edi
contattaci
elicited
flywheel
hanging
nms
underlines
##arily
cargill
directorships
forks
ftes
inadvertently
jin
persisted
sicurezza
transferee
##ogical
##rdia
##ulin
##wis
##wska
homepages
rancho
##erman
##gging
##osci
ama
asx
avid
outplacement
skepticism
submarkets
##ания
freshwater
immersion
invent
aggregator
endoscopy
finders
lipid
mechanic
subcategories
vas
washed
applieds
bpr
gvc
ism
luigi
modularity
qep
##ache
clamps
decompose
gigabit
kgaa
lib
orchards
rectangular
servant
sparse
threatens
##esco
##ilia
##pring
##sso
allocative
assimilating
caicos
fide
paribas
squeeze
subsections
##add
##gnon
##omed
##rina
adept
ego
fibrosis
logility
mediators
moh
pedagogical
underscores
unproductive
##atori
##fia
calorie
epidemiological
inergy
ipuc
qnb
##eim
##elis
##hong
##tars
agarwal
nic
pasture
patentable
prospecting
reilly
tunisian
veteran
##cad
##ymer
estimatesthe
gatx
gtl
opacity
swine
##cier
##oga
adss
comedy
offense
vmi
##fis
abr
bcbs
burton
dvr
hogs
rohs
##certain
##nze
##owy
californias
connotation
exemplified
nurturing
olives
overfunded
recognising
banquet
complained
groupage
mylan
rabbi
sloping
soluble
colombo
contentsresults
dislocation
luminaires
mechanically
parliamentary
pasadena
spurred
##rz
##therm
deflated
ibc
nutritious
rescheduling
ryder
tcfs
tpb
waterproof
##cience
##hone
##liner
##osis
##raf
##rain
##read
fieldwork
handmade
orebro
qualcomm
smc
vacating
##dynamics
##eis
##graphs
##imento
##sources
##valent
arbitral
bulletins
calories
cfp
confer
disqualified
fgd
janeiro
lublin
mcc
medi
phosphorus
rmc
##lude
##сти
augusta
initiates
selector
vacate
##eus
##tio
breweries
engle
fhlbny
ilecs
maui
miner
sporadic
summarises
ter
##iu
accustomed
aso
competed
dmu
grumman
mariana
neglecting
reformed
rescind
##office
##ел
24th
angelo
cobra
cork
eradication
haas
mosaic
retaliation
saxon
stearns
##gu
##nf
##ponent
atdecember
chongqing
lineup
montserrat
ohs
punished
treasure
##eser
48table
energyplus
rga
roberto
undermines
##cola
##finder
##gold
##hab
##portfolio
##sier
epidemics
radiological
specimens
tsi
warrior
##sibility
1937
dalian
jumps
koch
npos
polls
trousers
underpinned
zimmer
##150
##vue
confusing
empowers
freeport
inhibition
leeds
mayotte
ofloans
##3c
##gat
##sf
2012net
bon
dmc
enclosure
hallwood
hiking
interviewer
oximetry
stents
stressing
##zyme
axial
chipset
grenadines
harmonize
pfeffer
smmes
testosterone
##360
manifests
monuments
playa
totalloans
##dera
##igan
##koff
adi
backhaul
claessens
ghz
ji
marin
##voy
##vp
anguilla
bos
commonality
courage
imp
silence
##ecutive
coordinators
nail
wwe
##hk
##logia
##nels
##terra
archipelago
coarse
forwarder
inns
scf
##expenses
##impact
##nut
##percent
22nd
aggregators
amenity
comm
contends
ftas
haulage
irreversible
levers
modality
rtos
staged
##jer
decker
kpi
notifying
policymaking
radial
theoretic
##etermined
##imate
##цию
examiner
exxonmobil
iso9001
sempre
также
##dration
##kovo
##rint
##кции
abo
antilles
crossover
lorillard
ribbon
##qualification
##vets
arg
cadiz
icons
lund
manifestations
miguel
myopic
sanders
sante
##isan
##pension
##tical
adheres
arterial
assures
reads
silo
truthful
##lov
##rsi
blockholder
chaos
harmonic
hovding
insensitive
ld
lymphoma
adf
conveys
mpeg
stc
##fare
##meier
aosta
attivita
cendant
gale
lignite
nullifies
prism
saga
##beck
##fra
##gang
##opus
##reported
##rice
##sas
bac
barr
bhcs
cannon
disrupting
diverting
generex
liners
midnight
novation
pla
prahalad
unfilled
##czyk
##hoven
##pot
archived
ipm
lyondells
nonaffiliated
ur
venturing
##check
##chs
bituminous
crossed
eec
hamp
industriale
isi
mdc
outweighs
simulating
typologies
interchangeably
##erna
agence
cso
envision
leonard
solicitations
stendal
##ivated
##uis
##xon
2sls
cartons
compiling
contentsindex
mfn
philosophical
saskatchewan
subaru
tnmps
ito
machined
systemwide
##mr
brexit
cdd
crush
malang
modernized
nace
npf
n°
registro
rescinded
##cally
##ktor
##lion
##significant
##uard
caliber
indifference
navigator
notebooks
sacrificing
surfactants
##had
##pts
##razione
##tman
cage
centrum
ebt
impurities
lai
retransmission
##blo
##xp
candles
carlos
centrifugal
firstenergys
lifes
nuevo
praise
remembered
sheer
tangibles
##egy
bailey
devry
ebrd
erbitux
suspicion
terminaling
unambiguously
##marketing
##pcs
efa
monolithic
##bee
##quality
##uo
actavis
atypical
converse
diplomatic
dysfunctional
newborn
ravenna
tesoro
##kou
##utz
##му
falkland
hitech
msw
pumped
tunneling
##ounced
##traat
baton
brady
breakthroughs
fti
kohli
overstatement
sonic
stafford
usps
##rri
26th
49table
accumulations
airnet
chromium
cocktail
corresponded
countless
fiveyears
gronroos
institutionalization
leaching
notch
quinn
senza
talked
##contacts
##esis
##hg
##ype
##лы
asynchronous
bu
cilcos
offence
##vage
basement
coalbed
di¤erence
duck
pcm
rh
##ahan
##content
##лов
constrains
crawford
d1
disappeared
moss
settore
##ergo
##party
ana
analogue
demsetz
gardner
jonkoping
polluted
rey
supplementing
tasked
##gned
##hof
##oda
##pieces
0100
andas
legislator
recognises
shine
##conferencing
##orship
##ovi
##rino
caveat
cremation
dispatched
embraces
ferrellgas
rupees
titman
##igent
##nit
##ены
5g
biosimilar
oneself
tug
walks
##aits
##olution
##omer
immobilier
lip
overseen
sdn
stdclass
##culate
##mania
0331
breath
mosquito
mva
predictably
reacts
##cini
##lik
##lized
aigfp
earths
lapsed
tenor
undermining
useless
6a
allograft
canary
folk
hancock
mast
polysilicon
superannuation
##atis
accrediting
dysfunction
frontiers
headwaters
hermes
inferential
playground
unabsorbed
##guan
##heads
##sus
deadweight
manipulations
portrayed
superb
trentino
##orb
##otal
##urity
aq
counterclaim
opco
phasing
threaded
##ecs
breathing
cig
drydock
francois
insufficiently
kms
layered
movable
optimizes
sapphire
##rce
##тия
bmo
boosts
disks
flawed
genova
sefservicemap
substantiated
##eman
##feasible
##logies
##mona
##nah
atks
harmonisation
insightful
perils
preston
projector
sberbank
setters
settles
slurry
sorghum
stampa
##120
##camp
##ciliation
##eland
##icating
##illon
adopter
buildup
eti
indians
ivillage
monza
opuc
proximate
superintendent
##ours
cma
guernsey
hut
jo
lined
oakland
reopened
ruby
vix
wmeco
##ads
##fn
##kus
##llas
##yon
artifact
odor
swu
##rting
##ı
24table
agosto
robertson
tlc
unimportant
valentine
##graphers
##payments
##shed
##ssy
##take
##tting
##vail
attaching
calidad
conocophillips
cylindrical
equate
hoping
intercontinental
resp
seedlings
yokohama
##cards
##icor
##onic
barth
rpii
salesforce
sediment
tolerability
warszawa
##atech
##ends
espresso
mint
monica
nuestra
subgame
##bot
##electric
##ody
##oux
attainable
fastener
hung
oversized
redeployed
sous
teradata
verso
##icz
##ishnan
##oking
##wb
almond
geospatial
imperatives
macchine
numeric
ovarian
panoramic
pbs
voir
##linx
##nom
##rsa
##rsky
batu
deviating
durham
johansson
manor
neonatal
rooftop
singer
speedy
##bation
##orative
bai
buckeye
duo
erik
fillers
inventive
rangers
transmontaigne
tre
##acing
##bm
entailed
giorgio
ponte
##pted
esperienza
fss
rupiah
terrorists
##locks
##nay
##vskaya
ba1
recruits
renters
shades
uan
veins
##ager
##mina
##uka
amerigas
bananas
dbprice
hardening
pepsi
photographic
psychosocial
sincere
utmd
defender
higgins
insecure
tcp
unsubordinated
##encies
##heer
##rted
dispatcher
dom
lit
nanjing
poc
replicating
shade
turnarounds
##ppy
##tops
charcoal
drs
eda
img
maxi
needles
prescriptive
stratification
##rard
##rest
##yson
aired
altria
concise
cwt
datasheet
disadvantageous
elliott
enacting
invasion
kcs
procurements
seized
vitoss
##urer
1939
adhered
amnesty
casualties
dte
fascinating
nonparametric
##2007
##ctive
##erty
##linity
discharging
sheffield
willis
workovers
##pex
##vey
hypermarkets
layouts
renegotiating
transferors
traps
##bergen
##cv
##rana
articulation
celgene
davenport
drm
enbridge
legendary
lombardy
microbiological
staar
##coat
##eux
##gains
##yam
4d
allah
defended
mastering
nds
ntt
overlay
vo
##чение
advocating
aromatic
dtv
inauguration
saws
sticky
tableware
##mouth
##ungen
1031
chin
cowen
downwards
impeded
##alia
##meo
bnsf
breeds
comercial
eastman
heroes
inelastic
linde
prosper
tecnica
##eat
##facility
##rious
cashing
herbicide
impeccable
mffo
precursor
punto
##asi
##eet
booklet
domaine
ethic
gls
mondo
movers
offenses
supersede
unico
##overs
##writing
##yk
##жения
animated
laminates
magnified
rg
starwood
transponder
##fb
##fx
##oding
##sai
##uu
conceptualize
goodman
grantor
pdvsa
scrapped
sinks
woodland
barn
berries
conceivable
concierge
deviates
eleventh
hyperion
remic
sjg
smiths
##feed
##ве
ascent
ccps
delineate
milking
mws
tester
##functional
##pert
##rology
commute
freezer
gmib
outlying
ricoh
sis
struggled
tolls
##ffin
##oxin
##that
carey
eureka
formwork
libyan
percentiles
tuv
##dry
##nya
##са
apm
classloader
gaseous
palestinian
pertained
px
unsure
vidler
youths
##kker
litigations
patrol
quorum
spb
vita
withholdings
##lop
##prior
bk
bladder
christi
distillery
laura
libo
oyster
regret
submersible
##ucible
arellano
ils
ocb
wilma
##wley
##ность
0400
artery
banc
chimney
cites
sticks
vms
##nton
##ondo
##rite
##train
hpv
oraz
unpledged
##lte
50table
coexist
devaluations
oceania
ofshares
performer
##ices
##netic
exploitative
formalize
mact
prologis
vernon
##bbies
##but
##dian
##family
##rne
cooperates
daytona
discourages
grained
laurent
postulated
##fab
##icide
##ike
##oal
##vos
collaboratively
mentors
mep
nonaka
puglia
receptive
rosen
##dicated
##vasive
angels
apl
cei
crafted
dhaka
entitling
highlands
neurology
persistently
amg
burke
combi
dayrate
decentralisation
evaporation
helsingborg
liang
malt
proudly
sumatra
##omp
canonical
compromises
dole
nac
##aling
##deferred
##hid
5b
foundational
itineraries
ladenburg
ldcs
levin
presume
summers
woodworking
##ginal
##ческих
cabot
disgorgement
illuminate
jaworski
lisa
tnp
zanaflex
##esta
##his
##за
campania
deprivation
homesites
primo
remediating
simulators
toxin
ye
##ground
##h00
blacks
catania
chlor
espoo
h7
lusch
pep
supranational
equated
generale
itinerary
params
pulling
rays
redirected
vectren
vsat
waterfront
xp
zaragoza
##kat
##wp
canadas
exhibitor
inet
justifying
newness
##filtration
##hti
##icoli
##pre
##t®
##zole
bsm
desde
embraer
jpy
pushes
representativeness
stepwise
##cale
belmond
boise
hoods
hopper
mia
polished
tradeshows
##lec
##rle
##ктов
cco
disregarded
eller
magyar
mig
pinedale
quaker
rad
reinsure
waterjet
##bino
##itant
adm
categorizes
fayetteville
meadows
opined
siena
treadway
apportioned
extenso
mastered
oa
sfa
##far
##gaard
##iri
##koe
##mour
##pie
alibaba
andre
colgate
ik
reviewer
##cable
##uila
##вка
countercyclical
strings
westin
услуги
##choice
##eners
##eris
hardy
mayo
pyrenees
residency
surpass
transocean
tucker
##lev
##tested
##umer
arrows
dci
recalculated
wetland
##graphics
##qualifying
bhattacharya
carlisle
elevate
maggio
mlp
##chia
##jb
##tong
##tral
##тие
alzheimers
burners
catholic
cozy
gastronomic
intensifying
ko
lifespan
trc
tria
##bull
##ilian
##вления
oop
sally
scans
surrogate
zebra
##nating
##ntino
academicians
credibly
giants
shortcuts
styrene
suppressed
unredeemed
##dn
##grapher
##lley
##nsky
cir
elena
fictitious
krone
responders
##bear
##formed
##mission
##realized
##ень
##た
booming
dev
eip
havens
merry
r1
ssm
worries
##done
##effect
##meal
##zzano
##る
boardwalk
briefs
cafeteria
charming
exchanger
harming
portsmouth
prorated
refugee
replies
rims
smt
teledyne
##kip
##sr
converges
invoke
moderators
nerc
obligates
settembre
vent
voyages
wabco
##gley
##hara
##llon
collaborates
congresses
flanders
ldpe
nathans
seeding
separator
##cchia
##rsing
##ulsive
brevity
greenhouses
kemerovo
nsps
ob
riskour
secular
stove
subleasing
tugs
##ega
##gata
##hora
##lease
analytically
bba
conservatively
faceted
influencers
liking
paas
petty
shenyang
stats
xxx
##bol
##cumber
##sure
0444
cls
kirov
nonconsolidated
scanned
ssb
unum
yoga
##bay
##cil
##tha
##true
##woven
2011a
conservator
e1
njres
o¤
pike
stm
tuned
wasn
##bex
51table
gcg
hinge
tipo
transferees
detachable
ferrara
harp
jenkins
sulla
taxeswe
unify
##markets
a6
biochemical
dynegy
gala
ration
##ciated
##iency
##nium
##ronica
##structure
##tart
bootstrapping
deliberation
monoline
nbs
nest
osteoporosis
##cd
##dium
##lse
##oning
##ами
adhesion
commuters
democrats
dismissing
iea
interregional
normandy
purpa
routed
##cline
##itation
##rave
##σ
bard
carrefour
charger
csx
fdc
gadgets
kl
manila
nicotine
parsimonious
vertex
##eas
##eira
##hos
abdul
burt
cagliari
modigliani
##bolic
##cated
##fluence
80s
enjoin
freelance
hoffmann
hrd
ly
mango
##beam
##kv
##xing
2015a
drugstore
fog
insignia
kenny
leonardo
niue
rnai
sont
##elman
##endeddecember
##mere
##ratio
brachytherapy
colorful
fiction
lamar
noncontributory
pses
punctual
stp
validates
##tens
chandalar
cliff
coincided
hicks
npi
stressful
sunny
tuo
##cors
##rban
##ники
comverse
deception
equivalently
feeders
interoperable
knives
restrain
transplantation
##arra
##lice
##unds
##ups
circulated
coworkers
hris
ian
lcm
pgm
practicality
ren
subdivided
tot
##cribed
##economy
##edo
##idge
2010a
28th
3c
brt
embark
incapable
nyfix
overweight
roc
##aring
##fter
##rso
crazy
fung
middlemen
picks
qc
vegf
оборудования
##2006
##culation
##ride
coexistence
condizioni
dashed
hilfiger
jams
natura
peptides
rhythm
spells
sugars
syrian
##2n
##here
##lais
##lytic
##wei
cag
emr
expedition
idec
plateau
primer
therapists
##ciation
##pta
##zero
fei
hcc
necessitating
tncs
utc
##idian
##partner
athlete
beet
convertibility
dai
gabriel
gds
hirschman
nsw
receptors
regressing
tg
vt
##allocation
##erent
##lants
##mit
##phones
##rop
bets
resolves
rolex
siegel
thriving
##acks
##felt
##mab
##olve
##pose
##umab
##yd
23table
aix
biometrics
cce
crossings
dalla
datastream
ist
shane
wh
##kit
commercialisation
dcc
eugene
func
ken
ota
purified
tco
transfusion
##ays
##dx
##tiv
backlogs
bent
biomaterials
contraceptive
finer
fresno
pixel
rumors
winston
##bulk
algorithmic
atex
conserving
elapse
lax
montpellier
ssc
therm
wattenberg
##financing
##ocor
ara
constructively
hdpe
kahneman
patio
veba
##iral
##ruct
##vement
##вки
antarctica
discriminating
emulsion
instantaneously
lsp
microbiology
microphone
schwarz
##ract
##sler
##uite
amortizations
cartels
conferred
duquesne
edisons
excursion
pat
retardant
sandwiches
suffice
waterway
##alize
##anca
##ecom
##groups
ancona
ata
bates
burial
caesars
configurable
gpu
infill
isaac
meteorological
multipliers
statics
ugg
unrated
yamaha
zenith
##iles
##lz
##pas
bain
cbt
hats
hewitt
hopkins
invalidate
kogut
sightseeing
stepping
usury
##ulo
bistro
ck
counselling
dentist
everest
geotechnical
grooming
hop
imperfectly
manning
mbps
reprocessing
##rtle
##vised
baum
fiesta
neighbours
portray
removals
scrubbers
sorrento
uncollectibility
##metic
##ough
duct
martino
theses
upholstered
vera
##charge
##lana
##pat
##september
##ни
delegations
eigenvalue
itu
overstate
technologists
trash
##arth
##mma
bekaert
brine
crystals
denials
futuna
instituting
strange
sweaters
vocabulary
winch
##bf
##chy
##ign
##uman
##wf
overcollateralization
palestine
prefix
recs
tackled
##llers
##vat
abn
encapsulated
generals
weeds
##clear
##esse
##onix
##uced
2013a
effi
navigating
payo¤
pic
piceance
redefine
tillage
welders
##carrier
##chan
##country
dunning
grounding
holly
ke
nagoya
stereotypes
submarket
unification
##lique
##urable
##yra
conditionally
downhole
iib
isolating
quotient
rtl
##emi
##ind
##uches
##vina
almonds
doha
eluting
engel
greener
hsr
moines
nose
showcases
src
temptation
оао
##ear
##hotels
##pet
##rland
infringements
kfc
lars
nancy
neil
reps
rob
spencer
##hield
##mide
##uba
boating
camel
impeding
pdi
unimpaired
##umo
##where
abolished
capitalizable
complicates
insecticides
nhis
smd
speciality
trough
zevalin
##ems
##enburg
##nea
##order
##vata
glen
iberian
maa
ppc
prompting
tactic
##3⁄4ð
##psing
##sio
##wel
abrasives
accommodated
algae
barred
belgorod
bolivars
boycott
entertaining
msp
packers
plethora
underperform
unexplored
unwind
##ampton
23a
bss
mmcfd
numero
smi
##liabilities
##oud
##ulatory
##unda
##urability
##vex
grc
milgrom
offences
snl
veneer
##fos
##mad
##video
##week
acoustics
butterfly
intelsat
legales
millenniums
nails
ofdecember
uah
whistleblower
xyz
##ames
##lich
##mir
##tova
##чения
acqua
closeout
meccanica
obscure
sdi
stemmed
topology
yorktown
##ifer
chiron
georges
housewares
lazio
livorno
melamine
mpa
poisoning
porous
reimburses
sad
sockets
tpl
##fruit
##jac
##sca
##vid
##weed
bleeding
calabria
eac
hash
virtuous
wilcoxon
##heet
##millan
deplete
educations
fgls
horeca
peasant
pensioners
pico
plymouth
whatsapp
youngest
##arf
##cje
##comparison
##mps
##rand
##tica
communicable
costar
demutualization
lpt
sgs
sobre
struggles
szczecin
##bond
##msa
##sic
##tutional
30pm
csl
daiichi
egp
emeritus
kontakta
mira
ostrom
pmpm
ramifications
sneakers
snf
uncollateralized
##investing
##uja
altai
anchorage
bpu
internalized
operationalization
placer
tightness
toner
tutorials
##gine
##lee
##ию
0522
benevolence
clayton
eau
oppenheimer
pda
shen
sloan
##enter
##rro
##unch
##vale
albums
emotionally
ensemble
epam
flyers
milton
pfs
souvenir
ugc
##nke
##osh
##trable
japans
lec
lecturer
lipa
##jekt
barring
catalina
digestion
medians
##gating
##rath
##ляет
cem
fbr
fledged
incentivized
inhibited
keiretsu
marconi
psoriasis
sketch
synchronized
vente
wastage
##dermal
##elin
##post
disturbed
fpa
physiotherapy
prato
qu
recruiters
ricerca
samuel
umea
winchester
wouldn
##aar
##ential
##ifs
##open
##otion
dalton
frederick
mta
prodotto
reis
trustmark
##onies
##recht
27th
motorhomes
mrc
nonstandard
sanctioning
uncollectable
вы
##coli
##eil
##tts
##wig
##β
carts
cordless
ddr
dive
donaldson
fred
georgian
inconsequential
piper
srp
stockpiles
##tability
##vit
apprentices
ecu
enrico
explorative
fang
gearboxes
granules
handbags
inaccessible
marques
philosophies
pta
queens
smp
sonoma
t3
##lled
##upon
biomed
conductive
goldstein
headlines
modernity
modernizing
nucleic
pei
quattro
seville
##enko
##llc
##onto
##ации
2014a
cataract
jason
##mz
##uct
##ен
##льная
##ую
2012a
52table
dormant
dv
earmarked
ebook
edgar
kid
magnets
ofnet
recursive
refractive
rmg
terry
##engineering
##search
##sters
##style
1942
betterments
generalised
lauderdale
roasted
vehicular
wrapped
##ccion
##hringer
##mill
beginnings
breakers
kyocera
netrevenue
ombudsman
##partners
cao
dare
dfc
diffused
farther
g3
mooring
reels
shortcoming
spreadsheet
unpleasant
##lves
##maturity
##rada
##га
29th
acne
austerity
aws
bebchuk
climb
congoleum
cryptocurrencies
discern
etre
gini
itunes
jse
mhc
minimising
mom
painful
spice
tallinn
wpsc
##agra
##imed
##lv
##pec
##rics
contactless
culmination
gnp
offre
steakhouse
##nock
##vil
##кты
##ч
assemblers
e3
fertilization
ges
lessened
pcaob
steiner
tooth
udine
##кая
denoting
lid
medimmune
przedsiebiorstwo
qi
redefined
##omi
##resa
##sity
chesbrough
dichotomy
od1
od3
relinquished
°c
##ension
##lining
##ndon
##wson
##ymers
ang
effectuate
ideals
itv
mems
paclitaxel
##lfi
activations
celebrations
coe
darussalam
inhibits
linkoping
ussr
##agawa
aiding
ax
bow
contemplation
iprs
miquelon
newbuild
nordstrom
overwhelmingly
peel
radiator
rheumatoid
##cover
##lessness
##pg
##чных
contesting
inquire
leaflets
rockies
stena
##bound
##ultural
##yde
amateur
antioxidant
bust
displace
drones
furtherance
jewels
metaphor
operationalize
redesigning
redirect
replied
reportedly
shores
umc
wellbore
worship
##enol
##llis
##voking
##you
aon
carers
tournaments
uncompensated
##vention
dyad
halo
monetized
sofia
terex
##ange
##bein
##bell
##bies
##yers
##ики
ambacs
hindsight
litigate
pretest
tompkins
##ading
##beth
##ln
##zor
caspian
delineated
elearning
lode
##aking
##cka
##clair
##ksi
##minster
discourses
janitorial
repossessions
rho
##dot
##oles
##scopy
##station
feldman
generosity
goats
olefins
##250
##inc
##kte
##udes
##worm
amenable
artwork
beneath
bitner
credential
palms
paragon
rethink
tempe
tor
##erk
##tters
##ughton
conceal
conjoint
contentious
impairing
nab
nanometer
od2
pcbs
wallets
##arna
##eton
##lten
##svik
##usion
##zionale
##ентов
continua
madden
magellan
movado
remarketed
seam
teas
##biotics
##conscious
##dyne
##inone
##lication
##oss
garlic
juniper
lafayette
nie
skeptical
wheeled
workwear
##itol
##rici
##versal
fpgas
gu
meer
nfs
racetracks
repeating
vantage
##uh
beverly
dia
fukuoka
headphones
jurisprudence
literate
lively
nuestro
polycarbonate
strawberry
substantively
tas
##rging
agrawal
aquila
bei
daytime
dick
flourish
formalities
involuntarily
lanvision
martins
offerte
overlooking
penang
reconnaissance
rollforward
salisbury
salts
##bard
##federal
##lead
##pier
##ystems
3500
concessionaire
faithful
fratelli
ghent
kogyo
theirs
##auto
##dard
##iger
##rak
##torp
alc
brics
centralize
eft
firewood
overpayment
perth
##gli
##jen
##loo
##ления
alberto
canine
flavored
genuinely
unclaimed
##br
##bson
cryptographic
fleming
gmwb
ini
norman
tide
##efer
##grove
accueil
auburn
capri
cbiz
coopers
gruber
journalism
lyric
pz
soluzioni
zalviso
##lution
2007a
ici
jel
kalmar
presse
##forest
##ired
##lma
##mira
cae
handy
holt
iras
nonutility
playback
reorganizing
tout
##surgical
heap
testers
tolerate
trendy
westinghouse
##cb
##cchi
##lios
##uded
bls
ewom
inaugurated
kpp
nineties
outpacing
##dep
##founded
##nology
alternating
cia
emi
envelopment
hostility
kingston
malignant
middletown
nycomed
piacenza
reestimates
sentiments
softbank
##kind
##securities
##thermal
championships
halloween
killing
lbo
nonferrous
omd
repertoire
slums
##reich
aspx
cgp
dop
ete
holmes
michelin
preferring
savoie
scent
speeding
##ckman
##gles
##hamn
##rico
concomitant
hines
inmates
observatory
snake
survivors
области
##holdings
malnutrition
ott
overinvestment
salespersons
sclerosis
subsidization
tenerife
vastly
verifies
##700
##nav
cea
penetrated
rabbit
##q1
##ном
giugno
inadvertent
pbr
v2
yunnan
##eps
##sha
##xio
arabian
brennan
identically
juicy
lcos
massa
maxwell
qingdao
radiologists
respectful
subsidizing
tesla
ville
wealthier
##px
assurant
aston
attaches
awp
bkf
briggs
goldberg
hiding
nsd
nyc
ofrevenues
reissued
shedding
tropicana
tsai
##cube
##oxi
##tab
10000
communes
metered
occidentals
patience
standardizing
transporter
##ivities
##litz
##tizing
##uzzo
adjusters
ismail
pip
signatory
##atin
##clave
##gates
##iability
##pical
##unce
birch
chs
ecs
markwest
marrow
salmonella
sow
stuttgart
##forms
##kens
bagozzi
bcs
carb
carloads
dearth
grayling
gsp
mdt
parenthesis
[...]
